<pad>	0
<unk>	0
<s>	0
</s>	0
he	-0
▁t	-1
▁a	-2
▁s	-3
▁w	-4
nd	-5
▁the	-6
ed	-7
▁and	-8
▁b	-9
in	-10
▁to	-11
re	-12
▁h	-13
▁c	-14
ou	-15
▁f	-16
▁wa	-17
it	-18
▁T	-19
er	-20
▁l	-21
▁m	-22
▁d	-23
▁p	-24
▁he	-25
om	-26
▁o	-27
▁was	-28
▁The	-29
ar	-30
is	-31
ing	-32
at	-33
ay	-34
il	-35
id	-36
▁g	-37
en	-38
▁S	-39
▁ha	-40
▁n	-41
or	-42
▁sa	-43
on	-44
an	-45
ll	-46
im	-47
es	-48
▁"	-49
▁th	-50
et	-51
▁it	-52
▁=	-53
▁H	-54
le	-55
ot	-56
▁in	-57
ir	-58
▁her	-59
▁They	-60
ow	-61
▁She	-62
▁e	-63
ver	-64
▁He	-65
ut	-66
▁+	-67
▁.	-68
ck	-69
am	-70
▁said	-71
▁y	-72
ld	-73
ri	-74
▁u	-75
▁st	-76
oo	-77
▁I	-78
ce	-79
▁L	-80
▁r	-81
▁be	-82
ve	-83
pp	-84
▁she	-85
ith	-86
ad	-87
ke	-88
ked	-89
▁with	-90
▁of	-91
ily	-92
▁you	-93
▁so	-94
▁B	-95
nt	-96
▁O	-97
ig	-98
▁on	-99
▁On	-100
very	-101
▁|	-102
▁had	-103
st	-104
▁his	-105
▁Lily	-106
▁we	-107
▁pl	-108
▁that	-109
▁day	-110
all	-111
se	-112
▁they	-113
ch	-114
▁mom	-115
▁up	-116
▁for	-117
▁M	-118
al	-119
ent	-120
▁an	-121
out	-122
▁A	-123
ould	-124
▁play	-125
▁li	-126
▁sh	-127
un	-128
ound	-129
her	-130
▁re	-131
my	-132
ly	-133
ome	-134
▁happ	-135
▁is	-136
▁sm	-137
itt	-138
▁want	-139
▁k	-140
▁ne	-141
el	-142
▁very	-143
ra	-144
end	-145
▁as	-146
▁wh	-147
▁not	-148
ht	-149
ime	-150
▁do	-151
▁time	-152
ore	-153
▁there	-154
▁were	-155
▁It	-156
ittle	-157
▁but	-158
."	-159
▁little	-160
▁J	-161
!"	-162
▁fri	-163
ack	-164
▁happy	-165
▁friend	-166
ide	-167
ec	-168
ry	-169
▁saw	-170
▁big	-171
ter	-172
ake	-173
▁One	-174
ug	-175
ur	-176
▁loo	-177
▁bo	-178
ul	-179
▁them	-180
▁go	-181
▁se	-182
ved	-183
ic	-184
ill	-185
▁Ben	-186
▁Once	-187
▁lo	-188
▁Tim	-189
▁ex	-190
▁smil	-191
ind	-192
rom	-193
ard	-194
▁their	-195
▁sp	-196
▁too	-197
▁out	-198
▁j	-199
irl	-200
▁are	-201
um	-202
▁at	-203
▁girl	-204
▁him	-205
one	-206
▁could	-207
▁wanted	-208
art	-209
▁Tom	-210
ain	-211
▁have	-212
▁upon	-213
ame	-214
as	-215
▁le	-216
▁W	-217
hen	-218
▁all	-219
▁can	-220
if	-221
hing	-222
?"	-223
round	-224
hed	-225
▁went	-226
way	-227
▁did	-228
▁smiled	-229
ght	-230
ick	-231
▁friends	-232
lp	-233
op	-234
▁no	-235
are	-236
lo	-237
ach	-238
▁kn	-239
▁But	-240
▁asked	-241
ood	-242
▁help	-243
ark	-244
▁back	-245
ie	-246
ice	-247
omet	-248
▁fun	-249
You	-250
ro	-251
▁ro	-252
▁al	-253
ag	-254
ure	-255
▁from	-256
side	-257
▁say	-258
get	-259
▁man	-260
amed	-261
ue	-262
▁see	-263
own	-264
elt	-265
▁somet	-266
▁sc	-267
▁like	-268
▁some	-269
dd	-270
▁looked	-271
est	-272
king	-273
▁felt	-274
▁me	-275
▁around	-276
ful	-277
▁fa	-278
▁wor	-279
▁co	-280
ell	-281
▁boy	-282
ings	-283
▁loved	-284
▁start	-285
▁what	-286
hat	-287
▁E	-288
ree	-289
▁D	-290
ade	-291
▁pr	-292
▁something	-293
▁then	-294
▁toy	-295
,"	-296
▁found	-297
▁named	-298
ong	-299
▁Mom	-300
▁would	-301
ion	-302
ited	-303
▁Timmy	-304
pl	-305
▁exc	-306
▁more	-307
▁ag	-308
▁ran	-309
▁Sam	-310
us	-311
▁ot	-312
▁bir	-313
▁car	-314
gether	-315
nn	-316
ook	-317
oud	-318
▁<	-319
▁put	-320
ought	-321
ab	-322
▁You	-323
▁made	-324
▁new	-325
▁other	-326
▁started	-327
ers	-328
▁make	-329
▁bird	-330
ous	-331
ared	-332
▁park	-333
ort	-334
▁ch	-335
▁home	-336
▁v	-337
ess	-338
▁sw	-339
▁Ann	-340
ist	-341
▁excited	-342
ave	-343
▁together	-344
and	-345
▁away	-346
▁fe	-347
call	-348
▁hug	-349
▁im	-350
▁get	-351
▁Anna	-352
▁one	-353
▁says	-354
▁things	-355
▁wal	-356
▁who	-357
aug	-358
ep	-359
▁good	-360
▁than	-361
ust	-362
ight	-363
pped	-364
▁cl	-365
▁liked	-366
▁dec	-367
▁your	-368
▁when	-369
low	-370
▁br	-371
▁again	-372
▁ans	-373
▁playing	-374
▁every	-375
ap	-376
▁F	-377
▁imp	-378
qu	-379
uch	-380
ant	-381
▁ab	-382
ss	-383
▁care	-384
▁find	-385
▁sad	-386
ax	-387
ally	-388
uck	-389
▁dad	-390
▁down	-391
ouse	-392
▁got	-393
▁came	-394
ine	-395
▁So	-396
▁op	-397
nder	-398
▁old	-399
ct	-400
ara	-401
ite	-402
▁if	-403
ny	-404
▁po	-405
▁will	-406
ided	-407
▁i	-408
ial	-409
lf	-410
ma	-411
ried	-412
▁decided	-413
▁thought	-414
ned	-415
ild	-416
our	-417
ise	-418
▁Sara	-419
▁spec	-420
to	-421
▁pick	-422
ull	-423
fe	-424
ven	-425
ened	-426
ob	-427
▁When	-428
▁pe	-429
▁special	-430
reat	-431
▁lear	-432
▁take	-433
ive	-434
ries	-435
▁Jo	-436
▁ke	-437
▁pre	-438
▁import	-439
▁took	-440
ia	-441
▁each	-442
▁scared	-443
▁my	-444
▁Max	-445
▁lot	-446
▁N	-447
▁kne	-448
ged	-449
▁gra	-450
udd	-451
ft	-452
ount	-453
▁ball	-454
▁look	-455
▁mo	-456
▁tw	-457
▁com	-458
▁;	-459
",	-460
les	-461
▁outside	-462
ac	-463
ump	-464
▁Jack	-465
▁know	-466
▁Every	-467
▁knew	-468
▁laug	-469
▁about	-470
fter	-471
▁box	-472
▁feel	-473
▁this	-474
ile	-475
udden	-476
▁didn	-477
ate	-478
ge	-479
▁R	-480
ish	-481
▁clo	-482
▁str	-483
▁tree	-484
ways	-485
▁always	-486
ub	-487
ink	-488
▁gave	-489
▁bec	-490
▁tr	-491
▁ho	-492
▁proud	-493
uddenly	-494
▁cat	-495
▁how	-496
▁over	-497
▁sk	-498
▁Her	-499
▁expl	-500
▁mommy	-501
ak	-502
▁C	-503
orry	-504
ast	-505
ace	-506
▁toys	-507
xt	-508
▁kind	-509
▁show	-510
ber	-511
▁en	-512
▁small	-513
▁hand	-514
▁never	-515
other	-516
▁house	-517
ank	-518
▁flow	-519
▁Mia	-520
▁much	-521
▁sorry	-522
ase	-523
self	-524
▁P	-525
▁heard	-526
oth	-527
▁qu	-528
▁any	-529
▁water	-530
ath	-531
▁room	-532
uc	-533
▁into	-534
▁â	-535
▁che	-536
▁run	-537
▁nice	-538
▁inside	-539
▁-	-540
urn	-541
▁dog	-542
ty	-543
▁de	-544
▁or	-545
▁told	-546
ect	-547
▁couldn	-548
▁sun	-549
▁even	-550
▁His	-551
▁off	-552
▁Suddenly	-553
▁ber	-554
▁bear	-555
▁bl	-556
ving	-557
▁pret	-558
▁berries	-559
iz	-560
▁bet	-561
Yes	-562
orn	-563
▁us	-564
▁We	-565
▁let	-566
▁con	-567
urp	-568
▁te	-569
▁And	-570
▁has	-571
aw	-572
▁count	-573
ass	-574
▁fo	-575
▁Sue	-576
right	-577
▁many	-578
▁need	-579
▁picked	-580
dy	-581
▁bu	-582
▁just	-583
imal	-584
▁app	-585
ins	-586
▁hugged	-587
▁wo	-588
pt	-589
▁eat	-590
here	-591
▁thanked	-592
▁Then	-593
▁animal	-594
vent	-595
▁call	-596
aut	-597
em	-598
ady	-599
oug	-600
use	-601
▁</	-602
ough	-603
ation	-604
▁stay	-605
ip	-606
oy	-607
▁Bob	-608
ars	-609
oon	-610
▁fam	-611
▁beaut	-612
▁ad	-613
iny	-614
▁long	-615
▁learned	-616
ves	-617
▁beautif	-618
▁don	-619
▁list	-620
Th	-621
by	-622
ople	-623
▁come	-624
▁beautiful	-625
able	-626
▁sky	-627
▁tried	-628
▁better	-629
▁two	-630
▁played	-631
ause	-632
▁best	-633
▁love	-634
▁lots	-635
ream	-636
▁try	-637
▁people	-638
▁careful	-639
▁laughed	-640
dded	-641
urt	-642
▁jump	-643
▁book	-644
led	-645
▁From	-646
▁under	-647
▁G	-648
gry	-649
▁by	-650
ntil	-651
▁bra	-652
▁end	-653
▁fle	-654
ies	-655
ane	-656
▁fi	-657
arden	-658
▁family	-659
▁sn	-660
▁garden	-661
▁wat	-662
▁both	-663
▁until	-664
▁gre	-665
▁clos	-666
▁fast	-667
▁mach	-668
▁animals	-669
ool	-670
aking	-671
▁stor	-672
▁{	-673
bed	-674
hes	-675
▁Joh	-676
▁child	-677
▁because	-678
eet	-679
ger	-680
▁sl	-681
▁left	-682
urpr	-683
rm	-684
▁gr	-685
▁machine	-686
▁rem	-687
▁surpr	-688
ised	-689
▁tow	-690
▁safe	-691
▁hard	-692
▁Dad	-693
▁flowers	-694
No	-695
ished	-696
▁opened	-697
▁should	-698
▁ide	-699
▁shiny	-700
▁explore	-701
ff	-702
int	-703
▁cu	-704
▁door	-705
▁walked	-706
age	-707
▁dan	-708
▁way	-709
▁loud	-710
▁still	-711
ren	-712
be	-713
kay	-714
▁As	-715
ctor	-716
ucy	-717
▁cle	-718
Let	-719
▁un	-720
▁wr	-721
fore	-722
▁fin	-723
▁Lucy	-724
ids	-725
What	-726
▁sto	-727
▁rock	-728
▁ac	-729
▁tre	-730
▁called	-731
▁soon	-732
▁brave	-733
ary	-734
▁fore	-735
▁advent	-736
▁nodded	-737
joy	-738
▁cry	-739
ious	-740
▁fly	-741
▁ret	-742
▁going	-743
▁⟨	-744
That	-745
▁del	-746
It	-747
▁(	-748
▁Amy	-749
▁noise	-750
ied	-751
igh	-752
ummy	-753
▁keep	-754
so	-755
ered	-756
▁red	-757
▁before	-758
ble	-759
iced	-760
▁bed	-761
▁name	-762
▁after	-763
▁lived	-764
▁stick	-765
▁vo	-766
ndma	-767
▁col	-768
▁hurt	-769
▁share	-770
ched	-771
▁its	-772
▁flew	-773
▁pretty	-774
▁After	-775
▁everyone	-776
hy	-777
▁doll	-778
▁idea	-779
▁sweet	-780
▁wonder	-781
▁enjoy	-782
▁ow	-783
()	-784
TM	-785
iss	-786
▁Th	-787
▁wind	-788
maz	-789
aybe	-790
▁bad	-791
▁John	-792
▁amaz	-793
ress	-794
▁repl	-795
▁smile	-796
▁looking	-797
thing	-798
▁ey	-799
▁gl	-800
▁angry	-801
▁noticed	-802
▁}	-803
raw	-804
▁great	-805
▁apples	-806
▁ground	-807
▁return	-808
▁stopped	-809
▁walking	-810
▁adventure	-811
illy	-812
ember	-813
▁There	-814
▁thr	-815
▁also	-816
▁cont	-817
▁kept	-818
▁next	-819
▁real	-820
▁sound	-821
▁dis	-822
▁far	-823
▁children	-824
bit	-825
ons	-826
▁cr	-827
▁think	-828
ict	-829
▁use	-830
Thank	-831
▁ever	-832
▁bit	-833
▁give	-834
▁clean	-835
ail	-836
▁tra	-837
▁ar	-838
▁ye	-839
irst	-840
abbit	-841
▁counted	-842
▁fr	-843
▁Joe	-844
▁grab	-845
▁rabbit	-846
▁Everyone	-847
▁z	-848
ors	-849
▁That	-850
▁been	-851
▁feeling	-852
load	-853
▁head	-854
Look	-855
▁fish	-856
▁near	-857
▁listen	-858
▁replied	-859
co	-860
▁Now	-861
▁hands	-862
▁dr	-863
ning	-864
▁rel	-865
▁eyes	-866
▁Mommy	-867
▁voice	-868
▁shout	-869
▁remember	-870
ken	-871
rious	-872
▁fl	-873
▁boat	-874
▁right	-875
▁truck	-876
▁important	-877
ph	-878
ield	-879
▁bro	-880
""	-881
▁pu	-882
ully	-883
▁bre	-884
▁def	-885
▁now	-886
ting	-887
▁Jane	-888
▁while	-889
▁forest	-890
")	-891
bye	-892
▁tal	-893
▁kids	-894
▁work	-895
▁quick	-896
▁closer	-897
▁showed	-898
ult	-899
▁blo	-900
▁wait	-901
▁three	-902
▁curious	-903
▁goodbye	-904
cess	-905
llow	-906
▁mag	-907
▁place	-908
ical	-909
▁mon	-910
▁okay	-911
__	-912
Can	-913
▁lea	-914
fully	-915
▁food	-916
▁warm	-917
``	-918
pot	-919
ange	-920
▁bag	-921
▁fav	-922
aught	-923
▁blue	-924
▁prin	-925
ign	-926
▁being	-927
▁build	-928
sp	-929
▁worked	-930
▁cook	-931
▁rain	-932
▁walk	-933
▁store	-934
ized	-935
▁num	-936
ayout	-937
lease	-938
▁yell	-939
▁Gra	-940
▁our	-941
▁done	-942
▁glad	-943
▁here	-944
▁pict	-945
▁balloon	-946
▁picture	-947
day	-948
▁am	-949
▁Let	-950
▁follow	-951
rog	-952
▁In	-953
▁bow	-954
▁high	-955
▁delic	-956
▁making	-957
imes	-958
ached	-959
▁lost	-960
▁books	-961
▁first	-962
uff	-963
▁pol	-964
▁trees	-965
▁grabbed	-966
de	-967
th	-968
▁fair	-969
▁game	-970
▁green	-971
▁brother	-972
rip	-973
▁Spot	-974
▁birds	-975
▁story	-976
▁strong	-977
▁quickly	-978
▁carefully	-979
We	-980
isy	-981
▁beg	-982
▁set	-983
▁butt	-984
▁bright	-985
ey	-986
▁flo	-987
▁hop	-988
▁pain	-989
▁pull	-990
▁Sarah	-991
cks	-992
rel	-993
▁->	-994
▁bus	-995
▁hot	-996
▁own	-997
arent	-998
▁cake	-999
▁only	-1000
▁part	-1001
▁Sally	-1002
▁world	-1003
iv	-1004
▁jo	-1005
orite	-1006
▁frog	-1007
▁open	-1008
▁tell	-1009
▁grass	-1010
▁favorite	-1011
Mom	-1012
▁prom	-1013
▁sing	-1014
▁Tommy	-1015
▁underst	-1016
ott	-1017
▁Da	-1018
cked	-1019
ather	-1020
▁less	-1021
▁learn	-1022
▁coming	-1023
▁watched	-1024
itc	-1025
aring	-1026
▁pond	-1027
▁sees	-1028
▁having	-1029
▁jumped	-1030
▁shouted	-1031
Raw	-1032
dir	-1033
▁At	-1034
▁ask	-1035
▁clim	-1036
▁ready	-1037
akes	-1038
▁sure	-1039
▁slide	-1040
▁brought	-1041
sh	-1042
▁Jim	-1043
▁face	-1044
▁forg	-1045
▁yummy	-1046
▁flower	-1047
▁reached	-1048
▁What	-1049
ractor	-1050
▁doing	-1051
▁dif	-1052
▁swim	-1053
▁thank	-1054
man	-1055
Hell	-1056
ards	-1057
▁mar	-1058
Hello	-1059
▁sand	-1060
loader	-1061
▁began	-1062
▁creat	-1063
▁where	-1064
▁happened	-1065
key	-1066
▁kitc	-1067
▁rest	-1068
▁tast	-1069
▁boxes	-1070
▁catch	-1071
▁kitchen	-1072
▁pretend	-1073
cle	-1074
elf	-1075
ows	-1076
aset	-1077
▁ele	-1078
▁vis	-1079
▁fire	-1080
▁lady	-1081
ataset	-1082
▁happily	-1083
▁surprise	-1084
▁wonderful	-1085
TMs	-1086
air	-1087
ama	-1088
▁Do	-1089
▁hat	-1090
▁why	-1091
▁mean	-1092
Layout	-1093
▁watch	-1094
▁years	-1095
▁through	-1096
ike	-1097
▁Can	-1098
▁ate	-1099
▁cool	-1100
▁self	-1101
▁funny	-1102
▁night	-1103
▁realized	-1104
".	-1105
zy	-1106
leep	-1107
▁dark	-1108
▁seen	-1109
▁waved	-1110
▁became	-1111
▁contin	-1112
▁number	-1113
▁per	-1114
ained	-1115
atter	-1116
urned	-1117
▁mother	-1118
▁needed	-1119
os	-1120
ance	-1121
ject	-1122
▁beh	-1123
▁bel	-1124
▁int	-1125
▁soft	-1126
▁turn	-1127
▁close	-1128
RawLayout	-1129
app	-1130
ila	-1131
lass	-1132
ster	-1133
▁"""	-1134
▁cut	-1135
▁mod	-1136
▁arri	-1137
▁gent	-1138
▁shell	-1139
▁parent	-1140
▁surprised	-1141
kes	-1142
ired	-1143
unny	-1144
▁pro	-1145
▁Lila	-1146
▁fell	-1147
▁used	-1148
▁thing	-1149
▁enjoyed	-1150
▁remembered	-1151
("	-1152
reed	-1153
▁pus	-1154
illed	-1155
where	-1156
▁full	-1157
▁Benny	-1158
▁class	-1159
▁Grandma	-1160
▁delicious	-1161
ng	-1162
Wow	-1163
sat	-1164
▁gi	-1165
ient	-1166
▁Jill	-1167
▁does	-1168
▁farm	-1169
▁visit	-1170
▁lesson	-1171
▁really	-1172
▁arrived	-1173
▁buttons	-1174
▁dro	-1175
▁ste	-1176
▁cand	-1177
▁sign	-1178
▁diffe	-1179
▁blocks	-1180
▁stayed	-1181
▁princess	-1182
amp	-1183
▁buy	-1184
▁comp	-1185
▁floor	-1186
▁light	-1187
▁agreed	-1188
▁butter	-1189
▁wished	-1190
rew	-1191
more	-1192
▁hole	-1193
▁path	-1194
▁tall	-1195
▁wood	-1196
▁break	-1197
▁dress	-1198
▁looks	-1199
▁anymore	-1200
▁magical	-1201
="	-1202
ity	-1203
eddy	-1204
ined	-1205
rent	-1206
▁shop	-1207
▁touch	-1208
▁amazing	-1209
ang	-1210
▁ri	-1211
oney	-1212
▁cra	-1213
▁won	-1214
▁duck	-1215
▁move	-1216
ations	-1217
▁dream	-1218
▁field	-1219
▁swing	-1220
▁broken	-1221
▁shared	-1222
▁himself	-1223
ownloader	-1224
▁understand	-1225
ix	-1226
irt	-1227
▁bar	-1228
▁ice	-1229
▁Daisy	-1230
xtractor	-1231
▁running	-1232
▁anything	-1233
▁finished	-1234
ms	-1235
ask	-1236
▁el	-1237
▁fix	-1238
asure	-1239
cy	-1240
ence	-1241
▁squ	-1242
▁snow	-1243
▁treat	-1244
▁parents	-1245
▁friendly	-1246
▁different	-1247
):	-1248
ze	-1249
ater	-1250
ment	-1251
▁cold	-1252
▁hold	-1253
▁mess	-1254
▁stop	-1255
▁Billy	-1256
▁smell	-1257
▁tired	-1258
▁helped	-1259
▁hopped	-1260
▁monkey	-1261
eta	-1262
llo	-1263
lly	-1264
oup	-1265
▁ju	-1266
▁This	-1267
▁cars	-1268
▁corn	-1269
▁else	-1270
▁grew	-1271
▁beach	-1272
▁coins	-1273
▁laugh	-1274
▁yellow	-1275
▁cheered	-1276
▁fox	-1277
phant	-1278
▁hear	-1279
▁held	-1280
▁spoon	-1281
▁elephant	-1282
);	-1283
aper	-1284
ones	-1285
▁mum	-1286
▁bike	-1287
▁wrong	-1288
▁sometimes	-1289
av	-1290
bo	-1291
ho	-1292
aby	-1293
ppy	-1294
▁Em	-1295
This	-1296
ated	-1297
ling	-1298
▁din	-1299
▁sho	-1300
▁Mama	-1301
▁behind	-1302
//	-1303
ash	-1304
ced	-1305
red	-1306
str	-1307
ued	-1308
umpk	-1309
▁gone	-1310
▁pumpk	-1311
▁leaves	-1312
▁another	-1313
▁#	-1314
ale	-1315
ert	-1316
rag	-1317
set	-1318
ross	-1319
▁sat	-1320
▁top	-1321
▁answ	-1322
▁danger	-1323
▁filled	-1324
▁followed	-1325
lc	-1326
up	-1327
fly	-1328
icy	-1329
ose	-1330
ames	-1331
▁morn	-1332
▁worry	-1333
▁morning	-1334
▁explained	-1335
ata	-1336
room	-1337
▁hid	-1338
▁cried	-1339
▁drink	-1340
▁mouse	-1341
ds	-1342
ner	-1343
not	-1344
path	-1345
▁Fin	-1346
▁Jen	-1347
▁Soon	-1348
▁bott	-1349
▁bunny	-1350
▁likes	-1351
▁living	-1352
▁herself	-1353
LT	-1354
▁hun	-1355
▁comes	-1356
▁cream	-1357
▁faster	-1358
▁getting	-1359
▁grandma	-1360
▁someone	-1361
▁balloons	-1362
mo	-1363
bles	-1364
name	-1365
▁All	-1366
▁yes	-1367
▁pile	-1368
▁talk	-1369
▁acorn	-1370
▁train	-1371
▁please	-1372
▁promised	-1373
The	-1374
que	-1375
▁To	-1376
▁pie	-1377
▁None	-1378
▁deep	-1379
▁hill	-1380
▁paint	-1381
▁stones	-1382
▁smallest	-1383
mp	-1384
"),	-1385
Don	-1386
ape	-1387
atch	-1388
pper	-1389
yard	-1390
▁spl	-1391
▁bowl	-1392
▁read	-1393
▁slow	-1394
▁Maybe	-1395
▁moment	-1396
▁pulled	-1397
▁cookies	-1398
▁backyard	-1399
▁listened	-1400
LTK	-1401
ire	-1402
row	-1403
▁Path	-1404
▁baby	-1405
▁lion	-1406
▁pack	-1407
▁ride	-1408
▁welc	-1409
▁Jimmy	-1410
▁sleep	-1411
▁tower	-1412
▁amazed	-1413
▁bigger	-1414
▁colors	-1415
▁shells	-1416
▁turned	-1417
▁K	-1418
div	-1419
ret	-1420
▁su	-1421
▁qui	-1422
▁Mary	-1423
▁buck	-1424
▁fall	-1425
▁candy	-1426
▁might	-1427
▁puppy	-1428
▁window	-1429
▁Finally	-1430
▁finally	-1431
▁strange	-1432
▁pumpkins	-1433
Downloader	-1434
br	-1435
la	-1436
orm	-1437
▁Al	-1438
oral	-1439
▁air	-1440
▁mus	-1441
▁purp	-1442
▁Daddy	-1443
▁dolls	-1444
▁dinner	-1445
▁continued	-1446
Oh	-1447
ift	-1448
ote	-1449
▁Ab	-1450
ract	-1451
▁bug	-1452
▁joy	-1453
irrel	-1454
▁cast	-1455
▁hide	-1456
▁quiet	-1457
▁purple	-1458
▁stepped	-1459
▁squirrel	-1460
▁stickers	-1461
▁[	-1462
Net	-1463
ear	-1464
▁``	-1465
▁pet	-1466
▁val	-1467
▁able	-1468
▁gift	-1469
▁hair	-1470
▁miss	-1471
▁town	-1472
▁juice	-1473
▁Inside	-1474
▁butterfly	-1475
▁dangerous	-1476
TA	-1477
▁_	-1478
ates	-1479
▁dri	-1480
▁ext	-1481
▁sec	-1482
Maybe	-1483
riple	-1484
▁table	-1485
▁bucket	-1486
▁treasure	-1487
▁everything	-1488
zz	-1489
But	-1490
ugg	-1491
▁__	-1492
olly	-1493
▁wet	-1494
inted	-1495
▁pink	-1496
▁wall	-1497
▁color	-1498
▁party	-1499
▁wrote	-1500
▁crying	-1501
▁gentle	-1502
▁happen	-1503
yp	-1504
igg	-1505
ord	-1506
eter	-1507
itter	-1508
▁grow	-1509
▁land	-1510
▁wasn	-1511
▁Their	-1512
▁money	-1513
▁teddy	-1514
▁Dataset	-1515
att	-1516
ope	-1517
ever	-1518
▁exp	-1519
▁heal	-1520
▁life	-1521
▁star	-1522
▁leave	-1523
▁music	-1524
▁scary	-1525
▁today	-1526
▁woods	-1527
▁flying	-1528
▁hungry	-1529
we	-1530
▁)	-1531
mer	-1532
ror	-1533
▁gu	-1534
Okay	-1535
fort	-1536
ieve	-1537
unch	-1538
▁mix	-1539
▁nap	-1540
oring	-1541
▁must	-1542
▁perf	-1543
▁resp	-1544
▁sear	-1545
▁side	-1546
▁along	-1547
▁climb	-1548
▁drove	-1549
▁forgot	-1550
▁welcome	-1551
Why	-1552
add	-1553
med	-1554
sub	-1555
Meta	-1556
ions	-1557
ises	-1558
ucky	-1559
▁des	-1560
▁min	-1561
▁pow	-1562
▁heav	-1563
▁alone	-1564
▁brown	-1565
▁moral	-1566
▁paper	-1567
▁piece	-1568
▁spark	-1569
▁tight	-1570
▁others	-1571
▁waited	-1572
ex	-1573
▁("	-1574
▁pi	-1575
cket	-1576
iver	-1577
▁cub	-1578
▁cup	-1579
▁res	-1580
▁clot	-1581
▁drag	-1582
▁kiss	-1583
▁wants	-1584
▁DatasetMeta	-1585
ee	-1586
old	-1587
▁arm	-1588
▁smo	-1589
▁tri	-1590
▁asks	-1591
▁runs	-1592
▁song	-1593
▁silly	-1594
▁twins	-1595
▁sweets	-1596
▁clothes	-1597
Extractor	-1598
Hi	-1599
ek	-1600
▁x	-1601
ere	-1602
ext	-1603
its	-1604
ize	-1605
▁je	-1606
▁ve	-1607
aces	-1608
eces	-1609
▁win	-1610
chool	-1611
orrow	-1612
▁coin	-1613
▁race	-1614
▁Molly	-1615
▁heavy	-1616
▁closed	-1617
▁enough	-1618
▁though	-1619
▁marbles	-1620
OK	-1621
ased	-1622
iles	-1623
uffy	-1624
▁ear	-1625
▁har	-1626
▁inc	-1627
▁job	-1628
apped	-1629
▁join	-1630
▁wolf	-1631
▁Alice	-1632
▁blank	-1633
▁smart	-1634
▁across	-1635
▁climbed	-1636
▁helping	-1637
▁towards	-1638
ens	-1639
ese	-1640
rot	-1641
arth	-1642
▁met	-1643
▁rub	-1644
ident	-1645
iting	-1646
▁Bobo	-1647
Triple	-1648
ountain	-1649
▁cheese	-1650
▁pieces	-1651
▁smiles	-1652
▁sounds	-1653
▁thinks	-1654
▁blanket	-1655
▁suddenly	-1656
gg	-1657
ud	-1658
asp	-1659
com	-1660
ier	-1661
ory	-1662
ush	-1663
▁//	-1664
ming	-1665
read	-1666
urry	-1667
vest	-1668
▁Ell	-1669
▁Red	-1670
▁att	-1671
▁lay	-1672
asket	-1673
▁bran	-1674
▁soup	-1675
▁year	-1676
ateful	-1677
reamed	-1678
▁reach	-1679
▁storm	-1680
▁basket	-1681
▁bottle	-1682
▁castle	-1683
▁school	-1684
▁swings	-1685
▁wouldn	-1686
▁believe	-1687
▁grateful	-1688
▁everywhere	-1689
..	-1690
St	-1691
me	-1692
ETA	-1693
ead	-1694
now	-1695
▁ra	-1696
▁Mum	-1697
▁hig	-1698
▁pub	-1699
▁bags	-1700
▁band	-1701
▁supp	-1702
▁cloud	-1703
▁fight	-1704
▁disapp	-1705
▁trying	-1706
▁sharing	-1707
▁without	-1708
Do	-1709
ces	-1710
lue	-1711
thy	-1712
used	-1713
▁ent	-1714
▁pen	-1715
▁pri	-1716
ister	-1717
uture	-1718
▁META	-1719
▁With	-1720
▁bite	-1721
▁conf	-1722
▁cour	-1723
▁lake	-1724
▁mark	-1725
▁most	-1726
▁puzz	-1727
▁wild	-1728
▁makes	-1729
▁plane	-1730
▁white	-1731
▁forget	-1732
▁nearby	-1733
▁police	-1734
▁taking	-1735
▁singing	-1736
▁adventures	-1737
▁'	-1738
nny	-1739
oun	-1740
idge	-1741
▁Jul	-1742
▁dry	-1743
▁key	-1744
▁Blue	-1745
▁craw	-1746
▁dist	-1747
▁free	-1748
▁same	-1749
▁spot	-1750
▁tail	-1751
▁tiny	-1752
▁apple	-1753
▁bread	-1754
▁daddy	-1755
▁hoped	-1756
▁moved	-1757
▁shook	-1758
▁threw	-1759
▁words	-1760
▁bought	-1761
▁dragon	-1762
bow	-1763
oop	-1764
unk	-1765
aced	-1766
ches	-1767
less	-1768
outh	-1769
rame	-1770
▁rob	-1771
▁suc	-1772
▁typ	-1773
▁zoo	-1774
Mommy	-1775
ually	-1776
▁Come	-1777
▁huge	-1778
▁kitt	-1779
▁pass	-1780
▁mouth	-1781
▁plant	-1782
▁quest	-1783
▁Johnny	-1784
▁acorns	-1785
▁course	-1786
▁doctor	-1787
▁noises	-1788
":	-1789
ney	-1790
▁Raw	-1791
▁ben	-1792
▁few	-1793
▁fru	-1794
▁hel	-1795
pping	-1796
shine	-1797
▁lift	-1798
▁plan	-1799
▁such	-1800
▁Emily	-1801
▁added	-1802
▁broke	-1803
▁feels	-1804
▁wings	-1805
▁answer	-1806
▁danced	-1807
▁slowly	-1808
▁building	-1809
ES	-1810
lt	-1811
TMt	-1812
mod	-1813
."""	-1814
airs	-1815
ible	-1816
▁may	-1817
▁odd	-1818
▁pig	-1819
▁sea	-1820
ouble	-1821
▁draw	-1822
▁hugs	-1823
▁spid	-1824
▁touc	-1825
▁games	-1826
▁giant	-1827
▁hello	-1828
▁robot	-1829
▁shirt	-1830
▁colour	-1831
▁polite	-1832
▁pushed	-1833
▁secret	-1834
▁respect	-1835
ib	-1836
ich	-1837
▁St	-1838
▁ru	-1839
Sure	-1840
cept	-1841
reet	-1842
ward	-1843
▁jar	-1844
▁kno	-1845
▁lem	-1846
▁par	-1847
▁pat	-1848
class	-1849
eared	-1850
erful	-1851
ieved	-1852
stead	-1853
▁NLTK	-1854
▁wise	-1855
▁black	-1856
▁dance	-1857
▁disco	-1858
▁lunch	-1859
▁piles	-1860
▁river	-1861
▁stand	-1862
▁caught	-1863
▁longer	-1864
▁rainbow	-1865
▁exciting	-1866
::	-1867
cer	-1868
ern	-1869
log	-1870
ont	-1871
umb	-1872
ighb	-1873
iled	-1874
ored	-1875
▁pot	-1876
▁imag	-1877
▁lead	-1878
▁live	-1879
▁nose	-1880
▁wear	-1881
▁Thank	-1882
▁cloth	-1883
▁cover	-1884
▁shoes	-1885
▁spent	-1886
▁spicy	-1887
▁throw	-1888
▁upset	-1889
aughter	-1890
▁corner	-1891
▁sister	-1892
▁creature	-1893
▁wondered	-1894
ilk	-1895
▁Fl	-1896
▁Mr	-1897
▁Tw	-1898
▁ce	-1899
▁ph	-1900
ball	-1901
base	-1902
file	-1903
nger	-1904
ring	-1905
ween	-1906
▁...	-1907
▁cow	-1908
▁sub	-1909
▁busy	-1910
▁coal	-1911
▁gets	-1912
▁mine	-1913
▁past	-1914
▁teac	-1915
▁Julia	-1916
▁Three	-1917
▁print	-1918
▁stars	-1919
▁these	-1920
▁trust	-1921
▁higher	-1922
▁myster	-1923
▁neighb	-1924
▁pocket	-1925
▁between	-1926
▁forever	-1927
▁snowman	-1928
▁worried	-1929
▁RawTriple	-1930
gu	-1931
mb	-1932
sy	-1933
ung	-1934
▁es	-1935
▁la	-1936
iser	-1937
▁dir	-1938
▁rad	-1939
▁sit	-1940
▁bath	-1941
▁boun	-1942
▁flea	-1943
▁milk	-1944
itting	-1945
▁Jenny	-1946
▁compl	-1947
▁heart	-1948
▁owner	-1949
▁teach	-1950
▁eating	-1951
▁modern	-1952
▁street	-1953
fortable	-1954
▁feather	-1955
▁healthy	-1956
▁holding	-1957
▁impress	-1958
▁perfect	-1959
▁promise	-1960
▁stories	-1961
ventually	-1962
▁colorful	-1963
▁counting	-1964
▁daughter	-1965
▁pictures	-1966
œI	-1967
lph	-1968
▁sy	-1969
olog	-1970
▁inv	-1971
▁sig	-1972
ipped	-1973
▁dirt	-1974
▁dirty	-1975
▁fence	-1976
▁round	-1977
▁young	-1978
▁belong	-1979
▁hanger	-1980
▁monster	-1981
▁touched	-1982
My	-1983
ci	-1984
col	-1985
eth	-1986
ony	-1987
oom	-1988
ser	-1989
Lily	-1990
ator	-1991
ssed	-1992
ular	-1993
▁tom	-1994
ining	-1995
ledge	-1996
▁Rose	-1997
▁cute	-1998
▁fing	-1999
▁jour	-2000
▁road	-2001
▁rows	-2002
▁sold	-2003
▁well	-2004
future	-2005
▁annot	-2006
▁bench	-2007
▁const	-2008
▁crate	-2009
▁neare	-2010
▁snack	-2011
▁stamp	-2012
▁Fluffy	-2013
▁Little	-2014
▁batter	-2015
▁letter	-2016
▁seemed	-2017
▁treats	-2018
▁teacher	-2019
▁trouble	-2020
▁wearing	-2021
▁discover	-2022
▁annotations	-2023
).	-2024
]]	-2025
ls	-2026
ray	-2027
Well	-2028
adow	-2029
data	-2030
ugar	-2031
ural	-2032
▁spe	-2033
onely	-2034
▁Bill	-2035
▁days	-2036
▁roll	-2037
▁vill	-2038
▁wide	-2039
▁ducks	-2040
▁maybe	-2041
▁prize	-2042
▁uncle	-2043
▁yield	-2044
▁bridge	-2045
▁lonely	-2046
▁clapped	-2047
▁nearest	-2048
▁relieved	-2049
▁screamed	-2050
▁exploring	-2051
▁pretended	-2052
Hey	-2053
agg	-2054
als	-2055
ans	-2056
aur	-2057
ute	-2058
▁ob	-2059
head	-2060
ness	-2061
▁raw	-2062
▁cave	-2063
▁coat	-2064
▁gigg	-2065
▁last	-2066
▁mail	-2067
▁pray	-2068
▁rope	-2069
▁seat	-2070
▁team	-2071
▁carry	-2072
▁dolph	-2073
▁magic	-2074
▁mayor	-2075
▁peace	-2076
▁tasty	-2077
▁teeth	-2078
▁turns	-2079
▁whole	-2080
▁cannot	-2081
▁gently	-2082
▁spider	-2083
▁harvest	-2084
▁instead	-2085
▁smiling	-2086
▁success	-2087
▁creative	-2088
▁swimming	-2089
sc	-2090
erp	-2091
hip	-2092
ltk	-2093
mul	-2094
oof	-2095
uct	-2096
▁af	-2097
ager	-2098
iron	-2099
▁ant	-2100
▁egg	-2101
▁gen	-2102
▁hit	-2103
▁hor	-2104
▁mad	-2105
▁owl	-2106
▁sur	-2107
▁tea	-2108
model	-2109
▁Even	-2110
▁Jake	-2111
▁fork	-2112
▁gold	-2113
▁late	-2114
▁leaf	-2115
▁pour	-2116
▁sque	-2117
aughty	-2118
▁Later	-2119
▁eager	-2120
▁lemon	-2121
▁sugar	-2122
▁waves	-2123
▁crates	-2124
▁puzzle	-2125
▁sticks	-2126
▁tasted	-2127
▁naughty	-2128
▁packing	-2129
▁shining	-2130
▁sitting	-2131
▁laughing	-2132
▁mountain	-2133
▁relation	-2134
▁sunshine	-2135
pe	-2136
son	-2137
ule	-2138
unt	-2139
▁No	-2140
apes	-2141
itch	-2142
lder	-2143
usie	-2144
▁//!	-2145
▁acc	-2146
▁cho	-2147
▁hum	-2148
▁ign	-2149
▁leg	-2150
▁ord	-2151
ultip	-2152
▁Just	-2153
▁alto	-2154
▁load	-2155
▁rose	-2156
ounded	-2157
▁Susie	-2158
▁Tweet	-2159
▁furry	-2160
▁rocks	-2161
▁stuck	-2162
▁sunny	-2163
▁write	-2164
▁Please	-2165
▁branch	-2166
▁lovely	-2167
▁shapes	-2168
▁carried	-2169
▁journey	-2170
▁smelled	-2171
▁working	-2172
▁continue	-2173
▁altogether	-2174
▁mysterious	-2175
erv	-2176
len	-2177
ume	-2178
▁Wh	-2179
▁ap	-2180
anny	-2181
lebr	-2182
lves	-2183
osie	-2184
raid	-2185
▁Off	-2186
▁Rob	-2187
▁cal	-2188
▁mer	-2189
aggie	-2190
illar	-2191
onyms	-2192
ption	-2193
▁Emma	-2194
▁bugs	-2195
▁mist	-2196
▁prot	-2197
▁roof	-2198
▁wave	-2199
▁yard	-2200
ground	-2201
multip	-2202
▁About	-2203
▁Grace	-2204
▁Rosie	-2205
▁clock	-2206
▁screw	-2207
▁shore	-2208
▁takes	-2209
▁taste	-2210
▁value	-2211
▁afraid	-2212
▁caterp	-2213
▁celebr	-2214
▁clouds	-2215
▁driver	-2216
▁gather	-2217
▁meadow	-2218
▁object	-2219
▁orange	-2220
▁smooth	-2221
▁spread	-2222
multiple	-2223
▁Rounded	-2224
▁jumping	-2225
▁selfish	-2226
▁Together	-2227
▁visitors	-2228
▁caterpillar	-2229
"]	-2230
Be	-2231
eo	-2232
ne	-2233
ram	-2234
wor	-2235
▁Go	-2236
▁How	-2237
▁act	-2238
▁bat	-2239
▁mic	-2240
▁reg	-2241
▁wag	-2242
erand	-2243
ungle	-2244
▁Dave	-2245
▁Some	-2246
▁boys	-2247
▁cozy	-2248
▁hope	-2249
▁pres	-2250
▁slid	-2251
▁snee	-2252
▁zoom	-2253
▁bring	-2254
▁crown	-2255
▁gives	-2256
▁lucky	-2257
▁phone	-2258
▁Maggie	-2259
▁asleep	-2260
▁comput	-2261
▁jungle	-2262
▁kissed	-2263
▁result	-2264
▁search	-2265
▁battery	-2266
▁delight	-2267
▁dropped	-2268
▁protect	-2269
▁talking	-2270
▁village	-2271
▁accident	-2272
▁tomorrow	-2273
act	-2274
ets	-2275
icn	-2276
min	-2277
nto	-2278
ond	-2279
Come	-2280
ceil	-2281
chor	-2282
rror	-2283
umpy	-2284
▁coo	-2285
▁spo	-2286
Where	-2287
ating	-2288
epend	-2289
icnic	-2290
otted	-2291
▁arms	-2292
▁blow	-2293
▁crab	-2294
▁dish	-2295
▁matt	-2296
▁nerv	-2297
▁onto	-2298
▁oven	-2299
▁pers	-2300
▁push	-2301
▁sang	-2302
▁swam	-2303
▁wore	-2304
onical	-2305
▁Bobby	-2306
▁Class	-2307
▁Peter	-2308
▁fairy	-2309
▁shelf	-2310
▁anchor	-2311
▁lifted	-2312
▁picnic	-2313
▁bedroom	-2314
▁nervous	-2315
▁spotted	-2316
▁delicate	-2317
▁mattress	-2318
▁thankful	-2319
▁watching	-2320
▁yourself	-2321
ps	-2322
?".	-2323
afe	-2324
ete	-2325
lex	-2326
rue	-2327
val	-2328
vid	-2329
▁aw	-2330
▁ok	-2331
Good	-2332
angu	-2333
arsh	-2334
bers	-2335
elly	-2336
etit	-2337
know	-2338
land	-2339
lloc	-2340
▁Don	-2341
▁eas	-2342
▁gar	-2343
▁oce	-2344
▁pop	-2345
▁ser	-2346
▁shr	-2347
▁tag	-2348
▁war	-2349
▁whe	-2350
▁zip	-2351
thday	-2352
▁bush	-2353
▁cart	-2354
▁dest	-2355
▁kick	-2356
▁nest	-2357
▁sick	-2358
▁sour	-2359
▁stir	-2360
▁tent	-2361
▁thin	-2362
▁valu	-2363
▁woke	-2364
atural	-2365
▁Mummy	-2366
▁check	-2367
▁front	-2368
▁horse	-2369
▁ideas	-2370
▁cookie	-2371
▁garage	-2372
▁places	-2373
▁calling	-2374
▁patient	-2375
▁present	-2376
extractor	-2377
▁computer	-2378
▁feathers	-2379
▁eventually	-2380
Of	-2381
ik	-2382
oc	-2383
apt	-2384
arl	-2385
ina	-2386
orp	-2387
ots	-2388
une	-2389
zed	-2390
▁Be	-2391
▁Ch	-2392
▁If	-2393
cing	-2394
▁Why	-2395
▁ble	-2396
▁fig	-2397
▁glo	-2398
▁lit	-2399
▁mot	-2400
▁net	-2401
▁ver	-2402
▁wra	-2403
count	-2404
erest	-2405
▁card	-2406
▁cray	-2407
▁feed	-2408
▁goes	-2409
▁iron	-2410
▁line	-2411
▁mill	-2412
▁mind	-2413
▁neck	-2414
▁pill	-2415
▁poor	-2416
▁roar	-2417
▁sack	-2418
▁skip	-2419
▁till	-2420
▁wish	-2421
ession	-2422
▁Annie	-2423
▁honey	-2424
▁match	-2425
▁ocean	-2426
▁sandw	-2427
▁splas	-2428
▁whist	-2429
▁chased	-2430
▁island	-2431
▁matter	-2432
▁dataset	-2433
▁forward	-2434
▁knocked	-2435
▁nothing	-2436
▁station	-2437
▁waiting	-2438
knowledge	-2439
▁answered	-2440
▁birthday	-2441
▁competit	-2442
▁interest	-2443
▁lemonade	-2444
▁neighbor	-2445
))	-2446
bb	-2447
wk	-2448
▁`	-2449
aid	-2450
arp	-2451
ife	-2452
net	-2453
vie	-2454
▁Pe	-2455
▁av	-2456
▁ur	-2457
ital	-2458
ival	-2459
owed	-2460
safe	-2461
▁cir	-2462
▁fis	-2463
▁pay	-2464
▁swe	-2465
error	-2466
▁flag	-2467
▁hawk	-2468
▁moms	-2469
▁pand	-2470
▁puts	-2471
▁requ	-2472
▁rude	-2473
▁save	-2474
▁seed	-2475
▁trip	-2476
▁word	-2477
ensive	-2478
▁David	-2479
▁Ellie	-2480
▁frogs	-2481
▁grand	-2482
▁loves	-2483
▁meant	-2484
▁pengu	-2485
▁sharp	-2486
▁which	-2487
redible	-2488
▁fairly	-2489
▁proble	-2490
▁disappo	-2491
▁showing	-2492
▁searched	-2493
▁valuable	-2494
▁expensive	-2495
▁understood	-2496
▁interesting	-2497
),	-2498
io	-2499
Ben	-2500
ait	-2501
els	-2502
ics	-2503
▁fn	-2504
NLTK	-2505
alse	-2506
arra	-2507
arry	-2508
ateg	-2509
band	-2510
oura	-2511
▁ash	-2512
▁emb	-2513
▁fil	-2514
▁low	-2515
▁nut	-2516
▁shy	-2517
ables	-2518
ctory	-2519
ready	-2520
urous	-2521
▁Alex	-2522
▁Joey	-2523
▁calm	-2524
▁cher	-2525
▁coll	-2526
▁lock	-2527
▁sort	-2528
▁tick	-2529
▁worm	-2530
issors	-2531
▁While	-2532
▁breat	-2533
▁brush	-2534
▁cries	-2535
▁deter	-2536
▁frame	-2537
▁fruit	-2538
▁relax	-2539
▁stone	-2540
▁stuff	-2541
▁whale	-2542
estival	-2543
itement	-2544
▁barrel	-2545
▁button	-2546
▁dreams	-2547
▁famous	-2548
▁handed	-2549
▁parrot	-2550
▁talked	-2551
▁typing	-2552
arrassed	-2553
▁already	-2554
▁mistake	-2555
▁numbers	-2556
▁penguin	-2557
▁sparkly	-2558
▁powerful	-2559
▁question	-2560
▁standing	-2561
llocations	-2562
▁Everywhere	-2563
▁excitement	-2564
▁incredible	-2565
▁embarrassed	-2566
▁disappointed	-2567
eb	-2568
():	-2569
gly	-2570
ief	-2571
ilt	-2572
rop	-2573
▁Lo	-2574
anic	-2575
fast	-2576
icop	-2577
orph	-2578
▁End	-2579
▁Leo	-2580
▁Rex	-2581
▁add	-2582
▁fit	-2583
▁ple	-2584
Error	-2585
ience	-2586
ology	-2587
ugged	-2588
▁Ella	-2589
▁cage	-2590
▁capt	-2591
▁cost	-2592
▁file	-2593
▁mole	-2594
▁surf	-2595
colate	-2596
▁crazy	-2597
▁decor	-2598
▁faces	-2599
▁later	-2600
▁needs	-2601
▁shows	-2602
▁sight	-2603
▁spend	-2604
▁squee	-2605
▁tells	-2606
▁trunk	-2607
▁veget	-2608
icopter	-2609
▁change	-2610
▁figure	-2611
▁prince	-2612
▁remind	-2613
▁scream	-2614
▁stream	-2615
▁struct	-2616
▁ashamed	-2617
▁content	-2618
▁country	-2619
▁forgive	-2620
▁pointed	-2621
▁problem	-2622
orphology	-2623
▁distance	-2624
▁dolphins	-2625
▁scissors	-2626
▁impressed	-2627
▁helicopter	-2628
▁competitive	-2629
AG	-2630
mm	-2631
ado	-2632
dom	-2633
imi	-2634
lib	-2635
tag	-2636
ten	-2637
ual	-2638
▁==	-2639
▁Co	-2640
ages	-2641
ains	-2642
aked	-2643
amie	-2644
izer	-2645
mpty	-2646
ours	-2647
work	-2648
▁arg	-2649
▁dig	-2650
▁esc	-2651
▁mid	-2652
▁nod	-2653
▁ref	-2654
▁rod	-2655
▁wis	-2656
▁yaw	-2657
frame	-2658
iable	-2659
ipper	-2660
ppers	-2661
▁Lola	-2662
▁Mimi	-2663
▁city	-2664
▁cube	-2665
▁dict	-2666
▁drop	-2667
▁ears	-2668
▁feet	-2669
▁seek	-2670
▁sell	-2671
▁stat	-2672
▁ugly	-2673
ordNet	-2674
spital	-2675
▁Jamie	-2676
▁chest	-2677
▁cross	-2678
▁earth	-2679
▁empty	-2680
▁kitty	-2681
▁mummy	-2682
▁point	-2683
▁token	-2684
▁using	-2685
anguage	-2686
venance	-2687
▁barked	-2688
▁bitter	-2689
▁borrow	-2690
▁carrot	-2691
▁farmer	-2692
▁hiding	-2693
▁humble	-2694
▁kitten	-2695
▁licked	-2696
▁yelled	-2697
▁crawled	-2698
▁knowing	-2699
▁subject	-2700
▁support	-2701
▁appeared	-2702
▁bathroom	-2703
▁confused	-2704
▁fighting	-2705
▁reliable	-2706
▁breakfast	-2707
▁happening	-2708
▁accidentally	-2709
]:	-2710
af	-2711
Are	-2712
imp	-2713
ipe	-2714
isp	-2715
pec	-2716
pet	-2717
▁Br	-2718
▁Is	-2719
abel	-2720
acci	-2721
alph	-2722
izzy	-2723
ophy	-2724
orcy	-2725
pair	-2726
type	-2727
uist	-2728
year	-2729
▁ban	-2730
▁hay	-2731
▁pal	-2732
▁tig	-2733
alend	-2734
iling	-2735
token	-2736
▁cone	-2737
▁drum	-2738
▁item	-2739
▁meet	-2740
onacci	-2741
selves	-2742
▁Teddy	-2743
▁alert	-2744
▁bloom	-2745
▁comet	-2746
▁fixed	-2747
▁gener	-2748
▁group	-2749
▁miser	-2750
▁noisy	-2751
▁panda	-2752
▁saved	-2753
▁thick	-2754
uistics	-2755
▁accept	-2756
▁calend	-2757
▁carpet	-2758
▁father	-2759
▁finger	-2760
▁finish	-2761
▁landed	-2762
▁layout	-2763
▁captain	-2764
▁giggled	-2765
▁helpful	-2766
▁message	-2767
▁monkeys	-2768
▁motorcy	-2769
▁proudly	-2770
▁hospital	-2771
▁chocolate	-2772
▁excitedly	-2773
▁miserable	-2774
linguistics	-2775
▁provenance	-2776
▁successful	-2777
▁adventurous	-2778
AC	-2779
Me	-2780
▁/	-2781
!".	-2782
();	-2783
Who	-2784
box	-2785
con	-2786
den	-2787
erb	-2788
gth	-2789
idy	-2790
opl	-2791
roy	-2792
vel	-2793
▁ax	-2794
ikid	-2795
ince	-2796
json	-2797
ples	-2798
uple	-2799
user	-2800
▁adm	-2801
▁aer	-2802
▁fib	-2803
▁jam	-2804
▁map	-2805
▁tie	-2806
ature	-2807
value	-2808
▁avoc	-2809
▁clap	-2810
▁dess	-2811
▁fool	-2812
▁gasp	-2813
▁helm	-2814
▁lazy	-2815
▁meta	-2816
▁pige	-2817
▁pool	-2818
▁task	-2819
▁test	-2820
▁tidy	-2821
▁tire	-2822
aurant	-2823
▁Somet	-2824
▁balls	-2825
▁boots	-2826
▁drank	-2827
▁extra	-2828
▁falls	-2829
▁kinds	-2830
▁knife	-2831
▁layer	-2832
▁picks	-2833
▁tools	-2834
▁tries	-2835
▁twist	-2836
▁uncom	-2837
▁yours	-2838
ikidata	-2839
rameNet	-2840
▁aeropl	-2841
▁anyone	-2842
▁blouse	-2843
▁closet	-2844
▁market	-2845
▁packed	-2846
▁person	-2847
▁pillow	-2848
▁placed	-2849
▁sailed	-2850
▁sleepy	-2851
▁splash	-2852
▁dessert	-2853
▁destroy	-2854
▁sounded	-2855
▁tightly	-2856
▁festival	-2857
▁gathered	-2858
▁generous	-2859
▁peaceful	-2860
▁whenever	-2861
▁canonical	-2862
▁extractor	-2863
▁fibonacci	-2864
▁questions	-2865
▁motorcycle	-2866
aseExtractor	-2867
▁uncomfortable	-2868
ER	-2869
Now	-2870
Tom	-2871
dge	-2872
ubb	-2873
uce	-2874
udy	-2875
}")	-2876
▁Fr	-2877
▁Sh	-2878
▁ed	-2879
True	-2880
ancy	-2881
ense	-2882
most	-2883
oman	-2884
oose	-2885
ules	-2886
œLet	-2887
▁Bet	-2888
▁Mrs	-2889
▁adv	-2890
▁ham	-2891
▁hon	-2892
▁ind	-2893
▁jew	-2894
▁mud	-2895
▁rat	-2896
▁saf	-2897
board	-2898
irsty	-2899
lower	-2900
mined	-2901
ories	-2902
uring	-2903
▁Each	-2904
▁Give	-2905
▁blew	-2906
▁cell	-2907
▁char	-2908
▁dogs	-2909
▁exam	-2910
▁hang	-2911
▁lamp	-2912
▁mule	-2913
▁nods	-2914
▁rich	-2915
▁rode	-2916
▁true	-2917
▁veil	-2918
▁weak	-2919
▁week	-2920
erbNet	-2921
ormous	-2922
ourage	-2923
parent	-2924
spaper	-2925
umbled	-2926
▁Sammy	-2927
▁banan	-2928
▁built	-2929
▁fancy	-2930
▁mixed	-2931
▁raced	-2932
▁rules	-2933
▁songs	-2934
▁stood	-2935
▁stove	-2936
▁therm	-2937
▁tiger	-2938
▁twirl	-2939
▁whisp	-2940
▁become	-2941
▁harder	-2942
▁locked	-2943
▁louder	-2944
▁moving	-2945
▁poured	-2946
▁sighed	-2947
▁snacks	-2948
▁spaces	-2949
▁wander	-2950
▁avocado	-2951
▁covered	-2952
▁foolish	-2953
▁leaving	-2954
▁thirsty	-2955
▁calendar	-2956
▁enormous	-2957
▁kindness	-2958
▁returned	-2959
downloader	-2960
▁Sometimes	-2961
▁aeroplane	-2962
▁newspaper	-2963
▁determined	-2964
▁playground	-2965
▁restaurant	-2966
cel	-2967
dle	-2968
ery	-2969
lic	-2970
loo	-2971
ove	-2972
put	-2973
res	-2974
und	-2975
anut	-2976
ault	-2977
body	-2978
edic	-2979
ency	-2980
fold	-2981
from	-2982
imed	-2983
miss	-2984
ured	-2985
œYes	-2986
▁Who	-2987
▁anc	-2988
▁bub	-2989
▁gro	-2990
▁law	-2991
▁paw	-2992
▁rac	-2993
▁scr	-2994
▁sum	-2995
acked	-2996
arget	-2997
ction	-2998
iness	-2999
ormal	-3000
ouses	-3001
ushed	-3002
usual	-3003
œWhat	-3004
▁Andy	-3005
▁Iter	-3006
▁June	-3007
▁bell	-3008
▁case	-3009
▁chir	-3010
▁desc	-3011
▁elev	-3012
▁horn	-3013
▁jeep	-3014
▁lean	-3015
▁legs	-3016
▁meas	-3017
▁mint	-3018
▁muff	-3019
▁nltk	-3020
▁ribb	-3021
▁ring	-3022
▁twig	-3023
▁vase	-3024
▁wash	-3025
▁wing	-3026
Please	-3027
folder	-3028
laimed	-3029
▁chase	-3030
▁dough	-3031
▁drive	-3032
▁hears	-3033
▁often	-3034
▁otter	-3035
▁since	-3036
▁smoke	-3037
▁thief	-3038
▁those	-3039
andards	-3040
▁almost	-3041
▁decide	-3042
▁dishes	-3043
▁escape	-3044
▁fruits	-3045
▁gasped	-3046
▁hidden	-3047
▁houses	-3048
▁ignore	-3049
▁middle	-3050
▁minute	-3051
▁office	-3052
▁peanut	-3053
▁signed	-3054
▁univer	-3055
▁wagged	-3056
ountries	-3057
▁ancient	-3058
▁collect	-3059
▁deliver	-3060
▁factory	-3061
▁offered	-3062
▁pathlib	-3063
▁playful	-3064
▁request	-3065
▁unusual	-3066
▁windows	-3067
▁cleaning	-3068
▁download	-3069
▁stronger	-3070
▁exclaimed	-3071
▁themselves	-3072
▁comfortable	-3073
▁disappeared	-3074
ON	-3075
["	-3076
elp	-3077
ird	-3078
▁=>	-3079
They	-3080
ache	-3081
andy	-3082
comm	-3083
etch	-3084
ines	-3085
utes	-3086
ying	-3087
zard	-3088
▁Pat	-3089
▁bak	-3090
▁enc	-3091
▁eye	-3092
▁fur	-3093
▁gun	-3094
▁ing	-3095
▁mem	-3096
▁pee	-3097
▁tap	-3098
house	-3099
ially	-3100
ients	-3101
inary	-3102
orpus	-3103
tuple	-3104
▁Mark	-3105
▁Matt	-3106
▁beak	-3107
▁cups	-3108
▁desk	-3109
▁frag	-3110
▁hunt	-3111
▁kite	-3112
▁mama	-3113
▁sock	-3114
▁sugg	-3115
▁tele	-3116
▁type	-3117
apping	-3118
ubborn	-3119
▁Brown	-3120
▁Danny	-3121
▁Harry	-3122
▁Lizzy	-3123
▁block	-3124
▁chair	-3125
▁cheer	-3126
▁chick	-3127
▁chirp	-3128
▁guess	-3129
▁hours	-3130
▁incre	-3131
▁jelly	-3132
▁quite	-3133
▁snake	-3134
▁trash	-3135
▁woman	-3136
ategory	-3137
ription	-3138
▁boring	-3139
▁clever	-3140
▁cooler	-3141
▁depend	-3142
▁fright	-3143
▁ingred	-3144
▁lights	-3145
▁lizard	-3146
▁missed	-3147
▁normal	-3148
▁rocket	-3149
▁rolled	-3150
▁stamps	-3151
▁string	-3152
▁ticket	-3153
▁WordNet	-3154
▁bubbles	-3155
▁imagine	-3156
▁measure	-3157
▁painter	-3158
▁popular	-3159
▁scatter	-3160
▁suggest	-3161
▁triples	-3162
▁branches	-3163
▁cheerful	-3164
▁dreaming	-3165
▁elevator	-3166
▁fountain	-3167
▁language	-3168
▁learning	-3169
▁realised	-3170
▁stubborn	-3171
▁stumbled	-3172
▁spaceship	-3173
▁downloader	-3174
▁ingredients	-3175
!'	-3176
EN	-3177
LA	-3178
TI	-3179
gn	-3180
tr	-3181
wr	-3182
▁]	-3183
ACK	-3184
apa	-3185
bie	-3186
cus	-3187
emo	-3188
ian	-3189
pro	-3190
ses	-3191
was	-3192
zip	-3193
▁My	-3194
AGES	-3195
Help	-3196
PACK	-3197
Stop	-3198
aged	-3199
ails	-3200
aken	-3201
asis	-3202
cogn	-3203
htub	-3204
list	-3205
mand	-3206
nset	-3207
omic	-3208
rosc	-3209
ures	-3210
▁Jan	-3211
▁ang	-3212
▁axe	-3213
▁env	-3214
▁jog	-3215
▁lar	-3216
▁rag	-3217
▁sol	-3218
▁tun	-3219
▁van	-3220
Sorry	-3221
ately	-3222
esult	-3223
igail	-3224
inked	-3225
ither	-3226
start	-3227
wards	-3228
œLetâ	-3229
▁Nemo	-3230
▁Snow	-3231
▁bake	-3232
▁bees	-3233
▁deaf	-3234
▁easy	-3235
▁fear	-3236
▁glow	-3237
▁half	-3238
▁inse	-3239
▁itch	-3240
▁once	-3241
▁seal	-3242
▁skin	-3243
▁spin	-3244
▁stem	-3245
▁wake	-3246
assion	-3247
ecause	-3248
lderly	-3249
ourite	-3250
washer	-3251
▁Today	-3252
▁above	-3253
▁agree	-3254
▁cheek	-3255
▁espec	-3256
▁march	-3257
▁miner	-3258
▁movie	-3259
▁nails	-3260
▁oasis	-3261
▁pract	-3262
▁rough	-3263
▁seeds	-3264
▁shade	-3265
▁shape	-3266
▁speed	-3267
▁strip	-3268
▁walls	-3269
▁worms	-3270
classid	-3271
roscope	-3272
▁advice	-3273
▁asking	-3274
▁bottom	-3275
▁copper	-3276
▁demand	-3277
▁folder	-3278
▁grocer	-3279
▁grumpy	-3280
▁hammer	-3281
▁honest	-3282
▁knight	-3283
▁laughs	-3284
▁safely	-3285
▁zipper	-3286
PACKAGES	-3287
▁Abigail	-3288
▁bathtub	-3289
▁checked	-3290
▁cooking	-3291
▁elderly	-3292
▁extract	-3293
▁happier	-3294
▁operand	-3295
▁peppers	-3296
▁results	-3297
▁session	-3298
▁skipped	-3299
▁sneezed	-3300
▁sticker	-3301
▁whistle	-3302
▁enjoying	-3303
▁painting	-3304
▁buildings	-3305
▁colourful	-3306
▁favourite	-3307
▁suggested	-3308
▁compassion	-3309
▁dishwasher	-3310
▁especially	-3311
▁microscope	-3312
aseDownloader	-3313
Is	-3314
Sh	-3315
bf	-3316
fl	-3317
ol	-3318
▁:	-3319
().	-3320
der	-3321
des	-3322
eor	-3323
for	-3324
isa	-3325
nam	-3326
par	-3327
rig	-3328
sit	-3329
ues	-3330
uth	-3331
zer	-3332
▁#[	-3333
▁Me	-3334
▁di	-3335
▁id	-3336
▁ig	-3337
▁{}	-3338
cles	-3339
conf	-3340
ents	-3341
erri	-3342
gest	-3343
icer	-3344
ideo	-3345
ique	-3346
ists	-3347
ived	-3348
merg	-3349
nltk	-3350
oint	-3351
omed	-3352
ouch	-3353
ustr	-3354
▁///	-3355
▁fre	-3356
▁pin	-3357
▁pun	-3358
▁sal	-3359
adder	-3360
agull	-3361
alous	-3362
cream	-3363
eorge	-3364
ifest	-3365
reeze	-3366
urtle	-3367
useum	-3368
▁data	-3369
▁dent	-3370
▁edge	-3371
▁eggs	-3372
▁fill	-3373
▁foot	-3374
▁mech	-3375
▁obed	-3376
▁ones	-3377
▁pale	-3378
▁pear	-3379
▁pipe	-3380
▁step	-3381
String	-3382
ention	-3383
herman	-3384
▁Would	-3385
▁angel	-3386
▁bored	-3387
▁clear	-3388
▁emerg	-3389
▁frown	-3390
▁helps	-3391
▁igloo	-3392
▁large	-3393
▁marry	-3394
▁older	-3395
▁power	-3396
▁radio	-3397
▁seats	-3398
▁split	-3399
▁study	-3400
▁taken	-3401
▁tears	-3402
▁terri	-3403
▁twink	-3404
▁video	-3405
▁walks	-3406
commend	-3407
▁George	-3408
▁bounce	-3409
▁breath	-3410
▁config	-3411
▁crayon	-3412
▁fluffy	-3413
▁frustr	-3414
▁helmet	-3415
▁insect	-3416
▁itself	-3417
▁ladder	-3418
▁learnt	-3419
▁nature	-3420
▁nicely	-3421
▁palace	-3422
▁peeked	-3423
▁polish	-3424
▁public	-3425
▁recogn	-3426
▁reward	-3427
▁saying	-3428
▁shield	-3429
▁target	-3430
▁trophy	-3431
▁unique	-3432
▁yawned	-3433
▁Natural	-3434
▁biggest	-3435
▁blowing	-3436
▁costume	-3437
▁couldnâ	-3438
▁default	-3439
▁dentist	-3440
▁fingers	-3441
▁fireman	-3442
▁fragile	-3443
▁freezer	-3444
▁hopping	-3445
▁jealous	-3446
▁minutes	-3447
▁pleased	-3448
▁prevent	-3449
▁ribbons	-3450
▁shaking	-3451
▁smaller	-3452
▁sweater	-3453
▁wrapped	-3454
▁Iterator	-3455
▁Snowball	-3456
▁Whenever	-3457
▁mechanic	-3458
▁obedient	-3459
▁emergency	-3460
▁fisherman	-3461
▁lightning	-3462
▁whispered	-3463
▁basketball	-3464
▁frightened	-3465
ED	-3466
])	-3467
fr	-3468
gy	-3469
jo	-3470
nc	-3471
of	-3472
sm	-3473
(),	-3474
Map	-3475
ato	-3476
fic	-3477
hus	-3478
iff	-3479
lla	-3480
omy	-3481
tmp	-3482
Here	-3483
cent	-3484
cuss	-3485
enry	-3486
eper	-3487
illi	-3488
inal	-3489
pack	-3490
reeS	-3491
stat	-3492
text	-3493
umsy	-3494
word	-3495
▁Big	-3496
▁cri	-3497
▁cur	-3498
▁fat	-3499
▁icy	-3500
▁led	-3501
▁que	-3502
▁sle	-3503
▁son	-3504
▁wip	-3505
ankie	-3506
asing	-3507
astic	-3508
celet	-3509
ected	-3510
ooped	-3511
osaur	-3512
place	-3513
rella	-3514
write	-3515
▁Fred	-3516
▁Jess	-3517
▁Lisa	-3518
▁Next	-3519
▁body	-3520
▁boss	-3521
▁curt	-3522
▁fail	-3523
▁fake	-3524
▁four	-3525
▁goal	-3526
▁harm	-3527
▁hats	-3528
▁melt	-3529
▁orig	-3530
▁rare	-3531
▁rece	-3532
▁shut	-3533
▁tape	-3534
▁text	-3535
▁tied	-3536
aspoon	-3537
attern	-3538
ficult	-3539
keeper	-3540
length	-3541
object	-3542
▁Fanny	-3543
▁Henry	-3544
▁crack	-3545
▁guard	-3546
▁hairy	-3547
▁hurry	-3548
▁jumps	-3549
▁knock	-3550
▁knows	-3551
▁lying	-3552
▁pulls	-3553
▁queen	-3554
▁raise	-3555
▁shone	-3556
▁sorts	-3557
▁speak	-3558
▁stret	-3559
dataset	-3560
operand	-3561
▁breeze	-3562
▁clumsy	-3563
▁create	-3564
▁either	-3565
▁enthus	-3566
▁headed	-3567
▁kicked	-3568
▁notice	-3569
▁passed	-3570
▁plants	-3571
▁pushes	-3572
▁second	-3573
▁strugg	-3574
▁sudden	-3575
▁allowed	-3576
▁circles	-3577
▁counter	-3578
▁cricket	-3579
▁dancing	-3580
▁discuss	-3581
▁dreamed	-3582
▁leading	-3583
▁pattern	-3584
▁picking	-3585
▁regular	-3586
▁relaxed	-3587
▁seagull	-3588
▁serious	-3589
▁spoiled	-3590
▁sweetie	-3591
▁trusted	-3592
reeSitter	-3593
▁FrameNet	-3594
▁bracelet	-3595
▁brothers	-3596
▁complete	-3597
▁original	-3598
▁remained	-3599
▁reminded	-3600
▁sandwich	-3601
▁teaspoon	-3602
▁terrible	-3603
▁universe	-3604
▁difficult	-3605
▁happiness	-3606
▁recommend	-3607
▁searching	-3608
▁Everything	-3609
▁celebrated	-3610
▁discovered	-3611
▁friendship	-3612
▁impressive	-3613
▁thoughtful	-3614
▁vegetables	-3615
▁compassionate	-3616
Gb	-3617
Ow	-3618
RE	-3619
To	-3620
fa	-3621
pr	-3622
}:	-3623
See	-3624
Yay	-3625
cod	-3626
cur	-3627
ges	-3628
htt	-3629
ips	-3630
izz	-3631
lid	-3632
max	-3633
mbo	-3634
ted	-3635
▁:=	-3636
▁OK	-3637
▁Re	-3638
▁["	-3639
▁bi	-3640
▁lu	-3641
▁os	-3642
choo	-3643
ckey	-3644
come	-3645
enny	-3646
gust	-3647
iggy	-3648
ipop	-3649
noon	-3650
nown	-3651
smGb	-3652
stri	-3653
ueen	-3654
▁anx	-3655
▁bal	-3656
▁bin	-3657
▁hut	-3658
▁lic	-3659
▁lid	-3660
▁nur	-3661
▁pup	-3662
▁six	-3663
▁tub	-3664
▁url	-3665
Earth	-3666
amond	-3667
ellig	-3668
iches	-3669
liday	-3670
phone	-3671
▁Here	-3672
▁Pete	-3673
▁bool	-3674
▁camp	-3675
▁chan	-3676
▁chim	-3677
▁cows	-3678
▁dear	-3679
▁deer	-3680
▁fine	-3681
▁fold	-3682
▁fort	-3683
▁gray	-3684
▁hung	-3685
▁knee	-3686
▁leak	-3687
▁libr	-3688
▁loll	-3689
▁mask	-3690
▁moon	-3691
▁nosy	-3692
▁paid	-3693
▁peek	-3694
▁pole	-3695
▁prep	-3696
▁rail	-3697
▁scar	-3698
▁sent	-3699
▁tank	-3700
▁temp	-3701
Backed	-3702
exists	-3703
lasses	-3704
ometer	-3705
urried	-3706
▁Betty	-3707
▁Ducky	-3708
▁Robot	-3709
▁ahead	-3710
▁apart	-3711
▁await	-3712
▁bikes	-3713
▁cards	-3714
▁chose	-3715
▁couch	-3716
▁doesn	-3717
▁float	-3718
▁forth	-3719
▁fresh	-3720
▁grown	-3721
▁hotel	-3722
▁hurts	-3723
▁jolly	-3724
▁lives	-3725
▁messy	-3726
▁ornam	-3727
▁poked	-3728
▁shake	-3729
▁snugg	-3730
▁spear	-3731
▁symbo	-3732
▁thumb	-3733
▁times	-3734
▁weird	-3735
▁apolog	-3736
▁behave	-3737
▁counts	-3738
▁drawer	-3739
▁except	-3740
▁giving	-3741
▁gloomy	-3742
▁hockey	-3743
▁joined	-3744
▁loaded	-3745
▁muffin	-3746
▁museum	-3747
▁petals	-3748
▁remain	-3749
▁slides	-3750
▁smelly	-3751
▁supply	-3752
▁synset	-3753
▁taught	-3754
elligent	-3755
▁anxious	-3756
▁comfort	-3757
▁diamond	-3758
▁disgust	-3759
▁growing	-3760
▁holiday	-3761
▁invited	-3762
▁license	-3763
▁painted	-3764
▁project	-3765
▁sandbox	-3766
▁squeeze	-3767
▁brightly	-3768
▁careless	-3769
▁carrying	-3770
▁charming	-3771
▁complain	-3772
▁dinosaur	-3773
▁lollipop	-3774
▁ordinary	-3775
▁splashed	-3776
▁starting	-3777
▁afternoon	-3778
▁delighted	-3779
▁telephone	-3780
▁frustrated	-3781
▁sandwiches	-3782
▁description	-3783
▁intelligent	-3784
▁thermometer	-3785
BackedDownloader	-3786
BF	-3787
LL	-3788
ME	-3789
ah	-3790
bs	-3791
no	-3792
ok	-3793
pa	-3794
}`	-3795
://	-3796
amb	-3797
ano	-3798
era	-3799
ety	-3800
lay	-3801
tal	-3802
ugh	-3803
▁fu	-3804
appy	-3805
cast	-3806
ceed	-3807
code	-3808
cont	-3809
edal	-3810
fish	-3811
indy	-3812
lace	-3813
lter	-3814
mail	-3815
mall	-3816
onse	-3817
with	-3818
▁May	-3819
▁art	-3820
▁dat	-3821
▁gas	-3822
▁isn	-3823
▁len	-3824
▁sil	-3825
▁sne	-3826
▁umb	-3827
▁yet	-3828
alpha	-3829
ereal	-3830
heart	-3831
https	-3832
ments	-3833
opard	-3834
pairs	-3835
▁Aunt	-3836
▁Burt	-3837
▁bark	-3838
▁beep	-3839
▁burn	-3840
▁comb	-3841
▁crow	-3842
▁ener	-3843
▁gain	-3844
▁goat	-3845
▁hero	-3846
▁hook	-3847
▁hoop	-3848
▁king	-3849
▁meal	-3850
▁nuts	-3851
▁pair	-3852
▁raft	-3853
▁soar	-3854
▁sofa	-3855
▁spun	-3856
▁suff	-3857
▁whip	-3858
append	-3859
atched	-3860
castle	-3861
framed	-3862
stairs	-3863
▁False	-3864
▁Sandy	-3865
▁board	-3866
▁genie	-3867
▁glass	-3868
▁harsh	-3869
▁itchy	-3870
▁offer	-3871
▁pages	-3872
▁pitch	-3873
▁plate	-3874
▁salad	-3875
▁slept	-3876
▁space	-3877
▁spray	-3878
▁stack	-3879
▁toast	-3880
▁total	-3881
▁tough	-3882
▁wheel	-3883
▁witch	-3884
▁yucky	-3885
Because	-3886
illiant	-3887
▁Before	-3888
▁Option	-3889
▁anyway	-3890
▁barber	-3891
▁cereal	-3892
▁circle	-3893
▁invest	-3894
▁leaned	-3895
▁loudly	-3896
▁modest	-3897
▁parity	-3898
▁pastry	-3899
▁pigeon	-3900
▁prayed	-3901
▁rubbed	-3902
▁ruined	-3903
▁rushed	-3904
▁safety	-3905
▁saving	-3906
▁singer	-3907
▁triang	-3908
▁turtle	-3909
▁washed	-3910
▁wheels	-3911
▁Frankie	-3912
▁against	-3913
▁bananas	-3914
▁blinked	-3915
▁chimney	-3916
▁colours	-3917
▁crayons	-3918
▁envious	-3919
▁finding	-3920
▁forgave	-3921
▁grandpa	-3922
▁grocery	-3923
▁leopard	-3924
▁managed	-3925
▁mineral	-3926
▁percent	-3927
▁permiss	-3928
▁plastic	-3929
▁pressed	-3930
▁putting	-3931
▁refused	-3932
▁shocked	-3933
▁slipped	-3934
▁category	-3935
▁chickens	-3936
▁decorate	-3937
▁imagined	-3938
▁independ	-3939
▁necklace	-3940
▁ornament	-3941
▁pointing	-3942
▁shrugged	-3943
▁sparkled	-3944
▁swinging	-3945
▁umbrella	-3946
▁brilliant	-3947
▁celebrate	-3948
▁listening	-3949
▁policeman	-3950
▁somewhere	-3951
▁squirrels	-3952
▁treasures	-3953
▁treehouse	-3954
▁dependable	-3955
▁disgusting	-3956
NLTKRawLayout	-3957
▁NLTKRawLayout	-3958
"{	-3959
DI	-3960
If	-3961
RI	-3962
SO	-3963
],	-3964
dm	-3965
€.	-3966
▁!	-3967
One	-3968
TMm	-3969
Wel	-3970
]]]	-3971
arm	-3972
arn	-3973
aul	-3974
gan	-3975
ius	-3976
nel	-3977
ora	-3978
qdm	-3979
reg	-3980
rod	-3981
zor	-3982
œIt	-3983
▁<=	-3984
▁Am	-3985
▁Ho	-3986
▁Ne	-3987
▁pa	-3988
▁},	-3989
Spot	-3990
Wait	-3991
abin	-3992
bled	-3993
erce	-3994
ffic	-3995
helf	-3996
hest	-3997
hood	-3998
host	-3999
inda	-4000
izza	-4001
lang	-4002
reci	-4003
rees	-4004
sion	-4005
stem	-4006
time	-4007
verb	-4008
œYou	-4009
▁Are	-4010
▁God	-4011
▁Jon	-4012
▁Sun	-4013
▁asy	-4014
▁ins	-4015
▁pan	-4016
▁rhy	-4017
▁sew	-4018
admin	-4019
arlie	-4020
ement	-4021
flies	-4022
igate	-4023
ishes	-4024
ision	-4025
iture	-4026
light	-4027
match	-4028
rance	-4029
uddle	-4030
under	-4031
users	-4032
œThat	-4033
▁Baby	-4034
▁Letâ	-4035
▁Lina	-4036
▁Papa	-4037
▁ador	-4038
▁barn	-4039
▁base	-4040
▁bicy	-4041
▁dare	-4042
▁dead	-4043
▁dire	-4044
▁donâ	-4045
▁flav	-4046
▁furn	-4047
▁gate	-4048
▁hits	-4049
▁jack	-4050
▁lose	-4051
▁opin	-4052
▁sail	-4053
▁size	-4054
▁soil	-4055
▁stom	-4056
▁sunf	-4057
▁tqdm	-4058
▁tray	-4059
▁vest	-4060
▁waff	-4061
▁yarn	-4062
ishing	-4063
member	-4064
region	-4065
▁Bunny	-4066
▁Cindy	-4067
▁James	-4068
▁Janie	-4069
▁Linda	-4070
▁alarm	-4071
▁bears	-4072
▁bossy	-4073
▁cabin	-4074
▁calls	-4075
▁crawl	-4076
▁exist	-4077
▁exper	-4078
▁fetch	-4079
▁finds	-4080
▁flash	-4081
▁hesit	-4082
▁impro	-4083
▁invit	-4084
▁items	-4085
▁jewel	-4086
▁leash	-4087
▁lions	-4088
▁marsh	-4089
▁means	-4090
▁medic	-4091
▁merge	-4092
▁opens	-4093
▁order	-4094
▁organ	-4095
▁pizza	-4096
▁pride	-4097
▁razor	-4098
▁rooms	-4099
▁scale	-4100
▁scare	-4101
▁setup	-4102
▁shoot	-4103
▁stops	-4104
▁tummy	-4105
▁wiped	-4106
Welcome	-4107
▁Isabel	-4108
▁String	-4109
▁birdie	-4110
▁burned	-4111
▁caring	-4112
▁chance	-4113
▁choose	-4114
▁cooked	-4115
▁dancer	-4116
▁fierce	-4117
▁fridge	-4118
▁future	-4119
▁golden	-4120
▁handle	-4121
▁hunter	-4122
▁introd	-4123
▁mighty	-4124
▁pepper	-4125
▁roared	-4126
▁seeing	-4127
▁shiver	-4128
▁shouts	-4129
▁shrimp	-4130
▁softly	-4131
▁starts	-4132
▁statue	-4133
▁suffer	-4134
▁symbol	-4135
▁tables	-4136
▁theory	-4137
▁trucks	-4138
▁useful	-4139
▁wishes	-4140
▁wooden	-4141
▁Charlie	-4142
▁Someone	-4143
▁appreci	-4144
▁bicycle	-4145
▁carrots	-4146
▁courage	-4147
▁dolphin	-4148
▁eagerly	-4149
▁frowned	-4150
▁letting	-4151
▁library	-4152
▁meeting	-4153
▁missing	-4154
▁perform	-4155
▁players	-4156
▁printed	-4157
▁pumpkin	-4158
▁replace	-4159
▁scratch	-4160
▁succeed	-4161
RawTriple	-4162
▁Sunshine	-4163
▁adorable	-4164
▁blooming	-4165
▁cherries	-4166
▁crawling	-4167
▁curtains	-4168
▁entrance	-4169
▁failures	-4170
▁memories	-4171
▁sleeping	-4172
▁teaching	-4173
▁amazement	-4174
▁bookshelf	-4175
▁furniture	-4176
▁marshmall	-4177
▁splashing	-4178
▁structure	-4179
▁Eventually	-4180
▁permission	-4181
▁princesses	-4182
▁sandcastle	-4183
▁investigate	-4184
▁underground	-4185
BaseExtractor	-4186
(`	-4187
AY	-4188
Id	-4189
NO	-4190
OR	-4191
go	-4192
po	-4193
py	-4194
wh	-4195
xu	-4196
ye	-4197
▁Y	-4198
!",	-4199
())	-4200
DIR	-4201
Tim	-4202
alk	-4203
aps	-4204
cab	-4205
exp	-4206
isk	-4207
iso	-4208
mar	-4209
osm	-4210
ric	-4211
thm	-4212
tot	-4213
▁!=	-4214
▁+=	-4215
▁Pu	-4216
▁da	-4217
▁oy	-4218
Node	-4219
ases	-4220
back	-4221
case	-4222
ccer	-4223
corn	-4224
enet	-4225
erry	-4226
etle	-4227
form	-4228
iast	-4229
ices	-4230
ific	-4231
izes	-4232
lemm	-4233
loom	-4234
medi	-4235
port	-4236
ucet	-4237
zing	-4238
▁Kim	-4239
▁LAY	-4240
▁Meg	-4241
▁Not	-4242
▁Per	-4243
▁ach	-4244
▁age	-4245
▁ass	-4246
▁cam	-4247
▁cop	-4248
▁pap	-4249
▁pur	-4250
▁rec	-4251
▁rid	-4252
▁rot	-4253
▁spr	-4254
▁std	-4255
▁sty	-4256
▁via	-4257
adows	-4258
alley	-4259
ative	-4260
ebook	-4261
ename	-4262
htray	-4263
ities	-4264
known	-4265
layer	-4266
leary	-4267
quake	-4268
rence	-4269
sters	-4270
ucked	-4271
ution	-4272
▁Cody	-4273
▁Help	-4274
▁Neil	-4275
▁Peep	-4276
▁Your	-4277
▁bent	-4278
▁bone	-4279
▁cush	-4280
▁dust	-4281
▁film	-4282
▁flat	-4283
▁glue	-4284
▁json	-4285
▁knob	-4286
▁lect	-4287
▁luxu	-4288
▁main	-4289
▁phot	-4290
▁port	-4291
▁prec	-4292
▁quit	-4293
▁repe	-4294
▁sink	-4295
▁soap	-4296
▁suit	-4297
▁sung	-4298
▁toes	-4299
▁tube	-4300
▁user	-4301
▁ways	-4302
config	-4303
etches	-4304
iastic	-4305
ipping	-4306
lemmas	-4307
orpora	-4308
uation	-4309
uckily	-4310
▁Alexa	-4311
▁Amber	-4312
▁Bloom	-4313
▁Jerry	-4314
▁Puppy	-4315
▁Ralph	-4316
▁Sunny	-4317
▁Where	-4318
▁badly	-4319
▁baker	-4320
▁beans	-4321
▁early	-4322
▁event	-4323
▁grabs	-4324
▁grace	-4325
▁hedge	-4326
▁inter	-4327
▁names	-4328
▁pairs	-4329
▁pedal	-4330
▁press	-4331
▁scarf	-4332
▁scold	-4333
▁shine	-4334
▁short	-4335
▁stage	-4336
▁steal	-4337
▁vocab	-4338
ination	-4339
wordnet	-4340
▁Hopper	-4341
▁Result	-4342
▁beetle	-4343
▁begged	-4344
▁bushes	-4345
▁camera	-4346
▁candle	-4347
▁cherry	-4348
▁corpus	-4349
▁drinks	-4350
▁energy	-4351
▁faucet	-4352
▁marble	-4353
▁oyster	-4354
▁papers	-4355
▁planes	-4356
▁punish	-4357
▁racing	-4358
▁rhythm	-4359
▁rubber	-4360
▁soccer	-4361
▁source	-4362
▁square	-4363
▁triple	-4364
▁tugged	-4365
▁unpack	-4366
▁valley	-4367
▁waffle	-4368
identity	-4369
relation	-4370
▁ashtray	-4371
▁attract	-4372
▁bandage	-4373
▁bounced	-4374
▁castles	-4375
▁changed	-4376
▁chirped	-4377
▁closely	-4378
▁cushion	-4379
▁distant	-4380
▁doctors	-4381
▁lecture	-4382
▁letters	-4383
▁missile	-4384
▁nowhere	-4385
▁puzzles	-4386
▁sailing	-4387
▁shadows	-4388
▁shelter	-4389
▁slapped	-4390
▁telling	-4391
▁thunder	-4392
▁version	-4393
▁visited	-4394
mediately	-4395
▁Wikidata	-4396
▁clapping	-4397
▁explored	-4398
▁measured	-4399
▁medicine	-4400
▁notebook	-4401
▁requests	-4402
▁response	-4403
▁snuggled	-4404
▁squeezed	-4405
▁thinking	-4406
▁triangle	-4407
▁Countries	-4408
▁jellyfish	-4409
▁knowledge	-4410
▁stretched	-4411
▁subfolder	-4412
▁vegetable	-4413
▁TreeSitter	-4414
▁earthquake	-4415
▁invitation	-4416
▁respectful	-4417
▁sunglasses	-4418
▁sweetheart	-4419
▁independent	-4420
▁Collocations	-4421
▁enthusiastic	-4422
▁BaseExtractor	-4423
>/	-4424
BY	-4425
Co	-4426
Ok	-4427
Re	-4428
ae	-4429
tt	-4430
▁>	-4431
));	-4432
And	-4433
BYT	-4434
Did	-4435
Gra	-4436
Mmm	-4437
aky	-4438
ald	-4439
asc	-4440
coa	-4441
esp	-4442
ica	-4443
ira	-4444
ium	-4445
num	-4446
oot	-4447
per	-4448
sal	-4449
sol	-4450
url	-4451
yth	-4452
œNo	-4453
▁Ex	-4454
▁Ke	-4455
▁hi	-4456
Will	-4457
Yuck	-4458
apon	-4459
coon	-4460
eted	-4461
icky	-4462
ills	-4463
init	-4464
ison	-4465
iter	-4466
line	-4467
ncle	-4468
node	-4469
ntax	-4470
rams	-4471
reen	-4472
uper	-4473
upid	-4474
œWhy	-4475
▁Cla	-4476
▁Noa	-4477
▁fro	-4478
▁jet	-4479
▁mis	-4480
▁mut	-4481
▁pil	-4482
▁row	-4483
▁zer	-4484
BYTES	-4485
There	-4486
achel	-4487
anger	-4488
gging	-4489
hello	-4490
isted	-4491
items	-4492
ollow	-4493
oming	-4494
ooper	-4495
total	-4496
truck	-4497
umped	-4498
utter	-4499
xible	-4500
ython	-4501
▁Carl	-4502
▁Jojo	-4503
▁List	-4504
▁Look	-4505
▁Mike	-4506
▁Node	-4507
▁Remy	-4508
▁Tara	-4509
▁bald	-4510
▁beat	-4511
▁cras	-4512
▁cubs	-4513
▁fash	-4514
▁five	-4515
▁fuel	-4516
▁gear	-4517
▁grin	-4518
▁ours	-4519
▁outf	-4520
▁pine	-4521
▁prop	-4522
▁resc	-4523
▁role	-4524
▁rubs	-4525
▁salt	-4526
▁sett	-4527
▁sigh	-4528
▁swan	-4529
▁unit	-4530
▁verb	-4531
Shared	-4532
aspace	-4533
atient	-4534
coding	-4535
module	-4536
result	-4537
tagged	-4538
▁Abbie	-4539
▁Earth	-4540
▁Kelly	-4541
▁Lilly	-4542
▁OsmGb	-4543
▁Penny	-4544
▁Percy	-4545
▁Point	-4546
▁alive	-4547
▁allow	-4548
▁async	-4549
▁attic	-4550
▁baked	-4551
▁below	-4552
▁cared	-4553
▁chess	-4554
▁cliff	-4555
▁clown	-4556
▁cocoa	-4557
▁codes	-4558
▁daisy	-4559
▁didnâ	-4560
▁drops	-4561
▁error	-4562
▁flute	-4563
▁goose	-4564
▁instr	-4565
▁juicy	-4566
▁lower	-4567
▁nurse	-4568
▁panic	-4569
▁pasta	-4570
▁patch	-4571
▁peach	-4572
▁shark	-4573
▁skull	-4574
▁spell	-4575
▁spoke	-4576
▁stats	-4577
▁style	-4578
▁swims	-4579
▁trans	-4580
Fetches	-4581
Grandma	-4582
berries	-4583
corpora	-4584
replace	-4585
subject	-4586
▁Claire	-4587
▁Cleary	-4588
▁Cooper	-4589
▁Jessie	-4590
▁Rachel	-4591
▁argued	-4592
▁assert	-4593
▁atomic	-4594
▁attach	-4595
▁beamed	-4596
▁breaks	-4597
▁candid	-4598
▁desert	-4599
▁giggle	-4600
▁hardly	-4601
▁invite	-4602
▁jewels	-4603
▁nobody	-4604
▁powers	-4605
▁puddle	-4606
▁shakes	-4607
▁sneeze	-4608
▁sprink	-4609
▁stupid	-4610
▁summer	-4611
▁thread	-4612
▁towers	-4613
▁trains	-4614
▁tunnel	-4615
▁warned	-4616
▁weapon	-4617
▁wisdom	-4618
▁yields	-4619
datasets	-4620
manifest	-4621
▁Tweetie	-4622
▁admired	-4623
▁fashion	-4624
▁flutter	-4625
▁highest	-4626
▁hurried	-4627
▁opinion	-4628
▁pigeons	-4629
▁popcorn	-4630
▁scooped	-4631
▁spiders	-4632
▁spilled	-4633
▁stirred	-4634
▁stomach	-4635
▁surface	-4636
▁traffic	-4637
▁tripped	-4638
▁turning	-4639
▁twirled	-4640
▁zooming	-4641
Countries	-4642
mentation	-4643
subfolder	-4644
▁Everyday	-4645
▁Optional	-4646
▁belonged	-4647
▁bouncing	-4648
▁encoding	-4649
▁flexible	-4650
▁function	-4651
▁harmless	-4652
▁helpless	-4653
▁machines	-4654
▁monsters	-4655
▁playroom	-4656
▁radishes	-4657
▁received	-4658
▁stirring	-4659
▁stranger	-4660
▁visiting	-4661
▁welcomed	-4662
▁Standards	-4663
▁attention	-4664
▁creatures	-4665
▁encourage	-4666
▁firetruck	-4667
▁impatient	-4668
▁measuring	-4669
▁neighbour	-4670
▁practiced	-4671
▁scattered	-4672
▁sunflower	-4673
▁Morphology	-4674
▁attractive	-4675
▁pretending	-4676
▁immediately	-4677
▁NaturalEarth	-4678
▁canonicalize	-4679
BaseDownloader	-4680
!(	-4681
>,	-4682
FA	-4683
He	-4684
IN	-4685
Pr	-4686
SE	-4687
SS	-4688
ca	-4689
mk	-4690
oh	-4691
Ann	-4692
ENT	-4693
EST	-4694
How	-4695
Max	-4696
ORD	-4697
ann	-4698
but	-4699
cil	-4700
dig	-4701
dro	-4702
edy	-4703
fil	-4704
hol	-4705
ibi	-4706
iew	-4707
ilo	-4708
inc	-4709
jam	-4710
nal	-4711
nie	-4712
pen	-4713
rik	-4714
tes	-4715
the	-4716
yal	-4717
ype	-4718
zen	-4719
œIâ	-4720
œMy	-4721
▁Sp	-4722
Sara	-4723
Save	-4724
Your	-4725
aled	-4726
ccol	-4727
ctop	-4728
ella	-4729
fram	-4730
gine	-4731
hter	-4732
iana	-4733
inta	-4734
item	-4735
ives	-4736
lier	-4737
next	-4738
ongo	-4739
part	-4740
rain	-4741
size	-4742
spec	-4743
sues	-4744
well	-4745
}`);	-4746
œCan	-4747
œItâ	-4748
▁Bri	-4749
▁Hal	-4750
▁Its	-4751
▁Lia	-4752
▁Lou	-4753
▁Mae	-4754
▁Mon	-4755
▁Two	-4756
▁ali	-4757
▁aud	-4758
▁bee	-4759
▁bur	-4760
▁dug	-4761
▁fog	-4762
▁itâ	-4763
▁lab	-4764
▁lie	-4765
▁tmp	-4766
▁wob	-4767
These	-4768
abrik	-4769
aches	-4770
annah	-4771
antly	-4772
ascin	-4773
brown	-4774
ccoli	-4775
chant	-4776
compl	-4777
ctors	-4778
drobe	-4779
guing	-4780
ileen	-4781
ising	-4782
itten	-4783
jamas	-4784
lcano	-4785
mport	-4786
otten	-4787
strip	-4788
unday	-4789
▁Abby	-4790
▁Bibi	-4791
▁Both	-4792
▁Frog	-4793
▁Isla	-4794
▁Josh	-4795
▁Maya	-4796
▁True	-4797
▁area	-4798
▁bury	-4799
▁cent	-4800
▁dove	-4801
▁dull	-4802
▁gust	-4803
▁hist	-4804
▁hive	-4805
▁inst	-4806
▁laid	-4807
▁loop	-4808
▁mice	-4809
▁node	-4810
▁oper	-4811
▁pigs	-4812
▁pist	-4813
▁poke	-4814
▁post	-4815
▁pupp	-4816
▁reve	-4817
▁rust	-4818
▁stro	-4819
▁tide	-4820
▁tore	-4821
▁view	-4822
▁wags	-4823
▁wrap	-4824
▁yawn	-4825
▁zero	-4826
Thanks	-4827
ashMap	-4828
ctopus	-4829
idence	-4830
istent	-4831
oubled	-4832
sitter	-4833
strict	-4834
string	-4835
tokens	-4836
univer	-4837
▁Bella	-4838
▁Bongo	-4839
▁Helen	-4840
▁Holly	-4841
▁Jones	-4842
▁Minta	-4843
▁Shake	-4844
▁Tilly	-4845
▁activ	-4846
▁appro	-4847
▁bites	-4848
▁cable	-4849
▁chore	-4850
▁crash	-4851
▁cubes	-4852
▁doors	-4853
▁drain	-4854
▁flood	-4855
▁gifts	-4856
▁hated	-4857
▁holds	-4858
▁holes	-4859
▁judge	-4860
▁licks	-4861
▁metal	-4862
▁mixer	-4863
▁nicer	-4864
▁photo	-4865
▁range	-4866
▁sadly	-4867
▁scoot	-4868
▁sizes	-4869
▁straw	-4870
▁super	-4871
▁suppl	-4872
▁swamp	-4873
▁sword	-4874
▁towel	-4875
▁trade	-4876
▁twigs	-4877
extract	-4878
verbnet	-4879
▁Bobbie	-4880
▁Chicky	-4881
▁Eileen	-4882
▁Hannah	-4883
▁Jennie	-4884
▁People	-4885
▁Samina	-4886
▁Sunday	-4887
▁Tweety	-4888
▁bakery	-4889
▁baking	-4890
▁banana	-4891
▁beauty	-4892
▁buried	-4893
▁distur	-4894
▁easily	-4895
▁engine	-4896
▁fallen	-4897
▁fascin	-4898
▁fields	-4899
▁flavor	-4900
▁greedy	-4901
▁hoping	-4902
▁issues	-4903
▁jogged	-4904
▁keeper	-4905
▁lively	-4906
▁luxury	-4907
▁makeup	-4908
▁meowed	-4909
▁outfit	-4910
▁pencil	-4911
▁plates	-4912
▁poison	-4913
▁potato	-4914
▁powder	-4915
▁predic	-4916
▁proper	-4917
▁radish	-4918
▁radius	-4919
▁record	-4920
▁refres	-4921
▁rescue	-4922
▁resume	-4923
▁served	-4924
▁shirts	-4925
▁silver	-4926
▁single	-4927
▁smells	-4928
▁squash	-4929
▁sunset	-4930
▁taller	-4931
▁throws	-4932
▁warmth	-4933
▁waving	-4934
▁zoomed	-4935
framenet	-4936
holonyms	-4937
▁Instead	-4938
▁Luckily	-4939
▁accompl	-4940
▁belongs	-4941
▁bravely	-4942
▁cartoon	-4943
▁cleaned	-4944
▁crossed	-4945
▁cutting	-4946
▁earlier	-4947
▁explain	-4948
▁falling	-4949
▁glitter	-4950
▁hanging	-4951
▁keeping	-4952
▁leather	-4953
▁mystery	-4954
▁network	-4955
▁octopus	-4956
▁ordered	-4957
▁package	-4958
▁printer	-4959
▁pulling	-4960
▁quietly	-4961
▁ranking	-4962
▁roaring	-4963
▁selling	-4964
▁shouldn	-4965
▁synsets	-4966
▁trapped	-4967
▁twinkle	-4968
▁unknown	-4969
▁volcano	-4970
▁warning	-4971
▁yelling	-4972
countries	-4973
▁attached	-4974
▁audience	-4975
▁climbing	-4976
▁contract	-4977
▁demanded	-4978
▁examined	-4979
▁expected	-4980
▁homework	-4981
▁laughter	-4982
▁patience	-4983
▁reminder	-4984
▁restored	-4985
▁shoulder	-4986
▁skipping	-4987
▁sparkles	-4988
▁spinning	-4989
▁vanished	-4990
▁wardrobe	-4991
gmentation	-4992
▁elephants	-4993
▁forgotten	-4994
▁introduce	-4995
▁mountains	-4996
▁operation	-4997
▁organized	-4998
▁patiently	-4999
▁relations	-5000
▁screaming	-5001
▁situation	-5002
▁whistling	-5003
▁apologized	-5004
▁appreciate	-5005
▁discussing	-5006
▁downstairs	-5007
▁experience	-5008
▁flashlight	-5009
▁increasing	-5010
▁persistent	-5011
▁predicates	-5012
▁recognized	-5013
▁struggling	-5014
▁butterflies	-5015
▁imagination	-5016
▁BaseDownloader	-5017
']	-5018
)]	-5019
++	-5020
->	-5021
._	-5022
>(	-5023
AN	-5024
AW	-5025
CA	-5026
Go	-5027
MI	-5028
OS	-5029
RT	-5030
['	-5031
az	-5032
bu	-5033
cc	-5034
gb	-5035
ja	-5036
lu	-5037
mt	-5038
oe	-5039
rr	-5040
te	-5041
!("	-5042
");	-5043
)",	-5044
/",	-5045
ISO	-5046
MEO	-5047
SER	-5048
STA	-5049
She	-5050
TRI	-5051
Yum	-5052
__(	-5053
any	-5054
aws	-5055
bug	-5056
che	-5057
eed	-5058
err	-5059
ggy	-5060
hoe	-5061
ify	-5062
imy	-5063
oby	-5064
ppo	-5065
sed	-5066
shp	-5067
sum	-5068
tie	-5069
top	-5070
tti	-5071
vin	-5072
▁An	-5073
▁GB	-5074
▁Sn	-5075
▁[]	-5076
▁fh	-5077
▁ol	-5078
▁si	-5079
Give	-5080
Name	-5081
aded	-5082
aghe	-5083
ammy	-5084
ants	-5085
arol	-5086
atie	-5087
attr	-5088
bing	-5089
coll	-5090
crow	-5091
down	-5092
eath	-5093
ebra	-5094
eric	-5095
fire	-5096
hone	-5097
ides	-5098
iest	-5099
illa	-5100
irit	-5101
isha	-5102
itar	-5103
itty	-5104
laud	-5105
lude	-5106
nett	-5107
noun	-5108
play	-5109
plit	-5110
rise	-5111
role	-5112
rops	-5113
stal	-5114
suff	-5115
sure	-5116
test	-5117
tier	-5118
umbs	-5119
umes	-5120
utch	-5121
util	-5122
vere	-5123
}")]	-5124
œDon	-5125
▁Mar	-5126
▁Out	-5127
▁cre	-5128
▁der	-5129
▁foc	-5130
▁kay	-5131
▁sip	-5132
▁sir	-5133
▁tip	-5134
▁toe	-5135
▁tug	-5136
▁unh	-5137
▁vet	-5138
AGENT	-5139
START	-5140
TIMEO	-5141
Token	-5142
adium	-5143
allen	-5144
asper	-5145
aters	-5146
azine	-5147
bbled	-5148
chunk	-5149
ences	-5150
icing	-5151
icked	-5152
ircle	-5153
itain	-5154
izing	-5155
joyed	-5156
level	-5157
lings	-5158
mkdir	-5159
orses	-5160
osity	-5161
plane	-5162
queak	-5163
scape	-5164
trees	-5165
ument	-5166
undry	-5167
verse	-5168
▁Bear	-5169
▁Evie	-5170
▁Finn	-5171
▁Kate	-5172
▁Milo	-5173
▁Star	-5174
▁ants	-5175
▁bare	-5176
▁beds	-5177
▁bill	-5178
▁buzz	-5179
▁cact	-5180
▁chew	-5181
▁delt	-5182
▁died	-5183
▁drew	-5184
▁func	-5185
▁furt	-5186
▁hadn	-5187
▁junk	-5188
▁laws	-5189
▁math	-5190
▁meat	-5191
▁neat	-5192
▁page	-5193
▁panc	-5194
▁quiz	-5195
▁rise	-5196
▁seem	-5197
▁ship	-5198
▁simp	-5199
▁slap	-5200
▁stri	-5201
▁stud	-5202
▁tear	-5203
▁trap	-5204
▁urge	-5205
▁uses	-5206
▁wand	-5207
▁wigg	-5208
▁wond	-5209
Result	-5210
aclass	-5211
angled	-5212
corpus	-5213
domain	-5214
expect	-5215
insert	-5216
ippery	-5217
rowave	-5218
stance	-5219
suffix	-5220
syntax	-5221
tagset	-5222
▁Brian	-5223
▁Carol	-5224
▁Diana	-5225
▁Dutch	-5226
▁First	-5227
▁Julie	-5228
▁Jumpy	-5229
▁Katie	-5230
▁Kitty	-5231
▁Larry	-5232
▁Sophy	-5233
▁Tammy	-5234
▁adult	-5235
▁argue	-5236
▁balan	-5237
▁blows	-5238
▁boats	-5239
▁bowed	-5240
▁bunch	-5241
▁buyer	-5242
▁chill	-5243
▁coach	-5244
▁coats	-5245
▁dried	-5246
▁eaten	-5247
▁ended	-5248
▁exact	-5249
▁false	-5250
▁files	-5251
▁final	-5252
▁flour	-5253
▁ghost	-5254
▁glove	-5255
▁grant	-5256
▁grill	-5257
▁herbs	-5258
▁hippo	-5259
▁label	-5260
▁lemma	-5261
▁limes	-5262
▁loyal	-5263
▁merma	-5264
▁mints	-5265
▁moves	-5266
▁parts	-5267
▁price	-5268
▁score	-5269
▁seals	-5270
▁separ	-5271
▁siren	-5272
▁slimy	-5273
▁swans	-5274
▁trick	-5275
▁truth	-5276
▁unite	-5277
▁users	-5278
▁worth	-5279
▁zebra	-5280
Natural	-5281
aghetti	-5282
content	-5283
curated	-5284
headers	-5285
parents	-5286
profile	-5287
rophone	-5288
▁Bettie	-5289
▁Freddy	-5290
▁Jasper	-5291
▁Keisha	-5292
▁Python	-5293
▁Squeak	-5294
▁admire	-5295
▁bother	-5296
▁bumped	-5297
▁chores	-5298
▁crumbs	-5299
▁during	-5300
▁expect	-5301
▁fixing	-5302
▁fought	-5303
▁frozen	-5304
▁gifted	-5305
▁gloves	-5306
▁guitar	-5307
▁health	-5308
▁helper	-5309
▁horses	-5310
▁jacket	-5311
▁mixing	-5312
▁mouths	-5313
▁myself	-5314
▁pistol	-5315
▁regret	-5316
▁riding	-5317
▁robots	-5318
▁screen	-5319
▁sewing	-5320
▁shower	-5321
▁sights	-5322
▁skills	-5323
▁spirit	-5324
▁spoons	-5325
▁stared	-5326
▁sticky	-5327
▁stitch	-5328
▁tagged	-5329
▁talent	-5330
▁thanks	-5331
▁tomato	-5332
▁worker	-5333
FrameNet	-5334
meronyms	-5335
▁Bennett	-5336
▁However	-5337
▁Maxwell	-5338
▁Monster	-5339
▁applaud	-5340
▁arguing	-5341
▁balance	-5342
▁beneath	-5343
▁bottles	-5344
▁bravery	-5345
▁breathe	-5346
▁burning	-5347
▁ceiling	-5348
▁challen	-5349
▁crashed	-5350
▁crystal	-5351
▁fastest	-5352
▁fearful	-5353
▁firefly	-5354
▁fishing	-5355
▁focused	-5356
▁getattr	-5357
▁gobbled	-5358
▁history	-5359
▁improve	-5360
▁laundry	-5361
▁mailman	-5362
▁matched	-5363
▁mention	-5364
▁officer	-5365
▁onwards	-5366
▁profile	-5367
▁pushing	-5368
▁scolded	-5369
▁setting	-5370
▁sneaked	-5371
▁sparkle	-5372
▁strings	-5373
▁stuffed	-5374
▁sunrise	-5375
▁thermos	-5376
▁unhappy	-5377
▁weather	-5378
Standards	-5379
ategories	-5380
tokeniser	-5381
universal	-5382
▁Caroline	-5383
▁airplane	-5384
▁becoming	-5385
▁bookcase	-5386
▁brighter	-5387
▁bringing	-5388
▁broccoli	-5389
▁campfire	-5390
▁chirping	-5391
▁costumes	-5392
▁feelings	-5393
▁graceful	-5394
▁increase	-5395
▁magazine	-5396
▁merchant	-5397
▁passport	-5398
▁precious	-5399
▁restless	-5400
▁shouting	-5401
▁slippery	-5402
▁solution	-5403
▁startled	-5404
▁surround	-5405
▁sweaters	-5406
▁troubled	-5407
▁wherever	-5408
mportError	-5409
treesitter	-5410
▁destroyed	-5411
▁disturbed	-5412
▁landscape	-5413
▁microwave	-5414
▁overjoyed	-5415
▁scarecrow	-5416
▁shapefile	-5417
▁spaghetti	-5418
▁spreading	-5419
▁tokenizer	-5420
▁wondering	-5421
▁approached	-5422
▁difference	-5423
▁importance	-5424
▁microphone	-5425
▁shopkeeper	-5426
▁decorations	-5427
▁neighborhood	-5428
erbNetRawLayout	-5429
'.	-5430
--	-5431
</	-5432
?'	-5433
At	-5434
CH	-5435
CT	-5436
NK	-5437
On	-5438
Or	-5439
RL	-5440
SM	-5441
cd	-5442
do	-5443
ha	-5444
ln	-5445
rc	-5446
wb	-5447
").	-5448
/``	-5449
ATA	-5450
CLA	-5451
Dad	-5452
ERS	-5453
Joh	-5454
LAR	-5455
ONS	-5456
Our	-5457
SON	-5458
acy	-5459
api	-5460
ava	-5461
bey	-5462
big	-5463
dbf	-5464
ded	-5465
def	-5466
duc	-5467
env	-5468
hod	-5469
iki	-5470
ixt	-5471
lat	-5472
lem	-5473
map	-5474
msi	-5475
oke	-5476
oph	-5477
pbf	-5478
rib	-5479
ron	-5480
you	-5481
œHi	-5482
▁"-	-5483
▁Ad	-5484
▁Iâ	-5485
▁Or	-5486
▁vn	-5487
▁wg	-5488
());	-5489
Anna	-5490
Jack	-5491
LATI	-5492
Mama	-5493
Read	-5494
Spec	-5495
TMre	-5496
acht	-5497
alue	-5498
arty	-5499
asey	-5500
boat	-5501
bric	-5502
cher	-5503
desc	-5504
ebec	-5505
have	-5506
iece	-5507
ilet	-5508
imum	-5509
intf	-5510
nies	-5511
njoy	-5512
osed	-5513
prop	-5514
push	-5515
ride	-5516
sequ	-5517
sole	-5518
ters	-5519
uddy	-5520
uses	-5521
utom	-5522
what	-5523
▁Aja	-5524
▁Any	-5525
▁Bug	-5526
▁Itâ	-5527
▁MIN	-5528
▁OSM	-5529
▁TOK	-5530
▁Ted	-5531
▁Wor	-5532
▁[])	-5533
▁``<	-5534
▁arr	-5535
▁dam	-5536
▁die	-5537
▁div	-5538
▁doc	-5539
▁jug	-5540
▁kid	-5541
▁las	-5542
▁lex	-5543
▁men	-5544
▁moo	-5545
▁mug	-5546
▁oil	-5547
▁pir	-5548
▁sou	-5549
▁ten	-5550
▁vac	-5551
CALAR	-5552
CLASS	-5553
False	-5554
Ready	-5555
arrel	-5556
arsha	-5557
ashed	-5558
athan	-5559
aulif	-5560
brush	-5561
build	-5562
erial	-5563
hoebe	-5564
ighed	-5565
ilies	-5566
illie	-5567
iring	-5568
itesp	-5569
night	-5570
omers	-5571
paths	-5572
rency	-5573
space	-5574
table	-5575
while	-5576
words	-5577
œThis	-5578
▁Have	-5579
▁JSON	-5580
▁Joni	-5581
▁LAYO	-5582
▁Lacy	-5583
▁Paul	-5584
▁Sail	-5585
▁Tina	-5586
▁Toby	-5587
▁Type	-5588
▁Will	-5589
▁bang	-5590
▁caut	-5591
▁club	-5592
▁copy	-5593
▁cree	-5594
▁cust	-5595
▁deal	-5596
▁digg	-5597
▁heat	-5598
▁jail	-5599
▁jobs	-5600
▁joke	-5601
▁keys	-5602
▁lang	-5603
▁lets	-5604
▁lips	-5605
▁mixt	-5606
▁news	-5607
▁obey	-5608
▁palm	-5609
▁poss	-5610
▁prev	-5611
▁prov	-5612
▁rake	-5613
▁sale	-5614
▁sequ	-5615
▁shed	-5616
▁snap	-5617
▁sons	-5618
▁tuna	-5619
▁vict	-5620
▁void	-5621
▁weal	-5622
RELATI	-5623
``."""	-5624
adybug	-5625
digits	-5626
ebecca	-5627
ection	-5628
inking	-5629
iskers	-5630
lement	-5631
lowers	-5632
mother	-5633
rength	-5634
status	-5635
strich	-5636
though	-5637
uggles	-5638
uments	-5639
œHello	-5640
▁Dolly	-5641
▁Error	-5642
▁Janet	-5643
▁Kasey	-5644
▁Marie	-5645
▁Marty	-5646
▁Moral	-5647
▁Mouse	-5648
▁Shape	-5649
▁Spike	-5650
▁apron	-5651
▁autom	-5652
▁awoke	-5653
▁badge	-5654
▁bleed	-5655
▁blood	-5656
▁bound	-5657
▁bowls	-5658
▁bully	-5659
▁bumpy	-5660
▁delay	-5661
▁enter	-5662
▁flame	-5663
▁flies	-5664
▁forgi	-5665
▁given	-5666
▁goals	-5667
▁heads	-5668
▁ignor	-5669
▁kayak	-5670
▁kneel	-5671
▁noses	-5672
▁offic	-5673
▁pants	-5674
▁pilot	-5675
▁pinch	-5676
▁prune	-5677
▁quack	-5678
▁roles	-5679
▁roses	-5680
▁sauce	-5681
▁scoop	-5682
▁seems	-5683
▁sides	-5684
▁slips	-5685
▁solve	-5686
▁spoil	-5687
▁steps	-5688
▁sting	-5689
▁swung	-5690
▁thatâ	-5691
▁track	-5692
▁urged	-5693
▁vroom	-5694
▁works	-5695
▁worse	-5696
▁wound	-5697
▁yacht	-5698
Session	-5699
WordNet	-5700
allback	-5701
ception	-5702
collect	-5703
emember	-5704
include	-5705
ittered	-5706
missive	-5707
natural	-5708
ouraged	-5709
reeNode	-5710
riosity	-5711
session	-5712
unately	-5713
▁Follow	-5714
▁Marsha	-5715
▁Millie	-5716
▁Pepper	-5717
▁Phoebe	-5718
▁barely	-5719
▁caulif	-5720
▁center	-5721
▁cheeks	-5722
▁contro	-5723
▁deltas	-5724
▁direct	-5725
▁double	-5726
▁fabric	-5727
▁folded	-5728
▁kindly	-5729
▁lasted	-5730
▁melted	-5731
▁method	-5732
▁mister	-5733
▁needle	-5734
▁partic	-5735
▁paused	-5736
▁prayer	-5737
▁prints	-5738
▁repair	-5739
▁settle	-5740
▁shined	-5741
▁stairs	-5742
▁toilet	-5743
▁tracks	-5744
▁travel	-5745
▁tricks	-5746
▁tucked	-5747
▁verify	-5748
Wikidata	-5749
anguages	-5750
category	-5751
download	-5752
erialize	-5753
itespace	-5754
wikidata	-5755
▁HashMap	-5756
▁Jessica	-5757
▁Rebecca	-5758
▁alright	-5759
▁bigrams	-5760
▁camping	-5761
▁catcher	-5762
▁collaps	-5763
▁console	-5764
▁contain	-5765
▁crosses	-5766
▁dragons	-5767
▁drawing	-5768
▁dressed	-5769
▁dresses	-5770
▁driving	-5771
▁entered	-5772
▁floated	-5773
▁further	-5774
▁glowing	-5775
▁grinned	-5776
▁happens	-5777
▁helmets	-5778
▁helpers	-5779
▁hopeful	-5780
▁ignored	-5781
▁jogging	-5782
▁mailbox	-5783
▁mixture	-5784
▁muffins	-5785
▁ostrich	-5786
▁pajamas	-5787
▁perfume	-5788
▁pouring	-5789
▁praying	-5790
▁prepare	-5791
▁puppets	-5792
▁quarrel	-5793
▁raccoon	-5794
▁receive	-5795
▁regions	-5796
▁related	-5797
▁reverse	-5798
▁ringing	-5799
▁shelves	-5800
▁sliding	-5801
▁sprayed	-5802
▁stadium	-5803
▁touches	-5804
▁twisted	-5805
▁watered	-5806
▁weighed	-5807
▁wiggled	-5808
▁wonders	-5809
RELATIONS	-5810
extracted	-5811
izeResult	-5812
substance	-5813
▁Jonathan	-5814
▁Sailboat	-5815
▁Snuggles	-5816
▁Whiskers	-5817
▁accepted	-5818
▁achieved	-5819
▁actually	-5820
▁anywhere	-5821
▁baseball	-5822
▁borrowed	-5823
▁cautious	-5824
▁cheating	-5825
▁combined	-5826
▁determin	-5827
▁families	-5828
▁floating	-5829
▁insisted	-5830
▁inviting	-5831
▁manifest	-5832
▁mistakes	-5833
▁pancakes	-5834
▁properly	-5835
▁replaced	-5836
▁separate	-5837
▁sneezing	-5838
▁speaking	-5839
▁strength	-5840
▁supposed	-5841
▁thrilled	-5842
▁throwing	-5843
▁vacation	-5844
Morphology	-5845
confidence	-5846
permissive	-5847
▁Exception	-5848
▁billboard	-5849
▁candidate	-5850
▁classroom	-5851
▁completed	-5852
▁confident	-5853
▁dinosaurs	-5854
▁discovery	-5855
▁hesitated	-5856
▁polishing	-5857
▁presented	-5858
▁recognize	-5859
▁repeating	-5860
▁surprises	-5861
▁zookeeper	-5862
▁activities	-5863
▁blackboard	-5864
▁completely	-5865
▁earthlings	-5866
▁encouraged	-5867
▁morphology	-5868
Collocations	-5869
collocations	-5870
▁canonicaliz	-5871
▁cauliflower	-5872
▁grandmother	-5873
▁marshmallow	-5874
▁marshmallows	-5875
▁strawberries	-5876
▁canonicalizer	-5877
▁understanding	-5878
onicalizeResult	-5879
▁OsmGbRawLayout	-5880
({	-5881
(|	-5882
.'	-5883
/{	-5884
:?	-5885
:{	-5886
={	-5887
Br	-5888
EO	-5889
GE	-5890
ID	-5891
Lo	-5892
OW	-5893
PA	-5894
SI	-5895
TR	-5896
TS	-5897
WL	-5898
[]	-5899
];	-5900
db	-5901
ef	-5902
fh	-5903
fy	-5904
kg	-5905
lv	-5906
rn	-5907
rs	-5908
ts	-5909
vo	-5910
ww	-5911
}"	-5912
}.	-5913
▁q	-5914
"])	-5915
(`/	-5916
ACT	-5917
ALL	-5918
AME	-5919
Bye	-5920
EFA	-5921
KNO	-5922
LEN	-5923
PBF	-5924
PER	-5925
RAW	-5926
]);	-5927
ari	-5928
asm	-5929
bwe	-5930
cap	-5931
cip	-5932
eof	-5933
fix	-5934
fle	-5935
fre	-5936
has	-5937
hyp	-5938
iza	-5939
let	-5940
lre	-5941
men	-5942
met	-5943
mot	-5944
omw	-5945
pes	-5946
pkg	-5947
rat	-5948
saw	-5949
scr	-5950
std	-5951
upd	-5952
vey	-5953
wra	-5954
yan	-5955
yes	-5956
yms	-5957
}/{	-5958
œIf	-5959
œWe	-5960
▁CO	-5961
▁Di	-5962
▁El	-5963
▁Sy	-5964
▁_,	-5965
▁ca	-5966
▁py	-5967
▁{"	-5968
▁};	-5969
']}:	-5970
EDGE	-5971
John	-5972
List	-5973
NTRI	-5974
OWED	-5975
Open	-5976
Rust	-5977
SETS	-5978
Then	-5979
WORD	-5980
acts	-5981
affe	-5982
aped	-5983
arac	-5984
arch	-5985
aroo	-5986
bish	-5987
cage	-5988
ccas	-5989
eger	-5990
elle	-5991
epos	-5992
face	-5993
ffes	-5994
freq	-5995
gram	-5996
iasm	-5997
ilar	-5998
ilty	-5999
inct	-6000
left	-6001
lvet	-6002
mble	-6003
meta	-6004
none	-6005
null	-6006
orch	-6007
ripe	-6008
roup	-6009
seek	-6010
sing	-6011
sity	-6012
toed	-6013
tuce	-6014
ubby	-6015
ugga	-6016
vies	-6017
weet	-6018
œThe	-6019
▁Ali	-6020
▁Bye	-6021
▁GEO	-6022
▁Har	-6023
▁ISO	-6024
▁Lic	-6025
▁Map	-6026
▁PBF	-6027
▁Paw	-6028
▁Yes	-6029
▁``.	-6030
▁ago	-6031
▁awe	-6032
▁bcd	-6033
▁bes	-6034
▁bri	-6035
▁cor	-6036
▁cro	-6037
▁dar	-6038
▁dom	-6039
▁fmt	-6040
▁gir	-6041
▁hus	-6042
▁laz	-6043
▁lum	-6044
▁max	-6045
▁opp	-6046
▁rug	-6047
▁unt	-6048
▁yum	-6049
ACTED	-6050
Brown	-6051
Class	-6052
Great	-6053
KNOWL	-6054
OsmGb	-6055
Reads	-6056
State	-6057
Timmy	-6058
Would	-6059
ading	-6060
amboo	-6061
arian	-6062
ators	-6063
bytes	-6064
cipal	-6065
const	-6066
divis	-6067
doors	-6068
earth	-6069
edges	-6070
eping	-6071
eting	-6072
eturn	-6073
fetch	-6074
fight	-6075
great	-6076
guard	-6077
immer	-6078
input	-6079
ition	-6080
itory	-6081
lemma	-6082
lines	-6083
neath	-6084
obile	-6085
ophie	-6086
ouple	-6087
ource	-6088
selre	-6089
split	-6090
uctor	-6091
udged	-6092
unchy	-6093
usage	-6094
valid	-6095
veled	-6096
œDonâ	-6097
œLook	-6098
œWell	-6099
▁Care	-6100
▁DEFA	-6101
▁Judy	-6102
▁Kiki	-6103
▁Kira	-6104
▁Mean	-6105
▁Miao	-6106
▁Rust	-6107
▁Ruth	-6108
▁Ryan	-6109
▁Tony	-6110
▁bank	-6111
▁bean	-6112
▁brus	-6113
▁bund	-6114
▁byte	-6115
▁cape	-6116
▁cash	-6117
▁cats	-6118
▁chef	-6119
▁crew	-6120
▁cudd	-6121
▁dump	-6122
▁eats	-6123
▁enum	-6124
▁gira	-6125
▁gram	-6126
▁hate	-6127
▁insp	-6128
▁java	-6129
▁kang	-6130
▁lamb	-6131
▁lend	-6132
▁lick	-6133
▁lugg	-6134
▁none	-6135
▁padd	-6136
▁puff	-6137
▁ripe	-6138
▁rush	-6139
▁scal	-6140
▁slot	-6141
▁sway	-6142
▁tool	-6143
▁torn	-6144
▁tour	-6145
▁warn	-6146
▁wins	-6147
▁wipe	-6148
▁{}",	-6149
▁{}).	-6150
NTRIES	-6151
ainyms	-6152
angers	-6153
codile	-6154
ending	-6155
filter	-6156
imilar	-6157
latest	-6158
ongrat	-6159
ribute	-6160
states	-6161
stream	-6162
terday	-6163
userId	-6164
vinces	-6165
vision	-6166
œMaybe	-6167
œThatâ	-6168
▁Achoo	-6169
▁Bluey	-6170
▁Chant	-6171
▁Denny	-6172
▁Diane	-6173
▁Eliza	-6174
▁Happy	-6175
▁Mandy	-6176
▁Milly	-6177
▁Token	-6178
▁alien	-6179
▁arith	-6180
▁avail	-6181
▁awake	-6182
▁barks	-6183
▁belts	-6184
▁braid	-6185
▁brain	-6186
▁cacti	-6187
▁chalk	-6188
▁cheap	-6189
▁chunk	-6190
▁claws	-6191
▁cobwe	-6192
▁comfy	-6193
▁creek	-6194
▁crept	-6195
▁deriv	-6196
▁desks	-6197
▁disag	-6198
▁disob	-6199
▁edges	-6200
▁eight	-6201
▁email	-6202
▁excel	-6203
▁faced	-6204
▁girls	-6205
▁guide	-6206
▁horns	-6207
▁icing	-6208
▁input	-6209
▁jokes	-6210
▁lands	-6211
▁laser	-6212
▁layed	-6213
▁lined	-6214
▁mater	-6215
▁merry	-6216
▁occas	-6217
▁olive	-6218
▁onion	-6219
▁pearl	-6220
▁piano	-6221
▁plays	-6222
▁polar	-6223
▁porch	-6224
▁posit	-6225
▁prove	-6226
▁pupil	-6227
▁resol	-6228
▁sheep	-6229
▁signs	-6230
▁skips	-6231
▁skirt	-6232
▁slice	-6233
▁sniff	-6234
▁steep	-6235
▁suitc	-6236
▁tails	-6237
▁tooth	-6238
▁vowed	-6239
▁wagon	-6240
▁waist	-6241
▁weeks	-6242
▁yells	-6243
ALLOWED	-6244
ATASETS	-6245
TRACTED	-6246
asename	-6247
britain	-6248
grammar	-6249
indrops	-6250
iration	-6251
isalpha	-6252
ishment	-6253
istance	-6254
jective	-6255
scratch	-6256
uctions	-6257
ultural	-6258
vention	-6259
▁Animal	-6260
▁Circle	-6261
▁During	-6262
▁Harvey	-6263
▁Jackie	-6264
▁LAYERS	-6265
▁Sophie	-6266
▁appear	-6267
▁bamboo	-6268
▁beside	-6269
▁bouncy	-6270
▁brings	-6271
▁chairs	-6272
▁charac	-6273
▁chases	-6274
▁chewed	-6275
▁choice	-6276
▁chubby	-6277
▁couple	-6278
▁creamy	-6279
▁design	-6280
▁divide	-6281
▁dreamt	-6282
▁easier	-6283
▁ending	-6284
▁filthy	-6285
▁fishes	-6286
▁flames	-6287
▁framed	-6288
▁frames	-6289
▁freeze	-6290
▁gained	-6291
▁gotten	-6292
▁guilty	-6293
▁harmon	-6294
▁indeed	-6295
▁kisses	-6296
▁lumber	-6297
▁memory	-6298
▁module	-6299
▁motion	-6300
▁movies	-6301
▁onSave	-6302
▁output	-6303
▁pandas	-6304
▁peered	-6305
▁petted	-6306
▁points	-6307
▁rained	-6308
▁raised	-6309
▁ranger	-6310
▁reluct	-6311
▁resist	-6312
▁rested	-6313
▁ripped	-6314
▁rocked	-6315
▁safari	-6316
▁seeker	-6317
▁seller	-6318
▁shadow	-6319
▁sneaky	-6320
▁snowfl	-6321
▁sovere	-6322
▁spring	-6323
▁steady	-6324
▁strike	-6325
▁temple	-6326
▁tokens	-6327
▁united	-6328
▁unsure	-6329
▁velvet	-6330
▁wallet	-6331
▁warmer	-6332
▁winked	-6333
▁winner	-6334
▁within	-6335
▁zipped	-6336
Remember	-6337
currency	-6338
eofabrik	-6339
immering	-6340
selrestr	-6341
▁Because	-6342
▁Ladybug	-6343
▁Sharing	-6344
▁Whoever	-6345
▁achieve	-6346
▁answers	-6347
▁baskets	-6348
▁brushed	-6349
▁candles	-6350
▁cashier	-6351
▁chasing	-6352
▁chicken	-6353
▁company	-6354
▁context	-6355
▁control	-6356
▁created	-6357
▁crunchy	-6358
▁damaged	-6359
▁darling	-6360
▁digging	-6361
▁display	-6362
▁escaped	-6363
▁evening	-6364
▁fairies	-6365
▁giraffe	-6366
▁headers	-6367
▁husband	-6368
▁jackets	-6369
▁journal	-6370
▁kingdom	-6371
▁lettuce	-6372
▁lexical	-6373
▁luggage	-6374
▁marched	-6375
▁mermaid	-6376
▁peaches	-6377
▁process	-6378
▁puzzled	-6379
▁rebuild	-6380
▁require	-6381
▁rubbish	-6382
▁scooter	-6383
▁screams	-6384
▁section	-6385
▁squares	-6386
▁thicker	-6387
▁vectors	-6388
▁victory	-6389
▁wealthy	-6390
▁whoever	-6391
▁winning	-6392
▁written	-6393
KNOWLEDGE	-6394
Tokenizer	-6395
epository	-6396
ification	-6397
metaspace	-6398
▁Graceful	-6399
▁backpack	-6400
▁bandages	-6401
▁birdcage	-6402
▁checkout	-6403
▁cheering	-6404
▁chillies	-6405
▁creation	-6406
▁datasets	-6407
▁forehead	-6408
▁giraffes	-6409
▁grabbing	-6410
▁hesitant	-6411
▁ignorant	-6412
▁improved	-6413
▁kangaroo	-6414
▁material	-6415
▁mismatch	-6416
▁officers	-6417
▁outdoors	-6418
▁pastries	-6419
▁patterns	-6420
▁polished	-6421
▁possible	-6422
▁practice	-6423
▁prepared	-6424
▁repeated	-6425
▁revealed	-6426
▁scurried	-6427
▁seagulls	-6428
▁shopping	-6429
▁spending	-6430
▁squeaked	-6431
▁stealing	-6432
▁struggle	-6433
▁supplies	-6434
▁tempfile	-6435
▁tomatoes	-6436
▁twirling	-6437
▁upstairs	-6438
▁useState	-6439
TreeSitter	-6440
morphology	-6441
▁Chantelle	-6442
▁Meanwhile	-6443
▁RawLayout	-6444
▁apologize	-6445
▁available	-6446
▁challenge	-6447
▁crocodile	-6448
▁curiosity	-6449
▁customers	-6450
▁directory	-6451
▁dragonfly	-6452
▁finishing	-6453
▁firefight	-6454
▁fluttered	-6455
▁following	-6456
▁glittered	-6457
▁goodnight	-6458
▁groceries	-6459
▁interface	-6460
▁lifeguard	-6461
▁metaspace	-6462
▁principal	-6463
▁protected	-6464
▁refreshed	-6465
▁sprinkled	-6466
▁sprinkles	-6467
▁strangers	-6468
▁succeeded	-6469
▁supported	-6470
▁tokeniser	-6471
▁transform	-6472
description	-6473
fortunately	-6474
▁Afterwards	-6475
▁automobile	-6476
▁babysitter	-6477
▁cautiously	-6478
▁collecting	-6479
▁collection	-6480
▁directions	-6481
▁enthusiasm	-6482
▁fascinated	-6483
▁neighbours	-6484
▁paintbrush	-6485
▁particular	-6486
▁television	-6487
NaturalEarth	-6488
▁DatasetSpec	-6489
▁complaining	-6490
▁instruments	-6491
▁reluctantly	-6492
▁collocations	-6493
▁instructions	-6494
▁segmentation	-6495
▁accomplishment	-6496
▁canonicalizable	-6497
";	-6498
"}	-6499
#[	-6500
.{	-6501
>;	-6502
?:	-6503
Ag	-6504
Ah	-6505
CI	-6506
Db	-6507
Ex	-6508
GI	-6509
Ha	-6510
NE	-6511
PI	-6512
RO	-6513
So	-6514
Ye	-6515
da	-6516
eq	-6517
fo	-6518
mi	-6519
og	-6520
ru	-6521
ym	-6522
};	-6523
€,	-6524
(".	-6525
(#[	-6526
++)	-6527
::{	-6528
BRI	-6529
Boy	-6530
Che	-6531
DbL	-6532
ECT	-6533
Mia	-6534
Not	-6535
Rib	-6536
TMd	-6537
Whe	-6538
``,	-6539
arg	-6540
avi	-6541
aze	-6542
bel	-6543
ben	-6544
bes	-6545
bin	-6546
boo	-6547
bor	-6548
can	-6549
dat	-6550
edu	-6551
eke	-6552
eps	-6553
hog	-6554
igz	-6555
irm	-6556
lee	-6557
ler	-6558
lud	-6559
mas	-6560
mpt	-6561
neg	-6562
ngl	-6563
nif	-6564
nty	-6565
oor	-6566
org	-6567
pid	-6568
pmi	-6569
pos	-6570
pub	-6571
qid	-6572
rad	-6573
rrr	-6574
spe	-6575
uly	-6576
umn	-6577
ups	-6578
ura	-6579
{}:	-6580
}",	-6581
}</	-6582
}`;	-6583
œDo	-6584
œOh	-6585
▁"'	-6586
▁",	-6587
▁".	-6588
▁(!	-6589
▁((	-6590
▁):	-6591
▁);	-6592
▁<-	-6593
▁Ar	-6594
▁By	-6595
▁Dr	-6596
▁Le	-6597
▁RE	-6598
▁Ro	-6599
▁dy	-6600
▁em	-6601
▁ge	-6602
▁ti	-6603
▁zf	-6604
..."	-6605
BRIK	-6606
Find	-6607
GION	-6608
Next	-6609
Only	-6610
Ouch	-6611
Over	-6612
Path	-6613
TMll	-6614
Whee	-6615
Yeah	-6616
abra	-6617
ades	-6618
atic	-6619
chan	-6620
ctly	-6621
ding	-6622
ends	-6623
enty	-6624
eped	-6625
erty	-6626
fail	-6627
geof	-6628
ging	-6629
hero	-6630
icon	-6631
iers	-6632
info	-6633
issy	-6634
ixie	-6635
izon	-6636
jack	-6637
keys	-6638
lley	-6639
mode	-6640
ndex	-6641
nyms	-6642
ocab	-6643
ocol	-6644
omes	-6645
orit	-6646
otch	-6647
ower	-6648
prov	-6649
reck	-6650
repo	-6651
seed	-6652
serR	-6653
this	-6654
trim	-6655
wrap	-6656
œSee	-6657
▁Cat	-6658
▁DBF	-6659
▁Exc	-6660
▁Int	-6661
▁Joy	-6662
▁Lee	-6663
▁Old	-6664
▁Yum	-6665
▁``_	-6666
▁aff	-6667
▁cel	-6668
▁dbf	-6669
▁eff	-6670
▁equ	-6671
▁goo	-6672
▁gym	-6673
▁hyp	-6674
▁inj	-6675
▁kit	-6676
▁lap	-6677
▁mes	-6678
▁pra	-6679
▁shp	-6680
▁sib	-6681
▁src	-6682
▁sys	-6683
▁tok	-6684
▁wea	-6685
▁wid	-6686
▁yog	-6687
▁});	-6688
Achoo	-6689
Agent	-6690
Check	-6691
Mummy	-6692
Point	-6693
Sweet	-6694
Those	-6695
Today	-6696
acity	-6697
agers	-6698
ampoo	-6699
anges	-6700
aster	-6701
atted	-6702
bench	-6703
berry	-6704
cache	-6705
child	-6706
clean	-6707
cover	-6708
dding	-6709
ducer	-6710
ekend	-6711
email	-6712
entry	-6713
ering	-6714
etime	-6715
first	-6716
haust	-6717
iform	-6718
igned	-6719
ignty	-6720
igzag	-6721
ility	-6722
imary	-6723
inent	-6724
ingly	-6725
intln	-6726
irmly	-6727
istic	-6728
itted	-6729
ourag	-6730
parse	-6731
prime	-6732
ramCo	-6733
rease	-6734
robes	-6735
tingu	-6736
topic	-6737
trans	-6738
types	-6739
using	-6740
venir	-6741
▁Adam	-6742
▁Engl	-6743
▁Nina	-6744
▁Open	-6745
▁Time	-6746
▁aren	-6747
▁auth	-6748
▁bows	-6749
▁bull	-6750
▁conn	-6751
▁fact	-6752
▁fart	-6753
▁form	-6754
▁gest	-6755
▁glee	-6756
▁hers	-6757
▁huff	-6758
▁hund	-6759
▁knot	-6760
▁lawy	-6761
▁lily	-6762
▁limp	-6763
▁mall	-6764
▁mass	-6765
▁menu	-6766
▁mode	-6767
▁moos	-6768
▁napk	-6769
▁nine	-6770
▁noon	-6771
▁null	-6772
▁pans	-6773
▁papa	-6774
▁pars	-6775
▁paws	-6776
▁peck	-6777
▁peel	-6778
▁pies	-6779
▁poem	-6780
▁pots	-6781
▁pred	-6782
▁refe	-6783
▁rejo	-6784
▁rele	-6785
▁risk	-6786
▁sets	-6787
▁sits	-6788
▁slip	-6789
▁soak	-6790
▁sore	-6791
▁spit	-6792
▁stra	-6793
▁tamb	-6794
▁tune	-6795
▁uint	-6796
▁wasp	-6797
Atomic	-6798
FABRIK	-6799
Finder	-6800
Follow	-6801
Printf	-6802
REGION	-6803
Return	-6804
Ribbit	-6805
Street	-6806
anging	-6807
antage	-6808
artled	-6809
atches	-6810
atomic	-6811
creams	-6812
derive	-6813
encode	-6814
forced	-6815
ifacts	-6816
inkled	-6817
ionary	-6818
istles	-6819
layout	-6820
luding	-6821
motion	-6822
nonyms	-6823
number	-6824
omeday	-6825
ounter	-6826
ourine	-6827
parity	-6828
radius	-6829
rectly	-6830
riples	-6831
scotch	-6832
source	-6833
starts	-6834
static	-6835
target	-6836
ternal	-6837
uckled	-6838
uddles	-6839
unwrap	-6840
update	-6841
urious	-6842
values	-6843
velope	-6844
œThank	-6845
œWhatâ	-6846
▁Enjoy	-6847
▁Ghost	-6848
▁Great	-6849
▁Jacki	-6850
▁Patch	-6851
▁Sissy	-6852
▁World	-6853
▁admin	-6854
▁bathe	-6855
▁beard	-6856
▁belie	-6857
▁bless	-6858
▁blink	-6859
▁boast	-6860
▁brand	-6861
▁buses	-6862
▁bytes	-6863
▁cakes	-6864
▁cares	-6865
▁cause	-6866
▁claps	-6867
▁coral	-6868
▁datac	-6869
▁dizzy	-6870
▁doggy	-6871
▁drift	-6872
▁elbow	-6873
▁entry	-6874
▁fears	-6875
▁films	-6876
▁flags	-6877
▁foods	-6878
▁fries	-6879
▁guest	-6880
▁hider	-6881
▁hills	-6882
▁homes	-6883
▁human	-6884
▁inher	-6885
▁keeps	-6886
▁knelt	-6887
▁known	-6888
▁momma	-6889
▁muddy	-6890
▁obser	-6891
▁owned	-6892
▁paths	-6893
▁piggy	-6894
▁pixie	-6895
▁plans	-6896
▁purse	-6897
▁restr	-6898
▁rings	-6899
▁safer	-6900
▁salty	-6901
▁serde	-6902
▁seven	-6903
▁shall	-6904
▁shock	-6905
▁shops	-6906
▁sighs	-6907
▁spill	-6908
▁stair	-6909
▁state	-6910
▁steam	-6911
▁stole	-6912
▁stung	-6913
▁sweep	-6914
▁swirl	-6915
▁talks	-6916
▁tasks	-6917
▁teams	-6918
▁tempt	-6919
▁tests	-6920
▁trait	-6921
▁truly	-6922
▁tuple	-6923
▁unexp	-6924
▁waits	-6925
▁weren	-6926
▁whatâ	-6927
▁wheat	-6928
▁wildf	-6929
▁wreck	-6930
Loading	-6931
ational	-6932
believe	-6933
bigrams	-6934
checked	-6935
domains	-6936
environ	-6937
erature	-6938
hausted	-6939
ization	-6940
looking	-6941
nifying	-6942
numeric	-6943
onsible	-6944
unknown	-6945
vectors	-6946
œPlease	-6947
▁Behave	-6948
▁Flakes	-6949
▁SCALAR	-6950
▁Turtle	-6951
▁adding	-6952
▁afford	-6953
▁agrees	-6954
▁aliens	-6955
▁arrows	-6956
▁behavi	-6957
▁buying	-6958
▁celery	-6959
▁chains	-6960
▁cleans	-6961
▁clowns	-6962
▁cocoon	-6963
▁combin	-6964
▁dances	-6965
▁deeper	-6966
▁domain	-6967
▁drying	-6968
▁effort	-6969
▁entire	-6970
▁entity	-6971
▁finder	-6972
▁firmly	-6973
▁flight	-6974
▁forced	-6975
▁harbor	-6976
▁hearts	-6977
▁hummed	-6978
▁inches	-6979
▁itches	-6980
▁joking	-6981
▁killed	-6982
▁lambda	-6983
▁lotion	-6984
▁loving	-6985
▁marker	-6986
▁mashed	-6987
▁mesmer	-6988
▁muscle	-6989
▁nearly	-6990
▁neatly	-6991
▁nurses	-6992
▁parach	-6993
▁patted	-6994
▁peeped	-6995
▁pilots	-6996
▁pirate	-6997
▁plenty	-6998
▁popped	-6999
▁purred	-7000
▁remote	-7001
▁reveal	-7002
▁ribbon	-7003
▁rising	-7004
▁scales	-7005
▁shovel	-7006
▁shrink	-7007
▁simple	-7008
▁simply	-7009
▁soaked	-7010
▁spells	-7011
▁stroll	-7012
▁tastes	-7013
▁traded	-7014
▁userId	-7015
▁voices	-7016
▁volley	-7017
▁weight	-7018
▁wobble	-7019
▁yogurt	-7020
▁zigzag	-7021
Festival	-7022
Override	-7023
ailments	-7024
fallback	-7025
filename	-7026
hyponyms	-7027
ironment	-7028
language	-7029
lemented	-7030
ongratul	-7031
readable	-7032
▁Counter	-7033
▁English	-7034
▁Excited	-7035
▁License	-7036
▁Without	-7037
▁artwork	-7038
▁buckets	-7039
▁buzzing	-7040
▁cabinet	-7041
▁catches	-7042
▁cheaper	-7043
▁choices	-7044
▁chopped	-7045
▁consequ	-7046
▁contest	-7047
▁coppers	-7048
▁curtain	-7049
▁disobey	-7050
▁encount	-7051
▁examine	-7052
▁extingu	-7053
▁failure	-7054
▁figured	-7055
▁filling	-7056
▁flapped	-7057
▁flipped	-7058
▁follows	-7059
▁goodies	-7060
▁grammar	-7061
▁greeted	-7062
▁growled	-7063
▁guessed	-7064
▁guesses	-7065
▁handful	-7066
▁handing	-7067
▁hearing	-7068
▁horizon	-7069
▁hugging	-7070
▁hundred	-7071
▁hunting	-7072
▁hurting	-7073
▁insects	-7074
▁knights	-7075
▁leaning	-7076
▁lifting	-7077
▁listens	-7078
▁longest	-7079
▁massage	-7080
▁melting	-7081
▁million	-7082
▁minimum	-7083
▁musical	-7084
▁objects	-7085
▁oranges	-7086
▁payload	-7087
▁pedaled	-7088
▁pennies	-7089
▁planets	-7090
▁planned	-7091
▁pleaded	-7092
▁plucked	-7093
▁pockets	-7094
▁praised	-7095
▁princes	-7096
▁provide	-7097
▁rabbits	-7098
▁raining	-7099
▁reaches	-7100
▁reading	-7101
▁rockets	-7102
▁rolling	-7103
▁rotting	-7104
▁scarves	-7105
▁scooted	-7106
▁seconds	-7107
▁shampoo	-7108
▁someday	-7109
▁stacked	-7110
▁stamped	-7111
▁stretch	-7112
▁stripes	-7113
▁studied	-7114
▁swaying	-7115
▁swooped	-7116
▁talents	-7117
▁teaches	-7118
▁timeout	-7119
▁tiptoed	-7120
▁tremble	-7121
▁tricked	-7122
▁uniform	-7123
▁vanilla	-7124
▁wagging	-7125
▁washing	-7126
▁wasting	-7127
▁weekend	-7128
▁wishing	-7129
▁wobbled	-7130
▁writing	-7131
ClassName	-7132
StreetMap	-7133
continent	-7134
dataclass	-7135
entangled	-7136
geofabrik	-7137
identical	-7138
iserCheck	-7139
llocation	-7140
manifests	-7141
oritative	-7142
provinces	-7143
standards	-7144
subregion	-7145
tokenizer	-7146
venturous	-7147
xtractorI	-7148
▁Although	-7149
▁DATASETS	-7150
▁Iterable	-7151
▁Startled	-7152
▁TreeNode	-7153
▁admiring	-7154
▁argument	-7155
▁balanced	-7156
▁basename	-7157
▁birdseed	-7158
▁blankets	-7159
▁blocking	-7160
▁boundary	-7161
▁breaking	-7162
▁bristles	-7163
▁changing	-7164
▁chuckled	-7165
▁coolness	-7166
▁coverage	-7167
▁crossing	-7168
▁cultural	-7169
▁datetime	-7170
▁decision	-7171
▁decrease	-7172
▁drinking	-7173
▁dripping	-7174
▁dropping	-7175
▁encourag	-7176
▁envelope	-7177
▁everyday	-7178
▁external	-7179
▁fallback	-7180
▁forgiven	-7181
▁frowning	-7182
▁gardener	-7183
▁hedgehog	-7184
▁imported	-7185
▁introduc	-7186
▁minerals	-7187
▁mustache	-7188
▁offering	-7189
▁overhead	-7190
▁playtime	-7191
▁pleasure	-7192
▁printing	-7193
▁punished	-7194
▁rejoiced	-7195
▁released	-7196
▁required	-7197
▁resisted	-7198
▁sequence	-7199
▁shivered	-7200
▁somebody	-7201
▁souvenir	-7202
▁splashes	-7203
▁squealed	-7204
▁stepping	-7205
▁studying	-7206
▁sunlight	-7207
▁supplied	-7208
▁sweetest	-7209
▁sweeties	-7210
▁trusting	-7211
▁twinkled	-7212
▁wrinkled	-7213
categories	-7214
eserialize	-7215
▁Carefully	-7216
▁Everybody	-7217
▁GEOFABRIK	-7218
▁Geofabrik	-7219
▁accidents	-7220
▁advantage	-7221
▁agreement	-7222
▁applauded	-7223
▁attribute	-7224
▁balancing	-7225
▁bathrobes	-7226
▁birdhouse	-7227
▁cherished	-7228
▁collapsed	-7229
▁comforted	-7230
▁congratul	-7231
▁connected	-7232
▁contained	-7233
▁correctly	-7234
▁creations	-7235
▁dataclass	-7236
▁decorated	-7237
▁delivered	-7238
▁demanding	-7239
▁disagreed	-7240
▁disappear	-7241
▁everybody	-7242
▁exhausted	-7243
▁fireplace	-7244
▁fountains	-7245
▁gathering	-7246
▁harmonica	-7247
▁hopscotch	-7248
▁including	-7249
▁increased	-7250
▁languages	-7251
▁mentioned	-7252
▁observing	-7253
▁paintings	-7254
▁policemen	-7255
▁precision	-7256
▁predators	-7257
▁preparing	-7258
▁raindrops	-7259
▁reference	-7260
▁regretted	-7261
▁scratched	-7262
▁snowflake	-7263
▁splitting	-7264
▁suffering	-7265
▁superhero	-7266
▁surfboard	-7267
▁twinkling	-7268
▁villagers	-7269
▁yesterday	-7270
▁ExtractorI	-7271
▁belongings	-7272
▁candidates	-7273
▁categories	-7274
▁characters	-7275
▁completing	-7276
▁dictionary	-7277
▁fluttering	-7278
▁gracefully	-7279
▁lumberjack	-7280
▁magnifying	-7281
▁peacefully	-7282
▁punishment	-7283
▁refreshing	-7284
▁supporting	-7285
▁surrounded	-7286
▁tambourine	-7287
▁transducer	-7288
▁underneath	-7289
▁unexpected	-7290
▁university	-7291
▁volleyball	-7292
▁whitespace	-7293
▁windowsill	-7294
nfortunately	-7295
segmentation	-7296
▁ImportError	-7297
▁blueberries	-7298
▁celebrating	-7299
▁dataclasses	-7300
▁discoveries	-7301
▁discovering	-7302
▁encountered	-7303
▁environment	-7304
▁fascinating	-7305
▁recommended	-7306
▁responsible	-7307
▁sovereignty	-7308
▁temperature	-7309
▁wildflowers	-7310
serRepository	-7311
▁accomplished	-7312
▁consequences	-7313
▁firefighters	-7314
▁measurements	-7315
ramCollocation	-7316
▁authoritative	-7317
▁determination	-7318
▁neighbourhood	-7319
erbNetExtractor	-7320
▁TokeniserCheck	-7321
erbNetDownloader	-7322
,'	-7323
By	-7324
Cl	-7325
DN	-7326
Gu	-7327
In	-7328
TH	-7329
TP	-7330
Tr	-7331
fd	-7332
fg	-7333
fs	-7334
iB	-7335
"]:	-7336
()]	-7337
)()	-7338
)["	-7339
..=	-7340
:",	-7341
>/<	-7342
?!"	-7343
Ass	-7344
Bob	-7345
Bug	-7346
Clo	-7347
Deb	-7348
ERB	-7349
Eat	-7350
Eff	-7351
Exc	-7352
Her	-7353
LES	-7354
Mrs	-7355
ORS	-7356
PAR	-7357
PMI	-7358
RAN	-7359
Rex	-7360
Run	-7361
SSI	-7362
Shh	-7363
Sue	-7364
TOK	-7365
TTP	-7366
[],	-7367
_",	-7368
``)	-7369
``.	-7370
asy	-7371
azz	-7372
cfg	-7373
cho	-7374
cii	-7375
die	-7376
edD	-7377
evo	-7378
fmt	-7379
igu	-7380
isf	-7381
ism	-7382
ker	-7383
lap	-7384
ley	-7385
lsa	-7386
nat	-7387
new	-7388
nna	-7389
obj	-7390
obo	-7391
ode	-7392
off	-7393
osc	-7394
pon	-7395
see	-7396
src	-7397
tok	-7398
upe	-7399
((	-7400
)[	-7401
<>	-7402
.",	-7403
Try	-7404
cra	-7405
eur	-7406
htm	-7407
tld	-7408
urk	-7409
uzz	-7410
www	-7411
œBe	-7412
▁"+	-7413
▁),	-7414
▁--	-7415
▁>=	-7416
▁AS	-7417
▁ID	-7418
▁YO	-7419
▁],	-7420
BLES	-7421
Boys	-7422
CHES	-7423
Dump	-7424
Evie	-7425
Fine	-7426
ILEN	-7427
Jill	-7428
Just	-7429
NAME	-7430
Once	-7431
PATH	-7432
Papa	-7433
Prop	-7434
Prot	-7435
STRI	-7436
Snow	-7437
TIES	-7438
Type	-7439
__).	-7440
adly	-7441
agle	-7442
also	-7443
anky	-7444
anti	-7445
apun	-7446
argv	-7447
arks	-7448
atus	-7449
bank	-7450
beha	-7451
capt	-7452
cers	-7453
cies	-7454
core	-7455
derr	-7456
dump	-7457
elic	-7458
food	-7459
free	-7460
hand	-7461
html	-7462
iffe	-7463
imit	-7464
inst	-7465
ipes	-7466
ites	-7467
itiz	-7468
loop	-7469
loss	-7470
lpha	-7471
moke	-7472
mosp	-7473
ocer	-7474
open	-7475
oric	-7476
park	-7477
pert	-7478
pite	-7479
pted	-7480
rest	-7481
same	-7482
site	-7483
sort	-7484
sync	-7485
tagg	-7486
that	-7487
ther	-7488
tled	-7489
umns	-7490
vert	-7491
void	-7492
walk	-7493
wise	-7494
worm	-7495
zips	-7496
œAre	-7497
œMom	-7498
œNot	-7499
PE	-7500
"):	-7501
")[	-7502
Big	-7503
IAN	-7504
Imp	-7505
Sam	-7506
YPE	-7507
emp	-7508
mag	-7509
utf	-7510
▁CH	-7511
▁MB	-7512
▁Ok	-7513
▁oh	-7514
IANA	-7515
Tree	-7516
aint	-7517
œWow	-7518
▁(``	-7519
▁Acc	-7520
▁Act	-7521
▁Ant	-7522
▁Aut	-7523
▁Che	-7524
▁Chr	-7525
▁Fil	-7526
▁Fri	-7527
▁Gen	-7528
▁Key	-7529
▁MSI	-7530
▁Our	-7531
▁POS	-7532
▁PRO	-7533
▁Pre	-7534
▁Res	-7535
▁Rit	-7536
▁Rub	-7537
▁See	-7538
▁Spl	-7539
▁[],	-7540
▁```	-7541
▁``{	-7542
▁arf	-7543
▁bab	-7544
▁bps	-7545
▁bun	-7546
▁cap	-7547
▁dus	-7548
▁err	-7549
▁fpr	-7550
▁gon	-7551
▁gor	-7552
▁hur	-7553
▁ids	-7554
▁jig	-7555
▁jud	-7556
▁log	-7557
▁nib	-7558
▁non	-7559
▁pad	-7560
▁rep	-7561
ABLES	-7562
Annie	-7563
Assoc	-7564
Close	-7565
Daddy	-7566
Debug	-7567
Frame	-7568
Group	-7569
Index	-7570
Infle	-7571
MISSI	-7572
Never	-7573
Range	-7574
Sarah	-7575
Split	-7576
Stand	-7577
Surpr	-7578
TOKEN	-7579
Trust	-7580
abase	-7581
acles	-7582
actic	-7583
ainly	-7584
ality	-7585
amber	-7586
ammed	-7587
ample	-7588
anion	-7589
apunz	-7590
arant	-7591
aries	-7592
arter	-7593
ascii	-7594
aweed	-7595
bound	-7596
chars	-7597
check	-7598
chief	-7599
"[	-7600
<(	-7601
Ch	-7602
DJ	-7603
MA	-7604
({"	-7605
ASE	-7606
Jan	-7607
avy	-7608
cad	-7609
erk	-7610
how	-7611
ibr	-7612
ops	-7613
uit	-7614
▁")	-7615
▁Sm	-7616
▁dx	-7617
BASE	-7618
Oops	-7619
Time	-7620
ason	-7621
atim	-7622
atre	-7623
else	-7624
eton	-7625
join	-7626
mess	-7627
only	-7628
ooke	-7629
oved	-7630
over	-7631
vers	-7632
zone	-7633
▁BOS	-7634
▁Pol	-7635
▁ray	-7636
▁wed	-7637
Piece	-7638
Yummy	-7639
choed	-7640
cksum	-7641
digit	-7642
duced	-7643
dumps	-7644
ector	-7645
eless	-7646
elist	-7647
ening	-7648
ensit	-7649
esome	-7650
files	-7651
forms	-7652
gised	-7653
group	-7654
hyper	-7655
iding	-7656
ieces	-7657
iment	-7658
inema	-7659
inier	-7660
inite	-7661
ional	-7662
isure	-7663
izzes	-7664
jsonl	-7665
keley	-7666
label	-7667
loops	-7668
lowly	-7669
mbers	-7670
merge	-7671
miest	-7672
mmers	-7673
obody	-7674
offic	-7675
orman	-7676
ortun	-7677
osite	-7678
otton	-7679
owner	-7680
pples	-7681
quare	-7682
raise	-7683
resol	-7684
ribut	-7685
rical	-7686
rough	-7687
scale	-7688
shape	-7689
short	-7690
sound	-7691
stack	-7692
stdio	-7693
stems	-7694
thank	-7695
ubbed	-7696
umble	-7697
urely	-7698
urity	-7699
';	-7700
('	-7701
(_	-7702
)>	-7703
CO	-7704
Fr	-7705
GB	-7706
HE	-7707
`.	-7708
na	-7709
}>	-7710
œF	-7711
(__	-7712
cio	-7713
cut	-7714
dis	-7715
hin	-7716
ims	-7717
sor	-7718
unc	-7719
Some	-7720
butt	-7721
edef	-7722
main	-7723
ncio	-7724
post	-7725
resp	-7726
seer	-7727
then	-7728
▁dst	-7729
▁fed	-7730
Guess	-7731
Label	-7732
deriv	-7733
isher	-7734
loads	-7735
point	-7736
urale	-7737
utely	-7738
utils	-7739
utted	-7740
verer	-7741
water	-7742
woman	-7743
ypedD	-7744
œCome	-7745
œEvie	-7746
œOkay	-7747
œYouâ	-7748
▁"").	-7749
▁"-",	-7750
▁".",	-7751
▁"{}:	-7752
▁Auto	-7753
▁BRAN	-7754
▁Bank	-7755
▁Burk	-7756
▁Desp	-7757
▁Elsa	-7758
▁Good	-7759
▁Hist	-7760
▁King	-7761
▁Lego	-7762
▁Like	-7763
▁Many	-7764
▁Math	-7765
▁ODbL	-7766
▁Part	-7767
▁Pick	-7768
▁Poor	-7769
▁Prom	-7770
▁Rita	-7771
▁Robo	-7772
▁Ruby	-7773
▁SPAR	-7774
▁Self	-7775
▁Sent	-7776
▁Slap	-7777
▁Stay	-7778
▁Turn	-7779
▁WORD	-7780
▁abil	-7781
▁abst	-7782
▁afar	-7783
▁amen	-7784
▁beha	-7785
▁bend	-7786
▁bump	-7787
▁calf	-7788
▁ceil	-7789
▁cert	-7790
▁chat	-7791
▁chop	-7792
▁clam	-7793
▁clay	-7794
▁comm	-7795
▁cond	-7796
▁darl	-7797
▁deed	-7798
▁deps	-7799
Ar	-7800
?",	-7801
CON	-7802
pay	-7803
▁'-	-7804
▁Te	-7805
▁ga	-7806
aned	-7807
eech	-7808
inic	-7809
vate	-7810
▁RAW	-7811
▁neg	-7812
<>();	-7813
Enjoy	-7814
Every	-7815
FILEN	-7816
erved	-7817
▁Stop	-7818
▁beeh	-7819
▁brat	-7820
▁buys	-7821
▁disk	-7822
▁dive	-7823
▁dusk	-7824
▁ease	-7825
▁ends	-7826
▁fant	-7827
▁fara	-7828
▁fins	-7829
▁flap	-7830
▁foam	-7831
▁fram	-7832
▁herb	-7833
▁hike	-7834
▁hips	-7835
▁hose	-7836
▁impl	-7837
▁inch	-7838
▁inju	-7839
▁jazz	-7840
▁lent	-7841
▁letâ	-7842
▁lied	-7843
▁litt	-7844
▁luck	-7845
▁maze	-7846
▁naps	-7847
▁nets	-7848
▁ouch	-7849
▁pend	-7850
▁pens	-7851
▁pert	-7852
▁plat	-7853
▁rack	-7854
▁ramp	-7855
▁rang	-7856
▁recy	-7857
▁repo	-7858
▁reun	-7859
▁rhin	-7860
▁rrrr	-7861
▁ruin	-7862
▁saws	-7863
▁scut	-7864
▁shoo	-7865
▁sill	-7866
▁slay	-7867
▁slee	-7868
▁soul	-7869
▁sped	-7870
▁synt	-7871
▁tags	-7872
▁tilt	-7873
▁unlo	-7874
▁useC	-7875
▁vows	-7876
▁weep	-7877
▁wept	-7878
▁wife	-7879
▁wink	-7880
▁youâ	-7881
Behave	-7882
ECTORS	-7883
Effect	-7884
Excuse	-7885
Really	-7886
SCALAR	-7887
STRICT	-7888
Should	-7889
TOKENS	-7890
accept	-7891
action	-7892
active	-7893
ampion	-7894
asures	-7895
bigram	-7896
button	-7897
causes	-7898
centre	-7899
cerned	-7900
chugga	-7901
circle	-7902
dedupe	-7903
ecting	-7904
eezing	-7905
embers	-7906
etchup	-7907
eterin	-7908
ethosc	-7909
▁	-7910
e	-7911
a	-7912
t	-7913
o	-7914
h	-7915
n	-7916
i	-7917
s	-7918
d	-7919
r	-7920
l	-7921
y	-7922
.	-7923
m	-7924
w	-7925
u	-7926
c	-7927
p	-7928
g	-7929
f	-7930
b	-7931
k	-7932
,	-7933
T	-7934
"	-7935
v	-7936
1	-7937
0	-7938
S	-7939
2	-7940
+	-7941
=	-7942
3	-7943
5	-7944
7	-7945
H	-7946
8	-7947
4	-7948
6	-7949
9	-7950
I	-7951
'	-7952
#	-7953
L	-7954
!	-7955
O	-7956
B	-7957
x	-7958
M	-7959
|	-7960
A	-7961
W	-7962
_	-7963
J	-7964
j	-7965
?	-7966
Y	-7967
:	-7968
(	-7969
)	-7970
z	-7971
E	-7972
D	-7973
N	-7974
â	-7975
€	-7976
>	-7977
-	-7978
;	-7979
<	-7980
R	-7981
C	-7982
/	-7983
q	-7984
F	-7985
P	-7986
G	-7987
`	-7988
œ	-7989
{	-7990
}	-7991
[	-7992
]	-7993
K	-7994
⟨	-7995
