<pad>	0
<unk>	0
<s>	0
</s>	0
he	-0
▁t	-1
▁a	-2
▁s	-3
▁w	-4
nd	-5
▁the	-6
ed	-7
▁and	-8
▁b	-9
in	-10
▁to	-11
re	-12
▁h	-13
▁c	-14
ou	-15
▁f	-16
▁wa	-17
it	-18
▁T	-19
er	-20
▁l	-21
▁m	-22
▁d	-23
▁p	-24
▁he	-25
om	-26
▁o	-27
▁was	-28
▁The	-29
ar	-30
is	-31
ing	-32
at	-33
ay	-34
il	-35
id	-36
▁g	-37
en	-38
▁S	-39
▁ha	-40
▁n	-41
or	-42
▁sa	-43
on	-44
an	-45
ll	-46
im	-47
es	-48
▁"	-49
▁th	-50
et	-51
▁it	-52
▁=	-53
▁H	-54
le	-55
ot	-56
▁in	-57
ir	-58
▁her	-59
▁They	-60
ow	-61
▁She	-62
▁e	-63
ver	-64
▁He	-65
ut	-66
▁+	-67
▁.	-68
ck	-69
am	-70
▁said	-71
▁y	-72
ld	-73
ri	-74
▁u	-75
▁st	-76
oo	-77
▁I	-78
ce	-79
▁L	-80
▁r	-81
▁be	-82
ve	-83
pp	-84
▁she	-85
ith	-86
ad	-87
ke	-88
ked	-89
▁with	-90
▁of	-91
ily	-92
▁you	-93
▁so	-94
▁B	-95
nt	-96
▁O	-97
ig	-98
▁on	-99
▁On	-100
very	-101
▁|	-102
▁had	-103
st	-104
▁his	-105
▁Lily	-106
▁we	-107
▁pl	-108
▁that	-109
▁day	-110
all	-111
se	-112
▁they	-113
ch	-114
▁mom	-115
▁up	-116
▁for	-117
▁M	-118
al	-119
ent	-120
▁an	-121
out	-122
▁A	-123
ould	-124
▁play	-125
▁li	-126
▁sh	-127
un	-128
ound	-129
her	-130
▁re	-131
my	-132
ly	-133
ome	-134
▁happ	-135
▁is	-136
▁sm	-137
itt	-138
▁want	-139
▁k	-140
▁ne	-141
el	-142
▁very	-143
ra	-144
end	-145
▁as	-146
▁wh	-147
▁not	-148
ht	-149
ime	-150
▁do	-151
▁time	-152
ore	-153
▁there	-154
▁were	-155
▁It	-156
ittle	-157
▁but	-158
."	-159
▁little	-160
▁J	-161
!"	-162
▁fri	-163
ack	-164
▁happy	-165
▁friend	-166
ide	-167
ec	-168
ry	-169
▁saw	-170
▁big	-171
ter	-172
ake	-173
▁One	-174
ug	-175
ur	-176
▁loo	-177
▁bo	-178
ul	-179
▁them	-180
▁go	-181
▁se	-182
ved	-183
ic	-184
ill	-185
▁Ben	-186
▁Once	-187
▁lo	-188
▁Tim	-189
▁ex	-190
▁smil	-191
ind	-192
rom	-193
ard	-194
▁their	-195
▁sp	-196
▁too	-197
▁out	-198
▁j	-199
irl	-200
▁are	-201
um	-202
▁at	-203
▁girl	-204
▁him	-205
one	-206
▁could	-207
▁wanted	-208
art	-209
▁Tom	-210
ain	-211
▁have	-212
▁upon	-213
ame	-214
as	-215
▁le	-216
▁W	-217
hen	-218
▁all	-219
▁can	-220
if	-221
hing	-222
?"	-223
round	-224
hed	-225
▁went	-226
way	-227
▁did	-228
▁smiled	-229
ght	-230
ick	-231
▁friends	-232
lp	-233
op	-234
▁no	-235
are	-236
lo	-237
ach	-238
▁kn	-239
▁But	-240
▁asked	-241
ood	-242
▁help	-243
ark	-244
▁back	-245
ie	-246
ice	-247
omet	-248
▁fun	-249
You	-250
ro	-251
▁ro	-252
▁al	-253
ag	-254
ure	-255
▁from	-256
side	-257
▁say	-258
get	-259
▁man	-260
amed	-261
ue	-262
▁see	-263
own	-264
elt	-265
▁somet	-266
▁sc	-267
▁like	-268
▁some	-269
dd	-270
▁looked	-271
est	-272
king	-273
▁felt	-274
▁me	-275
▁around	-276
ful	-277
▁fa	-278
▁wor	-279
▁co	-280
ell	-281
▁boy	-282
ings	-283
▁loved	-284
▁start	-285
▁what	-286
hat	-287
▁E	-288
ree	-289
▁D	-290
ade	-291
▁pr	-292
▁something	-293
▁then	-294
▁toy	-295
,"	-296
▁found	-297
▁named	-298
ong	-299
▁Mom	-300
▁would	-301
ion	-302
ited	-303
▁Timmy	-304
pl	-305
▁exc	-306
▁more	-307
▁ag	-308
▁ran	-309
▁Sam	-310
us	-311
▁ot	-312
▁bir	-313
▁car	-314
gether	-315
nn	-316
ook	-317
oud	-318
▁<	-319
▁put	-320
ought	-321
ab	-322
▁You	-323
▁made	-324
▁new	-325
▁other	-326
▁started	-327
ers	-328
▁make	-329
▁bird	-330
ous	-331
ared	-332
▁park	-333
ort	-334
▁ch	-335
▁home	-336
▁v	-337
ess	-338
▁sw	-339
▁Ann	-340
ist	-341
▁excited	-342
ave	-343
▁together	-344
and	-345
▁away	-346
▁fe	-347
call	-348
▁hug	-349
▁im	-350
▁get	-351
▁Anna	-352
▁one	-353
▁says	-354
▁things	-355
▁wal	-356
▁who	-357
aug	-358
ep	-359
▁good	-360
▁than	-361
ust	-362
ight	-363
pped	-364
▁cl	-365
▁liked	-366
▁dec	-367
▁your	-368
▁when	-369
low	-370
▁br	-371
▁again	-372
▁ans	-373
▁playing	-374
▁every	-375
ap	-376
▁F	-377
▁imp	-378
qu	-379
uch	-380
ant	-381
▁ab	-382
ss	-383
▁care	-384
▁find	-385
▁sad	-386
ax	-387
ally	-388
uck	-389
▁dad	-390
▁down	-391
ouse	-392
▁got	-393
▁came	-394
ine	-395
▁So	-396
▁op	-397
nder	-398
▁old	-399
ct	-400
ara	-401
ite	-402
▁if	-403
ny	-404
▁po	-405
▁will	-406
ided	-407
▁i	-408
ial	-409
lf	-410
ma	-411
ried	-412
▁decided	-413
▁thought	-414
ned	-415
ild	-416
our	-417
ise	-418
▁Sara	-419
▁spec	-420
to	-421
▁pick	-422
ull	-423
fe	-424
ven	-425
ened	-426
ob	-427
▁When	-428
▁pe	-429
▁special	-430
reat	-431
▁lear	-432
▁take	-433
ive	-434
ries	-435
▁Jo	-436
▁ke	-437
▁pre	-438
▁import	-439
▁took	-440
ia	-441
▁each	-442
▁scared	-443
▁my	-444
▁Max	-445
▁lot	-446
▁N	-447
▁kne	-448
ged	-449
▁gra	-450
udd	-451
ft	-452
ount	-453
▁ball	-454
▁look	-455
▁mo	-456
▁tw	-457
▁com	-458
▁;	-459
",	-460
les	-461
▁outside	-462
ac	-463
ump	-464
▁Jack	-465
▁know	-466
▁Every	-467
▁knew	-468
▁laug	-469
▁about	-470
fter	-471
▁box	-472
▁feel	-473
▁this	-474
ile	-475
udden	-476
▁didn	-477
ate	-478
ge	-479
▁R	-480
ish	-481
▁clo	-482
▁str	-483
▁tree	-484
ways	-485
▁always	-486
ub	-487
ink	-488
▁gave	-489
▁bec	-490
▁tr	-491
▁ho	-492
▁proud	-493
uddenly	-494
▁cat	-495
▁how	-496
▁over	-497
▁sk	-498
▁Her	-499
▁expl	-500
▁mommy	-501
ak	-502
▁C	-503
orry	-504
ast	-505
ace	-506
▁toys	-507
xt	-508
▁kind	-509
▁show	-510
ber	-511
▁en	-512
▁small	-513
▁hand	-514
▁never	-515
other	-516
▁house	-517
ank	-518
▁flow	-519
▁Mia	-520
▁much	-521
▁sorry	-522
ase	-523
self	-524
▁P	-525
▁heard	-526
oth	-527
▁qu	-528
▁any	-529
▁water	-530
ath	-531
▁room	-532
uc	-533
▁into	-534
▁â	-535
▁che	-536
▁run	-537
▁nice	-538
▁inside	-539
▁-	-540
urn	-541
▁dog	-542
ty	-543
▁de	-544
▁or	-545
▁told	-546
ect	-547
▁couldn	-548
▁sun	-549
▁even	-550
▁His	-551
▁off	-552
▁Suddenly	-553
▁ber	-554
▁bear	-555
▁bl	-556
ving	-557
▁pret	-558
▁berries	-559
iz	-560
▁bet	-561
Yes	-562
orn	-563
▁us	-564
▁We	-565
▁let	-566
▁con	-567
urp	-568
▁te	-569
▁And	-570
▁has	-571
aw	-572
▁count	-573
ass	-574
▁fo	-575
▁Sue	-576
right	-577
▁many	-578
▁need	-579
▁picked	-580
dy	-581
▁bu	-582
▁just	-583
imal	-584
▁app	-585
ins	-586
▁hugged	-587
▁wo	-588
pt	-589
▁eat	-590
here	-591
▁thanked	-592
▁Then	-593
▁animal	-594
vent	-595
▁call	-596
aut	-597
em	-598
ady	-599
oug	-600
use	-601
▁</	-602
ough	-603
ation	-604
▁stay	-605
ip	-606
oy	-607
▁Bob	-608
ars	-609
oon	-610
▁fam	-611
▁beaut	-612
▁ad	-613
iny	-614
▁long	-615
▁learned	-616
ves	-617
▁beautif	-618
▁don	-619
▁list	-620
Th	-621
by	-622
ople	-623
▁come	-624
▁beautiful	-625
able	-626
▁sky	-627
▁tried	-628
▁better	-629
▁two	-630
▁played	-631
ause	-632
▁best	-633
▁love	-634
▁lots	-635
ream	-636
▁try	-637
▁people	-638
▁careful	-639
▁laughed	-640
dded	-641
urt	-642
▁jump	-643
▁book	-644
led	-645
▁From	-646
▁under	-647
▁G	-648
gry	-649
▁by	-650
ntil	-651
▁bra	-652
▁end	-653
▁fle	-654
ies	-655
ane	-656
▁fi	-657
arden	-658
▁family	-659
▁sn	-660
▁garden	-661
▁wat	-662
▁both	-663
▁until	-664
▁gre	-665
▁clos	-666
▁fast	-667
▁mach	-668
▁animals	-669
ool	-670
aking	-671
▁stor	-672
▁{	-673
bed	-674
hes	-675
▁Joh	-676
▁child	-677
▁because	-678
eet	-679
ger	-680
▁sl	-681
▁left	-682
urpr	-683
rm	-684
▁gr	-685
▁machine	-686
▁rem	-687
▁surpr	-688
ised	-689
▁tow	-690
▁safe	-691
▁hard	-692
▁Dad	-693
▁flowers	-694
No	-695
ished	-696
▁opened	-697
▁should	-698
▁ide	-699
▁shiny	-700
▁explore	-701
ff	-702
int	-703
▁cu	-704
▁door	-705
▁walked	-706
age	-707
▁dan	-708
▁way	-709
▁loud	-710
▁still	-711
ren	-712
be	-713
kay	-714
▁As	-715
ctor	-716
ucy	-717
▁cle	-718
Let	-719
▁un	-720
▁wr	-721
fore	-722
▁fin	-723
▁Lucy	-724
ids	-725
What	-726
▁sto	-727
▁rock	-728
▁ac	-729
▁tre	-730
▁called	-731
▁soon	-732
▁brave	-733
ary	-734
▁fore	-735
▁advent	-736
▁nodded	-737
joy	-738
▁cry	-739
ious	-740
▁fly	-741
▁ret	-742
▁going	-743
▁⟨	-744
That	-745
▁del	-746
It	-747
▁(	-748
▁Amy	-749
▁noise	-750
ied	-751
igh	-752
ummy	-753
▁keep	-754
so	-755
ered	-756
▁red	-757
▁before	-758
ble	-759
iced	-760
▁bed	-761
▁name	-762
▁after	-763
▁lived	-764
▁stick	-765
▁vo	-766
ndma	-767
▁col	-768
▁hurt	-769
▁share	-770
ched	-771
▁its	-772
▁flew	-773
▁pretty	-774
▁After	-775
▁everyone	-776
hy	-777
▁doll	-778
▁idea	-779
▁sweet	-780
▁wonder	-781
▁enjoy	-782
▁ow	-783
()	-784
TM	-785
iss	-786
▁Th	-787
▁wind	-788
maz	-789
aybe	-790
▁bad	-791
▁John	-792
▁amaz	-793
ress	-794
▁repl	-795
▁smile	-796
▁looking	-797
thing	-798
▁ey	-799
▁gl	-800
▁angry	-801
▁noticed	-802
▁}	-803
raw	-804
▁great	-805
▁apples	-806
▁ground	-807
▁return	-808
▁stopped	-809
▁walking	-810
▁adventure	-811
illy	-812
ember	-813
▁There	-814
▁thr	-815
▁also	-816
▁cont	-817
▁kept	-818
▁next	-819
▁real	-820
▁sound	-821
▁dis	-822
▁far	-823
▁children	-824
bit	-825
ons	-826
▁cr	-827
▁think	-828
ict	-829
▁use	-830
Thank	-831
▁ever	-832
▁bit	-833
▁give	-834
▁clean	-835
ail	-836
▁tra	-837
▁ar	-838
▁ye	-839
irst	-840
abbit	-841
▁counted	-842
▁fr	-843
▁Joe	-844
▁grab	-845
▁rabbit	-846
▁Everyone	-847
▁z	-848
ors	-849
▁That	-850
▁been	-851
▁feeling	-852
load	-853
▁head	-854
Look	-855
▁fish	-856
▁near	-857
▁listen	-858
▁replied	-859
co	-860
▁Now	-861
▁hands	-862
▁dr	-863
ning	-864
▁rel	-865
▁eyes	-866
▁Mommy	-867
▁voice	-868
▁shout	-869
▁remember	-870
ken	-871
rious	-872
▁fl	-873
▁boat	-874
▁right	-875
▁truck	-876
▁important	-877
ph	-878
ield	-879
▁bro	-880
""	-881
▁pu	-882
ully	-883
▁bre	-884
▁def	-885
▁now	-886
ting	-887
▁Jane	-888
▁while	-889
▁forest	-890
")	-891
bye	-892
▁tal	-893
▁kids	-894
▁work	-895
▁quick	-896
▁closer	-897
▁showed	-898
ult	-899
▁blo	-900
▁wait	-901
▁three	-902
▁curious	-903
▁goodbye	-904
cess	-905
llow	-906
▁mag	-907
▁place	-908
ical	-909
▁mon	-910
▁okay	-911
__	-912
Can	-913
▁lea	-914
fully	-915
▁food	-916
▁warm	-917
``	-918
pot	-919
ange	-920
▁bag	-921
▁fav	-922
aught	-923
▁blue	-924
▁prin	-925
ign	-926
▁being	-927
▁build	-928
sp	-929
▁worked	-930
▁cook	-931
▁rain	-932
▁walk	-933
▁store	-934
ized	-935
▁num	-936
ayout	-937
lease	-938
▁yell	-939
▁Gra	-940
▁our	-941
▁done	-942
▁glad	-943
▁here	-944
▁pict	-945
▁balloon	-946
▁picture	-947
day	-948
▁am	-949
▁Let	-950
▁follow	-951
rog	-952
▁In	-953
▁bow	-954
▁high	-955
▁delic	-956
▁making	-957
imes	-958
ached	-959
▁lost	-960
▁books	-961
▁first	-962
uff	-963
▁pol	-964
▁trees	-965
▁grabbed	-966
de	-967
th	-968
▁fair	-969
▁game	-970
▁green	-971
▁brother	-972
rip	-973
▁Spot	-974
▁birds	-975
▁story	-976
▁strong	-977
▁quickly	-978
▁carefully	-979
We	-980
isy	-981
▁beg	-982
▁set	-983
▁butt	-984
▁bright	-985
ey	-986
▁flo	-987
▁hop	-988
▁pain	-989
▁pull	-990
▁Sarah	-991
cks	-992
rel	-993
▁->	-994
▁bus	-995
▁hot	-996
▁own	-997
arent	-998
▁cake	-999
▁only	-1000
▁part	-1001
▁Sally	-1002
▁world	-1003
iv	-1004
▁jo	-1005
orite	-1006
▁frog	-1007
▁open	-1008
▁tell	-1009
▁grass	-1010
▁favorite	-1011
Mom	-1012
▁prom	-1013
▁sing	-1014
▁Tommy	-1015
▁underst	-1016
ott	-1017
▁Da	-1018
cked	-1019
ather	-1020
▁less	-1021
▁learn	-1022
▁coming	-1023
▁watched	-1024
itc	-1025
aring	-1026
▁pond	-1027
▁sees	-1028
▁having	-1029
▁jumped	-1030
▁shouted	-1031
Raw	-1032
dir	-1033
▁At	-1034
▁ask	-1035
▁clim	-1036
▁ready	-1037
akes	-1038
▁sure	-1039
▁slide	-1040
▁brought	-1041
sh	-1042
▁Jim	-1043
▁face	-1044
▁forg	-1045
▁yummy	-1046
▁flower	-1047
▁reached	-1048
▁What	-1049
ractor	-1050
▁doing	-1051
▁dif	-1052
▁swim	-1053
▁thank	-1054
man	-1055
Hell	-1056
ards	-1057
▁mar	-1058
Hello	-1059
▁sand	-1060
loader	-1061
▁began	-1062
▁creat	-1063
▁where	-1064
▁happened	-1065
key	-1066
▁kitc	-1067
▁rest	-1068
▁tast	-1069
▁boxes	-1070
▁catch	-1071
▁kitchen	-1072
▁pretend	-1073
cle	-1074
elf	-1075
ows	-1076
aset	-1077
▁ele	-1078
▁vis	-1079
▁fire	-1080
▁lady	-1081
ataset	-1082
▁happily	-1083
▁surprise	-1084
▁wonderful	-1085
TMs	-1086
air	-1087
ama	-1088
▁Do	-1089
▁hat	-1090
▁why	-1091
▁mean	-1092
Layout	-1093
▁watch	-1094
▁years	-1095
▁through	-1096
ike	-1097
▁Can	-1098
▁ate	-1099
▁cool	-1100
▁self	-1101
▁funny	-1102
▁night	-1103
▁realized	-1104
".	-1105
zy	-1106
leep	-1107
▁dark	-1108
▁seen	-1109
▁waved	-1110
▁became	-1111
▁contin	-1112
▁number	-1113
▁per	-1114
ained	-1115
atter	-1116
urned	-1117
▁mother	-1118
▁needed	-1119
os	-1120
ance	-1121
ject	-1122
▁beh	-1123
▁bel	-1124
▁int	-1125
▁soft	-1126
▁turn	-1127
▁close	-1128
RawLayout	-1129
app	-1130
ila	-1131
lass	-1132
ster	-1133
▁"""	-1134
▁cut	-1135
▁mod	-1136
▁arri	-1137
▁gent	-1138
▁shell	-1139
▁parent	-1140
▁surprised	-1141
kes	-1142
ired	-1143
unny	-1144
▁pro	-1145
▁Lila	-1146
▁fell	-1147
▁used	-1148
▁thing	-1149
▁enjoyed	-1150
▁remembered	-1151
("	-1152
reed	-1153
▁pus	-1154
illed	-1155
where	-1156
▁full	-1157
▁Benny	-1158
▁class	-1159
▁Grandma	-1160
▁delicious	-1161
ng	-1162
Wow	-1163
sat	-1164
▁gi	-1165
ient	-1166
▁Jill	-1167
▁does	-1168
▁farm	-1169
▁visit	-1170
▁lesson	-1171
▁really	-1172
▁arrived	-1173
▁buttons	-1174
▁dro	-1175
▁ste	-1176
▁cand	-1177
▁sign	-1178
▁diffe	-1179
▁blocks	-1180
▁stayed	-1181
▁princess	-1182
amp	-1183
▁buy	-1184
▁comp	-1185
▁floor	-1186
▁light	-1187
▁agreed	-1188
▁butter	-1189
▁wished	-1190
rew	-1191
more	-1192
▁hole	-1193
▁path	-1194
▁tall	-1195
▁wood	-1196
▁break	-1197
▁dress	-1198
▁looks	-1199
▁anymore	-1200
▁magical	-1201
="	-1202
ity	-1203
eddy	-1204
ined	-1205
rent	-1206
▁shop	-1207
▁touch	-1208
▁amazing	-1209
ang	-1210
▁ri	-1211
oney	-1212
▁cra	-1213
▁won	-1214
▁duck	-1215
▁move	-1216
ations	-1217
▁dream	-1218
▁field	-1219
▁swing	-1220
▁broken	-1221
▁shared	-1222
▁himself	-1223
ownloader	-1224
▁understand	-1225
ix	-1226
irt	-1227
▁bar	-1228
▁ice	-1229
▁Daisy	-1230
xtractor	-1231
▁running	-1232
▁anything	-1233
▁finished	-1234
ms	-1235
ask	-1236
▁el	-1237
▁fix	-1238
asure	-1239
cy	-1240
ence	-1241
▁squ	-1242
▁snow	-1243
▁treat	-1244
▁parents	-1245
▁friendly	-1246
▁different	-1247
):	-1248
ze	-1249
ater	-1250
ment	-1251
▁cold	-1252
▁hold	-1253
▁mess	-1254
▁stop	-1255
▁Billy	-1256
▁smell	-1257
▁tired	-1258
▁helped	-1259
▁hopped	-1260
▁monkey	-1261
eta	-1262
llo	-1263
lly	-1264
oup	-1265
▁ju	-1266
▁This	-1267
▁cars	-1268
▁corn	-1269
▁else	-1270
▁grew	-1271
▁beach	-1272
▁coins	-1273
▁laugh	-1274
▁yellow	-1275
▁cheered	-1276
▁fox	-1277
phant	-1278
▁hear	-1279
▁held	-1280
▁spoon	-1281
▁elephant	-1282
);	-1283
aper	-1284
ones	-1285
▁mum	-1286
▁bike	-1287
▁wrong	-1288
▁sometimes	-1289
av	-1290
bo	-1291
ho	-1292
aby	-1293
ppy	-1294
▁Em	-1295
This	-1296
ated	-1297
ling	-1298
▁din	-1299
▁sho	-1300
▁Mama	-1301
▁behind	-1302
//	-1303
ash	-1304
ced	-1305
red	-1306
str	-1307
ued	-1308
umpk	-1309
▁gone	-1310
▁pumpk	-1311
▁leaves	-1312
▁another	-1313
▁#	-1314
ale	-1315
ert	-1316
rag	-1317
set	-1318
ross	-1319
▁sat	-1320
▁top	-1321
▁answ	-1322
▁danger	-1323
▁filled	-1324
▁followed	-1325
lc	-1326
up	-1327
fly	-1328
icy	-1329
ose	-1330
ames	-1331
▁morn	-1332
▁worry	-1333
▁morning	-1334
▁explained	-1335
ata	-1336
room	-1337
▁hid	-1338
▁cried	-1339
▁drink	-1340
▁mouse	-1341
ds	-1342
ner	-1343
not	-1344
path	-1345
▁Fin	-1346
▁Jen	-1347
▁Soon	-1348
▁bott	-1349
▁bunny	-1350
▁likes	-1351
▁living	-1352
▁herself	-1353
LT	-1354
▁hun	-1355
▁comes	-1356
▁cream	-1357
▁faster	-1358
▁getting	-1359
▁grandma	-1360
▁someone	-1361
▁balloons	-1362
mo	-1363
bles	-1364
name	-1365
▁All	-1366
▁yes	-1367
▁pile	-1368
▁talk	-1369
▁acorn	-1370
▁train	-1371
▁please	-1372
▁promised	-1373
The	-1374
que	-1375
▁To	-1376
▁pie	-1377
▁None	-1378
▁deep	-1379
▁hill	-1380
▁paint	-1381
▁stones	-1382
▁smallest	-1383
mp	-1384
"),	-1385
Don	-1386
ape	-1387
atch	-1388
pper	-1389
yard	-1390
▁spl	-1391
▁bowl	-1392
▁read	-1393
▁slow	-1394
▁Maybe	-1395
▁moment	-1396
▁pulled	-1397
▁cookies	-1398
▁backyard	-1399
▁listened	-1400
LTK	-1401
ire	-1402
row	-1403
▁Path	-1404
▁baby	-1405
▁lion	-1406
▁pack	-1407
▁ride	-1408
▁welc	-1409
▁Jimmy	-1410
▁sleep	-1411
▁tower	-1412
▁amazed	-1413
▁bigger	-1414
▁colors	-1415
▁shells	-1416
▁turned	-1417
▁K	-1418
div	-1419
ret	-1420
▁su	-1421
▁qui	-1422
▁Mary	-1423
▁buck	-1424
▁fall	-1425
▁candy	-1426
▁might	-1427
▁puppy	-1428
▁window	-1429
▁Finally	-1430
▁finally	-1431
▁strange	-1432
▁pumpkins	-1433
Downloader	-1434
br	-1435
la	-1436
orm	-1437
▁Al	-1438
oral	-1439
▁air	-1440
▁mus	-1441
▁purp	-1442
▁Daddy	-1443
▁dolls	-1444
▁dinner	-1445
▁continued	-1446
Oh	-1447
ift	-1448
ote	-1449
▁Ab	-1450
ract	-1451
▁bug	-1452
▁joy	-1453
irrel	-1454
▁cast	-1455
▁hide	-1456
▁quiet	-1457
▁purple	-1458
▁stepped	-1459
▁squirrel	-1460
▁stickers	-1461
▁[	-1462
Net	-1463
ear	-1464
▁``	-1465
▁pet	-1466
▁val	-1467
▁able	-1468
▁gift	-1469
▁hair	-1470
▁miss	-1471
▁town	-1472
▁juice	-1473
▁Inside	-1474
▁butterfly	-1475
▁dangerous	-1476
TA	-1477
▁_	-1478
ates	-1479
▁dri	-1480
▁ext	-1481
▁sec	-1482
Maybe	-1483
riple	-1484
▁table	-1485
▁bucket	-1486
▁treasure	-1487
▁everything	-1488
zz	-1489
But	-1490
ugg	-1491
▁__	-1492
olly	-1493
▁wet	-1494
inted	-1495
▁pink	-1496
▁wall	-1497
▁color	-1498
▁party	-1499
▁wrote	-1500
▁crying	-1501
▁gentle	-1502
▁happen	-1503
yp	-1504
igg	-1505
ord	-1506
eter	-1507
itter	-1508
▁grow	-1509
▁land	-1510
▁wasn	-1511
▁Their	-1512
▁money	-1513
▁teddy	-1514
▁Dataset	-1515
att	-1516
ope	-1517
ever	-1518
▁exp	-1519
▁heal	-1520
▁life	-1521
▁star	-1522
▁leave	-1523
▁music	-1524
▁scary	-1525
▁today	-1526
▁woods	-1527
▁flying	-1528
▁hungry	-1529
we	-1530
▁)	-1531
mer	-1532
ror	-1533
▁gu	-1534
Okay	-1535
fort	-1536
ieve	-1537
unch	-1538
▁mix	-1539
▁nap	-1540
oring	-1541
▁must	-1542
▁perf	-1543
▁resp	-1544
▁sear	-1545
▁side	-1546
▁along	-1547
▁climb	-1548
▁drove	-1549
▁forgot	-1550
▁welcome	-1551
Why	-1552
add	-1553
med	-1554
sub	-1555
Meta	-1556
ions	-1557
ises	-1558
ucky	-1559
▁des	-1560
▁min	-1561
▁pow	-1562
▁heav	-1563
▁alone	-1564
▁brown	-1565
▁moral	-1566
▁paper	-1567
▁piece	-1568
▁spark	-1569
▁tight	-1570
▁others	-1571
▁waited	-1572
ex	-1573
▁("	-1574
▁pi	-1575
cket	-1576
iver	-1577
▁cub	-1578
▁cup	-1579
▁res	-1580
▁clot	-1581
▁drag	-1582
▁kiss	-1583
▁wants	-1584
▁DatasetMeta	-1585
ee	-1586
old	-1587
▁arm	-1588
▁smo	-1589
▁tri	-1590
▁asks	-1591
▁runs	-1592
▁song	-1593
▁silly	-1594
▁twins	-1595
▁sweets	-1596
▁clothes	-1597
Extractor	-1598
Hi	-1599
ek	-1600
▁x	-1601
ere	-1602
ext	-1603
its	-1604
ize	-1605
▁je	-1606
▁ve	-1607
aces	-1608
eces	-1609
▁win	-1610
chool	-1611
orrow	-1612
▁coin	-1613
▁race	-1614
▁Molly	-1615
▁heavy	-1616
▁closed	-1617
▁enough	-1618
▁though	-1619
▁marbles	-1620
OK	-1621
ased	-1622
iles	-1623
uffy	-1624
▁ear	-1625
▁har	-1626
▁inc	-1627
▁job	-1628
apped	-1629
▁join	-1630
▁wolf	-1631
▁Alice	-1632
▁blank	-1633
▁smart	-1634
▁across	-1635
▁climbed	-1636
▁helping	-1637
▁towards	-1638
ens	-1639
ese	-1640
rot	-1641
arth	-1642
▁met	-1643
▁rub	-1644
ident	-1645
iting	-1646
▁Bobo	-1647
Triple	-1648
ountain	-1649
▁cheese	-1650
▁pieces	-1651
▁smiles	-1652
▁sounds	-1653
▁thinks	-1654
▁blanket	-1655
▁suddenly	-1656
gg	-1657
ud	-1658
asp	-1659
com	-1660
ier	-1661
ory	-1662
ush	-1663
▁//	-1664
ming	-1665
read	-1666
urry	-1667
vest	-1668
▁Ell	-1669
▁Red	-1670
▁att	-1671
▁lay	-1672
asket	-1673
▁bran	-1674
▁soup	-1675
▁year	-1676
ateful	-1677
reamed	-1678
▁reach	-1679
▁storm	-1680
▁basket	-1681
▁bottle	-1682
▁castle	-1683
▁school	-1684
▁swings	-1685
▁wouldn	-1686
▁believe	-1687
▁grateful	-1688
▁everywhere	-1689
..	-1690
St	-1691
me	-1692
ETA	-1693
ead	-1694
now	-1695
▁ra	-1696
▁Mum	-1697
▁hig	-1698
▁pub	-1699
▁bags	-1700
▁band	-1701
▁supp	-1702
▁cloud	-1703
▁fight	-1704
▁disapp	-1705
▁trying	-1706
▁sharing	-1707
▁without	-1708
Do	-1709
ces	-1710
lue	-1711
thy	-1712
used	-1713
▁ent	-1714
▁pen	-1715
▁pri	-1716
ister	-1717
uture	-1718
▁META	-1719
▁With	-1720
▁bite	-1721
▁conf	-1722
▁cour	-1723
▁lake	-1724
▁mark	-1725
▁most	-1726
▁puzz	-1727
▁wild	-1728
▁makes	-1729
▁plane	-1730
▁white	-1731
▁forget	-1732
▁nearby	-1733
▁police	-1734
▁taking	-1735
▁singing	-1736
▁adventures	-1737
▁'	-1738
nny	-1739
oun	-1740
idge	-1741
▁Jul	-1742
▁dry	-1743
▁key	-1744
▁Blue	-1745
▁craw	-1746
▁dist	-1747
▁free	-1748
▁same	-1749
▁spot	-1750
▁tail	-1751
▁tiny	-1752
▁apple	-1753
▁bread	-1754
▁daddy	-1755
▁hoped	-1756
▁moved	-1757
▁shook	-1758
▁threw	-1759
▁words	-1760
▁bought	-1761
▁dragon	-1762
bow	-1763
oop	-1764
unk	-1765
aced	-1766
ches	-1767
less	-1768
outh	-1769
rame	-1770
▁rob	-1771
▁suc	-1772
▁typ	-1773
▁zoo	-1774
Mommy	-1775
ually	-1776
▁Come	-1777
▁huge	-1778
▁kitt	-1779
▁pass	-1780
▁mouth	-1781
▁plant	-1782
▁quest	-1783
▁Johnny	-1784
▁acorns	-1785
▁course	-1786
▁doctor	-1787
▁noises	-1788
":	-1789
ney	-1790
▁Raw	-1791
▁ben	-1792
▁few	-1793
▁fru	-1794
▁hel	-1795
pping	-1796
shine	-1797
▁lift	-1798
▁plan	-1799
▁such	-1800
▁Emily	-1801
▁added	-1802
▁broke	-1803
▁feels	-1804
▁wings	-1805
▁answer	-1806
▁danced	-1807
▁slowly	-1808
▁building	-1809
ES	-1810
lt	-1811
TMt	-1812
mod	-1813
."""	-1814
airs	-1815
ible	-1816
▁may	-1817
▁odd	-1818
▁pig	-1819
▁sea	-1820
ouble	-1821
▁draw	-1822
▁hugs	-1823
▁spid	-1824
▁touc	-1825
▁games	-1826
▁giant	-1827
▁hello	-1828
▁robot	-1829
▁shirt	-1830
▁colour	-1831
▁polite	-1832
▁pushed	-1833
▁secret	-1834
▁respect	-1835
ib	-1836
ich	-1837
▁St	-1838
▁ru	-1839
Sure	-1840
cept	-1841
reet	-1842
ward	-1843
▁jar	-1844
▁kno	-1845
▁lem	-1846
▁par	-1847
▁pat	-1848
class	-1849
eared	-1850
erful	-1851
ieved	-1852
stead	-1853
▁NLTK	-1854
▁wise	-1855
▁black	-1856
▁dance	-1857
▁disco	-1858
▁lunch	-1859
▁piles	-1860
▁river	-1861
▁stand	-1862
▁caught	-1863
▁longer	-1864
▁rainbow	-1865
▁exciting	-1866
::	-1867
cer	-1868
ern	-1869
log	-1870
ont	-1871
umb	-1872
ighb	-1873
iled	-1874
ored	-1875
▁pot	-1876
▁imag	-1877
▁lead	-1878
▁live	-1879
▁nose	-1880
▁wear	-1881
▁Thank	-1882
▁cloth	-1883
▁cover	-1884
▁shoes	-1885
▁spent	-1886
▁spicy	-1887
▁throw	-1888
▁upset	-1889
aughter	-1890
▁corner	-1891
▁sister	-1892
▁creature	-1893
▁wondered	-1894
ilk	-1895
▁Fl	-1896
▁Mr	-1897
▁Tw	-1898
▁ce	-1899
▁ph	-1900
ball	-1901
base	-1902
file	-1903
nger	-1904
ring	-1905
ween	-1906
▁...	-1907
▁cow	-1908
▁sub	-1909
▁busy	-1910
▁coal	-1911
▁gets	-1912
▁mine	-1913
▁past	-1914
▁teac	-1915
▁Julia	-1916
▁Three	-1917
▁print	-1918
▁stars	-1919
▁these	-1920
▁trust	-1921
▁higher	-1922
▁myster	-1923
▁neighb	-1924
▁pocket	-1925
▁between	-1926
▁forever	-1927
▁snowman	-1928
▁worried	-1929
▁RawTriple	-1930
gu	-1931
mb	-1932
sy	-1933
ung	-1934
▁es	-1935
▁la	-1936
iser	-1937
▁dir	-1938
▁rad	-1939
▁sit	-1940
▁bath	-1941
▁boun	-1942
▁flea	-1943
▁milk	-1944
itting	-1945
▁Jenny	-1946
▁compl	-1947
▁heart	-1948
▁owner	-1949
▁teach	-1950
▁eating	-1951
▁modern	-1952
▁street	-1953
fortable	-1954
▁feather	-1955
▁healthy	-1956
▁holding	-1957
▁impress	-1958
▁perfect	-1959
▁promise	-1960
▁stories	-1961
ventually	-1962
▁colorful	-1963
▁counting	-1964
▁daughter	-1965
▁pictures	-1966
œI	-1967
lph	-1968
▁sy	-1969
olog	-1970
▁inv	-1971
▁sig	-1972
ipped	-1973
▁dirt	-1974
▁dirty	-1975
▁fence	-1976
▁round	-1977
▁young	-1978
▁belong	-1979
▁hanger	-1980
▁monster	-1981
▁touched	-1982
My	-1983
ci	-1984
col	-1985
eth	-1986
ony	-1987
oom	-1988
ser	-1989
Lily	-1990
ator	-1991
ssed	-1992
ular	-1993
▁tom	-1994
ining	-1995
ledge	-1996
▁Rose	-1997
▁cute	-1998
▁fing	-1999
▁jour	-2000
▁road	-2001
▁rows	-2002
▁sold	-2003
▁well	-2004
future	-2005
▁annot	-2006
▁bench	-2007
▁const	-2008
▁crate	-2009
▁neare	-2010
▁snack	-2011
▁stamp	-2012
▁Fluffy	-2013
▁Little	-2014
▁batter	-2015
▁letter	-2016
▁seemed	-2017
▁treats	-2018
▁teacher	-2019
▁trouble	-2020
▁wearing	-2021
▁discover	-2022
▁annotations	-2023
).	-2024
]]	-2025
ls	-2026
ray	-2027
Well	-2028
adow	-2029
data	-2030
ugar	-2031
ural	-2032
▁spe	-2033
onely	-2034
▁Bill	-2035
▁days	-2036
▁roll	-2037
▁vill	-2038
▁wide	-2039
▁ducks	-2040
▁maybe	-2041
▁prize	-2042
▁uncle	-2043
▁yield	-2044
▁bridge	-2045
▁lonely	-2046
▁clapped	-2047
▁nearest	-2048
▁relieved	-2049
▁screamed	-2050
▁exploring	-2051
▁pretended	-2052
Hey	-2053
agg	-2054
als	-2055
ans	-2056
aur	-2057
ute	-2058
▁ob	-2059
head	-2060
ness	-2061
▁raw	-2062
▁cave	-2063
▁coat	-2064
▁gigg	-2065
▁last	-2066
▁mail	-2067
▁pray	-2068
▁rope	-2069
▁seat	-2070
▁team	-2071
▁carry	-2072
▁dolph	-2073
▁magic	-2074
▁mayor	-2075
▁peace	-2076
▁tasty	-2077
▁teeth	-2078
▁turns	-2079
▁whole	-2080
▁cannot	-2081
▁gently	-2082
▁spider	-2083
▁harvest	-2084
▁instead	-2085
▁smiling	-2086
▁success	-2087
▁creative	-2088
▁swimming	-2089
sc	-2090
erp	-2091
hip	-2092
ltk	-2093
mul	-2094
oof	-2095
uct	-2096
▁af	-2097
ager	-2098
iron	-2099
▁ant	-2100
▁egg	-2101
▁gen	-2102
▁hit	-2103
▁hor	-2104
▁mad	-2105
▁owl	-2106
▁sur	-2107
▁tea	-2108
model	-2109
▁Even	-2110
▁Jake	-2111
▁fork	-2112
▁gold	-2113
▁late	-2114
▁leaf	-2115
▁pour	-2116
▁sque	-2117
aughty	-2118
▁Later	-2119
▁eager	-2120
▁lemon	-2121
▁sugar	-2122
▁waves	-2123
▁crates	-2124
▁puzzle	-2125
▁sticks	-2126
▁tasted	-2127
▁naughty	-2128
▁packing	-2129
▁shining	-2130
▁sitting	-2131
▁laughing	-2132
▁mountain	-2133
▁relation	-2134
▁sunshine	-2135
pe	-2136
son	-2137
ule	-2138
unt	-2139
▁No	-2140
apes	-2141
itch	-2142
lder	-2143
usie	-2144
▁//!	-2145
▁acc	-2146
▁cho	-2147
▁hum	-2148
▁ign	-2149
▁leg	-2150
▁ord	-2151
ultip	-2152
▁Just	-2153
▁alto	-2154
▁load	-2155
▁rose	-2156
ounded	-2157
▁Susie	-2158
▁Tweet	-2159
▁furry	-2160
▁rocks	-2161
▁stuck	-2162
▁sunny	-2163
▁write	-2164
▁Please	-2165
▁branch	-2166
▁lovely	-2167
▁shapes	-2168
▁carried	-2169
▁journey	-2170
▁smelled	-2171
▁working	-2172
▁continue	-2173
▁altogether	-2174
▁mysterious	-2175
erv	-2176
len	-2177
ume	-2178
▁Wh	-2179
▁ap	-2180
anny	-2181
lebr	-2182
lves	-2183
osie	-2184
raid	-2185
▁Off	-2186
▁Rob	-2187
▁cal	-2188
▁mer	-2189
aggie	-2190
illar	-2191
onyms	-2192
ption	-2193
▁Emma	-2194
▁bugs	-2195
▁mist	-2196
▁prot	-2197
▁roof	-2198
▁wave	-2199
▁yard	-2200
ground	-2201
multip	-2202
▁About	-2203
▁Grace	-2204
▁Rosie	-2205
▁clock	-2206
▁screw	-2207
▁shore	-2208
▁takes	-2209
▁taste	-2210
▁value	-2211
▁afraid	-2212
▁caterp	-2213
▁celebr	-2214
▁clouds	-2215
▁driver	-2216
▁gather	-2217
▁meadow	-2218
▁object	-2219
▁orange	-2220
▁smooth	-2221
▁spread	-2222
multiple	-2223
▁Rounded	-2224
▁jumping	-2225
▁selfish	-2226
▁Together	-2227
▁visitors	-2228
▁caterpillar	-2229
"]	-2230
Be	-2231
eo	-2232
ne	-2233
ram	-2234
wor	-2235
▁Go	-2236
▁How	-2237
▁act	-2238
▁bat	-2239
▁mic	-2240
▁reg	-2241
▁wag	-2242
erand	-2243
ungle	-2244
▁Dave	-2245
▁Some	-2246
▁boys	-2247
▁cozy	-2248
▁hope	-2249
▁pres	-2250
▁slid	-2251
▁snee	-2252
▁zoom	-2253
▁bring	-2254
▁crown	-2255
▁gives	-2256
▁lucky	-2257
▁phone	-2258
▁Maggie	-2259
▁asleep	-2260
▁comput	-2261
▁jungle	-2262
▁kissed	-2263
▁result	-2264
▁search	-2265
▁battery	-2266
▁delight	-2267
▁dropped	-2268
▁protect	-2269
▁talking	-2270
▁village	-2271
▁accident	-2272
▁tomorrow	-2273
act	-2274
ets	-2275
icn	-2276
min	-2277
nto	-2278
ond	-2279
Come	-2280
ceil	-2281
chor	-2282
rror	-2283
umpy	-2284
▁coo	-2285
▁spo	-2286
Where	-2287
ating	-2288
epend	-2289
icnic	-2290
otted	-2291
▁arms	-2292
▁blow	-2293
▁crab	-2294
▁dish	-2295
▁matt	-2296
▁nerv	-2297
▁onto	-2298
▁oven	-2299
▁pers	-2300
▁push	-2301
▁sang	-2302
▁swam	-2303
▁wore	-2304
onical	-2305
▁Bobby	-2306
▁Class	-2307
▁Peter	-2308
▁fairy	-2309
▁shelf	-2310
▁anchor	-2311
▁lifted	-2312
▁picnic	-2313
▁bedroom	-2314
▁nervous	-2315
▁spotted	-2316
▁delicate	-2317
▁mattress	-2318
▁thankful	-2319
▁watching	-2320
▁yourself	-2321
ps	-2322
?".	-2323
afe	-2324
ete	-2325
lex	-2326
rue	-2327
val	-2328
vid	-2329
▁aw	-2330
▁ok	-2331
Good	-2332
angu	-2333
arsh	-2334
bers	-2335
elly	-2336
etit	-2337
know	-2338
land	-2339
lloc	-2340
▁Don	-2341
▁eas	-2342
▁gar	-2343
▁oce	-2344
▁pop	-2345
▁ser	-2346
▁shr	-2347
▁tag	-2348
▁war	-2349
▁whe	-2350
▁zip	-2351
thday	-2352
▁bush	-2353
▁cart	-2354
▁dest	-2355
▁kick	-2356
▁nest	-2357
▁sick	-2358
▁sour	-2359
▁stir	-2360
▁tent	-2361
▁thin	-2362
▁valu	-2363
▁woke	-2364
atural	-2365
▁Mummy	-2366
▁check	-2367
▁front	-2368
▁horse	-2369
▁ideas	-2370
▁cookie	-2371
▁garage	-2372
▁places	-2373
▁calling	-2374
▁patient	-2375
▁present	-2376
extractor	-2377
▁computer	-2378
▁feathers	-2379
▁eventually	-2380
Of	-2381
ik	-2382
oc	-2383
apt	-2384
arl	-2385
ina	-2386
orp	-2387
ots	-2388
une	-2389
zed	-2390
▁Be	-2391
▁Ch	-2392
▁If	-2393
cing	-2394
▁Why	-2395
▁ble	-2396
▁fig	-2397
▁glo	-2398
▁lit	-2399
▁mot	-2400
▁net	-2401
▁ver	-2402
▁wra	-2403
count	-2404
erest	-2405
▁card	-2406
▁cray	-2407
▁feed	-2408
▁goes	-2409
▁iron	-2410
▁line	-2411
▁mill	-2412
▁mind	-2413
▁neck	-2414
▁pill	-2415
▁poor	-2416
▁roar	-2417
▁sack	-2418
▁skip	-2419
▁till	-2420
▁wish	-2421
ession	-2422
▁Annie	-2423
▁honey	-2424
▁match	-2425
▁ocean	-2426
▁sandw	-2427
▁splas	-2428
▁whist	-2429
▁chased	-2430
▁island	-2431
▁matter	-2432
▁dataset	-2433
▁forward	-2434
▁knocked	-2435
▁nothing	-2436
▁station	-2437
▁waiting	-2438
knowledge	-2439
▁answered	-2440
▁birthday	-2441
▁competit	-2442
▁interest	-2443
▁lemonade	-2444
▁neighbor	-2445
))	-2446
bb	-2447
wk	-2448
▁`	-2449
aid	-2450
arp	-2451
ife	-2452
net	-2453
vie	-2454
▁Pe	-2455
▁av	-2456
▁ur	-2457
ital	-2458
ival	-2459
owed	-2460
safe	-2461
▁cir	-2462
▁fis	-2463
▁pay	-2464
▁swe	-2465
error	-2466
▁flag	-2467
▁hawk	-2468
▁moms	-2469
▁pand	-2470
▁puts	-2471
▁requ	-2472
▁rude	-2473
▁save	-2474
▁seed	-2475
▁trip	-2476
▁word	-2477
ensive	-2478
▁David	-2479
▁Ellie	-2480
▁frogs	-2481
▁grand	-2482
▁loves	-2483
▁meant	-2484
▁pengu	-2485
▁sharp	-2486
▁which	-2487
redible	-2488
▁fairly	-2489
▁proble	-2490
▁disappo	-2491
▁showing	-2492
▁searched	-2493
▁valuable	-2494
▁expensive	-2495
▁understood	-2496
▁interesting	-2497
),	-2498
io	-2499
Ben	-2500
ait	-2501
els	-2502
ics	-2503
▁fn	-2504
NLTK	-2505
alse	-2506
arra	-2507
arry	-2508
ateg	-2509
band	-2510
oura	-2511
▁ash	-2512
▁emb	-2513
▁fil	-2514
▁low	-2515
▁nut	-2516
▁shy	-2517
ables	-2518
ctory	-2519
ready	-2520
urous	-2521
▁Alex	-2522
▁Joey	-2523
▁calm	-2524
▁cher	-2525
▁coll	-2526
▁lock	-2527
▁sort	-2528
▁tick	-2529
▁worm	-2530
issors	-2531
▁While	-2532
▁breat	-2533
▁brush	-2534
▁cries	-2535
▁deter	-2536
▁frame	-2537
▁fruit	-2538
▁relax	-2539
▁stone	-2540
▁stuff	-2541
▁whale	-2542
estival	-2543
itement	-2544
▁barrel	-2545
▁button	-2546
▁dreams	-2547
▁famous	-2548
▁handed	-2549
▁parrot	-2550
▁talked	-2551
▁typing	-2552
arrassed	-2553
▁already	-2554
▁mistake	-2555
▁numbers	-2556
▁penguin	-2557
▁sparkly	-2558
▁powerful	-2559
▁question	-2560
▁standing	-2561
llocations	-2562
▁Everywhere	-2563
▁excitement	-2564
▁incredible	-2565
▁embarrassed	-2566
▁disappointed	-2567
eb	-2568
():	-2569
gly	-2570
ief	-2571
ilt	-2572
rop	-2573
▁Lo	-2574
anic	-2575
fast	-2576
icop	-2577
orph	-2578
▁End	-2579
▁Leo	-2580
▁Rex	-2581
▁add	-2582
▁fit	-2583
▁ple	-2584
Error	-2585
ience	-2586
ology	-2587
ugged	-2588
▁Ella	-2589
▁cage	-2590
▁capt	-2591
▁cost	-2592
▁file	-2593
▁mole	-2594
▁surf	-2595
colate	-2596
▁crazy	-2597
▁decor	-2598
▁faces	-2599
▁later	-2600
▁needs	-2601
▁shows	-2602
▁sight	-2603
▁spend	-2604
▁squee	-2605
▁tells	-2606
▁trunk	-2607
▁veget	-2608
icopter	-2609
▁change	-2610
▁figure	-2611
▁prince	-2612
▁remind	-2613
▁scream	-2614
▁stream	-2615
▁struct	-2616
▁ashamed	-2617
▁content	-2618
▁country	-2619
▁forgive	-2620
▁pointed	-2621
▁problem	-2622
orphology	-2623
▁distance	-2624
▁dolphins	-2625
▁scissors	-2626
▁impressed	-2627
▁helicopter	-2628
▁competitive	-2629
AG	-2630
mm	-2631
ado	-2632
dom	-2633
imi	-2634
lib	-2635
tag	-2636
ten	-2637
ual	-2638
▁==	-2639
▁Co	-2640
ages	-2641
ains	-2642
aked	-2643
amie	-2644
izer	-2645
mpty	-2646
ours	-2647
work	-2648
▁arg	-2649
▁dig	-2650
▁esc	-2651
▁mid	-2652
▁nod	-2653
▁ref	-2654
▁rod	-2655
▁wis	-2656
▁yaw	-2657
frame	-2658
iable	-2659
ipper	-2660
ppers	-2661
▁Lola	-2662
▁Mimi	-2663
▁city	-2664
▁cube	-2665
▁dict	-2666
▁drop	-2667
▁ears	-2668
▁feet	-2669
▁seek	-2670
▁sell	-2671
▁stat	-2672
▁ugly	-2673
ordNet	-2674
spital	-2675
▁Jamie	-2676
▁chest	-2677
▁cross	-2678
▁earth	-2679
▁empty	-2680
▁kitty	-2681
▁mummy	-2682
▁point	-2683
▁token	-2684
▁using	-2685
anguage	-2686
venance	-2687
▁barked	-2688
▁bitter	-2689
▁borrow	-2690
▁carrot	-2691
▁farmer	-2692
▁hiding	-2693
▁humble	-2694
▁kitten	-2695
▁licked	-2696
▁yelled	-2697
▁crawled	-2698
▁knowing	-2699
▁subject	-2700
▁support	-2701
▁appeared	-2702
▁bathroom	-2703
▁confused	-2704
▁fighting	-2705
▁reliable	-2706
▁breakfast	-2707
▁happening	-2708
▁accidentally	-2709
]:	-2710
af	-2711
Are	-2712
imp	-2713
ipe	-2714
isp	-2715
pec	-2716
pet	-2717
▁Br	-2718
▁Is	-2719
abel	-2720
acci	-2721
alph	-2722
izzy	-2723
ophy	-2724
orcy	-2725
pair	-2726
type	-2727
uist	-2728
year	-2729
▁ban	-2730
▁hay	-2731
▁pal	-2732
▁tig	-2733
alend	-2734
iling	-2735
token	-2736
▁cone	-2737
▁drum	-2738
▁item	-2739
▁meet	-2740
onacci	-2741
selves	-2742
▁Teddy	-2743
▁alert	-2744
▁bloom	-2745
▁comet	-2746
▁fixed	-2747
▁gener	-2748
▁group	-2749
▁miser	-2750
▁noisy	-2751
▁panda	-2752
▁saved	-2753
▁thick	-2754
uistics	-2755
▁accept	-2756
▁calend	-2757
▁carpet	-2758
▁father	-2759
▁finger	-2760
▁finish	-2761
▁landed	-2762
▁layout	-2763
▁captain	-2764
▁giggled	-2765
▁helpful	-2766
▁message	-2767
▁monkeys	-2768
▁motorcy	-2769
▁proudly	-2770
▁hospital	-2771
▁chocolate	-2772
▁excitedly	-2773
▁miserable	-2774
linguistics	-2775
▁provenance	-2776
▁successful	-2777
▁adventurous	-2778
AC	-2779
Me	-2780
▁/	-2781
!".	-2782
();	-2783
Who	-2784
box	-2785
con	-2786
den	-2787
erb	-2788
gth	-2789
idy	-2790
opl	-2791
roy	-2792
vel	-2793
▁ax	-2794
ikid	-2795
ince	-2796
json	-2797
ples	-2798
uple	-2799
user	-2800
▁adm	-2801
▁aer	-2802
▁fib	-2803
▁jam	-2804
▁map	-2805
▁tie	-2806
ature	-2807
value	-2808
▁avoc	-2809
▁clap	-2810
▁dess	-2811
▁fool	-2812
▁gasp	-2813
▁helm	-2814
▁lazy	-2815
▁meta	-2816
▁pige	-2817
▁pool	-2818
▁task	-2819
▁test	-2820
▁tidy	-2821
▁tire	-2822
aurant	-2823
▁Somet	-2824
▁balls	-2825
▁boots	-2826
▁drank	-2827
▁extra	-2828
▁falls	-2829
▁kinds	-2830
▁knife	-2831
▁layer	-2832
▁picks	-2833
▁tools	-2834
▁tries	-2835
▁twist	-2836
▁uncom	-2837
▁yours	-2838
ikidata	-2839
rameNet	-2840
▁aeropl	-2841
▁anyone	-2842
▁blouse	-2843
▁closet	-2844
▁market	-2845
▁packed	-2846
▁person	-2847
▁pillow	-2848
▁placed	-2849
▁sailed	-2850
▁sleepy	-2851
▁splash	-2852
▁dessert	-2853
▁destroy	-2854
▁sounded	-2855
▁tightly	-2856
▁festival	-2857
▁gathered	-2858
▁generous	-2859
▁peaceful	-2860
▁whenever	-2861
▁canonical	-2862
▁extractor	-2863
▁fibonacci	-2864
▁questions	-2865
▁motorcycle	-2866
aseExtractor	-2867
▁uncomfortable	-2868
ER	-2869
Now	-2870
Tom	-2871
dge	-2872
ubb	-2873
uce	-2874
udy	-2875
}")	-2876
▁Fr	-2877
▁Sh	-2878
▁ed	-2879
True	-2880
ancy	-2881
ense	-2882
most	-2883
oman	-2884
oose	-2885
ules	-2886
œLet	-2887
▁Bet	-2888
▁Mrs	-2889
▁adv	-2890
▁ham	-2891
▁hon	-2892
▁ind	-2893
▁jew	-2894
▁mud	-2895
▁rat	-2896
▁saf	-2897
board	-2898
irsty	-2899
lower	-2900
mined	-2901
ories	-2902
uring	-2903
▁Each	-2904
▁Give	-2905
▁blew	-2906
▁cell	-2907
▁char	-2908
▁dogs	-2909
▁exam	-2910
▁hang	-2911
▁lamp	-2912
▁mule	-2913
▁nods	-2914
▁rich	-2915
▁rode	-2916
▁true	-2917
▁veil	-2918
▁weak	-2919
▁week	-2920
erbNet	-2921
ormous	-2922
ourage	-2923
parent	-2924
spaper	-2925
umbled	-2926
▁Sammy	-2927
▁banan	-2928
▁built	-2929
▁fancy	-2930
▁mixed	-2931
▁raced	-2932
▁rules	-2933
▁songs	-2934
▁stood	-2935
▁stove	-2936
▁therm	-2937
▁tiger	-2938
▁twirl	-2939
▁whisp	-2940
▁become	-2941
▁harder	-2942
▁locked	-2943
▁louder	-2944
▁moving	-2945
▁poured	-2946
▁sighed	-2947
▁snacks	-2948
▁spaces	-2949
▁wander	-2950
▁avocado	-2951
▁covered	-2952
▁foolish	-2953
▁leaving	-2954
▁thirsty	-2955
▁calendar	-2956
▁enormous	-2957
▁kindness	-2958
▁returned	-2959
downloader	-2960
▁Sometimes	-2961
▁aeroplane	-2962
▁newspaper	-2963
▁determined	-2964
▁playground	-2965
▁restaurant	-2966
cel	-2967
dle	-2968
ery	-2969
lic	-2970
loo	-2971
ove	-2972
put	-2973
res	-2974
und	-2975
anut	-2976
ault	-2977
body	-2978
edic	-2979
ency	-2980
fold	-2981
from	-2982
imed	-2983
miss	-2984
ured	-2985
œYes	-2986
▁Who	-2987
▁anc	-2988
▁bub	-2989
▁gro	-2990
▁law	-2991
▁paw	-2992
▁rac	-2993
▁scr	-2994
▁sum	-2995
acked	-2996
arget	-2997
ction	-2998
iness	-2999
ormal	-3000
ouses	-3001
ushed	-3002
usual	-3003
œWhat	-3004
▁Andy	-3005
▁Iter	-3006
▁June	-3007
▁bell	-3008
▁case	-3009
▁chir	-3010
▁desc	-3011
▁elev	-3012
▁horn	-3013
▁jeep	-3014
▁lean	-3015
▁legs	-3016
▁meas	-3017
▁mint	-3018
▁muff	-3019
▁nltk	-3020
▁ribb	-3021
▁ring	-3022
▁twig	-3023
▁vase	-3024
▁wash	-3025
▁wing	-3026
Please	-3027
folder	-3028
laimed	-3029
▁chase	-3030
▁dough	-3031
▁drive	-3032
▁hears	-3033
▁often	-3034
▁otter	-3035
▁since	-3036
▁smoke	-3037
▁thief	-3038
▁those	-3039
andards	-3040
▁almost	-3041
▁decide	-3042
▁dishes	-3043
▁escape	-3044
▁fruits	-3045
▁gasped	-3046
▁hidden	-3047
▁houses	-3048
▁ignore	-3049
▁middle	-3050
▁minute	-3051
▁office	-3052
▁peanut	-3053
▁signed	-3054
▁univer	-3055
▁wagged	-3056
ountries	-3057
▁ancient	-3058
▁collect	-3059
▁deliver	-3060
▁factory	-3061
▁offered	-3062
▁pathlib	-3063
▁playful	-3064
▁request	-3065
▁unusual	-3066
▁windows	-3067
▁cleaning	-3068
▁download	-3069
▁stronger	-3070
▁exclaimed	-3071
▁themselves	-3072
▁comfortable	-3073
▁disappeared	-3074
ON	-3075
["	-3076
elp	-3077
ird	-3078
▁=>	-3079
They	-3080
ache	-3081
andy	-3082
comm	-3083
etch	-3084
ines	-3085
utes	-3086
ying	-3087
zard	-3088
▁Pat	-3089
▁bak	-3090
▁enc	-3091
▁eye	-3092
▁fur	-3093
▁gun	-3094
▁ing	-3095
▁mem	-3096
▁pee	-3097
▁tap	-3098
house	-3099
ially	-3100
ients	-3101
inary	-3102
orpus	-3103
tuple	-3104
▁Mark	-3105
▁Matt	-3106
▁beak	-3107
▁cups	-3108
▁desk	-3109
▁frag	-3110
▁hunt	-3111
▁kite	-3112
▁mama	-3113
▁sock	-3114
▁sugg	-3115
▁tele	-3116
▁type	-3117
apping	-3118
ubborn	-3119
▁Brown	-3120
▁Danny	-3121
▁Harry	-3122
▁Lizzy	-3123
▁block	-3124
▁chair	-3125
▁cheer	-3126
▁chick	-3127
▁chirp	-3128
▁guess	-3129
▁hours	-3130
▁incre	-3131
▁jelly	-3132
▁quite	-3133
▁snake	-3134
▁trash	-3135
▁woman	-3136
ategory	-3137
ription	-3138
▁boring	-3139
▁clever	-3140
▁cooler	-3141
▁depend	-3142
▁fright	-3143
▁ingred	-3144
▁lights	-3145
▁lizard	-3146
▁missed	-3147
▁normal	-3148
▁rocket	-3149
▁rolled	-3150
▁stamps	-3151
▁string	-3152
▁ticket	-3153
▁WordNet	-3154
▁bubbles	-3155
▁imagine	-3156
▁measure	-3157
▁painter	-3158
▁popular	-3159
▁scatter	-3160
▁suggest	-3161
▁triples	-3162
▁branches	-3163
▁cheerful	-3164
▁dreaming	-3165
▁elevator	-3166
▁fountain	-3167
▁language	-3168
▁learning	-3169
▁realised	-3170
▁stubborn	-3171
▁stumbled	-3172
▁spaceship	-3173
▁downloader	-3174
▁ingredients	-3175
!'	-3176
EN	-3177
LA	-3178
TI	-3179
gn	-3180
tr	-3181
wr	-3182
▁]	-3183
ACK	-3184
apa	-3185
bie	-3186
cus	-3187
emo	-3188
ian	-3189
pro	-3190
ses	-3191
was	-3192
zip	-3193
▁My	-3194
AGES	-3195
Help	-3196
PACK	-3197
Stop	-3198
aged	-3199
ails	-3200
aken	-3201
asis	-3202
cogn	-3203
htub	-3204
list	-3205
mand	-3206
nset	-3207
omic	-3208
rosc	-3209
ures	-3210
▁Jan	-3211
▁ang	-3212
▁axe	-3213
▁env	-3214
▁jog	-3215
▁lar	-3216
▁rag	-3217
▁sol	-3218
▁tun	-3219
▁van	-3220
Sorry	-3221
ately	-3222
esult	-3223
igail	-3224
inked	-3225
ither	-3226
start	-3227
wards	-3228
œLetâ	-3229
▁Nemo	-3230
▁Snow	-3231
▁bake	-3232
▁bees	-3233
▁deaf	-3234
▁easy	-3235
▁fear	-3236
▁glow	-3237
▁half	-3238
▁inse	-3239
▁itch	-3240
▁once	-3241
▁seal	-3242
▁skin	-3243
▁spin	-3244
▁stem	-3245
▁wake	-3246
assion	-3247
ecause	-3248
lderly	-3249
ourite	-3250
washer	-3251
▁Today	-3252
▁above	-3253
▁agree	-3254
▁cheek	-3255
▁espec	-3256
▁march	-3257
▁miner	-3258
▁movie	-3259
▁nails	-3260
▁oasis	-3261
▁pract	-3262
▁rough	-3263
▁seeds	-3264
▁shade	-3265
▁shape	-3266
▁speed	-3267
▁strip	-3268
▁walls	-3269
▁worms	-3270
classid	-3271
roscope	-3272
▁advice	-3273
▁asking	-3274
▁bottom	-3275
▁copper	-3276
▁demand	-3277
▁folder	-3278
▁grocer	-3279
▁grumpy	-3280
▁hammer	-3281
▁honest	-3282
▁knight	-3283
▁laughs	-3284
▁safely	-3285
▁zipper	-3286
PACKAGES	-3287
▁Abigail	-3288
▁bathtub	-3289
▁checked	-3290
▁cooking	-3291
▁elderly	-3292
▁extract	-3293
▁happier	-3294
▁operand	-3295
▁peppers	-3296
▁results	-3297
▁session	-3298
▁skipped	-3299
▁sneezed	-3300
▁sticker	-3301
▁whistle	-3302
▁enjoying	-3303
▁painting	-3304
▁buildings	-3305
▁colourful	-3306
▁favourite	-3307
▁suggested	-3308
▁compassion	-3309
▁dishwasher	-3310
▁especially	-3311
▁microscope	-3312
aseDownloader	-3313
Is	-3314
Sh	-3315
bf	-3316
fl	-3317
ol	-3318
▁:	-3319
().	-3320
der	-3321
des	-3322
eor	-3323
for	-3324
isa	-3325
nam	-3326
par	-3327
rig	-3328
sit	-3329
ues	-3330
uth	-3331
zer	-3332
▁#[	-3333
▁Me	-3334
▁di	-3335
▁id	-3336
▁ig	-3337
▁{}	-3338
cles	-3339
conf	-3340
ents	-3341
erri	-3342
gest	-3343
icer	-3344
ideo	-3345
ique	-3346
ists	-3347
ived	-3348
merg	-3349
nltk	-3350
oint	-3351
omed	-3352
ouch	-3353
ustr	-3354
▁///	-3355
▁fre	-3356
▁pin	-3357
▁pun	-3358
▁sal	-3359
adder	-3360
agull	-3361
alous	-3362
cream	-3363
eorge	-3364
ifest	-3365
reeze	-3366
urtle	-3367
useum	-3368
▁data	-3369
▁dent	-3370
▁edge	-3371
▁eggs	-3372
▁fill	-3373
▁foot	-3374
▁mech	-3375
▁obed	-3376
▁ones	-3377
▁pale	-3378
▁pear	-3379
▁pipe	-3380
▁step	-3381
String	-3382
ention	-3383
herman	-3384
▁Would	-3385
▁angel	-3386
▁bored	-3387
▁clear	-3388
▁emerg	-3389
▁frown	-3390
▁helps	-3391
▁igloo	-3392
▁large	-3393
▁marry	-3394
▁older	-3395
▁power	-3396
▁radio	-3397
▁seats	-3398
▁split	-3399
▁study	-3400
▁taken	-3401
▁tears	-3402
▁terri	-3403
▁twink	-3404
▁video	-3405
▁walks	-3406
commend	-3407
▁George	-3408
▁bounce	-3409
▁breath	-3410
▁config	-3411
▁crayon	-3412
▁fluffy	-3413
▁frustr	-3414
▁helmet	-3415
▁insect	-3416
▁itself	-3417
▁ladder	-3418
▁learnt	-3419
▁nature	-3420
▁nicely	-3421
▁palace	-3422
▁peeked	-3423
▁polish	-3424
▁public	-3425
▁recogn	-3426
▁reward	-3427
▁saying	-3428
▁shield	-3429
▁target	-3430
▁trophy	-3431
▁unique	-3432
▁yawned	-3433
▁Natural	-3434
▁biggest	-3435
▁blowing	-3436
▁costume	-3437
▁couldnâ	-3438
▁default	-3439
▁dentist	-3440
▁fingers	-3441
▁fireman	-3442
▁fragile	-3443
▁freezer	-3444
▁hopping	-3445
▁jealous	-3446
▁minutes	-3447
▁pleased	-3448
▁prevent	-3449
▁ribbons	-3450
▁shaking	-3451
▁smaller	-3452
▁sweater	-3453
▁wrapped	-3454
▁Iterator	-3455
▁Snowball	-3456
▁Whenever	-3457
▁mechanic	-3458
▁obedient	-3459
▁emergency	-3460
▁fisherman	-3461
▁lightning	-3462
▁whispered	-3463
▁basketball	-3464
▁frightened	-3465
ED	-3466
])	-3467
fr	-3468
gy	-3469
jo	-3470
nc	-3471
of	-3472
sm	-3473
(),	-3474
Map	-3475
ato	-3476
fic	-3477
hus	-3478
iff	-3479
lla	-3480
omy	-3481
tmp	-3482
Here	-3483
cent	-3484
cuss	-3485
enry	-3486
eper	-3487
illi	-3488
inal	-3489
pack	-3490
reeS	-3491
stat	-3492
text	-3493
umsy	-3494
word	-3495
▁Big	-3496
▁cri	-3497
▁cur	-3498
▁fat	-3499
▁icy	-3500
▁led	-3501
▁que	-3502
▁sle	-3503
▁son	-3504
▁wip	-3505
ankie	-3506
asing	-3507
astic	-3508
celet	-3509
ected	-3510
ooped	-3511
osaur	-3512
place	-3513
rella	-3514
write	-3515
▁Fred	-3516
▁Jess	-3517
▁Lisa	-3518
▁Next	-3519
▁body	-3520
▁boss	-3521
▁curt	-3522
▁fail	-3523
▁fake	-3524
▁four	-3525
▁goal	-3526
▁harm	-3527
▁hats	-3528
▁melt	-3529
▁orig	-3530
▁rare	-3531
▁rece	-3532
▁shut	-3533
▁tape	-3534
▁text	-3535
▁tied	-3536
aspoon	-3537
attern	-3538
ficult	-3539
keeper	-3540
length	-3541
object	-3542
▁Fanny	-3543
▁Henry	-3544
▁crack	-3545
▁guard	-3546
▁hairy	-3547
▁hurry	-3548
▁jumps	-3549
▁knock	-3550
▁knows	-3551
▁lying	-3552
▁pulls	-3553
▁queen	-3554
▁raise	-3555
▁shone	-3556
▁sorts	-3557
▁speak	-3558
▁stret	-3559
dataset	-3560
operand	-3561
▁breeze	-3562
▁clumsy	-3563
▁create	-3564
▁either	-3565
▁enthus	-3566
▁headed	-3567
▁kicked	-3568
▁notice	-3569
▁passed	-3570
▁plants	-3571
▁pushes	-3572
▁second	-3573
▁strugg	-3574
▁sudden	-3575
▁allowed	-3576
▁circles	-3577
▁counter	-3578
▁cricket	-3579
▁dancing	-3580
▁discuss	-3581
▁dreamed	-3582
▁leading	-3583
▁pattern	-3584
▁picking	-3585
▁regular	-3586
▁relaxed	-3587
▁seagull	-3588
▁serious	-3589
▁spoiled	-3590
▁sweetie	-3591
▁trusted	-3592
reeSitter	-3593
▁FrameNet	-3594
▁bracelet	-3595
▁brothers	-3596
▁complete	-3597
▁original	-3598
▁remained	-3599
▁reminded	-3600
▁sandwich	-3601
▁teaspoon	-3602
▁terrible	-3603
▁universe	-3604
▁difficult	-3605
▁happiness	-3606
▁recommend	-3607
▁searching	-3608
▁Everything	-3609
▁celebrated	-3610
▁discovered	-3611
▁friendship	-3612
▁impressive	-3613
▁thoughtful	-3614
▁vegetables	-3615
▁compassionate	-3616
Gb	-3617
Ow	-3618
RE	-3619
To	-3620
fa	-3621
pr	-3622
}:	-3623
See	-3624
Yay	-3625
cod	-3626
cur	-3627
ges	-3628
htt	-3629
ips	-3630
izz	-3631
lid	-3632
max	-3633
mbo	-3634
ted	-3635
▁:=	-3636
▁OK	-3637
▁Re	-3638
▁["	-3639
▁bi	-3640
▁lu	-3641
▁os	-3642
choo	-3643
ckey	-3644
come	-3645
enny	-3646
gust	-3647
iggy	-3648
ipop	-3649
noon	-3650
nown	-3651
smGb	-3652
stri	-3653
ueen	-3654
▁anx	-3655
▁bal	-3656
▁bin	-3657
▁hut	-3658
▁lic	-3659
▁lid	-3660
▁nur	-3661
▁pup	-3662
▁six	-3663
▁tub	-3664
▁url	-3665
Earth	-3666
amond	-3667
ellig	-3668
iches	-3669
liday	-3670
phone	-3671
▁Here	-3672
▁Pete	-3673
▁bool	-3674
▁camp	-3675
▁chan	-3676
▁chim	-3677
▁cows	-3678
▁dear	-3679
▁deer	-3680
▁fine	-3681
▁fold	-3682
▁fort	-3683
▁gray	-3684
▁hung	-3685
▁knee	-3686
▁leak	-3687
▁libr	-3688
▁loll	-3689
▁mask	-3690
▁moon	-3691
▁nosy	-3692
▁paid	-3693
▁peek	-3694
▁pole	-3695
▁prep	-3696
▁rail	-3697
▁scar	-3698
▁sent	-3699
▁tank	-3700
▁temp	-3701
Backed	-3702
exists	-3703
lasses	-3704
ometer	-3705
urried	-3706
▁Betty	-3707
▁Ducky	-3708
▁Robot	-3709
▁ahead	-3710
▁apart	-3711
▁await	-3712
▁bikes	-3713
▁cards	-3714
▁chose	-3715
▁couch	-3716
▁doesn	-3717
▁float	-3718
▁forth	-3719
▁fresh	-3720
▁grown	-3721
▁hotel	-3722
▁hurts	-3723
▁jolly	-3724
▁lives	-3725
▁messy	-3726
▁ornam	-3727
▁poked	-3728
▁shake	-3729
▁snugg	-3730
▁spear	-3731
▁symbo	-3732
▁thumb	-3733
▁times	-3734
▁weird	-3735
▁apolog	-3736
▁behave	-3737
▁counts	-3738
▁drawer	-3739
▁except	-3740
▁giving	-3741
▁gloomy	-3742
▁hockey	-3743
▁joined	-3744
▁loaded	-3745
▁muffin	-3746
▁museum	-3747
▁petals	-3748
▁remain	-3749
▁slides	-3750
▁smelly	-3751
▁supply	-3752
▁synset	-3753
▁taught	-3754
elligent	-3755
▁anxious	-3756
▁comfort	-3757
▁diamond	-3758
▁disgust	-3759
▁growing	-3760
▁holiday	-3761
▁invited	-3762
▁license	-3763
▁painted	-3764
▁project	-3765
▁sandbox	-3766
▁squeeze	-3767
▁brightly	-3768
▁careless	-3769
▁carrying	-3770
▁charming	-3771
▁complain	-3772
▁dinosaur	-3773
▁lollipop	-3774
▁ordinary	-3775
▁splashed	-3776
▁starting	-3777
▁afternoon	-3778
▁delighted	-3779
▁telephone	-3780
▁frustrated	-3781
▁sandwiches	-3782
▁description	-3783
▁intelligent	-3784
▁thermometer	-3785
BackedDownloader	-3786
BF	-3787
LL	-3788
ME	-3789
ah	-3790
bs	-3791
no	-3792
ok	-3793
pa	-3794
}`	-3795
://	-3796
amb	-3797
ano	-3798
era	-3799
ety	-3800
lay	-3801
tal	-3802
ugh	-3803
▁fu	-3804
appy	-3805
cast	-3806
ceed	-3807
code	-3808
cont	-3809
edal	-3810
fish	-3811
indy	-3812
lace	-3813
lter	-3814
mail	-3815
mall	-3816
onse	-3817
with	-3818
▁May	-3819
▁art	-3820
▁dat	-3821
▁gas	-3822
▁isn	-3823
▁len	-3824
▁sil	-3825
▁sne	-3826
▁umb	-3827
▁yet	-3828
alpha	-3829
ereal	-3830
heart	-3831
https	-3832
ments	-3833
opard	-3834
pairs	-3835
▁Aunt	-3836
▁Burt	-3837
▁bark	-3838
▁beep	-3839
▁burn	-3840
▁comb	-3841
▁crow	-3842
▁ener	-3843
▁gain	-3844
▁goat	-3845
▁hero	-3846
▁hook	-3847
▁hoop	-3848
▁king	-3849
▁meal	-3850
▁nuts	-3851
▁pair	-3852
▁raft	-3853
▁soar	-3854
▁sofa	-3855
▁spun	-3856
▁suff	-3857
▁whip	-3858
append	-3859
atched	-3860
castle	-3861
framed	-3862
stairs	-3863
▁False	-3864
▁Sandy	-3865
▁board	-3866
▁genie	-3867
▁glass	-3868
▁harsh	-3869
▁itchy	-3870
▁offer	-3871
▁pages	-3872
▁pitch	-3873
▁plate	-3874
▁salad	-3875
▁slept	-3876
▁space	-3877
▁spray	-3878
▁stack	-3879
▁toast	-3880
▁total	-3881
▁tough	-3882
▁wheel	-3883
▁witch	-3884
▁yucky	-3885
Because	-3886
illiant	-3887
▁Before	-3888
▁Option	-3889
▁anyway	-3890
▁barber	-3891
▁cereal	-3892
▁circle	-3893
▁invest	-3894
▁leaned	-3895
▁loudly	-3896
▁modest	-3897
▁parity	-3898
▁pastry	-3899
▁pigeon	-3900
▁prayed	-3901
▁rubbed	-3902
▁ruined	-3903
▁rushed	-3904
▁safety	-3905
▁saving	-3906
▁singer	-3907
▁triang	-3908
▁turtle	-3909
▁	-3910
e	-3911
a	-3912
t	-3913
o	-3914
h	-3915
n	-3916
i	-3917
s	-3918
d	-3919
r	-3920
l	-3921
y	-3922
.	-3923
m	-3924
w	-3925
u	-3926
c	-3927
p	-3928
g	-3929
f	-3930
b	-3931
k	-3932
,	-3933
T	-3934
"	-3935
v	-3936
1	-3937
0	-3938
S	-3939
2	-3940
+	-3941
=	-3942
3	-3943
5	-3944
7	-3945
H	-3946
8	-3947
4	-3948
6	-3949
9	-3950
I	-3951
'	-3952
#	-3953
L	-3954
!	-3955
O	-3956
B	-3957
x	-3958
M	-3959
|	-3960
A	-3961
W	-3962
_	-3963
J	-3964
j	-3965
?	-3966
Y	-3967
:	-3968
(	-3969
)	-3970
z	-3971
E	-3972
D	-3973
N	-3974
â	-3975
€	-3976
>	-3977
-	-3978
;	-3979
<	-3980
R	-3981
C	-3982
/	-3983
q	-3984
F	-3985
P	-3986
G	-3987
`	-3988
œ	-3989
{	-3990
}	-3991
[	-3992
]	-3993
K	-3994
⟨	-3995
