<pad>	0
<unk>	0
<s>	0
</s>	0
he	-0
▁t	-1
▁a	-2
▁s	-3
▁w	-4
nd	-5
▁the	-6
ed	-7
▁and	-8
▁b	-9
in	-10
▁to	-11
re	-12
▁h	-13
▁c	-14
ou	-15
▁f	-16
▁wa	-17
it	-18
▁T	-19
er	-20
▁l	-21
▁m	-22
▁d	-23
▁p	-24
▁he	-25
om	-26
▁o	-27
▁was	-28
▁The	-29
ar	-30
is	-31
ing	-32
at	-33
ay	-34
il	-35
id	-36
▁g	-37
en	-38
▁S	-39
▁ha	-40
▁n	-41
or	-42
▁sa	-43
on	-44
an	-45
ll	-46
im	-47
es	-48
▁"	-49
▁th	-50
et	-51
▁it	-52
▁=	-53
▁H	-54
le	-55
ot	-56
▁in	-57
ir	-58
▁her	-59
▁They	-60
ow	-61
▁She	-62
▁e	-63
ver	-64
▁He	-65
ut	-66
▁+	-67
▁.	-68
ck	-69
am	-70
▁said	-71
▁y	-72
ld	-73
ri	-74
▁u	-75
▁st	-76
oo	-77
▁I	-78
ce	-79
▁L	-80
▁r	-81
▁be	-82
ve	-83
pp	-84
▁she	-85
ith	-86
ad	-87
ke	-88
ked	-89
▁with	-90
▁of	-91
ily	-92
▁you	-93
▁so	-94
▁B	-95
nt	-96
▁O	-97
ig	-98
▁on	-99
▁On	-100
very	-101
▁|	-102
▁had	-103
st	-104
▁his	-105
▁Lily	-106
▁we	-107
▁pl	-108
▁that	-109
▁day	-110
all	-111
se	-112
▁they	-113
ch	-114
▁mom	-115
▁up	-116
▁for	-117
▁M	-118
al	-119
ent	-120
▁an	-121
out	-122
▁A	-123
ould	-124
▁play	-125
▁li	-126
▁sh	-127
un	-128
ound	-129
her	-130
▁re	-131
my	-132
ly	-133
ome	-134
▁happ	-135
▁is	-136
▁sm	-137
itt	-138
▁want	-139
▁k	-140
▁ne	-141
el	-142
▁very	-143
ra	-144
end	-145
▁as	-146
▁wh	-147
▁not	-148
ht	-149
ime	-150
▁do	-151
▁time	-152
ore	-153
▁there	-154
▁were	-155
▁It	-156
ittle	-157
▁but	-158
."	-159
▁little	-160
▁J	-161
!"	-162
▁fri	-163
ack	-164
▁happy	-165
▁friend	-166
ide	-167
ec	-168
ry	-169
▁saw	-170
▁big	-171
ter	-172
ake	-173
▁One	-174
ug	-175
ur	-176
▁loo	-177
▁bo	-178
ul	-179
▁them	-180
▁go	-181
▁se	-182
ved	-183
ic	-184
ill	-185
▁Ben	-186
▁Once	-187
▁lo	-188
▁Tim	-189
▁ex	-190
▁smil	-191
ind	-192
rom	-193
ard	-194
▁their	-195
▁sp	-196
▁too	-197
▁out	-198
▁j	-199
irl	-200
▁are	-201
um	-202
▁at	-203
▁girl	-204
▁him	-205
one	-206
▁could	-207
▁wanted	-208
art	-209
▁Tom	-210
ain	-211
▁have	-212
▁upon	-213
ame	-214
as	-215
▁le	-216
▁W	-217
hen	-218
▁all	-219
▁can	-220
if	-221
hing	-222
?"	-223
round	-224
hed	-225
▁went	-226
way	-227
▁did	-228
▁smiled	-229
ght	-230
ick	-231
▁friends	-232
lp	-233
op	-234
▁no	-235
are	-236
lo	-237
ach	-238
▁kn	-239
▁But	-240
▁asked	-241
ood	-242
▁help	-243
ark	-244
▁back	-245
ie	-246
ice	-247
omet	-248
▁fun	-249
You	-250
ro	-251
▁ro	-252
▁al	-253
ag	-254
ure	-255
▁from	-256
side	-257
▁say	-258
get	-259
▁man	-260
amed	-261
ue	-262
▁see	-263
own	-264
elt	-265
▁somet	-266
▁sc	-267
▁like	-268
▁some	-269
dd	-270
▁looked	-271
est	-272
king	-273
▁felt	-274
▁me	-275
▁around	-276
ful	-277
▁fa	-278
▁wor	-279
▁co	-280
ell	-281
▁boy	-282
ings	-283
▁loved	-284
▁start	-285
▁what	-286
hat	-287
▁E	-288
ree	-289
▁D	-290
ade	-291
▁pr	-292
▁something	-293
▁then	-294
▁toy	-295
,"	-296
▁found	-297
▁named	-298
ong	-299
▁Mom	-300
▁would	-301
ion	-302
ited	-303
▁Timmy	-304
pl	-305
▁exc	-306
▁more	-307
▁ag	-308
▁ran	-309
▁Sam	-310
us	-311
▁ot	-312
▁bir	-313
▁car	-314
gether	-315
nn	-316
ook	-317
oud	-318
▁<	-319
▁put	-320
ought	-321
ab	-322
▁You	-323
▁made	-324
▁new	-325
▁other	-326
▁started	-327
ers	-328
▁make	-329
▁bird	-330
ous	-331
ared	-332
▁park	-333
ort	-334
▁ch	-335
▁home	-336
▁v	-337
ess	-338
▁sw	-339
▁Ann	-340
ist	-341
▁excited	-342
ave	-343
▁together	-344
and	-345
▁away	-346
▁fe	-347
call	-348
▁hug	-349
▁im	-350
▁get	-351
▁Anna	-352
▁one	-353
▁says	-354
▁things	-355
▁wal	-356
▁who	-357
aug	-358
ep	-359
▁good	-360
▁than	-361
ust	-362
ight	-363
pped	-364
▁cl	-365
▁liked	-366
▁dec	-367
▁your	-368
▁when	-369
low	-370
▁br	-371
▁again	-372
▁ans	-373
▁playing	-374
▁every	-375
ap	-376
▁F	-377
▁imp	-378
qu	-379
uch	-380
ant	-381
▁ab	-382
ss	-383
▁care	-384
▁find	-385
▁sad	-386
ax	-387
ally	-388
uck	-389
▁dad	-390
▁down	-391
ouse	-392
▁got	-393
▁came	-394
ine	-395
▁So	-396
▁op	-397
nder	-398
▁old	-399
ct	-400
ara	-401
ite	-402
▁if	-403
ny	-404
▁po	-405
▁will	-406
ided	-407
▁i	-408
ial	-409
lf	-410
ma	-411
ried	-412
▁decided	-413
▁thought	-414
ned	-415
ild	-416
our	-417
ise	-418
▁Sara	-419
▁spec	-420
to	-421
▁pick	-422
ull	-423
fe	-424
ven	-425
ened	-426
ob	-427
▁When	-428
▁pe	-429
▁special	-430
reat	-431
▁lear	-432
▁take	-433
ive	-434
ries	-435
▁Jo	-436
▁ke	-437
▁pre	-438
▁import	-439
▁took	-440
ia	-441
▁each	-442
▁scared	-443
▁my	-444
▁Max	-445
▁lot	-446
▁N	-447
▁kne	-448
ged	-449
▁gra	-450
udd	-451
ft	-452
ount	-453
▁ball	-454
▁look	-455
▁mo	-456
▁tw	-457
▁com	-458
▁;	-459
",	-460
les	-461
▁outside	-462
ac	-463
ump	-464
▁Jack	-465
▁know	-466
▁Every	-467
▁knew	-468
▁laug	-469
▁about	-470
fter	-471
▁box	-472
▁feel	-473
▁this	-474
ile	-475
udden	-476
▁didn	-477
ate	-478
ge	-479
▁R	-480
ish	-481
▁clo	-482
▁str	-483
▁tree	-484
ways	-485
▁always	-486
ub	-487
ink	-488
▁gave	-489
▁bec	-490
▁tr	-491
▁ho	-492
▁proud	-493
uddenly	-494
▁cat	-495
▁how	-496
▁over	-497
▁sk	-498
▁Her	-499
▁expl	-500
▁mommy	-501
ak	-502
▁C	-503
orry	-504
ast	-505
ace	-506
▁toys	-507
xt	-508
▁kind	-509
▁show	-510
ber	-511
▁en	-512
▁small	-513
▁hand	-514
▁never	-515
other	-516
▁house	-517
ank	-518
▁flow	-519
▁Mia	-520
▁much	-521
▁sorry	-522
ase	-523
self	-524
▁P	-525
▁heard	-526
oth	-527
▁qu	-528
▁any	-529
▁water	-530
ath	-531
▁room	-532
uc	-533
▁into	-534
▁â	-535
▁che	-536
▁run	-537
▁nice	-538
▁inside	-539
▁-	-540
urn	-541
▁dog	-542
ty	-543
▁de	-544
▁or	-545
▁told	-546
ect	-547
▁couldn	-548
▁sun	-549
▁even	-550
▁His	-551
▁off	-552
▁Suddenly	-553
▁ber	-554
▁bear	-555
▁bl	-556
ving	-557
▁pret	-558
▁berries	-559
iz	-560
▁bet	-561
Yes	-562
orn	-563
▁us	-564
▁We	-565
▁let	-566
▁con	-567
urp	-568
▁te	-569
▁And	-570
▁has	-571
aw	-572
▁count	-573
ass	-574
▁fo	-575
▁Sue	-576
right	-577
▁many	-578
▁need	-579
▁picked	-580
dy	-581
▁bu	-582
▁just	-583
imal	-584
▁app	-585
ins	-586
▁hugged	-587
▁wo	-588
pt	-589
▁eat	-590
here	-591
▁thanked	-592
▁Then	-593
▁animal	-594
vent	-595
▁call	-596
aut	-597
em	-598
ady	-599
oug	-600
use	-601
▁</	-602
ough	-603
ation	-604
▁stay	-605
ip	-606
oy	-607
▁Bob	-608
ars	-609
oon	-610
▁fam	-611
▁beaut	-612
▁ad	-613
iny	-614
▁long	-615
▁learned	-616
ves	-617
▁beautif	-618
▁don	-619
▁list	-620
Th	-621
by	-622
ople	-623
▁come	-624
▁beautiful	-625
able	-626
▁sky	-627
▁tried	-628
▁better	-629
▁two	-630
▁played	-631
ause	-632
▁best	-633
▁love	-634
▁lots	-635
ream	-636
▁try	-637
▁people	-638
▁careful	-639
▁laughed	-640
dded	-641
urt	-642
▁jump	-643
▁book	-644
led	-645
▁From	-646
▁under	-647
▁G	-648
gry	-649
▁by	-650
ntil	-651
▁bra	-652
▁end	-653
▁fle	-654
ies	-655
ane	-656
▁fi	-657
arden	-658
▁family	-659
▁sn	-660
▁garden	-661
▁wat	-662
▁both	-663
▁until	-664
▁gre	-665
▁clos	-666
▁fast	-667
▁mach	-668
▁animals	-669
ool	-670
aking	-671
▁stor	-672
▁{	-673
bed	-674
hes	-675
▁Joh	-676
▁child	-677
▁because	-678
eet	-679
ger	-680
▁sl	-681
▁left	-682
urpr	-683
rm	-684
▁gr	-685
▁machine	-686
▁rem	-687
▁surpr	-688
ised	-689
▁tow	-690
▁safe	-691
▁hard	-692
▁Dad	-693
▁flowers	-694
No	-695
ished	-696
▁opened	-697
▁should	-698
▁ide	-699
▁shiny	-700
▁explore	-701
ff	-702
int	-703
▁cu	-704
▁door	-705
▁walked	-706
age	-707
▁dan	-708
▁way	-709
▁loud	-710
▁still	-711
ren	-712
be	-713
kay	-714
▁As	-715
ctor	-716
ucy	-717
▁cle	-718
Let	-719
▁un	-720
▁wr	-721
fore	-722
▁fin	-723
▁Lucy	-724
ids	-725
What	-726
▁sto	-727
▁rock	-728
▁ac	-729
▁tre	-730
▁called	-731
▁soon	-732
▁brave	-733
ary	-734
▁fore	-735
▁advent	-736
▁nodded	-737
joy	-738
▁cry	-739
ious	-740
▁fly	-741
▁ret	-742
▁going	-743
▁⟨	-744
That	-745
▁del	-746
It	-747
▁(	-748
▁Amy	-749
▁noise	-750
ied	-751
igh	-752
ummy	-753
▁keep	-754
so	-755
ered	-756
▁red	-757
▁before	-758
ble	-759
iced	-760
▁bed	-761
▁name	-762
▁after	-763
▁lived	-764
▁stick	-765
▁vo	-766
ndma	-767
▁col	-768
▁hurt	-769
▁share	-770
ched	-771
▁its	-772
▁flew	-773
▁pretty	-774
▁After	-775
▁everyone	-776
hy	-777
▁doll	-778
▁idea	-779
▁sweet	-780
▁wonder	-781
▁enjoy	-782
▁ow	-783
()	-784
TM	-785
iss	-786
▁Th	-787
▁wind	-788
maz	-789
aybe	-790
▁bad	-791
▁John	-792
▁amaz	-793
ress	-794
▁repl	-795
▁smile	-796
▁looking	-797
thing	-798
▁ey	-799
▁gl	-800
▁angry	-801
▁noticed	-802
▁}	-803
raw	-804
▁great	-805
▁apples	-806
▁ground	-807
▁return	-808
▁stopped	-809
▁walking	-810
▁adventure	-811
illy	-812
ember	-813
▁There	-814
▁thr	-815
▁also	-816
▁cont	-817
▁kept	-818
▁next	-819
▁real	-820
▁sound	-821
▁dis	-822
▁far	-823
▁children	-824
bit	-825
ons	-826
▁cr	-827
▁think	-828
ict	-829
▁use	-830
Thank	-831
▁ever	-832
▁bit	-833
▁give	-834
▁clean	-835
ail	-836
▁tra	-837
▁ar	-838
▁ye	-839
irst	-840
abbit	-841
▁counted	-842
▁fr	-843
▁Joe	-844
▁grab	-845
▁rabbit	-846
▁Everyone	-847
▁z	-848
ors	-849
▁That	-850
▁been	-851
▁feeling	-852
load	-853
▁head	-854
Look	-855
▁fish	-856
▁near	-857
▁listen	-858
▁replied	-859
co	-860
▁Now	-861
▁hands	-862
▁dr	-863
ning	-864
▁rel	-865
▁eyes	-866
▁Mommy	-867
▁voice	-868
▁shout	-869
▁remember	-870
ken	-871
rious	-872
▁fl	-873
▁boat	-874
▁right	-875
▁truck	-876
▁important	-877
ph	-878
ield	-879
▁bro	-880
""	-881
▁pu	-882
ully	-883
▁bre	-884
▁def	-885
▁now	-886
ting	-887
▁Jane	-888
▁while	-889
▁forest	-890
")	-891
bye	-892
▁tal	-893
▁kids	-894
▁work	-895
▁quick	-896
▁closer	-897
▁showed	-898
ult	-899
▁blo	-900
▁wait	-901
▁three	-902
▁curious	-903
▁goodbye	-904
cess	-905
llow	-906
▁mag	-907
▁place	-908
ical	-909
▁mon	-910
▁okay	-911
__	-912
Can	-913
▁lea	-914
fully	-915
▁food	-916
▁warm	-917
``	-918
pot	-919
ange	-920
▁bag	-921
▁fav	-922
aught	-923
▁blue	-924
▁prin	-925
ign	-926
▁being	-927
▁build	-928
sp	-929
▁worked	-930
▁cook	-931
▁rain	-932
▁walk	-933
▁store	-934
ized	-935
▁num	-936
ayout	-937
lease	-938
▁yell	-939
▁Gra	-940
▁our	-941
▁done	-942
▁glad	-943
▁here	-944
▁pict	-945
▁balloon	-946
▁picture	-947
day	-948
▁am	-949
▁Let	-950
▁follow	-951
rog	-952
▁In	-953
▁bow	-954
▁high	-955
▁delic	-956
▁making	-957
imes	-958
ached	-959
▁lost	-960
▁books	-961
▁first	-962
uff	-963
▁pol	-964
▁trees	-965
▁grabbed	-966
de	-967
th	-968
▁fair	-969
▁game	-970
▁green	-971
▁brother	-972
rip	-973
▁Spot	-974
▁birds	-975
▁story	-976
▁strong	-977
▁quickly	-978
▁carefully	-979
We	-980
isy	-981
▁beg	-982
▁set	-983
▁butt	-984
▁bright	-985
ey	-986
▁flo	-987
▁hop	-988
▁pain	-989
▁pull	-990
▁Sarah	-991
cks	-992
rel	-993
▁->	-994
▁bus	-995
▁hot	-996
▁own	-997
arent	-998
▁cake	-999
▁only	-1000
▁part	-1001
▁Sally	-1002
▁world	-1003
iv	-1004
▁jo	-1005
orite	-1006
▁frog	-1007
▁open	-1008
▁tell	-1009
▁grass	-1010
▁favorite	-1011
Mom	-1012
▁prom	-1013
▁sing	-1014
▁Tommy	-1015
▁underst	-1016
ott	-1017
▁Da	-1018
cked	-1019
ather	-1020
▁less	-1021
▁learn	-1022
▁coming	-1023
▁watched	-1024
itc	-1025
aring	-1026
▁pond	-1027
▁sees	-1028
▁having	-1029
▁jumped	-1030
▁shouted	-1031
Raw	-1032
dir	-1033
▁At	-1034
▁ask	-1035
▁clim	-1036
▁ready	-1037
akes	-1038
▁sure	-1039
▁slide	-1040
▁brought	-1041
sh	-1042
▁Jim	-1043
▁face	-1044
▁forg	-1045
▁yummy	-1046
▁flower	-1047
▁reached	-1048
▁What	-1049
ractor	-1050
▁doing	-1051
▁dif	-1052
▁swim	-1053
▁thank	-1054
man	-1055
Hell	-1056
ards	-1057
▁mar	-1058
Hello	-1059
▁sand	-1060
loader	-1061
▁began	-1062
▁creat	-1063
▁where	-1064
▁happened	-1065
key	-1066
▁kitc	-1067
▁rest	-1068
▁tast	-1069
▁boxes	-1070
▁catch	-1071
▁kitchen	-1072
▁pretend	-1073
cle	-1074
elf	-1075
ows	-1076
aset	-1077
▁ele	-1078
▁vis	-1079
▁fire	-1080
▁lady	-1081
ataset	-1082
▁happily	-1083
▁surprise	-1084
▁wonderful	-1085
TMs	-1086
air	-1087
ama	-1088
▁Do	-1089
▁hat	-1090
▁why	-1091
▁mean	-1092
Layout	-1093
▁watch	-1094
▁years	-1095
▁through	-1096
ike	-1097
▁Can	-1098
▁ate	-1099
▁cool	-1100
▁self	-1101
▁funny	-1102
▁night	-1103
▁realized	-1104
".	-1105
zy	-1106
leep	-1107
▁dark	-1108
▁seen	-1109
▁waved	-1110
▁became	-1111
▁contin	-1112
▁number	-1113
▁per	-1114
ained	-1115
atter	-1116
urned	-1117
▁mother	-1118
▁needed	-1119
os	-1120
ance	-1121
ject	-1122
▁beh	-1123
▁bel	-1124
▁int	-1125
▁soft	-1126
▁turn	-1127
▁close	-1128
RawLayout	-1129
app	-1130
ila	-1131
lass	-1132
ster	-1133
▁"""	-1134
▁cut	-1135
▁mod	-1136
▁arri	-1137
▁gent	-1138
▁shell	-1139
▁parent	-1140
▁surprised	-1141
kes	-1142
ired	-1143
unny	-1144
▁pro	-1145
▁Lila	-1146
▁fell	-1147
▁used	-1148
▁thing	-1149
▁enjoyed	-1150
▁remembered	-1151
("	-1152
reed	-1153
▁pus	-1154
illed	-1155
where	-1156
▁full	-1157
▁Benny	-1158
▁class	-1159
▁Grandma	-1160
▁delicious	-1161
ng	-1162
Wow	-1163
sat	-1164
▁gi	-1165
ient	-1166
▁Jill	-1167
▁does	-1168
▁farm	-1169
▁visit	-1170
▁lesson	-1171
▁really	-1172
▁arrived	-1173
▁buttons	-1174
▁dro	-1175
▁ste	-1176
▁cand	-1177
▁sign	-1178
▁diffe	-1179
▁blocks	-1180
▁stayed	-1181
▁princess	-1182
amp	-1183
▁buy	-1184
▁comp	-1185
▁floor	-1186
▁light	-1187
▁agreed	-1188
▁butter	-1189
▁wished	-1190
rew	-1191
more	-1192
▁hole	-1193
▁path	-1194
▁tall	-1195
▁wood	-1196
▁break	-1197
▁dress	-1198
▁looks	-1199
▁anymore	-1200
▁magical	-1201
="	-1202
ity	-1203
eddy	-1204
ined	-1205
rent	-1206
▁shop	-1207
▁touch	-1208
▁amazing	-1209
ang	-1210
▁ri	-1211
oney	-1212
▁cra	-1213
▁won	-1214
▁duck	-1215
▁move	-1216
ations	-1217
▁dream	-1218
▁field	-1219
▁swing	-1220
▁broken	-1221
▁shared	-1222
▁himself	-1223
ownloader	-1224
▁understand	-1225
ix	-1226
irt	-1227
▁bar	-1228
▁ice	-1229
▁Daisy	-1230
xtractor	-1231
▁running	-1232
▁anything	-1233
▁finished	-1234
ms	-1235
ask	-1236
▁el	-1237
▁fix	-1238
asure	-1239
cy	-1240
ence	-1241
▁squ	-1242
▁snow	-1243
▁treat	-1244
▁parents	-1245
▁friendly	-1246
▁different	-1247
):	-1248
ze	-1249
ater	-1250
ment	-1251
▁cold	-1252
▁hold	-1253
▁mess	-1254
▁stop	-1255
▁Billy	-1256
▁smell	-1257
▁tired	-1258
▁helped	-1259
▁hopped	-1260
▁monkey	-1261
eta	-1262
llo	-1263
lly	-1264
oup	-1265
▁ju	-1266
▁This	-1267
▁cars	-1268
▁corn	-1269
▁else	-1270
▁grew	-1271
▁beach	-1272
▁coins	-1273
▁laugh	-1274
▁yellow	-1275
▁cheered	-1276
▁fox	-1277
phant	-1278
▁hear	-1279
▁held	-1280
▁spoon	-1281
▁elephant	-1282
);	-1283
aper	-1284
ones	-1285
▁mum	-1286
▁bike	-1287
▁wrong	-1288
▁sometimes	-1289
av	-1290
bo	-1291
ho	-1292
aby	-1293
ppy	-1294
▁Em	-1295
This	-1296
ated	-1297
ling	-1298
▁din	-1299
▁sho	-1300
▁Mama	-1301
▁behind	-1302
//	-1303
ash	-1304
ced	-1305
red	-1306
str	-1307
ued	-1308
umpk	-1309
▁gone	-1310
▁pumpk	-1311
▁leaves	-1312
▁another	-1313
▁#	-1314
ale	-1315
ert	-1316
rag	-1317
set	-1318
ross	-1319
▁sat	-1320
▁top	-1321
▁answ	-1322
▁danger	-1323
▁filled	-1324
▁followed	-1325
lc	-1326
up	-1327
fly	-1328
icy	-1329
ose	-1330
ames	-1331
▁morn	-1332
▁worry	-1333
▁morning	-1334
▁explained	-1335
ata	-1336
room	-1337
▁hid	-1338
▁cried	-1339
▁drink	-1340
▁mouse	-1341
ds	-1342
ner	-1343
not	-1344
path	-1345
▁Fin	-1346
▁Jen	-1347
▁Soon	-1348
▁bott	-1349
▁bunny	-1350
▁likes	-1351
▁living	-1352
▁herself	-1353
LT	-1354
▁hun	-1355
▁comes	-1356
▁cream	-1357
▁faster	-1358
▁getting	-1359
▁grandma	-1360
▁someone	-1361
▁balloons	-1362
mo	-1363
bles	-1364
name	-1365
▁All	-1366
▁yes	-1367
▁pile	-1368
▁talk	-1369
▁acorn	-1370
▁train	-1371
▁please	-1372
▁promised	-1373
The	-1374
que	-1375
▁To	-1376
▁pie	-1377
▁None	-1378
▁deep	-1379
▁hill	-1380
▁paint	-1381
▁stones	-1382
▁smallest	-1383
mp	-1384
"),	-1385
Don	-1386
ape	-1387
atch	-1388
pper	-1389
yard	-1390
▁spl	-1391
▁bowl	-1392
▁read	-1393
▁slow	-1394
▁Maybe	-1395
▁moment	-1396
▁pulled	-1397
▁cookies	-1398
▁backyard	-1399
▁listened	-1400
LTK	-1401
ire	-1402
row	-1403
▁Path	-1404
▁baby	-1405
▁lion	-1406
▁pack	-1407
▁ride	-1408
▁welc	-1409
▁Jimmy	-1410
▁sleep	-1411
▁tower	-1412
▁amazed	-1413
▁bigger	-1414
▁colors	-1415
▁shells	-1416
▁turned	-1417
▁K	-1418
div	-1419
ret	-1420
▁su	-1421
▁qui	-1422
▁Mary	-1423
▁buck	-1424
▁fall	-1425
▁candy	-1426
▁might	-1427
▁puppy	-1428
▁window	-1429
▁Finally	-1430
▁finally	-1431
▁strange	-1432
▁pumpkins	-1433
Downloader	-1434
br	-1435
la	-1436
orm	-1437
▁Al	-1438
oral	-1439
▁air	-1440
▁mus	-1441
▁purp	-1442
▁Daddy	-1443
▁dolls	-1444
▁dinner	-1445
▁continued	-1446
Oh	-1447
ift	-1448
ote	-1449
▁Ab	-1450
ract	-1451
▁bug	-1452
▁joy	-1453
irrel	-1454
▁cast	-1455
▁hide	-1456
▁quiet	-1457
▁purple	-1458
▁stepped	-1459
▁squirrel	-1460
▁stickers	-1461
▁[	-1462
Net	-1463
ear	-1464
▁``	-1465
▁pet	-1466
▁val	-1467
▁able	-1468
▁gift	-1469
▁hair	-1470
▁miss	-1471
▁town	-1472
▁juice	-1473
▁Inside	-1474
▁butterfly	-1475
▁dangerous	-1476
TA	-1477
▁_	-1478
ates	-1479
▁dri	-1480
▁ext	-1481
▁sec	-1482
Maybe	-1483
riple	-1484
▁table	-1485
▁bucket	-1486
▁treasure	-1487
▁everything	-1488
zz	-1489
But	-1490
ugg	-1491
▁__	-1492
olly	-1493
▁wet	-1494
inted	-1495
▁pink	-1496
▁wall	-1497
▁color	-1498
▁party	-1499
▁wrote	-1500
▁crying	-1501
▁gentle	-1502
▁happen	-1503
yp	-1504
igg	-1505
ord	-1506
eter	-1507
itter	-1508
▁grow	-1509
▁land	-1510
▁wasn	-1511
▁Their	-1512
▁money	-1513
▁teddy	-1514
▁Dataset	-1515
att	-1516
ope	-1517
ever	-1518
▁exp	-1519
▁heal	-1520
▁life	-1521
▁star	-1522
▁leave	-1523
▁music	-1524
▁scary	-1525
▁today	-1526
▁woods	-1527
▁flying	-1528
▁hungry	-1529
we	-1530
▁)	-1531
mer	-1532
ror	-1533
▁gu	-1534
Okay	-1535
fort	-1536
ieve	-1537
unch	-1538
▁mix	-1539
▁nap	-1540
oring	-1541
▁must	-1542
▁perf	-1543
▁resp	-1544
▁sear	-1545
▁side	-1546
▁along	-1547
▁climb	-1548
▁drove	-1549
▁forgot	-1550
▁welcome	-1551
Why	-1552
add	-1553
med	-1554
sub	-1555
Meta	-1556
ions	-1557
ises	-1558
ucky	-1559
▁des	-1560
▁min	-1561
▁pow	-1562
▁heav	-1563
▁alone	-1564
▁brown	-1565
▁moral	-1566
▁paper	-1567
▁piece	-1568
▁spark	-1569
▁tight	-1570
▁others	-1571
▁waited	-1572
ex	-1573
▁("	-1574
▁pi	-1575
cket	-1576
iver	-1577
▁cub	-1578
▁cup	-1579
▁res	-1580
▁clot	-1581
▁drag	-1582
▁kiss	-1583
▁wants	-1584
▁DatasetMeta	-1585
ee	-1586
old	-1587
▁arm	-1588
▁smo	-1589
▁tri	-1590
▁asks	-1591
▁runs	-1592
▁song	-1593
▁silly	-1594
▁twins	-1595
▁sweets	-1596
▁clothes	-1597
Extractor	-1598
Hi	-1599
ek	-1600
▁x	-1601
ere	-1602
ext	-1603
its	-1604
ize	-1605
▁je	-1606
▁ve	-1607
aces	-1608
eces	-1609
▁win	-1610
chool	-1611
orrow	-1612
▁coin	-1613
▁race	-1614
▁Molly	-1615
▁heavy	-1616
▁closed	-1617
▁enough	-1618
▁though	-1619
▁marbles	-1620
OK	-1621
ased	-1622
iles	-1623
uffy	-1624
▁ear	-1625
▁har	-1626
▁inc	-1627
▁job	-1628
apped	-1629
▁join	-1630
▁wolf	-1631
▁Alice	-1632
▁blank	-1633
▁smart	-1634
▁across	-1635
▁climbed	-1636
▁helping	-1637
▁towards	-1638
ens	-1639
ese	-1640
rot	-1641
arth	-1642
▁met	-1643
▁rub	-1644
ident	-1645
iting	-1646
▁Bobo	-1647
Triple	-1648
ountain	-1649
▁cheese	-1650
▁pieces	-1651
▁smiles	-1652
▁sounds	-1653
▁thinks	-1654
▁blanket	-1655
▁suddenly	-1656
gg	-1657
ud	-1658
asp	-1659
com	-1660
ier	-1661
ory	-1662
ush	-1663
▁//	-1664
ming	-1665
read	-1666
urry	-1667
vest	-1668
▁Ell	-1669
▁Red	-1670
▁att	-1671
▁lay	-1672
asket	-1673
▁bran	-1674
▁soup	-1675
▁year	-1676
ateful	-1677
reamed	-1678
▁reach	-1679
▁storm	-1680
▁basket	-1681
▁bottle	-1682
▁castle	-1683
▁school	-1684
▁swings	-1685
▁wouldn	-1686
▁believe	-1687
▁grateful	-1688
▁everywhere	-1689
..	-1690
St	-1691
me	-1692
ETA	-1693
ead	-1694
now	-1695
▁ra	-1696
▁Mum	-1697
▁hig	-1698
▁pub	-1699
▁bags	-1700
▁band	-1701
▁supp	-1702
▁cloud	-1703
▁fight	-1704
▁disapp	-1705
▁trying	-1706
▁sharing	-1707
▁without	-1708
Do	-1709
ces	-1710
lue	-1711
thy	-1712
used	-1713
▁ent	-1714
▁pen	-1715
▁pri	-1716
ister	-1717
uture	-1718
▁META	-1719
▁With	-1720
▁bite	-1721
▁conf	-1722
▁cour	-1723
▁lake	-1724
▁mark	-1725
▁most	-1726
▁puzz	-1727
▁wild	-1728
▁makes	-1729
▁plane	-1730
▁white	-1731
▁forget	-1732
▁nearby	-1733
▁police	-1734
▁taking	-1735
▁singing	-1736
▁adventures	-1737
▁'	-1738
nny	-1739
oun	-1740
idge	-1741
▁Jul	-1742
▁dry	-1743
▁key	-1744
▁Blue	-1745
▁craw	-1746
▁dist	-1747
▁free	-1748
▁same	-1749
▁spot	-1750
▁tail	-1751
▁tiny	-1752
▁apple	-1753
▁bread	-1754
▁daddy	-1755
▁hoped	-1756
▁moved	-1757
▁shook	-1758
▁threw	-1759
▁words	-1760
▁bought	-1761
▁dragon	-1762
bow	-1763
oop	-1764
unk	-1765
aced	-1766
ches	-1767
less	-1768
outh	-1769
rame	-1770
▁rob	-1771
▁suc	-1772
▁typ	-1773
▁zoo	-1774
Mommy	-1775
ually	-1776
▁Come	-1777
▁huge	-1778
▁kitt	-1779
▁pass	-1780
▁mouth	-1781
▁plant	-1782
▁quest	-1783
▁Johnny	-1784
▁acorns	-1785
▁course	-1786
▁doctor	-1787
▁noises	-1788
":	-1789
ney	-1790
▁Raw	-1791
▁ben	-1792
▁few	-1793
▁fru	-1794
▁hel	-1795
pping	-1796
shine	-1797
▁lift	-1798
▁plan	-1799
▁such	-1800
▁Emily	-1801
▁added	-1802
▁broke	-1803
▁feels	-1804
▁wings	-1805
▁answer	-1806
▁danced	-1807
▁slowly	-1808
▁building	-1809
ES	-1810
lt	-1811
TMt	-1812
mod	-1813
."""	-1814
airs	-1815
ible	-1816
▁may	-1817
▁odd	-1818
▁pig	-1819
▁sea	-1820
ouble	-1821
▁draw	-1822
▁hugs	-1823
▁spid	-1824
▁touc	-1825
▁games	-1826
▁giant	-1827
▁hello	-1828
▁robot	-1829
▁shirt	-1830
▁colour	-1831
▁polite	-1832
▁pushed	-1833
▁secret	-1834
▁respect	-1835
ib	-1836
ich	-1837
▁St	-1838
▁ru	-1839
Sure	-1840
cept	-1841
reet	-1842
ward	-1843
▁jar	-1844
▁kno	-1845
▁lem	-1846
▁par	-1847
▁pat	-1848
class	-1849
eared	-1850
erful	-1851
ieved	-1852
stead	-1853
▁NLTK	-1854
▁wise	-1855
▁black	-1856
▁dance	-1857
▁disco	-1858
▁lunch	-1859
▁piles	-1860
▁river	-1861
▁stand	-1862
▁caught	-1863
▁longer	-1864
▁rainbow	-1865
▁exciting	-1866
::	-1867
cer	-1868
ern	-1869
log	-1870
ont	-1871
umb	-1872
ighb	-1873
iled	-1874
ored	-1875
▁pot	-1876
▁imag	-1877
▁lead	-1878
▁live	-1879
▁nose	-1880
▁wear	-1881
▁Thank	-1882
▁cloth	-1883
▁cover	-1884
▁shoes	-1885
▁spent	-1886
▁spicy	-1887
▁throw	-1888
▁upset	-1889
aughter	-1890
▁corner	-1891
▁sister	-1892
▁creature	-1893
▁wondered	-1894
ilk	-1895
▁Fl	-1896
▁Mr	-1897
▁Tw	-1898
▁ce	-1899
▁ph	-1900
ball	-1901
base	-1902
file	-1903
nger	-1904
ring	-1905
ween	-1906
▁...	-1907
▁cow	-1908
▁sub	-1909
▁busy	-1910
▁coal	-1911
▁gets	-1912
▁mine	-1913
▁past	-1914
▁teac	-1915
▁Julia	-1916
▁Three	-1917
▁print	-1918
▁stars	-1919
▁these	-1920
▁trust	-1921
▁higher	-1922
▁myster	-1923
▁neighb	-1924
▁pocket	-1925
▁between	-1926
▁forever	-1927
▁snowman	-1928
▁worried	-1929
▁RawTriple	-1930
gu	-1931
mb	-1932
sy	-1933
ung	-1934
▁es	-1935
▁la	-1936
iser	-1937
▁dir	-1938
▁rad	-1939
▁sit	-1940
▁bath	-1941
▁boun	-1942
▁flea	-1943
▁milk	-1944
itting	-1945
▁Jenny	-1946
▁compl	-1947
▁heart	-1948
▁owner	-1949
▁teach	-1950
▁eating	-1951
▁modern	-1952
▁street	-1953
fortable	-1954
▁feather	-1955
▁healthy	-1956
▁holding	-1957
▁impress	-1958
▁perfect	-1959
▁promise	-1960
▁stories	-1961
ventually	-1962
▁colorful	-1963
▁counting	-1964
▁daughter	-1965
▁pictures	-1966
œI	-1967
lph	-1968
▁sy	-1969
olog	-1970
▁inv	-1971
▁sig	-1972
ipped	-1973
▁dirt	-1974
▁dirty	-1975
▁fence	-1976
▁round	-1977
▁young	-1978
▁belong	-1979
▁hanger	-1980
▁monster	-1981
▁touched	-1982
My	-1983
ci	-1984
col	-1985
eth	-1986
ony	-1987
oom	-1988
ser	-1989
Lily	-1990
ator	-1991
ssed	-1992
ular	-1993
▁tom	-1994
ining	-1995
ledge	-1996
▁Rose	-1997
▁cute	-1998
▁fing	-1999
▁jour	-2000
▁road	-2001
▁rows	-2002
▁sold	-2003
▁well	-2004
future	-2005
▁annot	-2006
▁bench	-2007
▁const	-2008
▁crate	-2009
▁neare	-2010
▁snack	-2011
▁stamp	-2012
▁Fluffy	-2013
▁Little	-2014
▁batter	-2015
▁letter	-2016
▁seemed	-2017
▁treats	-2018
▁teacher	-2019
▁trouble	-2020
▁wearing	-2021
▁discover	-2022
▁annotations	-2023
).	-2024
]]	-2025
ls	-2026
ray	-2027
Well	-2028
adow	-2029
data	-2030
ugar	-2031
ural	-2032
▁spe	-2033
onely	-2034
▁Bill	-2035
▁days	-2036
▁roll	-2037
▁vill	-2038
▁wide	-2039
▁ducks	-2040
▁maybe	-2041
▁prize	-2042
▁uncle	-2043
▁yield	-2044
▁bridge	-2045
▁lonely	-2046
▁clapped	-2047
▁nearest	-2048
▁relieved	-2049
▁screamed	-2050
▁exploring	-2051
▁pretended	-2052
Hey	-2053
agg	-2054
als	-2055
ans	-2056
aur	-2057
ute	-2058
▁ob	-2059
head	-2060
ness	-2061
▁raw	-2062
▁cave	-2063
▁coat	-2064
▁gigg	-2065
▁last	-2066
▁mail	-2067
▁pray	-2068
▁rope	-2069
▁seat	-2070
▁team	-2071
▁carry	-2072
▁dolph	-2073
▁magic	-2074
▁mayor	-2075
▁peace	-2076
▁tasty	-2077
▁teeth	-2078
▁turns	-2079
▁whole	-2080
▁cannot	-2081
▁gently	-2082
▁spider	-2083
▁harvest	-2084
▁instead	-2085
▁smiling	-2086
▁success	-2087
▁creative	-2088
▁swimming	-2089
sc	-2090
erp	-2091
hip	-2092
ltk	-2093
mul	-2094
oof	-2095
uct	-2096
▁af	-2097
ager	-2098
iron	-2099
▁ant	-2100
▁egg	-2101
▁gen	-2102
▁hit	-2103
▁hor	-2104
▁mad	-2105
▁owl	-2106
▁sur	-2107
▁tea	-2108
model	-2109
▁Even	-2110
▁Jake	-2111
▁fork	-2112
▁gold	-2113
▁late	-2114
▁leaf	-2115
▁pour	-2116
▁sque	-2117
aughty	-2118
▁Later	-2119
▁eager	-2120
▁lemon	-2121
▁sugar	-2122
▁waves	-2123
▁crates	-2124
▁puzzle	-2125
▁sticks	-2126
▁tasted	-2127
▁naughty	-2128
▁packing	-2129
▁shining	-2130
▁sitting	-2131
▁laughing	-2132
▁mountain	-2133
▁relation	-2134
▁sunshine	-2135
pe	-2136
son	-2137
ule	-2138
unt	-2139
▁No	-2140
apes	-2141
itch	-2142
lder	-2143
usie	-2144
▁//!	-2145
▁acc	-2146
▁cho	-2147
▁hum	-2148
▁ign	-2149
▁leg	-2150
▁ord	-2151
ultip	-2152
▁Just	-2153
▁alto	-2154
▁load	-2155
▁rose	-2156
ounded	-2157
▁Susie	-2158
▁Tweet	-2159
▁furry	-2160
▁rocks	-2161
▁stuck	-2162
▁sunny	-2163
▁write	-2164
▁Please	-2165
▁branch	-2166
▁lovely	-2167
▁shapes	-2168
▁carried	-2169
▁journey	-2170
▁smelled	-2171
▁working	-2172
▁continue	-2173
▁altogether	-2174
▁mysterious	-2175
erv	-2176
len	-2177
ume	-2178
▁Wh	-2179
▁ap	-2180
anny	-2181
lebr	-2182
lves	-2183
osie	-2184
raid	-2185
▁Off	-2186
▁Rob	-2187
▁cal	-2188
▁mer	-2189
aggie	-2190
illar	-2191
onyms	-2192
ption	-2193
▁Emma	-2194
▁bugs	-2195
▁mist	-2196
▁prot	-2197
▁roof	-2198
▁wave	-2199
▁yard	-2200
ground	-2201
multip	-2202
▁About	-2203
▁Grace	-2204
▁Rosie	-2205
▁clock	-2206
▁screw	-2207
▁shore	-2208
▁takes	-2209
▁taste	-2210
▁value	-2211
▁afraid	-2212
▁caterp	-2213
▁celebr	-2214
▁clouds	-2215
▁driver	-2216
▁gather	-2217
▁meadow	-2218
▁object	-2219
▁orange	-2220
▁smooth	-2221
▁spread	-2222
multiple	-2223
▁Rounded	-2224
▁jumping	-2225
▁selfish	-2226
▁Together	-2227
▁visitors	-2228
▁caterpillar	-2229
"]	-2230
Be	-2231
eo	-2232
ne	-2233
ram	-2234
wor	-2235
▁Go	-2236
▁How	-2237
▁act	-2238
▁bat	-2239
▁mic	-2240
▁reg	-2241
▁wag	-2242
erand	-2243
ungle	-2244
▁Dave	-2245
▁Some	-2246
▁boys	-2247
▁cozy	-2248
▁hope	-2249
▁pres	-2250
▁slid	-2251
▁snee	-2252
▁zoom	-2253
▁bring	-2254
▁crown	-2255
▁gives	-2256
▁lucky	-2257
▁phone	-2258
▁Maggie	-2259
▁asleep	-2260
▁comput	-2261
▁jungle	-2262
▁kissed	-2263
▁result	-2264
▁search	-2265
▁battery	-2266
▁delight	-2267
▁dropped	-2268
▁protect	-2269
▁talking	-2270
▁village	-2271
▁accident	-2272
▁tomorrow	-2273
act	-2274
ets	-2275
icn	-2276
min	-2277
nto	-2278
ond	-2279
Come	-2280
ceil	-2281
chor	-2282
rror	-2283
umpy	-2284
▁coo	-2285
▁spo	-2286
Where	-2287
ating	-2288
epend	-2289
icnic	-2290
otted	-2291
▁arms	-2292
▁blow	-2293
▁crab	-2294
▁dish	-2295
▁matt	-2296
▁nerv	-2297
▁onto	-2298
▁oven	-2299
▁pers	-2300
▁push	-2301
▁sang	-2302
▁swam	-2303
▁wore	-2304
onical	-2305
▁Bobby	-2306
▁Class	-2307
▁Peter	-2308
▁fairy	-2309
▁shelf	-2310
▁anchor	-2311
▁lifted	-2312
▁picnic	-2313
▁bedroom	-2314
▁nervous	-2315
▁spotted	-2316
▁delicate	-2317
▁mattress	-2318
▁thankful	-2319
▁watching	-2320
▁yourself	-2321
ps	-2322
?".	-2323
afe	-2324
ete	-2325
lex	-2326
rue	-2327
val	-2328
vid	-2329
▁aw	-2330
▁ok	-2331
Good	-2332
angu	-2333
arsh	-2334
bers	-2335
elly	-2336
etit	-2337
know	-2338
land	-2339
lloc	-2340
▁Don	-2341
▁eas	-2342
▁gar	-2343
▁oce	-2344
▁pop	-2345
▁ser	-2346
▁shr	-2347
▁tag	-2348
▁war	-2349
▁whe	-2350
▁zip	-2351
thday	-2352
▁bush	-2353
▁cart	-2354
▁dest	-2355
▁kick	-2356
▁nest	-2357
▁sick	-2358
▁sour	-2359
▁stir	-2360
▁tent	-2361
▁thin	-2362
▁valu	-2363
▁woke	-2364
atural	-2365
▁Mummy	-2366
▁check	-2367
▁front	-2368
▁horse	-2369
▁ideas	-2370
▁cookie	-2371
▁garage	-2372
▁places	-2373
▁calling	-2374
▁patient	-2375
▁present	-2376
extractor	-2377
▁computer	-2378
▁feathers	-2379
▁eventually	-2380
Of	-2381
ik	-2382
oc	-2383
apt	-2384
arl	-2385
ina	-2386
orp	-2387
ots	-2388
une	-2389
zed	-2390
▁Be	-2391
▁Ch	-2392
▁If	-2393
cing	-2394
▁Why	-2395
▁ble	-2396
▁fig	-2397
▁glo	-2398
▁lit	-2399
▁mot	-2400
▁net	-2401
▁ver	-2402
▁wra	-2403
count	-2404
erest	-2405
▁card	-2406
▁cray	-2407
▁feed	-2408
▁goes	-2409
▁iron	-2410
▁line	-2411
▁mill	-2412
▁mind	-2413
▁neck	-2414
▁pill	-2415
▁poor	-2416
▁roar	-2417
▁sack	-2418
▁skip	-2419
▁till	-2420
▁wish	-2421
ession	-2422
▁Annie	-2423
▁honey	-2424
▁match	-2425
▁ocean	-2426
▁sandw	-2427
▁splas	-2428
▁whist	-2429
▁chased	-2430
▁island	-2431
▁matter	-2432
▁dataset	-2433
▁forward	-2434
▁knocked	-2435
▁nothing	-2436
▁station	-2437
▁waiting	-2438
knowledge	-2439
▁answered	-2440
▁birthday	-2441
▁competit	-2442
▁interest	-2443
▁lemonade	-2444
▁neighbor	-2445
))	-2446
bb	-2447
wk	-2448
▁`	-2449
aid	-2450
arp	-2451
ife	-2452
net	-2453
vie	-2454
▁Pe	-2455
▁av	-2456
▁ur	-2457
ital	-2458
ival	-2459
owed	-2460
safe	-2461
▁cir	-2462
▁fis	-2463
▁pay	-2464
▁swe	-2465
error	-2466
▁flag	-2467
▁hawk	-2468
▁moms	-2469
▁pand	-2470
▁puts	-2471
▁requ	-2472
▁rude	-2473
▁save	-2474
▁seed	-2475
▁trip	-2476
▁word	-2477
ensive	-2478
▁David	-2479
▁Ellie	-2480
▁frogs	-2481
▁grand	-2482
▁loves	-2483
▁meant	-2484
▁pengu	-2485
▁sharp	-2486
▁which	-2487
redible	-2488
▁fairly	-2489
▁proble	-2490
▁disappo	-2491
▁showing	-2492
▁searched	-2493
▁valuable	-2494
▁expensive	-2495
▁understood	-2496
▁interesting	-2497
),	-2498
io	-2499
Ben	-2500
ait	-2501
els	-2502
ics	-2503
▁fn	-2504
NLTK	-2505
alse	-2506
arra	-2507
arry	-2508
ateg	-2509
band	-2510
oura	-2511
▁ash	-2512
▁emb	-2513
▁fil	-2514
▁low	-2515
▁nut	-2516
▁shy	-2517
ables	-2518
ctory	-2519
ready	-2520
urous	-2521
▁Alex	-2522
▁Joey	-2523
▁calm	-2524
▁cher	-2525
▁coll	-2526
▁lock	-2527
▁sort	-2528
▁tick	-2529
▁worm	-2530
issors	-2531
▁While	-2532
▁breat	-2533
▁brush	-2534
▁cries	-2535
▁deter	-2536
▁frame	-2537
▁fruit	-2538
▁relax	-2539
▁stone	-2540
▁stuff	-2541
▁whale	-2542
estival	-2543
itement	-2544
▁barrel	-2545
▁button	-2546
▁dreams	-2547
▁famous	-2548
▁handed	-2549
▁parrot	-2550
▁talked	-2551
▁typing	-2552
arrassed	-2553
▁already	-2554
▁mistake	-2555
▁numbers	-2556
▁penguin	-2557
▁sparkly	-2558
▁powerful	-2559
▁question	-2560
▁standing	-2561
llocations	-2562
▁Everywhere	-2563
▁excitement	-2564
▁incredible	-2565
▁embarrassed	-2566
▁disappointed	-2567
eb	-2568
():	-2569
gly	-2570
ief	-2571
ilt	-2572
rop	-2573
▁Lo	-2574
anic	-2575
fast	-2576
icop	-2577
orph	-2578
▁End	-2579
▁Leo	-2580
▁Rex	-2581
▁add	-2582
▁fit	-2583
▁ple	-2584
Error	-2585
ience	-2586
ology	-2587
ugged	-2588
▁Ella	-2589
▁cage	-2590
▁capt	-2591
▁cost	-2592
▁file	-2593
▁mole	-2594
▁surf	-2595
colate	-2596
▁crazy	-2597
▁decor	-2598
▁faces	-2599
▁later	-2600
▁needs	-2601
▁shows	-2602
▁sight	-2603
▁spend	-2604
▁squee	-2605
▁tells	-2606
▁trunk	-2607
▁veget	-2608
icopter	-2609
▁change	-2610
▁figure	-2611
▁prince	-2612
▁remind	-2613
▁scream	-2614
▁stream	-2615
▁struct	-2616
▁ashamed	-2617
▁content	-2618
▁country	-2619
▁forgive	-2620
▁pointed	-2621
▁problem	-2622
orphology	-2623
▁distance	-2624
▁dolphins	-2625
▁scissors	-2626
▁impressed	-2627
▁helicopter	-2628
▁competitive	-2629
AG	-2630
mm	-2631
ado	-2632
dom	-2633
imi	-2634
lib	-2635
tag	-2636
ten	-2637
ual	-2638
▁==	-2639
▁Co	-2640
ages	-2641
ains	-2642
aked	-2643
amie	-2644
izer	-2645
mpty	-2646
ours	-2647
work	-2648
▁arg	-2649
▁dig	-2650
▁esc	-2651
▁mid	-2652
▁nod	-2653
▁ref	-2654
▁rod	-2655
▁wis	-2656
▁yaw	-2657
frame	-2658
iable	-2659
ipper	-2660
ppers	-2661
▁Lola	-2662
▁Mimi	-2663
▁city	-2664
▁cube	-2665
▁dict	-2666
▁drop	-2667
▁ears	-2668
▁feet	-2669
▁seek	-2670
▁sell	-2671
▁stat	-2672
▁ugly	-2673
ordNet	-2674
spital	-2675
▁Jamie	-2676
▁chest	-2677
▁cross	-2678
▁earth	-2679
▁empty	-2680
▁kitty	-2681
▁mummy	-2682
▁point	-2683
▁token	-2684
▁using	-2685
anguage	-2686
venance	-2687
▁barked	-2688
▁bitter	-2689
▁borrow	-2690
▁carrot	-2691
▁farmer	-2692
▁hiding	-2693
▁humble	-2694
▁kitten	-2695
▁licked	-2696
▁yelled	-2697
▁crawled	-2698
▁knowing	-2699
▁subject	-2700
▁support	-2701
▁appeared	-2702
▁bathroom	-2703
▁confused	-2704
▁fighting	-2705
▁reliable	-2706
▁breakfast	-2707
▁happening	-2708
▁accidentally	-2709
]:	-2710
af	-2711
Are	-2712
imp	-2713
ipe	-2714
isp	-2715
pec	-2716
pet	-2717
▁Br	-2718
▁Is	-2719
abel	-2720
acci	-2721
alph	-2722
izzy	-2723
ophy	-2724
orcy	-2725
pair	-2726
type	-2727
uist	-2728
year	-2729
▁ban	-2730
▁hay	-2731
▁pal	-2732
▁tig	-2733
alend	-2734
iling	-2735
token	-2736
▁cone	-2737
▁drum	-2738
▁item	-2739
▁meet	-2740
onacci	-2741
selves	-2742
▁Teddy	-2743
▁alert	-2744
▁bloom	-2745
▁comet	-2746
▁fixed	-2747
▁gener	-2748
▁group	-2749
▁miser	-2750
▁noisy	-2751
▁panda	-2752
▁saved	-2753
▁thick	-2754
uistics	-2755
▁accept	-2756
▁calend	-2757
▁carpet	-2758
▁father	-2759
▁finger	-2760
▁finish	-2761
▁landed	-2762
▁layout	-2763
▁captain	-2764
▁giggled	-2765
▁helpful	-2766
▁message	-2767
▁monkeys	-2768
▁motorcy	-2769
▁proudly	-2770
▁hospital	-2771
▁chocolate	-2772
▁excitedly	-2773
▁miserable	-2774
linguistics	-2775
▁provenance	-2776
▁successful	-2777
▁adventurous	-2778
AC	-2779
Me	-2780
▁/	-2781
!".	-2782
();	-2783
Who	-2784
box	-2785
con	-2786
den	-2787
erb	-2788
gth	-2789
idy	-2790
opl	-2791
roy	-2792
vel	-2793
▁ax	-2794
ikid	-2795
ince	-2796
json	-2797
ples	-2798
uple	-2799
user	-2800
▁adm	-2801
▁aer	-2802
▁fib	-2803
▁jam	-2804
▁map	-2805
▁tie	-2806
ature	-2807
value	-2808
▁avoc	-2809
▁clap	-2810
▁dess	-2811
▁fool	-2812
▁gasp	-2813
▁helm	-2814
▁lazy	-2815
▁meta	-2816
▁pige	-2817
▁pool	-2818
▁task	-2819
▁test	-2820
▁tidy	-2821
▁tire	-2822
aurant	-2823
▁Somet	-2824
▁balls	-2825
▁boots	-2826
▁drank	-2827
▁extra	-2828
▁falls	-2829
▁kinds	-2830
▁knife	-2831
▁layer	-2832
▁picks	-2833
▁tools	-2834
▁tries	-2835
▁twist	-2836
▁uncom	-2837
▁yours	-2838
ikidata	-2839
rameNet	-2840
▁aeropl	-2841
▁anyone	-2842
▁blouse	-2843
▁closet	-2844
▁market	-2845
▁packed	-2846
▁person	-2847
▁pillow	-2848
▁placed	-2849
▁sailed	-2850
▁sleepy	-2851
▁splash	-2852
▁dessert	-2853
▁destroy	-2854
▁sounded	-2855
▁tightly	-2856
▁festival	-2857
▁gathered	-2858
▁generous	-2859
▁peaceful	-2860
▁whenever	-2861
▁canonical	-2862
▁extractor	-2863
▁fibonacci	-2864
▁questions	-2865
▁motorcycle	-2866
aseExtractor	-2867
▁uncomfortable	-2868
ER	-2869
Now	-2870
Tom	-2871
dge	-2872
ubb	-2873
uce	-2874
udy	-2875
}")	-2876
▁Fr	-2877
▁Sh	-2878
▁ed	-2879
True	-2880
ancy	-2881
ense	-2882
most	-2883
oman	-2884
oose	-2885
ules	-2886
œLet	-2887
▁Bet	-2888
▁Mrs	-2889
▁adv	-2890
▁ham	-2891
▁hon	-2892
▁ind	-2893
▁jew	-2894
▁mud	-2895
▁rat	-2896
▁saf	-2897
board	-2898
irsty	-2899
lower	-2900
mined	-2901
ories	-2902
uring	-2903
▁Each	-2904
▁Give	-2905
▁blew	-2906
▁cell	-2907
▁char	-2908
▁dogs	-2909
▁exam	-2910
▁hang	-2911
▁lamp	-2912
▁mule	-2913
▁nods	-2914
▁rich	-2915
▁rode	-2916
▁true	-2917
▁veil	-2918
▁weak	-2919
▁week	-2920
erbNet	-2921
ormous	-2922
ourage	-2923
parent	-2924
spaper	-2925
umbled	-2926
▁Sammy	-2927
▁banan	-2928
▁built	-2929
▁fancy	-2930
▁mixed	-2931
▁raced	-2932
▁rules	-2933
▁songs	-2934
▁stood	-2935
▁stove	-2936
▁therm	-2937
▁tiger	-2938
▁twirl	-2939
▁whisp	-2940
▁become	-2941
▁harder	-2942
▁locked	-2943
▁louder	-2944
▁moving	-2945
▁poured	-2946
▁sighed	-2947
▁snacks	-2948
▁spaces	-2949
▁wander	-2950
▁avocado	-2951
▁covered	-2952
▁foolish	-2953
▁leaving	-2954
▁thirsty	-2955
▁calendar	-2956
▁enormous	-2957
▁kindness	-2958
▁returned	-2959
downloader	-2960
▁Sometimes	-2961
▁aeroplane	-2962
▁newspaper	-2963
▁determined	-2964
▁playground	-2965
▁restaurant	-2966
cel	-2967
dle	-2968
ery	-2969
lic	-2970
loo	-2971
ove	-2972
put	-2973
res	-2974
und	-2975
anut	-2976
ault	-2977
body	-2978
edic	-2979
ency	-2980
fold	-2981
from	-2982
imed	-2983
miss	-2984
ured	-2985
œYes	-2986
▁Who	-2987
▁anc	-2988
▁bub	-2989
▁gro	-2990
▁law	-2991
▁paw	-2992
▁rac	-2993
▁scr	-2994
▁sum	-2995
acked	-2996
arget	-2997
ction	-2998
iness	-2999
ormal	-3000
ouses	-3001
ushed	-3002
usual	-3003
œWhat	-3004
▁Andy	-3005
▁Iter	-3006
▁June	-3007
▁bell	-3008
▁case	-3009
▁chir	-3010
▁desc	-3011
▁elev	-3012
▁horn	-3013
▁jeep	-3014
▁lean	-3015
▁legs	-3016
▁meas	-3017
▁mint	-3018
▁muff	-3019
▁nltk	-3020
▁ribb	-3021
▁ring	-3022
▁twig	-3023
▁vase	-3024
▁wash	-3025
▁wing	-3026
Please	-3027
folder	-3028
laimed	-3029
▁chase	-3030
▁dough	-3031
▁drive	-3032
▁hears	-3033
▁often	-3034
▁otter	-3035
▁since	-3036
▁smoke	-3037
▁thief	-3038
▁those	-3039
andards	-3040
▁almost	-3041
▁decide	-3042
▁dishes	-3043
▁escape	-3044
▁fruits	-3045
▁gasped	-3046
▁hidden	-3047
▁houses	-3048
▁ignore	-3049
▁middle	-3050
▁minute	-3051
▁office	-3052
▁peanut	-3053
▁signed	-3054
▁univer	-3055
▁wagged	-3056
ountries	-3057
▁ancient	-3058
▁collect	-3059
▁deliver	-3060
▁factory	-3061
▁offered	-3062
▁pathlib	-3063
▁playful	-3064
▁request	-3065
▁unusual	-3066
▁windows	-3067
▁cleaning	-3068
▁download	-3069
▁stronger	-3070
▁exclaimed	-3071
▁themselves	-3072
▁comfortable	-3073
▁disappeared	-3074
ON	-3075
["	-3076
elp	-3077
ird	-3078
▁=>	-3079
They	-3080
ache	-3081
andy	-3082
comm	-3083
etch	-3084
ines	-3085
utes	-3086
ying	-3087
zard	-3088
▁Pat	-3089
▁bak	-3090
▁enc	-3091
▁eye	-3092
▁fur	-3093
▁gun	-3094
▁ing	-3095
▁mem	-3096
▁pee	-3097
▁tap	-3098
house	-3099
ially	-3100
ients	-3101
inary	-3102
orpus	-3103
tuple	-3104
▁Mark	-3105
▁Matt	-3106
▁beak	-3107
▁cups	-3108
▁desk	-3109
▁frag	-3110
▁hunt	-3111
▁kite	-3112
▁mama	-3113
▁sock	-3114
▁sugg	-3115
▁tele	-3116
▁type	-3117
apping	-3118
ubborn	-3119
▁Brown	-3120
▁Danny	-3121
▁Harry	-3122
▁Lizzy	-3123
▁block	-3124
▁chair	-3125
▁cheer	-3126
▁chick	-3127
▁chirp	-3128
▁guess	-3129
▁hours	-3130
▁incre	-3131
▁jelly	-3132
▁quite	-3133
▁snake	-3134
▁trash	-3135
▁woman	-3136
ategory	-3137
ription	-3138
▁boring	-3139
▁clever	-3140
▁cooler	-3141
▁depend	-3142
▁fright	-3143
▁ingred	-3144
▁lights	-3145
▁lizard	-3146
▁missed	-3147
▁normal	-3148
▁rocket	-3149
▁rolled	-3150
▁stamps	-3151
▁string	-3152
▁ticket	-3153
▁WordNet	-3154
▁bubbles	-3155
▁imagine	-3156
▁measure	-3157
▁painter	-3158
▁popular	-3159
▁scatter	-3160
▁suggest	-3161
▁triples	-3162
▁branches	-3163
▁cheerful	-3164
▁dreaming	-3165
▁elevator	-3166
▁fountain	-3167
▁language	-3168
▁learning	-3169
▁realised	-3170
▁stubborn	-3171
▁stumbled	-3172
▁spaceship	-3173
▁downloader	-3174
▁ingredients	-3175
!'	-3176
EN	-3177
LA	-3178
TI	-3179
gn	-3180
tr	-3181
wr	-3182
▁]	-3183
ACK	-3184
apa	-3185
bie	-3186
cus	-3187
emo	-3188
ian	-3189
pro	-3190
ses	-3191
was	-3192
zip	-3193
▁My	-3194
AGES	-3195
Help	-3196
PACK	-3197
Stop	-3198
aged	-3199
ails	-3200
aken	-3201
asis	-3202
cogn	-3203
htub	-3204
list	-3205
mand	-3206
nset	-3207
omic	-3208
rosc	-3209
ures	-3210
▁Jan	-3211
▁ang	-3212
▁axe	-3213
▁env	-3214
▁jog	-3215
▁lar	-3216
▁rag	-3217
▁sol	-3218
▁tun	-3219
▁van	-3220
Sorry	-3221
ately	-3222
esult	-3223
igail	-3224
inked	-3225
ither	-3226
start	-3227
wards	-3228
œLetâ	-3229
▁Nemo	-3230
▁Snow	-3231
▁bake	-3232
▁bees	-3233
▁deaf	-3234
▁easy	-3235
▁fear	-3236
▁glow	-3237
▁half	-3238
▁inse	-3239
▁itch	-3240
▁once	-3241
▁seal	-3242
▁skin	-3243
▁spin	-3244
▁stem	-3245
▁wake	-3246
assion	-3247
ecause	-3248
lderly	-3249
ourite	-3250
washer	-3251
▁Today	-3252
▁above	-3253
▁agree	-3254
▁cheek	-3255
▁espec	-3256
▁march	-3257
▁miner	-3258
▁movie	-3259
▁nails	-3260
▁oasis	-3261
▁pract	-3262
▁rough	-3263
▁seeds	-3264
▁shade	-3265
▁shape	-3266
▁speed	-3267
▁strip	-3268
▁walls	-3269
▁worms	-3270
classid	-3271
roscope	-3272
▁advice	-3273
▁asking	-3274
▁bottom	-3275
▁copper	-3276
▁demand	-3277
▁folder	-3278
▁grocer	-3279
▁grumpy	-3280
▁hammer	-3281
▁honest	-3282
▁knight	-3283
▁laughs	-3284
▁safely	-3285
▁zipper	-3286
PACKAGES	-3287
▁Abigail	-3288
▁bathtub	-3289
▁checked	-3290
▁cooking	-3291
▁elderly	-3292
▁extract	-3293
▁happier	-3294
▁operand	-3295
▁peppers	-3296
▁results	-3297
▁session	-3298
▁skipped	-3299
▁sneezed	-3300
▁sticker	-3301
▁whistle	-3302
▁enjoying	-3303
▁painting	-3304
▁buildings	-3305
▁colourful	-3306
▁favourite	-3307
▁suggested	-3308
▁compassion	-3309
▁dishwasher	-3310
▁especially	-3311
▁microscope	-3312
aseDownloader	-3313
Is	-3314
Sh	-3315
bf	-3316
fl	-3317
ol	-3318
▁:	-3319
().	-3320
der	-3321
des	-3322
eor	-3323
for	-3324
isa	-3325
nam	-3326
par	-3327
rig	-3328
sit	-3329
ues	-3330
uth	-3331
zer	-3332
▁#[	-3333
▁Me	-3334
▁di	-3335
▁id	-3336
▁ig	-3337
▁{}	-3338
cles	-3339
conf	-3340
ents	-3341
erri	-3342
gest	-3343
icer	-3344
ideo	-3345
ique	-3346
ists	-3347
ived	-3348
merg	-3349
nltk	-3350
oint	-3351
omed	-3352
ouch	-3353
ustr	-3354
▁///	-3355
▁fre	-3356
▁pin	-3357
▁pun	-3358
▁sal	-3359
adder	-3360
agull	-3361
alous	-3362
cream	-3363
eorge	-3364
ifest	-3365
reeze	-3366
urtle	-3367
useum	-3368
▁data	-3369
▁dent	-3370
▁edge	-3371
▁eggs	-3372
▁fill	-3373
▁foot	-3374
▁mech	-3375
▁obed	-3376
▁ones	-3377
▁pale	-3378
▁pear	-3379
▁pipe	-3380
▁step	-3381
String	-3382
ention	-3383
herman	-3384
▁Would	-3385
▁angel	-3386
▁bored	-3387
▁clear	-3388
▁emerg	-3389
▁frown	-3390
▁helps	-3391
▁igloo	-3392
▁large	-3393
▁marry	-3394
▁older	-3395
▁power	-3396
▁radio	-3397
▁seats	-3398
▁split	-3399
▁study	-3400
▁taken	-3401
▁tears	-3402
▁terri	-3403
▁twink	-3404
▁video	-3405
▁walks	-3406
commend	-3407
▁George	-3408
▁bounce	-3409
▁breath	-3410
▁config	-3411
▁crayon	-3412
▁fluffy	-3413
▁frustr	-3414
▁helmet	-3415
▁insect	-3416
▁itself	-3417
▁ladder	-3418
▁learnt	-3419
▁nature	-3420
▁nicely	-3421
▁palace	-3422
▁peeked	-3423
▁polish	-3424
▁public	-3425
▁recogn	-3426
▁reward	-3427
▁saying	-3428
▁shield	-3429
▁target	-3430
▁trophy	-3431
▁unique	-3432
▁yawned	-3433
▁Natural	-3434
▁biggest	-3435
▁blowing	-3436
▁costume	-3437
▁couldnâ	-3438
▁default	-3439
▁dentist	-3440
▁fingers	-3441
▁fireman	-3442
▁fragile	-3443
▁freezer	-3444
▁hopping	-3445
▁jealous	-3446
▁minutes	-3447
▁pleased	-3448
▁prevent	-3449
▁ribbons	-3450
▁shaking	-3451
▁smaller	-3452
▁sweater	-3453
▁wrapped	-3454
▁Iterator	-3455
▁Snowball	-3456
▁Whenever	-3457
▁mechanic	-3458
▁obedient	-3459
▁emergency	-3460
▁fisherman	-3461
▁lightning	-3462
▁whispered	-3463
▁basketball	-3464
▁frightened	-3465
ED	-3466
])	-3467
fr	-3468
gy	-3469
jo	-3470
nc	-3471
of	-3472
sm	-3473
(),	-3474
Map	-3475
ato	-3476
fic	-3477
hus	-3478
iff	-3479
lla	-3480
omy	-3481
tmp	-3482
Here	-3483
cent	-3484
cuss	-3485
enry	-3486
eper	-3487
illi	-3488
inal	-3489
pack	-3490
reeS	-3491
stat	-3492
text	-3493
umsy	-3494
word	-3495
▁Big	-3496
▁cri	-3497
▁cur	-3498
▁fat	-3499
▁icy	-3500
▁led	-3501
▁que	-3502
▁sle	-3503
▁son	-3504
▁wip	-3505
ankie	-3506
asing	-3507
astic	-3508
celet	-3509
ected	-3510
ooped	-3511
osaur	-3512
place	-3513
rella	-3514
write	-3515
▁Fred	-3516
▁Jess	-3517
▁Lisa	-3518
▁Next	-3519
▁body	-3520
▁boss	-3521
▁curt	-3522
▁fail	-3523
▁fake	-3524
▁four	-3525
▁goal	-3526
▁harm	-3527
▁hats	-3528
▁melt	-3529
▁orig	-3530
▁rare	-3531
▁rece	-3532
▁shut	-3533
▁tape	-3534
▁text	-3535
▁tied	-3536
aspoon	-3537
attern	-3538
ficult	-3539
keeper	-3540
length	-3541
object	-3542
▁Fanny	-3543
▁Henry	-3544
▁crack	-3545
▁guard	-3546
▁hairy	-3547
▁hurry	-3548
▁jumps	-3549
▁knock	-3550
▁knows	-3551
▁lying	-3552
▁pulls	-3553
▁queen	-3554
▁raise	-3555
▁shone	-3556
▁sorts	-3557
▁speak	-3558
▁stret	-3559
dataset	-3560
operand	-3561
▁breeze	-3562
▁clumsy	-3563
▁create	-3564
▁either	-3565
▁enthus	-3566
▁headed	-3567
▁kicked	-3568
▁notice	-3569
▁passed	-3570
▁plants	-3571
▁pushes	-3572
▁second	-3573
▁strugg	-3574
▁sudden	-3575
▁allowed	-3576
▁circles	-3577
▁counter	-3578
▁cricket	-3579
▁dancing	-3580
▁discuss	-3581
▁dreamed	-3582
▁leading	-3583
▁pattern	-3584
▁picking	-3585
▁regular	-3586
▁relaxed	-3587
▁seagull	-3588
▁serious	-3589
▁spoiled	-3590
▁sweetie	-3591
▁trusted	-3592
reeSitter	-3593
▁FrameNet	-3594
▁bracelet	-3595
▁brothers	-3596
▁complete	-3597
▁original	-3598
▁remained	-3599
▁reminded	-3600
▁sandwich	-3601
▁teaspoon	-3602
▁terrible	-3603
▁universe	-3604
▁difficult	-3605
▁happiness	-3606
▁recommend	-3607
▁searching	-3608
▁Everything	-3609
▁celebrated	-3610
▁discovered	-3611
▁friendship	-3612
▁impressive	-3613
▁thoughtful	-3614
▁vegetables	-3615
▁compassionate	-3616
Gb	-3617
Ow	-3618
RE	-3619
To	-3620
fa	-3621
pr	-3622
}:	-3623
See	-3624
Yay	-3625
cod	-3626
cur	-3627
ges	-3628
htt	-3629
ips	-3630
izz	-3631
lid	-3632
max	-3633
mbo	-3634
ted	-3635
▁:=	-3636
▁OK	-3637
▁Re	-3638
▁["	-3639
▁bi	-3640
▁lu	-3641
▁os	-3642
choo	-3643
ckey	-3644
come	-3645
enny	-3646
gust	-3647
iggy	-3648
ipop	-3649
noon	-3650
nown	-3651
smGb	-3652
stri	-3653
ueen	-3654
▁anx	-3655
▁bal	-3656
▁bin	-3657
▁hut	-3658
▁lic	-3659
▁lid	-3660
▁nur	-3661
▁pup	-3662
▁six	-3663
▁tub	-3664
▁url	-3665
Earth	-3666
amond	-3667
ellig	-3668
iches	-3669
liday	-3670
phone	-3671
▁Here	-3672
▁Pete	-3673
▁bool	-3674
▁camp	-3675
▁chan	-3676
▁chim	-3677
▁cows	-3678
▁dear	-3679
▁deer	-3680
▁fine	-3681
▁fold	-3682
▁fort	-3683
▁gray	-3684
▁hung	-3685
▁knee	-3686
▁leak	-3687
▁libr	-3688
▁loll	-3689
▁mask	-3690
▁moon	-3691
▁nosy	-3692
▁paid	-3693
▁peek	-3694
▁pole	-3695
▁prep	-3696
▁rail	-3697
▁scar	-3698
▁sent	-3699
▁tank	-3700
▁temp	-3701
Backed	-3702
exists	-3703
lasses	-3704
ometer	-3705
urried	-3706
▁Betty	-3707
▁Ducky	-3708
▁Robot	-3709
▁ahead	-3710
▁apart	-3711
▁await	-3712
▁bikes	-3713
▁cards	-3714
▁chose	-3715
▁couch	-3716
▁doesn	-3717
▁float	-3718
▁forth	-3719
▁fresh	-3720
▁grown	-3721
▁hotel	-3722
▁hurts	-3723
▁jolly	-3724
▁lives	-3725
▁messy	-3726
▁ornam	-3727
▁poked	-3728
▁shake	-3729
▁snugg	-3730
▁spear	-3731
▁symbo	-3732
▁thumb	-3733
▁times	-3734
▁weird	-3735
▁apolog	-3736
▁behave	-3737
▁counts	-3738
▁drawer	-3739
▁except	-3740
▁giving	-3741
▁gloomy	-3742
▁hockey	-3743
▁joined	-3744
▁loaded	-3745
▁muffin	-3746
▁museum	-3747
▁petals	-3748
▁remain	-3749
▁slides	-3750
▁smelly	-3751
▁supply	-3752
▁synset	-3753
▁taught	-3754
elligent	-3755
▁anxious	-3756
▁comfort	-3757
▁diamond	-3758
▁disgust	-3759
▁growing	-3760
▁holiday	-3761
▁invited	-3762
▁license	-3763
▁painted	-3764
▁project	-3765
▁sandbox	-3766
▁squeeze	-3767
▁brightly	-3768
▁careless	-3769
▁carrying	-3770
▁charming	-3771
▁complain	-3772
▁dinosaur	-3773
▁lollipop	-3774
▁ordinary	-3775
▁splashed	-3776
▁starting	-3777
▁afternoon	-3778
▁delighted	-3779
▁telephone	-3780
▁frustrated	-3781
▁sandwiches	-3782
▁description	-3783
▁intelligent	-3784
▁thermometer	-3785
BackedDownloader	-3786
BF	-3787
LL	-3788
ME	-3789
ah	-3790
bs	-3791
no	-3792
ok	-3793
pa	-3794
}`	-3795
://	-3796
amb	-3797
ano	-3798
era	-3799
ety	-3800
lay	-3801
tal	-3802
ugh	-3803
▁fu	-3804
appy	-3805
cast	-3806
ceed	-3807
code	-3808
cont	-3809
edal	-3810
fish	-3811
indy	-3812
lace	-3813
lter	-3814
mail	-3815
mall	-3816
onse	-3817
with	-3818
▁May	-3819
▁art	-3820
▁dat	-3821
▁gas	-3822
▁isn	-3823
▁len	-3824
▁sil	-3825
▁sne	-3826
▁umb	-3827
▁yet	-3828
alpha	-3829
ereal	-3830
heart	-3831
https	-3832
ments	-3833
opard	-3834
pairs	-3835
▁Aunt	-3836
▁Burt	-3837
▁bark	-3838
▁beep	-3839
▁burn	-3840
▁comb	-3841
▁crow	-3842
▁ener	-3843
▁gain	-3844
▁goat	-3845
▁hero	-3846
▁hook	-3847
▁hoop	-3848
▁king	-3849
▁meal	-3850
▁nuts	-3851
▁pair	-3852
▁raft	-3853
▁soar	-3854
▁sofa	-3855
▁spun	-3856
▁suff	-3857
▁whip	-3858
append	-3859
atched	-3860
castle	-3861
framed	-3862
stairs	-3863
▁False	-3864
▁Sandy	-3865
▁board	-3866
▁genie	-3867
▁glass	-3868
▁harsh	-3869
▁itchy	-3870
▁offer	-3871
▁pages	-3872
▁pitch	-3873
▁plate	-3874
▁salad	-3875
▁slept	-3876
▁space	-3877
▁spray	-3878
▁stack	-3879
▁toast	-3880
▁total	-3881
▁tough	-3882
▁wheel	-3883
▁witch	-3884
▁yucky	-3885
Because	-3886
illiant	-3887
▁Before	-3888
▁Option	-3889
▁anyway	-3890
▁barber	-3891
▁cereal	-3892
▁circle	-3893
▁invest	-3894
▁leaned	-3895
▁loudly	-3896
▁modest	-3897
▁parity	-3898
▁pastry	-3899
▁pigeon	-3900
▁prayed	-3901
▁rubbed	-3902
▁ruined	-3903
▁rushed	-3904
▁safety	-3905
▁saving	-3906
▁singer	-3907
▁triang	-3908
▁turtle	-3909
▁washed	-3910
▁wheels	-3911
▁Frankie	-3912
▁against	-3913
▁bananas	-3914
▁blinked	-3915
▁chimney	-3916
▁colours	-3917
▁crayons	-3918
▁envious	-3919
▁finding	-3920
▁forgave	-3921
▁grandpa	-3922
▁grocery	-3923
▁leopard	-3924
▁managed	-3925
▁mineral	-3926
▁percent	-3927
▁permiss	-3928
▁plastic	-3929
▁pressed	-3930
▁putting	-3931
▁refused	-3932
▁shocked	-3933
▁slipped	-3934
▁category	-3935
▁chickens	-3936
▁decorate	-3937
▁imagined	-3938
▁independ	-3939
▁necklace	-3940
▁ornament	-3941
▁pointing	-3942
▁shrugged	-3943
▁sparkled	-3944
▁swinging	-3945
▁umbrella	-3946
▁brilliant	-3947
▁celebrate	-3948
▁listening	-3949
▁policeman	-3950
▁somewhere	-3951
▁squirrels	-3952
▁treasures	-3953
▁treehouse	-3954
▁dependable	-3955
▁disgusting	-3956
NLTKRawLayout	-3957
▁NLTKRawLayout	-3958
"{	-3959
DI	-3960
If	-3961
RI	-3962
SO	-3963
],	-3964
dm	-3965
€.	-3966
▁!	-3967
One	-3968
TMm	-3969
Wel	-3970
]]]	-3971
arm	-3972
arn	-3973
aul	-3974
gan	-3975
ius	-3976
nel	-3977
ora	-3978
qdm	-3979
reg	-3980
rod	-3981
zor	-3982
œIt	-3983
▁<=	-3984
▁Am	-3985
▁Ho	-3986
▁Ne	-3987
▁pa	-3988
▁},	-3989
Spot	-3990
Wait	-3991
abin	-3992
bled	-3993
erce	-3994
ffic	-3995
helf	-3996
hest	-3997
hood	-3998
host	-3999
inda	-4000
izza	-4001
lang	-4002
reci	-4003
rees	-4004
sion	-4005
stem	-4006
time	-4007
verb	-4008
œYou	-4009
▁Are	-4010
▁God	-4011
▁Jon	-4012
▁Sun	-4013
▁asy	-4014
▁ins	-4015
▁pan	-4016
▁rhy	-4017
▁sew	-4018
admin	-4019
arlie	-4020
ement	-4021
flies	-4022
igate	-4023
ishes	-4024
ision	-4025
iture	-4026
light	-4027
match	-4028
rance	-4029
uddle	-4030
under	-4031
users	-4032
œThat	-4033
▁Baby	-4034
▁Letâ	-4035
▁Lina	-4036
▁Papa	-4037
▁ador	-4038
▁barn	-4039
▁base	-4040
▁bicy	-4041
▁dare	-4042
▁dead	-4043
▁dire	-4044
▁donâ	-4045
▁flav	-4046
▁furn	-4047
▁gate	-4048
▁hits	-4049
▁jack	-4050
▁lose	-4051
▁opin	-4052
▁sail	-4053
▁size	-4054
▁soil	-4055
▁stom	-4056
▁sunf	-4057
▁tqdm	-4058
▁tray	-4059
▁vest	-4060
▁waff	-4061
▁yarn	-4062
ishing	-4063
member	-4064
region	-4065
▁Bunny	-4066
▁Cindy	-4067
▁James	-4068
▁Janie	-4069
▁Linda	-4070
▁alarm	-4071
▁bears	-4072
▁bossy	-4073
▁cabin	-4074
▁calls	-4075
▁crawl	-4076
▁exist	-4077
▁exper	-4078
▁fetch	-4079
▁finds	-4080
▁flash	-4081
▁hesit	-4082
▁impro	-4083
▁invit	-4084
▁items	-4085
▁jewel	-4086
▁leash	-4087
▁lions	-4088
▁marsh	-4089
▁means	-4090
▁medic	-4091
▁merge	-4092
▁opens	-4093
▁order	-4094
▁organ	-4095
▁pizza	-4096
▁pride	-4097
▁razor	-4098
▁rooms	-4099
▁scale	-4100
▁scare	-4101
▁setup	-4102
▁shoot	-4103
▁stops	-4104
▁tummy	-4105
▁wiped	-4106
Welcome	-4107
▁Isabel	-4108
▁String	-4109
▁birdie	-4110
▁burned	-4111
▁caring	-4112
▁chance	-4113
▁choose	-4114
▁cooked	-4115
▁dancer	-4116
▁fierce	-4117
▁fridge	-4118
▁future	-4119
▁golden	-4120
▁handle	-4121
▁hunter	-4122
▁introd	-4123
▁mighty	-4124
▁pepper	-4125
▁roared	-4126
▁seeing	-4127
▁shiver	-4128
▁shouts	-4129
▁shrimp	-4130
▁softly	-4131
▁starts	-4132
▁statue	-4133
▁suffer	-4134
▁symbol	-4135
▁tables	-4136
▁theory	-4137
▁trucks	-4138
▁useful	-4139
▁wishes	-4140
▁wooden	-4141
▁Charlie	-4142
▁Someone	-4143
▁appreci	-4144
▁bicycle	-4145
▁carrots	-4146
▁courage	-4147
▁dolphin	-4148
▁eagerly	-4149
▁frowned	-4150
▁letting	-4151
▁library	-4152
▁meeting	-4153
▁missing	-4154
▁perform	-4155
▁players	-4156
▁printed	-4157
▁pumpkin	-4158
▁replace	-4159
▁scratch	-4160
▁succeed	-4161
RawTriple	-4162
▁Sunshine	-4163
▁adorable	-4164
▁blooming	-4165
▁cherries	-4166
▁crawling	-4167
▁curtains	-4168
▁entrance	-4169
▁failures	-4170
▁memories	-4171
▁sleeping	-4172
▁teaching	-4173
▁amazement	-4174
▁bookshelf	-4175
▁furniture	-4176
▁marshmall	-4177
▁splashing	-4178
▁structure	-4179
▁Eventually	-4180
▁permission	-4181
▁princesses	-4182
▁sandcastle	-4183
▁investigate	-4184
▁underground	-4185
BaseExtractor	-4186
(`	-4187
AY	-4188
Id	-4189
NO	-4190
OR	-4191
go	-4192
po	-4193
py	-4194
wh	-4195
xu	-4196
ye	-4197
▁Y	-4198
!",	-4199
())	-4200
DIR	-4201
Tim	-4202
alk	-4203
aps	-4204
cab	-4205
exp	-4206
isk	-4207
iso	-4208
mar	-4209
osm	-4210
ric	-4211
thm	-4212
tot	-4213
▁!=	-4214
▁+=	-4215
▁Pu	-4216
▁da	-4217
▁oy	-4218
Node	-4219
ases	-4220
back	-4221
case	-4222
ccer	-4223
corn	-4224
enet	-4225
erry	-4226
etle	-4227
form	-4228
iast	-4229
ices	-4230
ific	-4231
izes	-4232
lemm	-4233
loom	-4234
medi	-4235
port	-4236
ucet	-4237
zing	-4238
▁Kim	-4239
▁LAY	-4240
▁Meg	-4241
▁Not	-4242
▁Per	-4243
▁ach	-4244
▁age	-4245
▁ass	-4246
▁cam	-4247
▁cop	-4248
▁pap	-4249
▁pur	-4250
▁rec	-4251
▁rid	-4252
▁rot	-4253
▁spr	-4254
▁std	-4255
▁sty	-4256
▁via	-4257
adows	-4258
alley	-4259
ative	-4260
ebook	-4261
ename	-4262
htray	-4263
ities	-4264
known	-4265
layer	-4266
leary	-4267
quake	-4268
rence	-4269
sters	-4270
ucked	-4271
ution	-4272
▁Cody	-4273
▁Help	-4274
▁Neil	-4275
▁Peep	-4276
▁Your	-4277
▁bent	-4278
▁bone	-4279
▁cush	-4280
▁dust	-4281
▁film	-4282
▁flat	-4283
▁glue	-4284
▁json	-4285
▁knob	-4286
▁lect	-4287
▁luxu	-4288
▁main	-4289
▁phot	-4290
▁port	-4291
▁prec	-4292
▁quit	-4293
▁repe	-4294
▁sink	-4295
▁soap	-4296
▁suit	-4297
▁sung	-4298
▁toes	-4299
▁tube	-4300
▁user	-4301
▁ways	-4302
config	-4303
etches	-4304
iastic	-4305
ipping	-4306
lemmas	-4307
orpora	-4308
uation	-4309
uckily	-4310
▁Alexa	-4311
▁Amber	-4312
▁Bloom	-4313
▁Jerry	-4314
▁Puppy	-4315
▁Ralph	-4316
▁Sunny	-4317
▁Where	-4318
▁badly	-4319
▁baker	-4320
▁beans	-4321
▁early	-4322
▁event	-4323
▁grabs	-4324
▁grace	-4325
▁hedge	-4326
▁inter	-4327
▁names	-4328
▁pairs	-4329
▁pedal	-4330
▁press	-4331
▁scarf	-4332
▁scold	-4333
▁shine	-4334
▁short	-4335
▁stage	-4336
▁steal	-4337
▁vocab	-4338
ination	-4339
wordnet	-4340
▁Hopper	-4341
▁Result	-4342
▁beetle	-4343
▁begged	-4344
▁bushes	-4345
▁camera	-4346
▁candle	-4347
▁cherry	-4348
▁corpus	-4349
▁drinks	-4350
▁energy	-4351
▁faucet	-4352
▁marble	-4353
▁oyster	-4354
▁papers	-4355
▁planes	-4356
▁punish	-4357
▁racing	-4358
▁rhythm	-4359
▁rubber	-4360
▁soccer	-4361
▁source	-4362
▁square	-4363
▁triple	-4364
▁tugged	-4365
▁unpack	-4366
▁valley	-4367
▁waffle	-4368
identity	-4369
relation	-4370
▁ashtray	-4371
▁attract	-4372
▁bandage	-4373
▁bounced	-4374
▁castles	-4375
▁changed	-4376
▁chirped	-4377
▁closely	-4378
▁cushion	-4379
▁distant	-4380
▁doctors	-4381
▁lecture	-4382
▁letters	-4383
▁missile	-4384
▁nowhere	-4385
▁puzzles	-4386
▁sailing	-4387
▁shadows	-4388
▁shelter	-4389
▁slapped	-4390
▁telling	-4391
▁thunder	-4392
▁version	-4393
▁visited	-4394
mediately	-4395
▁Wikidata	-4396
▁clapping	-4397
▁explored	-4398
▁measured	-4399
▁medicine	-4400
▁notebook	-4401
▁requests	-4402
▁response	-4403
▁snuggled	-4404
▁squeezed	-4405
▁thinking	-4406
▁triangle	-4407
▁Countries	-4408
▁jellyfish	-4409
▁knowledge	-4410
▁stretched	-4411
▁subfolder	-4412
▁vegetable	-4413
▁TreeSitter	-4414
▁earthquake	-4415
▁invitation	-4416
▁respectful	-4417
▁sunglasses	-4418
▁sweetheart	-4419
▁independent	-4420
▁Collocations	-4421
▁enthusiastic	-4422
▁BaseExtractor	-4423
>/	-4424
BY	-4425
Co	-4426
Ok	-4427
Re	-4428
ae	-4429
tt	-4430
▁>	-4431
));	-4432
And	-4433
BYT	-4434
Did	-4435
Gra	-4436
Mmm	-4437
aky	-4438
ald	-4439
asc	-4440
coa	-4441
esp	-4442
ica	-4443
ira	-4444
ium	-4445
num	-4446
oot	-4447
per	-4448
sal	-4449
sol	-4450
url	-4451
yth	-4452
œNo	-4453
▁Ex	-4454
▁Ke	-4455
▁hi	-4456
Will	-4457
Yuck	-4458
apon	-4459
coon	-4460
eted	-4461
icky	-4462
ills	-4463
init	-4464
ison	-4465
iter	-4466
line	-4467
ncle	-4468
node	-4469
ntax	-4470
rams	-4471
reen	-4472
uper	-4473
upid	-4474
œWhy	-4475
▁Cla	-4476
▁Noa	-4477
▁fro	-4478
▁jet	-4479
▁mis	-4480
▁mut	-4481
▁pil	-4482
▁row	-4483
▁zer	-4484
BYTES	-4485
There	-4486
achel	-4487
anger	-4488
gging	-4489
hello	-4490
isted	-4491
items	-4492
ollow	-4493
oming	-4494
ooper	-4495
total	-4496
truck	-4497
umped	-4498
utter	-4499
xible	-4500
ython	-4501
▁Carl	-4502
▁Jojo	-4503
▁List	-4504
▁Look	-4505
▁Mike	-4506
▁Node	-4507
▁Remy	-4508
▁Tara	-4509
▁bald	-4510
▁beat	-4511
▁cras	-4512
▁cubs	-4513
▁fash	-4514
▁five	-4515
▁fuel	-4516
▁gear	-4517
▁grin	-4518
▁ours	-4519
▁outf	-4520
▁pine	-4521
▁prop	-4522
▁resc	-4523
▁role	-4524
▁rubs	-4525
▁salt	-4526
▁sett	-4527
▁sigh	-4528
▁swan	-4529
▁unit	-4530
▁verb	-4531
Shared	-4532
aspace	-4533
atient	-4534
coding	-4535
module	-4536
result	-4537
tagged	-4538
▁Abbie	-4539
▁Earth	-4540
▁Kelly	-4541
▁Lilly	-4542
▁OsmGb	-4543
▁Penny	-4544
▁Percy	-4545
▁Point	-4546
▁alive	-4547
▁allow	-4548
▁async	-4549
▁attic	-4550
▁baked	-4551
▁below	-4552
▁cared	-4553
▁chess	-4554
▁cliff	-4555
▁clown	-4556
▁cocoa	-4557
▁codes	-4558
▁daisy	-4559
▁didnâ	-4560
▁drops	-4561
▁error	-4562
▁flute	-4563
▁goose	-4564
▁instr	-4565
▁juicy	-4566
▁lower	-4567
▁nurse	-4568
▁panic	-4569
▁pasta	-4570
▁patch	-4571
▁peach	-4572
▁shark	-4573
▁skull	-4574
▁spell	-4575
▁spoke	-4576
▁stats	-4577
▁style	-4578
▁swims	-4579
▁trans	-4580
Fetches	-4581
Grandma	-4582
berries	-4583
corpora	-4584
replace	-4585
subject	-4586
▁Claire	-4587
▁Cleary	-4588
▁Cooper	-4589
▁Jessie	-4590
▁Rachel	-4591
▁argued	-4592
▁assert	-4593
▁atomic	-4594
▁attach	-4595
▁beamed	-4596
▁breaks	-4597
▁candid	-4598
▁desert	-4599
▁giggle	-4600
▁hardly	-4601
▁invite	-4602
▁jewels	-4603
▁nobody	-4604
▁powers	-4605
▁puddle	-4606
▁shakes	-4607
▁sneeze	-4608
▁sprink	-4609
▁stupid	-4610
▁summer	-4611
▁thread	-4612
▁towers	-4613
▁trains	-4614
▁tunnel	-4615
▁warned	-4616
▁weapon	-4617
▁wisdom	-4618
▁yields	-4619
datasets	-4620
manifest	-4621
▁Tweetie	-4622
▁admired	-4623
▁fashion	-4624
▁flutter	-4625
▁highest	-4626
▁hurried	-4627
▁opinion	-4628
▁pigeons	-4629
▁popcorn	-4630
▁scooped	-4631
▁spiders	-4632
▁spilled	-4633
▁stirred	-4634
▁stomach	-4635
▁surface	-4636
▁traffic	-4637
▁tripped	-4638
▁turning	-4639
▁twirled	-4640
▁zooming	-4641
Countries	-4642
mentation	-4643
subfolder	-4644
▁Everyday	-4645
▁Optional	-4646
▁belonged	-4647
▁bouncing	-4648
▁encoding	-4649
▁flexible	-4650
▁function	-4651
▁harmless	-4652
▁helpless	-4653
▁machines	-4654
▁monsters	-4655
▁playroom	-4656
▁radishes	-4657
▁received	-4658
▁stirring	-4659
▁stranger	-4660
▁visiting	-4661
▁welcomed	-4662
▁Standards	-4663
▁attention	-4664
▁creatures	-4665
▁encourage	-4666
▁firetruck	-4667
▁impatient	-4668
▁measuring	-4669
▁neighbour	-4670
▁practiced	-4671
▁scattered	-4672
▁sunflower	-4673
▁Morphology	-4674
▁attractive	-4675
▁pretending	-4676
▁immediately	-4677
▁NaturalEarth	-4678
▁canonicalize	-4679
BaseDownloader	-4680
!(	-4681
>,	-4682
FA	-4683
He	-4684
IN	-4685
Pr	-4686
SE	-4687
SS	-4688
ca	-4689
mk	-4690
oh	-4691
Ann	-4692
ENT	-4693
EST	-4694
How	-4695
Max	-4696
ORD	-4697
ann	-4698
but	-4699
cil	-4700
dig	-4701
dro	-4702
edy	-4703
fil	-4704
hol	-4705
ibi	-4706
iew	-4707
ilo	-4708
inc	-4709
jam	-4710
nal	-4711
nie	-4712
pen	-4713
rik	-4714
tes	-4715
the	-4716
yal	-4717
ype	-4718
zen	-4719
œIâ	-4720
œMy	-4721
▁Sp	-4722
Sara	-4723
Save	-4724
Your	-4725
aled	-4726
ccol	-4727
ctop	-4728
ella	-4729
fram	-4730
gine	-4731
hter	-4732
iana	-4733
inta	-4734
item	-4735
ives	-4736
lier	-4737
next	-4738
ongo	-4739
part	-4740
rain	-4741
size	-4742
spec	-4743
sues	-4744
well	-4745
}`);	-4746
œCan	-4747
œItâ	-4748
▁Bri	-4749
▁Hal	-4750
▁Its	-4751
▁Lia	-4752
▁Lou	-4753
▁Mae	-4754
▁Mon	-4755
▁Two	-4756
▁ali	-4757
▁aud	-4758
▁bee	-4759
▁bur	-4760
▁dug	-4761
▁fog	-4762
▁itâ	-4763
▁lab	-4764
▁lie	-4765
▁tmp	-4766
▁wob	-4767
These	-4768
abrik	-4769
aches	-4770
annah	-4771
antly	-4772
ascin	-4773
brown	-4774
ccoli	-4775
chant	-4776
compl	-4777
ctors	-4778
drobe	-4779
guing	-4780
ileen	-4781
ising	-4782
itten	-4783
jamas	-4784
lcano	-4785
mport	-4786
otten	-4787
strip	-4788
unday	-4789
▁Abby	-4790
▁Bibi	-4791
▁Both	-4792
▁Frog	-4793
▁Isla	-4794
▁Josh	-4795
▁Maya	-4796
▁True	-4797
▁area	-4798
▁bury	-4799
▁cent	-4800
▁dove	-4801
▁dull	-4802
▁gust	-4803
▁hist	-4804
▁hive	-4805
▁inst	-4806
▁laid	-4807
▁loop	-4808
▁mice	-4809
▁node	-4810
▁oper	-4811
▁pigs	-4812
▁pist	-4813
▁poke	-4814
▁post	-4815
▁pupp	-4816
▁reve	-4817
▁rust	-4818
▁stro	-4819
▁tide	-4820
▁tore	-4821
▁view	-4822
▁wags	-4823
▁wrap	-4824
▁yawn	-4825
▁zero	-4826
Thanks	-4827
ashMap	-4828
ctopus	-4829
idence	-4830
istent	-4831
oubled	-4832
sitter	-4833
strict	-4834
string	-4835
tokens	-4836
univer	-4837
▁Bella	-4838
▁Bongo	-4839
▁Helen	-4840
▁Holly	-4841
▁Jones	-4842
▁Minta	-4843
▁Shake	-4844
▁Tilly	-4845
▁activ	-4846
▁appro	-4847
▁bites	-4848
▁cable	-4849
▁chore	-4850
▁crash	-4851
▁cubes	-4852
▁doors	-4853
▁drain	-4854
▁flood	-4855
▁gifts	-4856
▁hated	-4857
▁holds	-4858
▁holes	-4859
▁judge	-4860
▁licks	-4861
▁metal	-4862
▁mixer	-4863
▁nicer	-4864
▁photo	-4865
▁range	-4866
▁sadly	-4867
▁scoot	-4868
▁sizes	-4869
▁straw	-4870
▁super	-4871
▁suppl	-4872
▁swamp	-4873
▁sword	-4874
▁towel	-4875
▁trade	-4876
▁twigs	-4877
extract	-4878
verbnet	-4879
▁Bobbie	-4880
▁Chicky	-4881
▁Eileen	-4882
▁Hannah	-4883
▁Jennie	-4884
▁People	-4885
▁Samina	-4886
▁Sunday	-4887
▁Tweety	-4888
▁bakery	-4889
▁baking	-4890
▁banana	-4891
▁beauty	-4892
▁buried	-4893
▁distur	-4894
▁easily	-4895
▁engine	-4896
▁fallen	-4897
▁fascin	-4898
▁fields	-4899
▁flavor	-4900
▁greedy	-4901
▁hoping	-4902
▁issues	-4903
▁jogged	-4904
▁keeper	-4905
▁lively	-4906
▁luxury	-4907
▁makeup	-4908
▁meowed	-4909
▁outfit	-4910
▁pencil	-4911
▁plates	-4912
▁poison	-4913
▁potato	-4914
▁powder	-4915
▁predic	-4916
▁proper	-4917
▁radish	-4918
▁radius	-4919
▁record	-4920
▁refres	-4921
▁rescue	-4922
▁resume	-4923
▁served	-4924
▁shirts	-4925
▁silver	-4926
▁single	-4927
▁smells	-4928
▁squash	-4929
▁sunset	-4930
▁taller	-4931
▁throws	-4932
▁warmth	-4933
▁waving	-4934
▁zoomed	-4935
framenet	-4936
holonyms	-4937
▁Instead	-4938
▁Luckily	-4939
▁accompl	-4940
▁belongs	-4941
▁bravely	-4942
▁cartoon	-4943
▁cleaned	-4944
▁crossed	-4945
▁cutting	-4946
▁earlier	-4947
▁explain	-4948
▁falling	-4949
▁glitter	-4950
▁hanging	-4951
▁keeping	-4952
▁leather	-4953
▁mystery	-4954
▁network	-4955
▁octopus	-4956
▁ordered	-4957
▁package	-4958
▁printer	-4959
▁pulling	-4960
▁quietly	-4961
▁ranking	-4962
▁roaring	-4963
▁selling	-4964
▁shouldn	-4965
▁synsets	-4966
▁trapped	-4967
▁twinkle	-4968
▁unknown	-4969
▁volcano	-4970
▁warning	-4971
▁yelling	-4972
countries	-4973
▁attached	-4974
▁audience	-4975
▁climbing	-4976
▁contract	-4977
▁demanded	-4978
▁examined	-4979
▁expected	-4980
▁homework	-4981
▁laughter	-4982
▁patience	-4983
▁reminder	-4984
▁restored	-4985
▁shoulder	-4986
▁skipping	-4987
▁sparkles	-4988
▁spinning	-4989
▁vanished	-4990
▁wardrobe	-4991
gmentation	-4992
▁elephants	-4993
▁forgotten	-4994
▁introduce	-4995
▁mountains	-4996
▁operation	-4997
▁organized	-4998
▁patiently	-4999
▁relations	-5000
▁screaming	-5001
▁situation	-5002
▁whistling	-5003
▁apologized	-5004
▁appreciate	-5005
▁discussing	-5006
▁downstairs	-5007
▁experience	-5008
▁flashlight	-5009
▁increasing	-5010
▁persistent	-5011
▁predicates	-5012
▁recognized	-5013
▁struggling	-5014
▁butterflies	-5015
▁imagination	-5016
▁BaseDownloader	-5017
']	-5018
)]	-5019
++	-5020
->	-5021
._	-5022
>(	-5023
AN	-5024
AW	-5025
CA	-5026
Go	-5027
MI	-5028
OS	-5029
RT	-5030
['	-5031
az	-5032
bu	-5033
cc	-5034
gb	-5035
ja	-5036
lu	-5037
mt	-5038
oe	-5039
rr	-5040
te	-5041
!("	-5042
");	-5043
)",	-5044
/",	-5045
ISO	-5046
MEO	-5047
SER	-5048
STA	-5049
She	-5050
TRI	-5051
Yum	-5052
__(	-5053
any	-5054
aws	-5055
bug	-5056
che	-5057
eed	-5058
err	-5059
ggy	-5060
hoe	-5061
ify	-5062
imy	-5063
oby	-5064
ppo	-5065
sed	-5066
shp	-5067
sum	-5068
tie	-5069
top	-5070
tti	-5071
vin	-5072
▁An	-5073
▁GB	-5074
▁Sn	-5075
▁[]	-5076
▁fh	-5077
▁ol	-5078
▁si	-5079
Give	-5080
Name	-5081
aded	-5082
aghe	-5083
ammy	-5084
ants	-5085
arol	-5086
atie	-5087
attr	-5088
bing	-5089
coll	-5090
crow	-5091
down	-5092
eath	-5093
ebra	-5094
eric	-5095
fire	-5096
hone	-5097
ides	-5098
iest	-5099
illa	-5100
irit	-5101
isha	-5102
itar	-5103
itty	-5104
laud	-5105
lude	-5106
nett	-5107
noun	-5108
play	-5109
plit	-5110
rise	-5111
role	-5112
rops	-5113
stal	-5114
suff	-5115
sure	-5116
test	-5117
tier	-5118
umbs	-5119
umes	-5120
utch	-5121
util	-5122
vere	-5123
}")]	-5124
œDon	-5125
▁Mar	-5126
▁Out	-5127
▁cre	-5128
▁der	-5129
▁foc	-5130
▁kay	-5131
▁sip	-5132
▁sir	-5133
▁tip	-5134
▁toe	-5135
▁tug	-5136
▁unh	-5137
▁vet	-5138
AGENT	-5139
START	-5140
TIMEO	-5141
Token	-5142
adium	-5143
allen	-5144
asper	-5145
aters	-5146
azine	-5147
bbled	-5148
chunk	-5149
ences	-5150
icing	-5151
icked	-5152
ircle	-5153
itain	-5154
izing	-5155
joyed	-5156
level	-5157
lings	-5158
mkdir	-5159
orses	-5160
osity	-5161
plane	-5162
queak	-5163
scape	-5164
trees	-5165
ument	-5166
undry	-5167
verse	-5168
▁Bear	-5169
▁Evie	-5170
▁Finn	-5171
▁Kate	-5172
▁Milo	-5173
▁Star	-5174
▁ants	-5175
▁bare	-5176
▁beds	-5177
▁bill	-5178
▁buzz	-5179
▁cact	-5180
▁chew	-5181
▁delt	-5182
▁died	-5183
▁drew	-5184
▁func	-5185
▁furt	-5186
▁hadn	-5187
▁junk	-5188
▁laws	-5189
▁math	-5190
▁meat	-5191
▁neat	-5192
▁page	-5193
▁panc	-5194
▁quiz	-5195
▁rise	-5196
▁seem	-5197
▁ship	-5198
▁simp	-5199
▁slap	-5200
▁stri	-5201
▁stud	-5202
▁tear	-5203
▁trap	-5204
▁urge	-5205
▁uses	-5206
▁wand	-5207
▁wigg	-5208
▁wond	-5209
Result	-5210
aclass	-5211
angled	-5212
corpus	-5213
domain	-5214
expect	-5215
insert	-5216
ippery	-5217
rowave	-5218
stance	-5219
suffix	-5220
syntax	-5221
tagset	-5222
▁Brian	-5223
▁Carol	-5224
▁Diana	-5225
▁Dutch	-5226
▁First	-5227
▁Julie	-5228
▁Jumpy	-5229
▁Katie	-5230
▁Kitty	-5231
▁Larry	-5232
▁Sophy	-5233
▁Tammy	-5234
▁adult	-5235
▁argue	-5236
▁balan	-5237
▁blows	-5238
▁boats	-5239
▁bowed	-5240
▁bunch	-5241
▁buyer	-5242
▁chill	-5243
▁coach	-5244
▁coats	-5245
▁dried	-5246
▁eaten	-5247
▁ended	-5248
▁exact	-5249
▁false	-5250
▁files	-5251
▁final	-5252
▁flour	-5253
▁ghost	-5254
▁glove	-5255
▁grant	-5256
▁grill	-5257
▁herbs	-5258
▁hippo	-5259
▁label	-5260
▁lemma	-5261
▁limes	-5262
▁loyal	-5263
▁merma	-5264
▁mints	-5265
▁moves	-5266
▁parts	-5267
▁price	-5268
▁score	-5269
▁seals	-5270
▁separ	-5271
▁siren	-5272
▁slimy	-5273
▁swans	-5274
▁trick	-5275
▁truth	-5276
▁unite	-5277
▁users	-5278
▁worth	-5279
▁zebra	-5280
Natural	-5281
aghetti	-5282
content	-5283
curated	-5284
headers	-5285
parents	-5286
profile	-5287
rophone	-5288
▁Bettie	-5289
▁Freddy	-5290
▁Jasper	-5291
▁Keisha	-5292
▁Python	-5293
▁Squeak	-5294
▁admire	-5295
▁bother	-5296
▁bumped	-5297
▁chores	-5298
▁crumbs	-5299
▁during	-5300
▁expect	-5301
▁fixing	-5302
▁fought	-5303
▁frozen	-5304
▁gifted	-5305
▁gloves	-5306
▁guitar	-5307
▁health	-5308
▁helper	-5309
▁horses	-5310
▁jacket	-5311
▁mixing	-5312
▁mouths	-5313
▁myself	-5314
▁pistol	-5315
▁regret	-5316
▁riding	-5317
▁robots	-5318
▁screen	-5319
▁sewing	-5320
▁shower	-5321
▁sights	-5322
▁skills	-5323
▁spirit	-5324
▁spoons	-5325
▁stared	-5326
▁sticky	-5327
▁stitch	-5328
▁tagged	-5329
▁talent	-5330
▁thanks	-5331
▁tomato	-5332
▁worker	-5333
FrameNet	-5334
meronyms	-5335
▁Bennett	-5336
▁However	-5337
▁Maxwell	-5338
▁Monster	-5339
▁applaud	-5340
▁arguing	-5341
▁balance	-5342
▁beneath	-5343
▁bottles	-5344
▁bravery	-5345
▁breathe	-5346
▁burning	-5347
▁ceiling	-5348
▁challen	-5349
▁crashed	-5350
▁crystal	-5351
▁fastest	-5352
▁fearful	-5353
▁firefly	-5354
▁fishing	-5355
▁focused	-5356
▁getattr	-5357
▁gobbled	-5358
▁history	-5359
▁improve	-5360
▁laundry	-5361
▁mailman	-5362
▁matched	-5363
▁mention	-5364
▁officer	-5365
▁onwards	-5366
▁profile	-5367
▁pushing	-5368
▁scolded	-5369
▁setting	-5370
▁sneaked	-5371
▁sparkle	-5372
▁strings	-5373
▁stuffed	-5374
▁sunrise	-5375
▁thermos	-5376
▁unhappy	-5377
▁weather	-5378
Standards	-5379
ategories	-5380
tokeniser	-5381
universal	-5382
▁Caroline	-5383
▁airplane	-5384
▁becoming	-5385
▁bookcase	-5386
▁brighter	-5387
▁bringing	-5388
▁broccoli	-5389
▁campfire	-5390
▁chirping	-5391
▁costumes	-5392
▁feelings	-5393
▁graceful	-5394
▁increase	-5395
▁magazine	-5396
▁merchant	-5397
▁passport	-5398
▁precious	-5399
▁restless	-5400
▁shouting	-5401
▁slippery	-5402
▁solution	-5403
▁startled	-5404
▁surround	-5405
▁sweaters	-5406
▁troubled	-5407
▁wherever	-5408
mportError	-5409
treesitter	-5410
▁destroyed	-5411
▁disturbed	-5412
▁landscape	-5413
▁microwave	-5414
▁overjoyed	-5415
▁scarecrow	-5416
▁shapefile	-5417
▁spaghetti	-5418
▁spreading	-5419
▁tokenizer	-5420
▁wondering	-5421
▁approached	-5422
▁difference	-5423
▁importance	-5424
▁microphone	-5425
▁shopkeeper	-5426
▁decorations	-5427
▁neighborhood	-5428
erbNetRawLayout	-5429
'.	-5430
--	-5431
</	-5432
?'	-5433
At	-5434
CH	-5435
CT	-5436
NK	-5437
On	-5438
Or	-5439
RL	-5440
SM	-5441
cd	-5442
do	-5443
ha	-5444
ln	-5445
rc	-5446
wb	-5447
").	-5448
/``	-5449
ATA	-5450
CLA	-5451
Dad	-5452
ERS	-5453
Joh	-5454
LAR	-5455
ONS	-5456
Our	-5457
SON	-5458
acy	-5459
api	-5460
ava	-5461
bey	-5462
big	-5463
dbf	-5464
ded	-5465
def	-5466
duc	-5467
env	-5468
hod	-5469
iki	-5470
ixt	-5471
lat	-5472
lem	-5473
map	-5474
msi	-5475
oke	-5476
oph	-5477
pbf	-5478
rib	-5479
ron	-5480
you	-5481
œHi	-5482
▁"-	-5483
▁Ad	-5484
▁Iâ	-5485
▁Or	-5486
▁vn	-5487
▁wg	-5488
());	-5489
Anna	-5490
Jack	-5491
LATI	-5492
Mama	-5493
Read	-5494
Spec	-5495
TMre	-5496
acht	-5497
alue	-5498
arty	-5499
asey	-5500
boat	-5501
bric	-5502
cher	-5503
desc	-5504
ebec	-5505
have	-5506
iece	-5507
ilet	-5508
imum	-5509
intf	-5510
nies	-5511
njoy	-5512
osed	-5513
prop	-5514
push	-5515
ride	-5516
sequ	-5517
sole	-5518
ters	-5519
uddy	-5520
uses	-5521
utom	-5522
what	-5523
▁Aja	-5524
▁Any	-5525
▁Bug	-5526
▁Itâ	-5527
▁MIN	-5528
▁OSM	-5529
▁TOK	-5530
▁Ted	-5531
▁Wor	-5532
▁[])	-5533
▁``<	-5534
▁arr	-5535
▁dam	-5536
▁die	-5537
▁div	-5538
▁doc	-5539
▁jug	-5540
▁kid	-5541
▁las	-5542
▁lex	-5543
▁men	-5544
▁moo	-5545
▁mug	-5546
▁oil	-5547
▁pir	-5548
▁sou	-5549
▁ten	-5550
▁vac	-5551
CALAR	-5552
CLASS	-5553
False	-5554
Ready	-5555
arrel	-5556
arsha	-5557
ashed	-5558
athan	-5559
aulif	-5560
brush	-5561
build	-5562
erial	-5563
hoebe	-5564
ighed	-5565
ilies	-5566
illie	-5567
iring	-5568
itesp	-5569
night	-5570
omers	-5571
paths	-5572
rency	-5573
space	-5574
table	-5575
while	-5576
words	-5577
œThis	-5578
▁Have	-5579
▁JSON	-5580
▁Joni	-5581
▁LAYO	-5582
▁Lacy	-5583
▁Paul	-5584
▁Sail	-5585
▁Tina	-5586
▁Toby	-5587
▁Type	-5588
▁Will	-5589
▁bang	-5590
▁caut	-5591
▁club	-5592
▁copy	-5593
▁cree	-5594
▁cust	-5595
▁deal	-5596
▁digg	-5597
▁heat	-5598
▁jail	-5599
▁jobs	-5600
▁joke	-5601
▁keys	-5602
▁lang	-5603
▁lets	-5604
▁lips	-5605
▁mixt	-5606
▁news	-5607
▁obey	-5608
▁palm	-5609
▁poss	-5610
▁prev	-5611
▁prov	-5612
▁rake	-5613
▁sale	-5614
▁sequ	-5615
▁shed	-5616
▁snap	-5617
▁sons	-5618
▁tuna	-5619
▁vict	-5620
▁void	-5621
▁weal	-5622
RELATI	-5623
``."""	-5624
adybug	-5625
digits	-5626
ebecca	-5627
ection	-5628
inking	-5629
iskers	-5630
lement	-5631
lowers	-5632
mother	-5633
rength	-5634
status	-5635
strich	-5636
though	-5637
uggles	-5638
uments	-5639
œHello	-5640
▁Dolly	-5641
▁Error	-5642
▁Janet	-5643
▁Kasey	-5644
▁Marie	-5645
▁Marty	-5646
▁Moral	-5647
▁Mouse	-5648
▁Shape	-5649
▁Spike	-5650
▁apron	-5651
▁autom	-5652
▁awoke	-5653
▁badge	-5654
▁bleed	-5655
▁blood	-5656
▁bound	-5657
▁bowls	-5658
▁bully	-5659
▁bumpy	-5660
▁delay	-5661
▁enter	-5662
▁flame	-5663
▁flies	-5664
▁forgi	-5665
▁given	-5666
▁goals	-5667
▁heads	-5668
▁ignor	-5669
▁kayak	-5670
▁kneel	-5671
▁noses	-5672
▁offic	-5673
▁pants	-5674
▁pilot	-5675
▁pinch	-5676
▁prune	-5677
▁quack	-5678
▁roles	-5679
▁roses	-5680
▁sauce	-5681
▁scoop	-5682
▁seems	-5683
▁sides	-5684
▁slips	-5685
▁solve	-5686
▁spoil	-5687
▁steps	-5688
▁sting	-5689
▁swung	-5690
▁thatâ	-5691
▁track	-5692
▁urged	-5693
▁vroom	-5694
▁works	-5695
▁worse	-5696
▁wound	-5697
▁yacht	-5698
Session	-5699
WordNet	-5700
allback	-5701
ception	-5702
collect	-5703
emember	-5704
include	-5705
ittered	-5706
missive	-5707
natural	-5708
ouraged	-5709
reeNode	-5710
riosity	-5711
session	-5712
unately	-5713
▁Follow	-5714
▁Marsha	-5715
▁Millie	-5716
▁Pepper	-5717
▁Phoebe	-5718
▁barely	-5719
▁caulif	-5720
▁center	-5721
▁cheeks	-5722
▁contro	-5723
▁deltas	-5724
▁direct	-5725
▁double	-5726
▁fabric	-5727
▁folded	-5728
▁kindly	-5729
▁lasted	-5730
▁melted	-5731
▁method	-5732
▁mister	-5733
▁needle	-5734
▁partic	-5735
▁paused	-5736
▁prayer	-5737
▁prints	-5738
▁repair	-5739
▁settle	-5740
▁shined	-5741
▁stairs	-5742
▁toilet	-5743
▁tracks	-5744
▁travel	-5745
▁tricks	-5746
▁tucked	-5747
▁verify	-5748
Wikidata	-5749
anguages	-5750
category	-5751
download	-5752
erialize	-5753
itespace	-5754
wikidata	-5755
▁HashMap	-5756
▁Jessica	-5757
▁Rebecca	-5758
▁alright	-5759
▁bigrams	-5760
▁camping	-5761
▁catcher	-5762
▁collaps	-5763
▁console	-5764
▁contain	-5765
▁crosses	-5766
▁dragons	-5767
▁drawing	-5768
▁dressed	-5769
▁dresses	-5770
▁driving	-5771
▁entered	-5772
▁floated	-5773
▁further	-5774
▁glowing	-5775
▁grinned	-5776
▁happens	-5777
▁helmets	-5778
▁helpers	-5779
▁hopeful	-5780
▁ignored	-5781
▁jogging	-5782
▁mailbox	-5783
▁mixture	-5784
▁muffins	-5785
▁ostrich	-5786
▁pajamas	-5787
▁perfume	-5788
▁pouring	-5789
▁praying	-5790
▁prepare	-5791
▁puppets	-5792
▁quarrel	-5793
▁raccoon	-5794
▁receive	-5795
▁regions	-5796
▁related	-5797
▁reverse	-5798
▁ringing	-5799
▁shelves	-5800
▁sliding	-5801
▁sprayed	-5802
▁stadium	-5803
▁touches	-5804
▁twisted	-5805
▁watered	-5806
▁weighed	-5807
▁wiggled	-5808
▁wonders	-5809
RELATIONS	-5810
extracted	-5811
izeResult	-5812
substance	-5813
▁Jonathan	-5814
▁Sailboat	-5815
▁Snuggles	-5816
▁Whiskers	-5817
▁accepted	-5818
▁achieved	-5819
▁actually	-5820
▁anywhere	-5821
▁baseball	-5822
▁borrowed	-5823
▁cautious	-5824
▁cheating	-5825
▁combined	-5826
▁determin	-5827
▁families	-5828
▁floating	-5829
▁insisted	-5830
▁inviting	-5831
▁manifest	-5832
▁mistakes	-5833
▁pancakes	-5834
▁properly	-5835
▁replaced	-5836
▁separate	-5837
▁sneezing	-5838
▁speaking	-5839
▁strength	-5840
▁supposed	-5841
▁thrilled	-5842
▁throwing	-5843
▁vacation	-5844
Morphology	-5845
confidence	-5846
permissive	-5847
▁Exception	-5848
▁billboard	-5849
▁candidate	-5850
▁classroom	-5851
▁completed	-5852
▁confident	-5853
▁dinosaurs	-5854
▁discovery	-5855
▁hesitated	-5856
▁polishing	-5857
▁presented	-5858
▁recognize	-5859
▁repeating	-5860
▁surprises	-5861
▁zookeeper	-5862
▁activities	-5863
▁blackboard	-5864
▁completely	-5865
▁earthlings	-5866
▁encouraged	-5867
▁morphology	-5868
Collocations	-5869
collocations	-5870
▁canonicaliz	-5871
▁cauliflower	-5872
▁grandmother	-5873
▁marshmallow	-5874
▁marshmallows	-5875
▁strawberries	-5876
▁canonicalizer	-5877
▁understanding	-5878
onicalizeResult	-5879
▁OsmGbRawLayout	-5880
({	-5881
(|	-5882
.'	-5883
/{	-5884
:?	-5885
:{	-5886
={	-5887
Br	-5888
EO	-5889
GE	-5890
ID	-5891
Lo	-5892
OW	-5893
PA	-5894
SI	-5895
TR	-5896
TS	-5897
WL	-5898
[]	-5899
];	-5900
db	-5901
ef	-5902
fh	-5903
fy	-5904
kg	-5905
lv	-5906
rn	-5907
rs	-5908
ts	-5909
vo	-5910
ww	-5911
}"	-5912
}.	-5913
▁q	-5914
"])	-5915
(`/	-5916
ACT	-5917
ALL	-5918
AME	-5919
Bye	-5920
EFA	-5921
KNO	-5922
LEN	-5923
PBF	-5924
PER	-5925
RAW	-5926
]);	-5927
ari	-5928
asm	-5929
bwe	-5930
cap	-5931
cip	-5932
eof	-5933
fix	-5934
fle	-5935
fre	-5936
has	-5937
hyp	-5938
iza	-5939
let	-5940
lre	-5941
men	-5942
met	-5943
mot	-5944
omw	-5945
pes	-5946
pkg	-5947
rat	-5948
saw	-5949
scr	-5950
std	-5951
upd	-5952
vey	-5953
wra	-5954
yan	-5955
yes	-5956
yms	-5957
}/{	-5958
œIf	-5959
œWe	-5960
▁CO	-5961
▁Di	-5962
▁El	-5963
▁Sy	-5964
▁_,	-5965
▁ca	-5966
▁py	-5967
▁{"	-5968
▁};	-5969
']}:	-5970
EDGE	-5971
John	-5972
List	-5973
NTRI	-5974
OWED	-5975
Open	-5976
Rust	-5977
SETS	-5978
Then	-5979
WORD	-5980
acts	-5981
affe	-5982
aped	-5983
arac	-5984
arch	-5985
aroo	-5986
bish	-5987
cage	-5988
ccas	-5989
eger	-5990
elle	-5991
epos	-5992
face	-5993
ffes	-5994
freq	-5995
gram	-5996
iasm	-5997
ilar	-5998
ilty	-5999
inct	-6000
left	-6001
lvet	-6002
mble	-6003
meta	-6004
none	-6005
null	-6006
orch	-6007
ripe	-6008
roup	-6009
seek	-6010
sing	-6011
sity	-6012
toed	-6013
tuce	-6014
ubby	-6015
ugga	-6016
vies	-6017
weet	-6018
œThe	-6019
▁Ali	-6020
▁Bye	-6021
▁GEO	-6022
▁Har	-6023
▁ISO	-6024
▁Lic	-6025
▁Map	-6026
▁PBF	-6027
▁Paw	-6028
▁Yes	-6029
▁``.	-6030
▁ago	-6031
▁awe	-6032
▁bcd	-6033
▁bes	-6034
▁bri	-6035
▁cor	-6036
▁cro	-6037
▁dar	-6038
▁dom	-6039
▁fmt	-6040
▁gir	-6041
▁hus	-6042
▁laz	-6043
▁lum	-6044
▁max	-6045
▁opp	-6046
▁rug	-6047
▁unt	-6048
▁yum	-6049
ACTED	-6050
Brown	-6051
Class	-6052
Great	-6053
KNOWL	-6054
OsmGb	-6055
Reads	-6056
State	-6057
Timmy	-6058
Would	-6059
ading	-6060
amboo	-6061
arian	-6062
ators	-6063
bytes	-6064
cipal	-6065
const	-6066
divis	-6067
doors	-6068
earth	-6069
edges	-6070
eping	-6071
eting	-6072
eturn	-6073
fetch	-6074
fight	-6075
great	-6076
guard	-6077
immer	-6078
input	-6079
ition	-6080
itory	-6081
lemma	-6082
lines	-6083
neath	-6084
obile	-6085
ophie	-6086
ouple	-6087
ource	-6088
selre	-6089
split	-6090
uctor	-6091
udged	-6092
unchy	-6093
usage	-6094
valid	-6095
veled	-6096
œDonâ	-6097
œLook	-6098
œWell	-6099
▁Care	-6100
▁DEFA	-6101
▁Judy	-6102
▁Kiki	-6103
▁Kira	-6104
▁Mean	-6105
▁Miao	-6106
▁Rust	-6107
▁Ruth	-6108
▁Ryan	-6109
▁Tony	-6110
▁bank	-6111
▁bean	-6112
▁brus	-6113
▁bund	-6114
▁byte	-6115
▁cape	-6116
▁cash	-6117
▁cats	-6118
▁chef	-6119
▁crew	-6120
▁cudd	-6121
▁dump	-6122
▁eats	-6123
▁enum	-6124
▁gira	-6125
▁gram	-6126
▁hate	-6127
▁insp	-6128
▁java	-6129
▁kang	-6130
▁lamb	-6131
▁lend	-6132
▁lick	-6133
▁lugg	-6134
▁none	-6135
▁padd	-6136
▁puff	-6137
▁ripe	-6138
▁rush	-6139
▁scal	-6140
▁slot	-6141
▁sway	-6142
▁tool	-6143
▁torn	-6144
▁tour	-6145
▁warn	-6146
▁wins	-6147
▁wipe	-6148
▁{}",	-6149
▁{}).	-6150
NTRIES	-6151
ainyms	-6152
angers	-6153
codile	-6154
ending	-6155
filter	-6156
imilar	-6157
latest	-6158
ongrat	-6159
ribute	-6160
states	-6161
stream	-6162
terday	-6163
userId	-6164
vinces	-6165
vision	-6166
œMaybe	-6167
œThatâ	-6168
▁Achoo	-6169
▁Bluey	-6170
▁Chant	-6171
▁Denny	-6172
▁Diane	-6173
▁Eliza	-6174
▁Happy	-6175
▁Mandy	-6176
▁Milly	-6177
▁Token	-6178
▁alien	-6179
▁arith	-6180
▁avail	-6181
▁awake	-6182
▁barks	-6183
▁belts	-6184
▁braid	-6185
▁brain	-6186
▁cacti	-6187
▁chalk	-6188
▁cheap	-6189
▁chunk	-6190
▁claws	-6191
▁cobwe	-6192
▁comfy	-6193
▁creek	-6194
▁crept	-6195
▁deriv	-6196
▁desks	-6197
▁disag	-6198
▁disob	-6199
▁edges	-6200
▁eight	-6201
▁email	-6202
▁excel	-6203
▁faced	-6204
▁girls	-6205
▁guide	-6206
▁horns	-6207
▁icing	-6208
▁input	-6209
▁jokes	-6210
▁lands	-6211
▁laser	-6212
▁layed	-6213
▁lined	-6214
▁mater	-6215
▁merry	-6216
▁occas	-6217
▁olive	-6218
▁onion	-6219
▁pearl	-6220
▁piano	-6221
▁plays	-6222
▁polar	-6223
▁porch	-6224
▁posit	-6225
▁prove	-6226
▁pupil	-6227
▁resol	-6228
▁sheep	-6229
▁signs	-6230
▁skips	-6231
▁skirt	-6232
▁slice	-6233
▁sniff	-6234
▁steep	-6235
▁suitc	-6236
▁tails	-6237
▁tooth	-6238
▁vowed	-6239
▁wagon	-6240
▁waist	-6241
▁weeks	-6242
▁yells	-6243
ALLOWED	-6244
ATASETS	-6245
TRACTED	-6246
asename	-6247
britain	-6248
grammar	-6249
indrops	-6250
iration	-6251
isalpha	-6252
ishment	-6253
istance	-6254
jective	-6255
scratch	-6256
uctions	-6257
ultural	-6258
vention	-6259
▁Animal	-6260
▁Circle	-6261
▁During	-6262
▁Harvey	-6263
▁Jackie	-6264
▁LAYERS	-6265
▁Sophie	-6266
▁appear	-6267
▁bamboo	-6268
▁beside	-6269
▁bouncy	-6270
▁brings	-6271
▁chairs	-6272
▁charac	-6273
▁chases	-6274
▁chewed	-6275
▁choice	-6276
▁chubby	-6277
▁couple	-6278
▁creamy	-6279
▁design	-6280
▁divide	-6281
▁dreamt	-6282
▁easier	-6283
▁ending	-6284
▁filthy	-6285
▁fishes	-6286
▁flames	-6287
▁framed	-6288
▁frames	-6289
▁freeze	-6290
▁gained	-6291
▁gotten	-6292
▁guilty	-6293
▁harmon	-6294
▁indeed	-6295
▁kisses	-6296
▁lumber	-6297
▁memory	-6298
▁module	-6299
▁motion	-6300
▁movies	-6301
▁onSave	-6302
▁output	-6303
▁pandas	-6304
▁peered	-6305
▁petted	-6306
▁points	-6307
▁rained	-6308
▁raised	-6309
▁ranger	-6310
▁reluct	-6311
▁resist	-6312
▁rested	-6313
▁ripped	-6314
▁rocked	-6315
▁safari	-6316
▁seeker	-6317
▁seller	-6318
▁shadow	-6319
▁sneaky	-6320
▁snowfl	-6321
▁sovere	-6322
▁spring	-6323
▁steady	-6324
▁strike	-6325
▁temple	-6326
▁tokens	-6327
▁united	-6328
▁unsure	-6329
▁velvet	-6330
▁wallet	-6331
▁warmer	-6332
▁winked	-6333
▁winner	-6334
▁within	-6335
▁zipped	-6336
Remember	-6337
currency	-6338
eofabrik	-6339
immering	-6340
selrestr	-6341
▁Because	-6342
▁Ladybug	-6343
▁Sharing	-6344
▁Whoever	-6345
▁achieve	-6346
▁answers	-6347
▁baskets	-6348
▁brushed	-6349
▁candles	-6350
▁cashier	-6351
▁chasing	-6352
▁chicken	-6353
▁company	-6354
▁context	-6355
▁control	-6356
▁created	-6357
▁crunchy	-6358
▁damaged	-6359
▁darling	-6360
▁digging	-6361
▁display	-6362
▁escaped	-6363
▁evening	-6364
▁fairies	-6365
▁giraffe	-6366
▁headers	-6367
▁husband	-6368
▁jackets	-6369
▁journal	-6370
▁kingdom	-6371
▁lettuce	-6372
▁lexical	-6373
▁luggage	-6374
▁marched	-6375
▁mermaid	-6376
▁peaches	-6377
▁process	-6378
▁puzzled	-6379
▁rebuild	-6380
▁require	-6381
▁rubbish	-6382
▁scooter	-6383
▁screams	-6384
▁section	-6385
▁squares	-6386
▁thicker	-6387
▁vectors	-6388
▁victory	-6389
▁wealthy	-6390
▁whoever	-6391
▁winning	-6392
▁written	-6393
KNOWLEDGE	-6394
Tokenizer	-6395
epository	-6396
ification	-6397
metaspace	-6398
▁Graceful	-6399
▁backpack	-6400
▁bandages	-6401
▁birdcage	-6402
▁checkout	-6403
▁cheering	-6404
▁chillies	-6405
▁creation	-6406
▁datasets	-6407
▁forehead	-6408
▁giraffes	-6409
▁grabbing	-6410
▁hesitant	-6411
▁ignorant	-6412
▁improved	-6413
▁kangaroo	-6414
▁material	-6415
▁mismatch	-6416
▁officers	-6417
▁outdoors	-6418
▁pastries	-6419
▁patterns	-6420
▁polished	-6421
▁possible	-6422
▁practice	-6423
▁prepared	-6424
▁repeated	-6425
▁revealed	-6426
▁scurried	-6427
▁seagulls	-6428
▁shopping	-6429
▁spending	-6430
▁squeaked	-6431
▁stealing	-6432
▁struggle	-6433
▁supplies	-6434
▁tempfile	-6435
▁tomatoes	-6436
▁twirling	-6437
▁upstairs	-6438
▁useState	-6439
TreeSitter	-6440
morphology	-6441
▁Chantelle	-6442
▁Meanwhile	-6443
▁RawLayout	-6444
▁apologize	-6445
▁available	-6446
▁challenge	-6447
▁crocodile	-6448
▁curiosity	-6449
▁customers	-6450
▁directory	-6451
▁dragonfly	-6452
▁finishing	-6453
▁firefight	-6454
▁fluttered	-6455
▁following	-6456
▁glittered	-6457
▁goodnight	-6458
▁groceries	-6459
▁interface	-6460
▁lifeguard	-6461
▁metaspace	-6462
▁principal	-6463
▁protected	-6464
▁refreshed	-6465
▁sprinkled	-6466
▁sprinkles	-6467
▁strangers	-6468
▁succeeded	-6469
▁supported	-6470
▁tokeniser	-6471
▁transform	-6472
description	-6473
fortunately	-6474
▁Afterwards	-6475
▁automobile	-6476
▁babysitter	-6477
▁cautiously	-6478
▁collecting	-6479
▁collection	-6480
▁directions	-6481
▁enthusiasm	-6482
▁fascinated	-6483
▁neighbours	-6484
▁paintbrush	-6485
▁particular	-6486
▁television	-6487
NaturalEarth	-6488
▁DatasetSpec	-6489
▁complaining	-6490
▁instruments	-6491
▁reluctantly	-6492
▁collocations	-6493
▁instructions	-6494
▁segmentation	-6495
▁accomplishment	-6496
▁canonicalizable	-6497
";	-6498
"}	-6499
#[	-6500
.{	-6501
>;	-6502
?:	-6503
Ag	-6504
Ah	-6505
CI	-6506
Db	-6507
Ex	-6508
GI	-6509
Ha	-6510
NE	-6511
PI	-6512
RO	-6513
So	-6514
Ye	-6515
da	-6516
eq	-6517
fo	-6518
mi	-6519
og	-6520
ru	-6521
ym	-6522
};	-6523
€,	-6524
(".	-6525
(#[	-6526
++)	-6527
::{	-6528
BRI	-6529
Boy	-6530
Che	-6531
DbL	-6532
ECT	-6533
Mia	-6534
Not	-6535
Rib	-6536
TMd	-6537
Whe	-6538
``,	-6539
arg	-6540
avi	-6541
aze	-6542
bel	-6543
ben	-6544
bes	-6545
bin	-6546
boo	-6547
bor	-6548
can	-6549
dat	-6550
edu	-6551
eke	-6552
eps	-6553
hog	-6554
igz	-6555
irm	-6556
lee	-6557
ler	-6558
lud	-6559
mas	-6560
mpt	-6561
neg	-6562
ngl	-6563
nif	-6564
nty	-6565
oor	-6566
org	-6567
pid	-6568
pmi	-6569
pos	-6570
pub	-6571
qid	-6572
rad	-6573
rrr	-6574
spe	-6575
uly	-6576
umn	-6577
ups	-6578
ura	-6579
{}:	-6580
}",	-6581
}</	-6582
}`;	-6583
œDo	-6584
œOh	-6585
▁"'	-6586
▁",	-6587
▁".	-6588
▁(!	-6589
▁((	-6590
▁):	-6591
▁);	-6592
▁<-	-6593
▁Ar	-6594
▁By	-6595
▁Dr	-6596
▁Le	-6597
▁RE	-6598
▁Ro	-6599
▁dy	-6600
▁em	-6601
▁ge	-6602
▁ti	-6603
▁zf	-6604
..."	-6605
BRIK	-6606
Find	-6607
GION	-6608
Next	-6609
Only	-6610
Ouch	-6611
Over	-6612
Path	-6613
TMll	-6614
Whee	-6615
Yeah	-6616
abra	-6617
ades	-6618
atic	-6619
chan	-6620
ctly	-6621
ding	-6622
ends	-6623
enty	-6624
eped	-6625
erty	-6626
fail	-6627
geof	-6628
ging	-6629
hero	-6630
icon	-6631
iers	-6632
info	-6633
issy	-6634
ixie	-6635
izon	-6636
jack	-6637
keys	-6638
lley	-6639
mode	-6640
ndex	-6641
nyms	-6642
ocab	-6643
ocol	-6644
omes	-6645
orit	-6646
otch	-6647
ower	-6648
prov	-6649
reck	-6650
repo	-6651
seed	-6652
serR	-6653
this	-6654
trim	-6655
wrap	-6656
œSee	-6657
▁Cat	-6658
▁DBF	-6659
▁Exc	-6660
▁Int	-6661
▁Joy	-6662
▁Lee	-6663
▁Old	-6664
▁Yum	-6665
▁``_	-6666
▁aff	-6667
▁cel	-6668
▁dbf	-6669
▁eff	-6670
▁equ	-6671
▁goo	-6672
▁gym	-6673
▁hyp	-6674
▁inj	-6675
▁kit	-6676
▁lap	-6677
▁mes	-6678
▁pra	-6679
▁shp	-6680
▁sib	-6681
▁src	-6682
▁sys	-6683
▁tok	-6684
▁wea	-6685
▁wid	-6686
▁yog	-6687
▁});	-6688
Achoo	-6689
Agent	-6690
Check	-6691
Mummy	-6692
Point	-6693
Sweet	-6694
Those	-6695
Today	-6696
acity	-6697
agers	-6698
ampoo	-6699
anges	-6700
aster	-6701
atted	-6702
bench	-6703
berry	-6704
cache	-6705
child	-6706
clean	-6707
cover	-6708
dding	-6709
ducer	-6710
ekend	-6711
email	-6712
entry	-6713
ering	-6714
etime	-6715
first	-6716
haust	-6717
iform	-6718
igned	-6719
ignty	-6720
igzag	-6721
ility	-6722
imary	-6723
inent	-6724
ingly	-6725
intln	-6726
irmly	-6727
istic	-6728
itted	-6729
ourag	-6730
parse	-6731
prime	-6732
ramCo	-6733
rease	-6734
robes	-6735
tingu	-6736
topic	-6737
trans	-6738
types	-6739
using	-6740
venir	-6741
▁Adam	-6742
▁Engl	-6743
▁Nina	-6744
▁Open	-6745
▁Time	-6746
▁aren	-6747
▁auth	-6748
▁bows	-6749
▁bull	-6750
▁conn	-6751
▁fact	-6752
▁fart	-6753
▁form	-6754
▁gest	-6755
▁glee	-6756
▁hers	-6757
▁huff	-6758
▁hund	-6759
▁knot	-6760
▁lawy	-6761
▁lily	-6762
▁limp	-6763
▁mall	-6764
▁mass	-6765
▁menu	-6766
▁mode	-6767
▁moos	-6768
▁napk	-6769
▁nine	-6770
▁noon	-6771
▁null	-6772
▁pans	-6773
▁papa	-6774
▁pars	-6775
▁paws	-6776
▁peck	-6777
▁peel	-6778
▁pies	-6779
▁poem	-6780
▁pots	-6781
▁pred	-6782
▁refe	-6783
▁rejo	-6784
▁rele	-6785
▁risk	-6786
▁sets	-6787
▁sits	-6788
▁slip	-6789
▁soak	-6790
▁sore	-6791
▁spit	-6792
▁stra	-6793
▁tamb	-6794
▁tune	-6795
▁uint	-6796
▁wasp	-6797
Atomic	-6798
FABRIK	-6799
Finder	-6800
Follow	-6801
Printf	-6802
REGION	-6803
Return	-6804
Ribbit	-6805
Street	-6806
anging	-6807
antage	-6808
artled	-6809
atches	-6810
atomic	-6811
creams	-6812
derive	-6813
encode	-6814
forced	-6815
ifacts	-6816
inkled	-6817
ionary	-6818
istles	-6819
layout	-6820
luding	-6821
motion	-6822
nonyms	-6823
number	-6824
omeday	-6825
ounter	-6826
ourine	-6827
parity	-6828
radius	-6829
rectly	-6830
riples	-6831
scotch	-6832
source	-6833
starts	-6834
static	-6835
target	-6836
ternal	-6837
uckled	-6838
uddles	-6839
unwrap	-6840
update	-6841
urious	-6842
values	-6843
velope	-6844
œThank	-6845
œWhatâ	-6846
▁Enjoy	-6847
▁Ghost	-6848
▁Great	-6849
▁Jacki	-6850
▁Patch	-6851
▁Sissy	-6852
▁World	-6853
▁admin	-6854
▁bathe	-6855
▁beard	-6856
▁belie	-6857
▁bless	-6858
▁blink	-6859
▁boast	-6860
▁brand	-6861
▁buses	-6862
▁bytes	-6863
▁cakes	-6864
▁cares	-6865
▁cause	-6866
▁claps	-6867
▁coral	-6868
▁datac	-6869
▁dizzy	-6870
▁doggy	-6871
▁drift	-6872
▁elbow	-6873
▁entry	-6874
▁fears	-6875
▁films	-6876
▁flags	-6877
▁foods	-6878
▁fries	-6879
▁guest	-6880
▁hider	-6881
▁hills	-6882
▁homes	-6883
▁human	-6884
▁inher	-6885
▁keeps	-6886
▁knelt	-6887
▁known	-6888
▁momma	-6889
▁muddy	-6890
▁obser	-6891
▁owned	-6892
▁paths	-6893
▁piggy	-6894
▁pixie	-6895
▁plans	-6896
▁purse	-6897
▁restr	-6898
▁rings	-6899
▁safer	-6900
▁salty	-6901
▁serde	-6902
▁seven	-6903
▁shall	-6904
▁shock	-6905
▁shops	-6906
▁sighs	-6907
▁spill	-6908
▁stair	-6909
▁state	-6910
▁steam	-6911
▁stole	-6912
▁stung	-6913
▁sweep	-6914
▁swirl	-6915
▁talks	-6916
▁tasks	-6917
▁teams	-6918
▁tempt	-6919
▁tests	-6920
▁trait	-6921
▁truly	-6922
▁tuple	-6923
▁unexp	-6924
▁waits	-6925
▁weren	-6926
▁whatâ	-6927
▁wheat	-6928
▁wildf	-6929
▁wreck	-6930
Loading	-6931
ational	-6932
believe	-6933
bigrams	-6934
checked	-6935
domains	-6936
environ	-6937
erature	-6938
hausted	-6939
ization	-6940
looking	-6941
nifying	-6942
numeric	-6943
onsible	-6944
unknown	-6945
vectors	-6946
œPlease	-6947
▁Behave	-6948
▁Flakes	-6949
▁SCALAR	-6950
▁Turtle	-6951
▁adding	-6952
▁afford	-6953
▁agrees	-6954
▁aliens	-6955
▁arrows	-6956
▁behavi	-6957
▁buying	-6958
▁celery	-6959
▁chains	-6960
▁cleans	-6961
▁clowns	-6962
▁cocoon	-6963
▁combin	-6964
▁dances	-6965
▁deeper	-6966
▁domain	-6967
▁drying	-6968
▁effort	-6969
▁entire	-6970
▁entity	-6971
▁finder	-6972
▁firmly	-6973
▁flight	-6974
▁forced	-6975
▁harbor	-6976
▁hearts	-6977
▁hummed	-6978
▁inches	-6979
▁itches	-6980
▁joking	-6981
▁killed	-6982
▁lambda	-6983
▁lotion	-6984
▁loving	-6985
▁marker	-6986
▁mashed	-6987
▁mesmer	-6988
▁muscle	-6989
▁nearly	-6990
▁neatly	-6991
▁nurses	-6992
▁parach	-6993
▁patted	-6994
▁peeped	-6995
▁pilots	-6996
▁pirate	-6997
▁plenty	-6998
▁popped	-6999
▁purred	-7000
▁remote	-7001
▁reveal	-7002
▁ribbon	-7003
▁rising	-7004
▁scales	-7005
▁shovel	-7006
▁shrink	-7007
▁simple	-7008
▁simply	-7009
▁soaked	-7010
▁spells	-7011
▁stroll	-7012
▁tastes	-7013
▁traded	-7014
▁userId	-7015
▁voices	-7016
▁volley	-7017
▁weight	-7018
▁wobble	-7019
▁yogurt	-7020
▁zigzag	-7021
Festival	-7022
Override	-7023
ailments	-7024
fallback	-7025
filename	-7026
hyponyms	-7027
ironment	-7028
language	-7029
lemented	-7030
ongratul	-7031
readable	-7032
▁Counter	-7033
▁English	-7034
▁Excited	-7035
▁License	-7036
▁Without	-7037
▁artwork	-7038
▁buckets	-7039
▁buzzing	-7040
▁cabinet	-7041
▁catches	-7042
▁cheaper	-7043
▁choices	-7044
▁chopped	-7045
▁consequ	-7046
▁contest	-7047
▁coppers	-7048
▁curtain	-7049
▁disobey	-7050
▁encount	-7051
▁examine	-7052
▁extingu	-7053
▁failure	-7054
▁figured	-7055
▁filling	-7056
▁flapped	-7057
▁flipped	-7058
▁follows	-7059
▁goodies	-7060
▁grammar	-7061
▁greeted	-7062
▁growled	-7063
▁guessed	-7064
▁guesses	-7065
▁handful	-7066
▁handing	-7067
▁hearing	-7068
▁horizon	-7069
▁hugging	-7070
▁hundred	-7071
▁hunting	-7072
▁hurting	-7073
▁insects	-7074
▁knights	-7075
▁leaning	-7076
▁lifting	-7077
▁listens	-7078
▁longest	-7079
▁massage	-7080
▁melting	-7081
▁million	-7082
▁minimum	-7083
▁musical	-7084
▁objects	-7085
▁oranges	-7086
▁payload	-7087
▁pedaled	-7088
▁pennies	-7089
▁planets	-7090
▁planned	-7091
▁pleaded	-7092
▁plucked	-7093
▁pockets	-7094
▁praised	-7095
▁princes	-7096
▁provide	-7097
▁rabbits	-7098
▁raining	-7099
▁reaches	-7100
▁reading	-7101
▁rockets	-7102
▁rolling	-7103
▁rotting	-7104
▁scarves	-7105
▁scooted	-7106
▁seconds	-7107
▁shampoo	-7108
▁someday	-7109
▁stacked	-7110
▁stamped	-7111
▁stretch	-7112
▁stripes	-7113
▁studied	-7114
▁swaying	-7115
▁swooped	-7116
▁talents	-7117
▁teaches	-7118
▁timeout	-7119
▁tiptoed	-7120
▁tremble	-7121
▁tricked	-7122
▁uniform	-7123
▁vanilla	-7124
▁wagging	-7125
▁washing	-7126
▁wasting	-7127
▁weekend	-7128
▁wishing	-7129
▁wobbled	-7130
▁writing	-7131
ClassName	-7132
StreetMap	-7133
continent	-7134
dataclass	-7135
entangled	-7136
geofabrik	-7137
identical	-7138
iserCheck	-7139
llocation	-7140
manifests	-7141
oritative	-7142
provinces	-7143
standards	-7144
subregion	-7145
tokenizer	-7146
venturous	-7147
xtractorI	-7148
▁Although	-7149
▁DATASETS	-7150
▁Iterable	-7151
▁Startled	-7152
▁TreeNode	-7153
▁admiring	-7154
▁argument	-7155
▁balanced	-7156
▁basename	-7157
▁birdseed	-7158
▁blankets	-7159
▁blocking	-7160
▁boundary	-7161
▁breaking	-7162
▁bristles	-7163
▁changing	-7164
▁chuckled	-7165
▁coolness	-7166
▁coverage	-7167
▁crossing	-7168
▁cultural	-7169
▁datetime	-7170
▁decision	-7171
▁decrease	-7172
▁drinking	-7173
▁dripping	-7174
▁dropping	-7175
▁encourag	-7176
▁envelope	-7177
▁everyday	-7178
▁external	-7179
▁fallback	-7180
▁forgiven	-7181
▁frowning	-7182
▁gardener	-7183
▁hedgehog	-7184
▁imported	-7185
▁introduc	-7186
▁minerals	-7187
▁mustache	-7188
▁offering	-7189
▁overhead	-7190
▁playtime	-7191
▁pleasure	-7192
▁printing	-7193
▁punished	-7194
▁rejoiced	-7195
▁released	-7196
▁required	-7197
▁resisted	-7198
▁sequence	-7199
▁shivered	-7200
▁somebody	-7201
▁souvenir	-7202
▁splashes	-7203
▁squealed	-7204
▁stepping	-7205
▁studying	-7206
▁sunlight	-7207
▁supplied	-7208
▁sweetest	-7209
▁sweeties	-7210
▁trusting	-7211
▁twinkled	-7212
▁wrinkled	-7213
categories	-7214
eserialize	-7215
▁Carefully	-7216
▁Everybody	-7217
▁GEOFABRIK	-7218
▁Geofabrik	-7219
▁accidents	-7220
▁advantage	-7221
▁agreement	-7222
▁applauded	-7223
▁attribute	-7224
▁balancing	-7225
▁bathrobes	-7226
▁birdhouse	-7227
▁cherished	-7228
▁collapsed	-7229
▁comforted	-7230
▁congratul	-7231
▁connected	-7232
▁contained	-7233
▁correctly	-7234
▁creations	-7235
▁dataclass	-7236
▁decorated	-7237
▁delivered	-7238
▁demanding	-7239
▁disagreed	-7240
▁disappear	-7241
▁everybody	-7242
▁exhausted	-7243
▁fireplace	-7244
▁fountains	-7245
▁gathering	-7246
▁harmonica	-7247
▁hopscotch	-7248
▁including	-7249
▁increased	-7250
▁languages	-7251
▁mentioned	-7252
▁observing	-7253
▁paintings	-7254
▁policemen	-7255
▁precision	-7256
▁predators	-7257
▁preparing	-7258
▁raindrops	-7259
▁reference	-7260
▁regretted	-7261
▁scratched	-7262
▁snowflake	-7263
▁splitting	-7264
▁suffering	-7265
▁superhero	-7266
▁surfboard	-7267
▁twinkling	-7268
▁villagers	-7269
▁yesterday	-7270
▁ExtractorI	-7271
▁belongings	-7272
▁candidates	-7273
▁categories	-7274
▁characters	-7275
▁completing	-7276
▁dictionary	-7277
▁fluttering	-7278
▁gracefully	-7279
▁lumberjack	-7280
▁magnifying	-7281
▁peacefully	-7282
▁punishment	-7283
▁refreshing	-7284
▁supporting	-7285
▁surrounded	-7286
▁tambourine	-7287
▁transducer	-7288
▁underneath	-7289
▁unexpected	-7290
▁university	-7291
▁volleyball	-7292
▁whitespace	-7293
▁windowsill	-7294
nfortunately	-7295
segmentation	-7296
▁ImportError	-7297
▁blueberries	-7298
▁celebrating	-7299
▁dataclasses	-7300
▁discoveries	-7301
▁discovering	-7302
▁encountered	-7303
▁environment	-7304
▁fascinating	-7305
▁recommended	-7306
▁responsible	-7307
▁sovereignty	-7308
▁temperature	-7309
▁wildflowers	-7310
serRepository	-7311
▁accomplished	-7312
▁consequences	-7313
▁firefighters	-7314
▁measurements	-7315
ramCollocation	-7316
▁authoritative	-7317
▁determination	-7318
▁neighbourhood	-7319
erbNetExtractor	-7320
▁TokeniserCheck	-7321
erbNetDownloader	-7322
,'	-7323
By	-7324
Cl	-7325
DN	-7326
Gu	-7327
In	-7328
TH	-7329
TP	-7330
Tr	-7331
fd	-7332
fg	-7333
fs	-7334
iB	-7335
"]:	-7336
()]	-7337
)()	-7338
)["	-7339
..=	-7340
:",	-7341
>/<	-7342
?!"	-7343
Ass	-7344
Bob	-7345
Bug	-7346
Clo	-7347
Deb	-7348
ERB	-7349
Eat	-7350
Eff	-7351
Exc	-7352
Her	-7353
LES	-7354
Mrs	-7355
ORS	-7356
PAR	-7357
PMI	-7358
RAN	-7359
Rex	-7360
Run	-7361
SSI	-7362
Shh	-7363
Sue	-7364
TOK	-7365
TTP	-7366
[],	-7367
_",	-7368
``)	-7369
``.	-7370
asy	-7371
azz	-7372
cfg	-7373
cho	-7374
cii	-7375
die	-7376
edD	-7377
evo	-7378
fmt	-7379
igu	-7380
isf	-7381
ism	-7382
ker	-7383
lap	-7384
ley	-7385
lsa	-7386
nat	-7387
new	-7388
nna	-7389
obj	-7390
obo	-7391
ode	-7392
off	-7393
osc	-7394
pon	-7395
see	-7396
src	-7397
tok	-7398
upe	-7399
((	-7400
)[	-7401
<>	-7402
.",	-7403
Try	-7404
cra	-7405
eur	-7406
htm	-7407
tld	-7408
urk	-7409
uzz	-7410
www	-7411
œBe	-7412
▁"+	-7413
▁),	-7414
▁--	-7415
▁>=	-7416
▁AS	-7417
▁ID	-7418
▁YO	-7419
▁],	-7420
BLES	-7421
Boys	-7422
CHES	-7423
Dump	-7424
Evie	-7425
Fine	-7426
ILEN	-7427
Jill	-7428
Just	-7429
NAME	-7430
Once	-7431
PATH	-7432
Papa	-7433
Prop	-7434
Prot	-7435
STRI	-7436
Snow	-7437
TIES	-7438
Type	-7439
__).	-7440
adly	-7441
agle	-7442
also	-7443
anky	-7444
anti	-7445
apun	-7446
argv	-7447
arks	-7448
atus	-7449
bank	-7450
beha	-7451
capt	-7452
cers	-7453
cies	-7454
core	-7455
derr	-7456
dump	-7457
elic	-7458
food	-7459
free	-7460
hand	-7461
html	-7462
iffe	-7463
imit	-7464
inst	-7465
ipes	-7466
ites	-7467
itiz	-7468
loop	-7469
loss	-7470
lpha	-7471
moke	-7472
mosp	-7473
ocer	-7474
open	-7475
oric	-7476
park	-7477
pert	-7478
pite	-7479
pted	-7480
rest	-7481
same	-7482
site	-7483
sort	-7484
sync	-7485
tagg	-7486
that	-7487
ther	-7488
tled	-7489
umns	-7490
vert	-7491
void	-7492
walk	-7493
wise	-7494
worm	-7495
zips	-7496
œAre	-7497
œMom	-7498
œNot	-7499
PE	-7500
"):	-7501
")[	-7502
Big	-7503
IAN	-7504
Imp	-7505
Sam	-7506
YPE	-7507
emp	-7508
mag	-7509
utf	-7510
▁CH	-7511
▁MB	-7512
▁Ok	-7513
▁oh	-7514
IANA	-7515
Tree	-7516
aint	-7517
œWow	-7518
▁(``	-7519
▁Acc	-7520
▁Act	-7521
▁Ant	-7522
▁Aut	-7523
▁Che	-7524
▁Chr	-7525
▁Fil	-7526
▁Fri	-7527
▁Gen	-7528
▁Key	-7529
▁MSI	-7530
▁Our	-7531
▁POS	-7532
▁PRO	-7533
▁Pre	-7534
▁Res	-7535
▁Rit	-7536
▁Rub	-7537
▁See	-7538
▁Spl	-7539
▁[],	-7540
▁```	-7541
▁``{	-7542
▁arf	-7543
▁bab	-7544
▁bps	-7545
▁bun	-7546
▁cap	-7547
▁dus	-7548
▁err	-7549
▁fpr	-7550
▁gon	-7551
▁gor	-7552
▁hur	-7553
▁ids	-7554
▁jig	-7555
▁jud	-7556
▁log	-7557
▁nib	-7558
▁non	-7559
▁pad	-7560
▁rep	-7561
ABLES	-7562
Annie	-7563
Assoc	-7564
Close	-7565
Daddy	-7566
Debug	-7567
Frame	-7568
Group	-7569
Index	-7570
Infle	-7571
MISSI	-7572
Never	-7573
Range	-7574
Sarah	-7575
Split	-7576
Stand	-7577
Surpr	-7578
TOKEN	-7579
Trust	-7580
abase	-7581
acles	-7582
actic	-7583
ainly	-7584
ality	-7585
amber	-7586
ammed	-7587
ample	-7588
anion	-7589
apunz	-7590
arant	-7591
aries	-7592
arter	-7593
ascii	-7594
aweed	-7595
bound	-7596
chars	-7597
check	-7598
chief	-7599
"[	-7600
<(	-7601
Ch	-7602
DJ	-7603
MA	-7604
({"	-7605
ASE	-7606
Jan	-7607
avy	-7608
cad	-7609
erk	-7610
how	-7611
ibr	-7612
ops	-7613
uit	-7614
▁")	-7615
▁Sm	-7616
▁dx	-7617
BASE	-7618
Oops	-7619
Time	-7620
ason	-7621
atim	-7622
atre	-7623
else	-7624
eton	-7625
join	-7626
mess	-7627
only	-7628
ooke	-7629
oved	-7630
over	-7631
vers	-7632
zone	-7633
▁BOS	-7634
▁Pol	-7635
▁ray	-7636
▁wed	-7637
Piece	-7638
Yummy	-7639
choed	-7640
cksum	-7641
digit	-7642
duced	-7643
dumps	-7644
ector	-7645
eless	-7646
elist	-7647
ening	-7648
ensit	-7649
esome	-7650
files	-7651
forms	-7652
gised	-7653
group	-7654
hyper	-7655
iding	-7656
ieces	-7657
iment	-7658
inema	-7659
inier	-7660
inite	-7661
ional	-7662
isure	-7663
izzes	-7664
jsonl	-7665
keley	-7666
label	-7667
loops	-7668
lowly	-7669
mbers	-7670
merge	-7671
miest	-7672
mmers	-7673
obody	-7674
offic	-7675
orman	-7676
ortun	-7677
osite	-7678
otton	-7679
owner	-7680
pples	-7681
quare	-7682
raise	-7683
resol	-7684
ribut	-7685
rical	-7686
rough	-7687
scale	-7688
shape	-7689
short	-7690
sound	-7691
stack	-7692
stdio	-7693
stems	-7694
thank	-7695
ubbed	-7696
umble	-7697
urely	-7698
urity	-7699
';	-7700
('	-7701
(_	-7702
)>	-7703
CO	-7704
Fr	-7705
GB	-7706
HE	-7707
`.	-7708
na	-7709
}>	-7710
œF	-7711
(__	-7712
cio	-7713
cut	-7714
dis	-7715
hin	-7716
ims	-7717
sor	-7718
unc	-7719
Some	-7720
butt	-7721
edef	-7722
main	-7723
ncio	-7724
post	-7725
resp	-7726
seer	-7727
then	-7728
▁dst	-7729
▁fed	-7730
Guess	-7731
Label	-7732
deriv	-7733
isher	-7734
loads	-7735
point	-7736
urale	-7737
utely	-7738
utils	-7739
utted	-7740
verer	-7741
water	-7742
woman	-7743
ypedD	-7744
œCome	-7745
œEvie	-7746
œOkay	-7747
œYouâ	-7748
▁"").	-7749
▁"-",	-7750
▁".",	-7751
▁"{}:	-7752
▁Auto	-7753
▁BRAN	-7754
▁Bank	-7755
▁Burk	-7756
▁Desp	-7757
▁Elsa	-7758
▁Good	-7759
▁Hist	-7760
▁King	-7761
▁Lego	-7762
▁Like	-7763
▁Many	-7764
▁Math	-7765
▁ODbL	-7766
▁Part	-7767
▁Pick	-7768
▁Poor	-7769
▁Prom	-7770
▁Rita	-7771
▁Robo	-7772
▁Ruby	-7773
▁SPAR	-7774
▁Self	-7775
▁Sent	-7776
▁Slap	-7777
▁Stay	-7778
▁Turn	-7779
▁WORD	-7780
▁abil	-7781
▁abst	-7782
▁afar	-7783
▁amen	-7784
▁beha	-7785
▁bend	-7786
▁bump	-7787
▁calf	-7788
▁ceil	-7789
▁cert	-7790
▁chat	-7791
▁chop	-7792
▁clam	-7793
▁clay	-7794
▁comm	-7795
▁cond	-7796
▁darl	-7797
▁deed	-7798
▁deps	-7799
Ar	-7800
?",	-7801
CON	-7802
pay	-7803
▁'-	-7804
▁Te	-7805
▁ga	-7806
aned	-7807
eech	-7808
inic	-7809
vate	-7810
▁RAW	-7811
▁neg	-7812
<>();	-7813
Enjoy	-7814
Every	-7815
FILEN	-7816
erved	-7817
▁Stop	-7818
▁beeh	-7819
▁brat	-7820
▁buys	-7821
▁disk	-7822
▁dive	-7823
▁dusk	-7824
▁ease	-7825
▁ends	-7826
▁fant	-7827
▁fara	-7828
▁fins	-7829
▁flap	-7830
▁foam	-7831
▁fram	-7832
▁herb	-7833
▁hike	-7834
▁hips	-7835
▁hose	-7836
▁impl	-7837
▁inch	-7838
▁inju	-7839
▁jazz	-7840
▁lent	-7841
▁letâ	-7842
▁lied	-7843
▁litt	-7844
▁luck	-7845
▁maze	-7846
▁naps	-7847
▁nets	-7848
▁ouch	-7849
▁pend	-7850
▁pens	-7851
▁pert	-7852
▁plat	-7853
▁rack	-7854
▁ramp	-7855
▁rang	-7856
▁recy	-7857
▁repo	-7858
▁reun	-7859
▁rhin	-7860
▁rrrr	-7861
▁ruin	-7862
▁saws	-7863
▁scut	-7864
▁shoo	-7865
▁sill	-7866
▁slay	-7867
▁slee	-7868
▁soul	-7869
▁sped	-7870
▁synt	-7871
▁tags	-7872
▁tilt	-7873
▁unlo	-7874
▁useC	-7875
▁vows	-7876
▁weep	-7877
▁wept	-7878
▁wife	-7879
▁wink	-7880
▁youâ	-7881
Behave	-7882
ECTORS	-7883
Effect	-7884
Excuse	-7885
Really	-7886
SCALAR	-7887
STRICT	-7888
Should	-7889
TOKENS	-7890
accept	-7891
action	-7892
active	-7893
ampion	-7894
asures	-7895
bigram	-7896
button	-7897
causes	-7898
centre	-7899
cerned	-7900
chugga	-7901
circle	-7902
dedupe	-7903
ecting	-7904
eezing	-7905
embers	-7906
etchup	-7907
eterin	-7908
ethosc	-7909
europe	-7910
evokes	-7911
failed	-7912
frames	-7913
hopper	-7914
idents	-7915
igator	-7916
iguous	-7917
imeter	-7918
inning	-7919
istmas	-7920
itched	-7921
itches	-7922
laying	-7923
lessly	-7924
magine	-7925
museum	-7926
oceros	-7927
ometry	-7928
oulder	-7929
ources	-7930
output	-7931
public	-7932
quency	-7933
reduce	-7934
rename	-7935
ressed	-7936
resume	-7937
ricane	-7938
signed	-7939
spaces	-7940
ssomed	-7941
stderr	-7942
stdlib	-7943
subdir	-7944
synset	-7945
untime	-7946
vinced	-7947
œThere	-7948
œWhere	-7949
▁Along	-7950
▁Array	-7951
▁Being	-7952
▁Diffe	-7953
▁Doggy	-7954
▁Emits	-7955
▁Jackâ	-7956
▁Lower	-7957
▁Lunch	-7958
▁Never	-7959
▁Peggy	-7960
▁Props	-7961
▁Range	-7962
▁Roary	-7963
▁Sadly	-7964
▁Smoke	-7965
▁Sorry	-7966
▁Still	-7967
▁These	-7968
▁Those	-7969
▁Tight	-7970
▁Tries	-7971
▁Whatâ	-7972
▁[])()	-7973
▁[])):	-7974
▁absol	-7975
▁acted	-7976
▁alpha	-7977
▁among	-7978
▁armor	-7979
▁awful	-7980
▁bells	-7981
▁belly	-7982
▁blade	-7983
▁blend	-7984
▁blond	-7985
▁bones	-7986
▁brick	-7987
▁broom	-7988
▁buddy	-7989
▁budge	-7990
▁burst	-7991
▁cache	-7992
▁cases	-7993
▁chips	-7994
▁citiz	-7995
▁clerk	-7996
▁clues	-7997
▁conqu	-7998
▁court	-7999
▁crabs	-8000
▁dared	-8001
▁defer	-8002
▁digit	-8003
▁dives	-8004
▁dusty	-8005
▁faint	-8006
▁farms	-8007
▁fatal	-8008
▁fault	-8009
▁filet	-8010
▁focus	-8011
▁gasps	-8012
▁gonna	-8013
▁gooey	-8014
▁imple	-8015
▁keyof	-8016
▁kicks	-8017
▁knees	-8018
▁laces	-8019
▁lifts	-8020
▁limit	-8021
▁lines	-8022
▁loads	-8023
▁loser	-8024
▁meals	-8025
▁medal	-8026
▁model	-8027
▁munch	-8028
▁nests	-8029
▁novel	-8030
▁opera	-8031
▁pears	-8032
▁penny	-8033
▁pleas	-8034
▁posed	-8035
▁prime	-8036
▁punct	-8037
▁racer	-8038
▁reads	-8039
▁roast	-8040
▁rusty	-8041
▁scamp	-8042
▁sense	-8043
▁serve	-8044
▁shaky	-8045
▁ships	-8046
▁sings	-8047
▁sites	-8048
▁skill	-8049
▁smelt	-8050
▁snail	-8051
▁snuck	-8052
▁spade	-8053
▁spins	-8054
▁sport	-8055
▁spots	-8056
▁stain	-8057
▁stash	-8058
▁steer	-8059
▁stomp	-8060
▁suits	-8061
▁swoop	-8062
▁third	-8063
▁tippy	-8064
▁trail	-8065
▁traps	-8066
▁trave	-8067
▁tweet	-8068
▁wanna	-8069
▁weigh	-8070
▁whose	-8071
▁width	-8072
▁windy	-8073
▁wiser	-8074
▁wraps	-8075
▁zooms	-8076
AssocMe	-8077
Frankie	-8078
HashMap	-8079
PERTIES	-8080
Snowman	-8081
antiate	-8082
apunzel	-8083
cadabra	-8084
calling	-8085
capital	-8086
captain	-8087
cedures	-8088
country	-8089
covered	-8090
ctional	-8091
default	-8092
display	-8093
divisor	-8094
element	-8095
inceton	-8096
initely	-8097
install	-8098
invalid	-8099
isation	-8100
isdigit	-8101
lexicon	-8102
loading	-8103
message	-8104
parable	-8105
payload	-8106
pending	-8107
println	-8108
reaming	-8109
related	-8110
resolve	-8111
ression	-8112
riction	-8113
section	-8114
similar	-8115
speople	-8116
taggers	-8117
triples	-8118
written	-8119
œFather	-8120
▁Arella	-8121
▁Brooke	-8122
▁Janieâ	-8123
▁Listen	-8124
▁Mollyâ	-8125
▁Nobody	-8126
▁NotImp	-8127
▁Police	-8128
▁Slowly	-8129
▁Splash	-8130
▁Status	-8131
▁System	-8132
▁TABLES	-8133
▁Taking	-8134
▁acting	-8135
▁action	-8136
▁adults	-8137
▁arrive	-8138
▁atmosp	-8139
▁babies	-8140
▁backed	-8141
▁banged	-8142
▁beagle	-8143
▁bigram	-8144
▁boiled	-8145
▁bricks	-8146
▁burger	-8147
▁cactus	-8148
▁calmed	-8149
▁carton	-8150
▁causes	-8151
▁centre	-8152
▁cheers	-8153
▁chimes	-8154
▁chugga	-8155
▁climbs	-8156
▁closes	-8157
▁cloudy	-8158
▁cobweb	-8159
▁compon	-8160
▁constr	-8161
▁cotton	-8162
▁covers	-8163
▁cranky	-8164
▁crawls	-8165
▁creeks	-8166
▁cuddle	-8167
▁curled	-8168
▁curved	-8169
▁digger	-8170
▁digits	-8171
▁dollar	-8172
▁dumped	-8173
▁earned	-8174
▁echoed	-8175
▁expert	-8176
▁export	-8177
▁failed	-8178
▁fences	-8179
▁format	-8180
▁glowed	-8181
▁grandd	-8182
▁growth	-8183
▁guided	-8184
▁halter	-8185
▁healed	-8186
▁heated	-8187
▁height	-8188
▁hissed	-8189
▁indent	-8190
▁insist	-8191
▁invent	-8192
▁jigsaw	-8193
▁judges	-8194
▁kneels	-8195
▁lately	-8196
▁lawyer	-8197
▁lazily	-8198
▁learns	-8199
▁linked	-8200
▁loader	-8201
▁mailed	-8202
▁member	-8203
▁napkin	-8204
▁nation	-8205
▁nibble	-8206
▁nudged	-8207
▁olives	-8208
▁online	-8209
▁outing	-8210
▁paddle	-8211
▁parsed	-8212
▁passes	-8213
▁paying	-8214
▁pecked	-8215
▁peeled	-8216
▁photos	-8217
▁prefix	-8218
▁provid	-8219
▁puffed	-8220
▁puppet	-8221
▁puppyâ	-8222
▁quacks	-8223
▁quiver	-8224
▁ranked	-8225
▁reason	-8226
▁redire	-8227
▁region	-8228
▁relief	-8229
▁remove	-8230
▁robber	-8231
▁satisf	-8232
▁scored	-8233
▁seesaw	-8234
▁shorts	-8235
▁shutil	-8236
▁signal	-8237
▁silent	-8238
▁sirens	-8239
▁soared	-8240
▁softer	-8241
▁solved	-8242
▁sorted	-8243
▁speech	-8244
▁squish	-8245
▁static	-8246
▁stingy	-8247
▁storms	-8248
▁stormy	-8249
▁summar	-8250
▁surfed	-8251
▁swirls	-8252
▁switch	-8253
▁syntax	-8254
▁theirs	-8255
▁thrown	-8256
▁thumbs	-8257
▁tickle	-8258
▁tigers	-8259
▁tiring	-8260
▁toward	-8261
▁trusty	-8262
▁twists	-8263
▁upside	-8264
▁valued	-8265
▁values	-8266
▁wasted	-8267
▁winter	-8268
▁wiping	-8269
▁wolves	-8270
▁wounds	-8271
▁writer	-8272
▁writes	-8273
FILENAME	-8274
Language	-8275
PERMISSI	-8276
Property	-8277
Surprise	-8278
TreeNode	-8279
antonyms	-8280
archived	-8281
capacity	-8282
elicious	-8283
ellyfish	-8284
ensitive	-8285
hocolate	-8286
national	-8287
naturale	-8288
official	-8289
ordinary	-8290
ortunity	-8291
response	-8292
ributors	-8293
roponyms	-8294
roughout	-8295
sequence	-8296
specific	-8297
ypedDict	-8298
▁Britain	-8299
▁Despite	-8300
▁Freddie	-8301
▁Generic	-8302
▁History	-8303
▁Integer	-8304
▁Nothing	-8305
▁Partial	-8306
▁Promise	-8307
▁Smiling	-8308
▁Stories	-8309
▁airport	-8310
▁anytime	-8311
▁asyncio	-8312
▁awesome	-8313
▁barking	-8314
▁beating	-8315
▁boulder	-8316
▁bravest	-8317
▁brushes	-8318
▁buckled	-8319
▁builded	-8320
▁bundled	-8321
▁bundles	-8322
▁bunnies	-8323
▁burying	-8324
▁candies	-8325
▁capture	-8326
▁causing	-8327
▁chamber	-8328
▁channel	-8329
▁cheated	-8330
▁classes	-8331
▁classid	-8332
▁clicked	-8333
▁cobwebs	-8334
▁convert	-8335
▁cracked	-8336
▁cuddled	-8337
▁current	-8338
▁dancers	-8339
▁decimal	-8340
▁deepest	-8341
▁defined	-8342
▁definit	-8343
▁demands	-8344
▁derived	-8345
▁despite	-8346
▁doorway	-8347
▁dragged	-8348
▁drawers	-8349
▁dresser	-8350
▁drifted	-8351
▁emitted	-8352
▁exactly	-8353
▁familyâ	-8354
▁faraway	-8355
▁farther	-8356
▁flavors	-8357
▁folding	-8358
▁forests	-8359
▁fprintf	-8360
▁furious	-8361
▁gaining	-8362
▁gesture	-8363
▁giggles	-8364
▁glasses	-8365
▁gorilla	-8366
▁granted	-8367
▁greater	-8368
▁groaned	-8369
▁guarant	-8370
▁halfway	-8371
▁hammers	-8372
▁handled	-8373
▁handler	-8374
▁heavier	-8375
▁insists	-8376
▁install	-8377
▁ketchup	-8378
▁kicking	-8379
▁leaking	-8380
▁learner	-8381
▁lightly	-8382
▁limping	-8383
▁luckily	-8384
▁married	-8385
▁members	-8386
▁misbeha	-8387
▁mission	-8388
▁moments	-8389
▁needles	-8390
▁nodding	-8391
▁opening	-8392
▁paddled	-8393
▁partial	-8394
▁parties	-8395
▁passing	-8396
▁peanuts	-8397
▁peeking	-8398
▁pendant	-8399
▁pinched	-8400
▁pirates	-8401
▁planted	-8402
▁plugged	-8403
▁println	-8404
▁private	-8405
▁puddles	-8406
▁pyjamas	-8407
▁quizzes	-8408
▁readers	-8409
▁realize	-8410
▁release	-8411
▁removed	-8412
▁rewards	-8413
▁rocking	-8414
▁rubbing	-8415
▁rustled	-8416
▁seaweed	-8417
▁seesaws	-8418
▁settled	-8419
▁shinier	-8420
▁sibling	-8421
▁silence	-8422
▁similar	-8423
▁sincere	-8424
▁slammed	-8425
▁smarter	-8426
▁sniffed	-8427
▁snuggle	-8428
▁soaking	-8429
▁soaring	-8430
▁squeaky	-8431
▁sweeter	-8432
▁symbols	-8433
▁systems	-8434
▁tangled	-8435
▁teasing	-8436
▁tickets	-8437
▁tornado	-8438
▁trained	-8439
▁trudged	-8440
▁typedef	-8441
▁veterin	-8442
▁wanting	-8443
▁watches	-8444
▁weaving	-8445
▁wedding	-8446
▁weeping	-8447
▁whisper	-8448
▁willing	-8449
▁younger	-8450
▁zipfile	-8451
FrameName	-8452
WaitGroup	-8453
adjective	-8454
canonical	-8455
divisions	-8456
encePiece	-8457
ethoscope	-8458
hypernyms	-8459
languages	-8460
relations	-8461
shapefile	-8462
transform	-8463
▁BRANCHES	-8464
▁Rapunzel	-8465
▁abstract	-8466
▁activity	-8467
▁although	-8468
▁antonyms	-8469
▁behavior	-8470
▁bleeding	-8471
▁bothered	-8472
▁breathed	-8473
▁brushing	-8474
▁cartoons	-8475
▁catching	-8476
▁champion	-8477
▁checksum	-8478
▁citizens	-8479
▁cleverer	-8480
▁coloured	-8481
▁contains	-8482
▁covering	-8483
▁crackers	-8484
▁creating	-8485
▁cupboard	-8486
▁darkness	-8487
▁darlings	-8488
▁database	-8489
▁diamonds	-8490
▁discount	-8491
▁distinct	-8492
▁distract	-8493
▁document	-8494
▁drawings	-8495
▁driveway	-8496
▁elements	-8497
▁equality	-8498
▁filename	-8499
▁finishes	-8500
▁flapping	-8501
▁framenet	-8502
▁geometry	-8503
▁giggling	-8504
▁glittery	-8505
▁growling	-8506
▁guardian	-8507
▁handsome	-8508
▁happiest	-8509
▁hopeless	-8510
▁hundreds	-8511
▁hyponyms	-8512
▁ignoring	-8513
▁inchworm	-8514
▁inherits	-8515
▁marching	-8516
▁marveled	-8517
▁mathstat	-8518
▁mermaids	-8519
▁movement	-8520
▁negative	-8521
▁occasion	-8522
▁opinions	-8523
▁opposite	-8524
▁organize	-8525
▁overseer	-8526
▁panicked	-8527
▁pedaling	-8528
▁planting	-8529
▁platform	-8530
▁polarity	-8531
▁positive	-8532
▁pressing	-8533
▁prettier	-8534
▁problems	-8535
▁profiles	-8536
▁projects	-8537
▁promises	-8538
▁readonly	-8539
▁realizes	-8540
▁recorded	-8541
▁requires	-8542
▁reunited	-8543
▁rustling	-8544
▁scrubbed	-8545
▁scuttled	-8546
▁securely	-8547
▁security	-8548
▁setError	-8549
▁shoppers	-8550
▁sickness	-8551
▁sidewalk	-8552
▁smoother	-8553
▁soldiers	-8554
▁spraying	-8555
▁stitches	-8556
▁stopping	-8557
▁straight	-8558
▁strutted	-8559
▁students	-8560
▁suitcase	-8561
▁teachers	-8562
▁tempting	-8563
▁thematic	-8564
▁touching	-8565
▁traveled	-8566
▁twisting	-8567
▁unlocked	-8568
▁verbatim	-8569
▁wandered	-8570
▁warnings	-8571
▁whispers	-8572
▁whistled	-8573
▁wrapping	-8574
▁yummiest	-8575
Atomically	-8576
Sweetheart	-8577
losslessly	-8578
pertainyms	-8579
ramAssocMe	-8580
whitespace	-8581
▁Accidents	-8582
▁Christmas	-8583
▁Different	-8584
▁Lowercase	-8585
▁Serialize	-8586
▁abilities	-8587
▁adjective	-8588
▁alligator	-8589
▁amenities	-8590
▁artifacts	-8591
▁beginning	-8592
▁believing	-8593
▁blossomed	-8594
▁cardboard	-8595
▁certainly	-8596
▁collected	-8597
▁commotion	-8598
▁companion	-8599
▁computers	-8600
▁concerned	-8601
▁conductor	-8602
▁convinced	-8603
▁downloads	-8604
▁energised	-8605
▁expecting	-8606
▁fantastic	-8607
▁forgiving	-8608
▁frequency	-8609
▁healthier	-8610
▁hurricane	-8611
▁identical	-8612
▁imagining	-8613
▁importlib	-8614
▁invention	-8615
▁librarian	-8616
▁lollipops	-8617
▁luxurious	-8618
▁mailwoman	-8619
▁materials	-8620
▁notebooks	-8621
▁occasions	-8622
▁perfectly	-8623
▁performan	-8624
▁performer	-8625
▁perimeter	-8626
▁poisonous	-8627
▁realizing	-8628
▁remembers	-8629
▁repairing	-8630
▁respected	-8631
▁shivering	-8632
▁shoulders	-8633
▁sparkling	-8634
▁standards	-8635
▁streamers	-8636
▁streaming	-8637
▁struggled	-8638
▁suitcases	-8639
▁syntactic	-8640
▁tentacles	-8641
▁useEffect	-8642
▁volcanoes	-8643
Deserialize	-8644
collections	-8645
entailments	-8646
untimeError	-8647
▁PROPERTIES	-8648
▁Thankfully	-8649
▁absolutely	-8650
▁admiration	-8651
▁afterwards	-8652
▁atmosphere	-8653
▁boundaries	-8654
▁collapsing	-8655
▁confidence	-8656
▁conquering	-8657
▁contiguous	-8658
▁convention	-8659
▁decorating	-8660
▁definitely	-8661
▁delightful	-8662
▁destroying	-8663
▁downloaded	-8664
▁downstream	-8665
▁expression	-8666
▁glimmering	-8667
▁grandchild	-8668
▁harvesting	-8669
▁inspecting	-8670
▁introduced	-8671
▁mesmerized	-8672
▁parachutes	-8673
▁pertainyms	-8674
▁practicing	-8675
▁preventing	-8676
▁procedures	-8677
▁protecting	-8678
▁quarreling	-8679
▁questioned	-8680
▁recognised	-8681
▁resolution	-8682
▁rhinoceros	-8683
▁scattering	-8684
▁scratching	-8685
▁setLoading	-8686
▁shimmering	-8687
▁strawberry	-8688
▁structural	-8689
▁structures	-8690
▁sunflowers	-8691
▁yourselves	-8692
PropertyDump	-8693
naturalearth	-8694
tokenization	-8695
▁Adventurous	-8696
▁achievement	-8697
▁basketballs	-8698
▁beautifully	-8699
▁calendrical	-8700
▁celebration	-8701
▁clothesline	-8702
▁competition	-8703
▁constructor	-8704
▁derivations	-8705
▁destination	-8706
▁dragonflies	-8707
▁encouraging	-8708
▁forgiveness	-8709
▁frustration	-8710
▁grasshopper	-8711
▁inspiration	-8712
▁instantiate	-8713
▁opportunity	-8714
▁punctuation	-8715
▁requirement	-8716
▁restriction	-8717
▁stethoscope	-8718
▁storekeeper	-8719
▁subsequence	-8720
▁townspeople	-8721
▁understands	-8722
▁useCallback	-8723
canonicalizer	-8724
lementedError	-8725
▁appreciation	-8726
▁combinations	-8727
▁contributors	-8728
▁extinguisher	-8729
▁independence	-8730
▁particularly	-8731
▁subdivisions	-8732
▁surroundings	-8733
▁transformers	-8734
▁verification	-8735
▁veterinarian	-8736
▁AutoTokenizer	-8737
▁OpenStreetMap	-8738
▁SentencePiece	-8739
▁congratulated	-8740
▁deterministic	-8741
▁encouragement	-8742
▁extraordinary	-8743
▁granddaughter	-8744
▁classification	-8745
ramAssocMeasures	-8746
▁OsmGbDownloader	-8747
-"	-8748
/'	-8749
[(	-8750
œH	-8751
"},	-8752
(||	-8753
.</	-8754
/')	-8755
:?}	-8756
:],	-8757
=".	-8758
ADJ	-8759
ANT	-8760
Ahh	-8761
Att	-8762
CDN	-8763
CHI	-8764
For	-8765
HEL	-8766
Inc	-8767
MAN	-8768
MAR	-8769
MIN	-8770
MIT	-8771
OSM	-8772
ROM	-8773
Sun	-8774
TIN	-8775
]?:	-8776
cdn	-8777
cmp	-8778
mmâ	-8779
oid	-8780
rid	-8781
}';	-8782
}-"	-8783
}>"	-8784
}`,	-8785
œOk	-8786
œSo	-8787
▁"_	-8788
▁`.	-8789
']}"	-8790
("..	-8791
)().	-8792
.")[	-8793
..=(	-8794
/``.	-8795
:?}"	-8796
:?}:	-8797
>().	-8798
Ahhh	-8799
"],	-8800
Boo	-8801
`."	-8802
sid	-8803
œOf	-8804
▁<{	-8805
▁];	-8806
Andy	-8807
Bird	-8808
ById	-8809
CIMA	-8810
CISI	-8811
COME	-8812
Carl	-8813
Clim	-8814
DMIN	-8815
ECON	-8816
ENDI	-8817
Enum	-8818
FEST	-8819
HELP	-8820
Hold	-8821
IERS	-8822
Lisa	-8823
MARY	-8824
Milo	-8825
ODbL	-8826
Remy	-8827
Rrrr	-8828
Serv	-8829
TYPE	-8830
Toby	-8831
When	-8832
__}:	-8833
``).	-8834
airy	-8835
alks	-8836
argc	-8837
ashe	-8838
bugs	-8839
golf	-8840
haps	-8841
ibit	-8842
icsi	-8843
ikip	-8844
ilst	-8845
ires	-8846
isof	-8847
jazz	-8848
kips	-8849
lean	-8850
libr	-8851
life	-8852
mily	-8853
nels	-8854
pole	-8855
rily	-8856
rors	-8857
task	-8858
true	-8859
ttle	-8860
webs	-8861
wiki	-8862
yond	-8863
œHow	-8864
œJan	-8865
œOne	-8866
œWeâ	-8867
œhow	-8868
œyou	-8869
▁"-"	-8870
▁"_"	-8871
▁===	-8872
▁AST	-8873
▁Alt	-8874
▁Bon	-8875
▁EOS	-8876
▁Geo	-8877
▁Get	-8878
▁IDs	-8879
▁KiB	-8880
▁MiB	-8881
▁PMI	-8882
▁[];	-8883
▁caf	-8884
▁fuz	-8885
▁pit	-8886
▁pyp	-8887
▁san	-8888
("/",	-8889
("_",	-8890
('/')	-8891
):");	-8892
...".	-8893
BTree	-8894
CIMAL	-8895
Chalk	-8896
Cindy	-8897
Click	-8898
Climb	-8899
[-	-8900
rg	-8901
CAR	-8902
]]:	-8903
œIs	-8904
")[:	-8905
CARG	-8906
Cont	-8907
cafe	-8908
omer	-8909
peak	-8910
rglo	-8911
serP	-8912
urls	-8913
vals	-8914
▁Min	-8915
▁Pop	-8916
")[:-	-8917
CARGO	-8918
Dolph	-8919
ECONO	-8920
Email	-8921
Emily	-8922
Exact	-8923
Happy	-8924
IFEST	-8925
Janet	-8926
Named	-8927
TMmon	-8928
Walks	-8929
absor	-8930
alike	-8931
andid	-8932
archy	-8933
arium	-8934
ascob	-8935
beach	-8936
built	-8937
cases	-8938
codes	-8939
craft	-8940
eched	-8941
false	-8942
flect	-8943
ician	-8944
ifact	-8945
iscdn	-8946
itals	-8947
langs	-8948
latit	-8949
lette	-8950
motel	-8951
oison	-8952
onded	-8953
onomy	-8954
orary	-8955
orepo	-8956
orter	-8957
overf	-8958
ports	-8959
query	-8960
quest	-8961
react	-8962
reser	-8963
rglob	-8964
romic	-8965
rozen	-8966
ruins	-8967
rysal	-8968
smell	-8969
stemp	-8970
steps	-8971
tasks	-8972
thatâ	-8973
tiest	-8974
tower	-8975
truth	-8976
undef	-8977
uracy	-8978
uzzle	-8979
verbs	-8980
vocab	-8981
which	-8982
works	-8983
yfile	-8984
œAhhh	-8985
œHmmâ	-8986
œPapa	-8987
œWill	-8988
œwhat	-8989
▁"'",	-8990
▁"+")	-8991
▁"+",	-8992
▁"/",	-8993
▁":",	-8994
▁"_",	-8995
▁ASCI	-8996
▁Amen	-8997
▁Arch	-8998
▁Back	-8999
::<	-9000
PRE	-9001
fib	-9002
Blue	-9003
META	-9004
Soup	-9005
belt	-9006
comb	-9007
edia	-9008
nier	-9009
reak	-9010
rigg	-9011
udge	-9012
uild	-9013
▁');	-9014
▁BEN	-9015
▁fry	-9016
Build	-9017
guest	-9018
redib	-9019
▁Bird	-9020
▁Boom	-9021
▁Drop	-9022
▁Enum	-9023
▁GEOH	-9024
▁Geoh	-9025
▁HTTP	-9026
▁Happ	-9027
▁Hoor	-9028
▁Hugg	-9029
▁Json	-9030
▁Keep	-9031
▁Keys	-9032
▁Lava	-9033
▁Load	-9034
▁Naps	-9035
▁Prot	-9036
▁Read	-9037
▁Real	-9038
▁Resp	-9039
▁Roar	-9040
▁TYPE	-9041
▁Teac	-9042
▁WANT	-9043
▁[]):	-9044
▁aims	-9045
▁argc	-9046
▁args	-9047
▁aunt	-9048
▁born	-9049
▁bubb	-9050
▁burg	-9051
▁digs	-9052
▁dots	-9053
▁dumb	-9054
▁econ	-9055
▁exit	-9056
▁icky	-9057
▁isnâ	-9058
▁joys	-9059
▁maps	-9060
▁mica	-9061
▁mitt	-9062
▁nutr	-9063
▁pals	-9064
▁pogo	-9065
▁purr	-9066
▁rags	-9067
▁rays	-9068
▁rugs	-9069
▁runt	-9070
▁sank	-9071
▁scri	-9072
▁serv	-9073
▁shoe	-9074
▁silk	-9075
▁sobs	-9076
▁tier	-9077
▁vibr	-9078
▁{"",	-9079
(".")[	-9080
:?}")]	-9081
Attach	-9082
CIMALS	-9083
CISION	-9084
CONTIN	-9085
Cleary	-9086
INCOME	-9087
Maggie	-9088
Making	-9089
Poison	-9090
Python	-9091
acting	-9092
anceof	-9093
anilla	-9094
antics	-9095
applic	-9096
ashell	-9097
asterp	-9098
atedAt	-9099
œA	-9100
Ent	-9101
Lex	-9102
TAG	-9103
[])	-9104
dit	-9105
ths	-9106
Cold	-9107
Full	-9108
TAGS	-9109
Text	-9110
done	-9111
œBut	-9112
▁"__	-9113
▁guy	-9114
Entry	-9115
Right	-9116
areTo	-9117
etect	-9118
olden	-9119
ordin	-9120
plest	-9121
▁Edit	-9122
▁Lots	-9123
▁chos	-9124
▁earn	-9125
▁guys	-9126
▁guzz	-9127
▁jugg	-9128
▁lies	-9129
▁poun	-9130
▁tens	-9131
▁wets	-9132
Butter	-9133
RIMARY	-9134
ategor	-9135
atives	-9136
candid	-9137
chased	-9138
cheers	-9139
cinema	-9140
column	-9141
commit	-9142
consts	-9143
counts	-9144
double	-9145
efined	-9146
enched	-9147
encies	-9148
ension	-9149
erhaps	-9150
erives	-9151
ernyms	-9152
errors	-9153
eteria	-9154
format	-9155
handle	-9156
hostel	-9157
hyphen	-9158
indOne	-9159
irring	-9160
isions	-9161
jascob	-9162
lemmin	-9163
mInfle	-9164
master	-9165
naming	-9166
nature	-9167
nounce	-9168
nteger	-9169
office	-9170
ophies	-9171
oraryD	-9172
osaurs	-9173
ourism	-9174
owning	-9175
packed	-9176
perate	-9177
plural	-9178
quares	-9179
recogn	-9180
rences	-9181
ridden	-9182
rimary	-9183
ripleW	-9184
rstrip	-9185
school	-9186
screen	-9187
serPro	-9188
serves	-9189
solves	-9190
sorted	-9191
ssible	-9192
sumers	-9193
tional	-9194
totals	-9195
transf	-9196
uality	-9197
ubbing	-9198
uddent	-9199
">	-9200
FE	-9201
Yup	-9202
▁#!	-9203
▁IT	-9204
!");	-9205
Dear	-9206
Fire	-9207
Lift	-9208
bran	-9209
lloW	-9210
near	-9211
oldâ	-9212
ostr	-9213
rows	-9214
œHey	-9215
▁#!/	-9216
▁Isn	-9217
▁``"	-9218
▁fus	-9219
▁lug	-9220
Beaut	-9221
Water	-9222
cross	-9223
empty	-9224
fived	-9225
ormat	-9226
retra	-9227
vroom	-9228
œLift	-9229
▁""),	-9230
▁Bees	-9231
▁Lear	-9232
▁fuss	-9233
▁mash	-9234
▁whit	-9235
apostr	-9236
atures	-9237
branch	-9238
ertool	-9239
everse	-9240
income	-9241
lloWor	-9242
pretra	-9243
rupted	-9244
uffled	-9245
utions	-9246
uzzles	-9247
wpoint	-9248
xtract	-9249
zipped	-9250
œJanie	-9251
œMommy	-9252
œMummy	-9253
œhello	-9254
▁(``--	-9255
▁ADMIN	-9256
▁ASCII	-9257
▁Bears	-9258
▁Brick	-9259
▁COORD	-9260
▁Candy	-9261
▁Chess	-9262
▁Chief	-9263
▁Frogs	-9264
▁GEOHA	-9265
▁Green	-9266
▁Hairy	-9267
▁Leave	-9268
▁Lions	-9269
▁Loads	-9270
▁Looks	-9271
▁Match	-9272
▁Mattâ	-9273
▁Other	-9274
▁Paths	-9275
▁Skips	-9276
▁Stack	-9277
▁Sugar	-9278
▁Sweet	-9279
▁TIERS	-9280
▁Tears	-9281
▁Thatâ	-9282
▁Trees	-9283
▁Turns	-9284
▁absor	-9285
▁anten	-9286
▁arran	-9287
▁aware	-9288
▁baref	-9289
▁based	-9290
▁beaks	-9291
▁beats	-9292
▁bills	-9293
▁blaze	-9294
▁blues	-9295
▁boggy	-9296
▁chefs	-9297
▁coded	-9298
▁crabâ	-9299
Isn	-9300
Leo	-9301
Ten	-9302
▁HA	-9303
Near	-9304
fair	-9305
inng	-9306
ngue	-9307
orns	-9308
▁HAT	-9309
▁rib	-9310
▁sem	-9311
...</	-9312
anity	-9313
apply	-9314
enity	-9315
ifier	-9316
manor	-9317
ourse	-9318
refix	-9319
▁Date	-9320
▁HATE	-9321
▁``--	-9322
▁damp	-9323
▁fade	-9324
▁mapp	-9325
▁owns	-9326
▁prox	-9327
▁wonâ	-9328
angles	-9329
course	-9330
prefix	-9331
ulance	-9332
▁Sleep	-9333
▁creak	-9334
▁creep	-9335
▁curly	-9336
▁daily	-9337
▁delim	-9338
▁desce	-9339
▁destr	-9340
▁dumps	-9341
▁dustp	-9342
▁explo	-9343
▁fluff	-9344
▁forks	-9345
▁frost	-9346
▁froze	-9347
▁furri	-9348
▁fuzzy	-9349
▁gazed	-9350
▁gears	-9351
▁graff	-9352
▁growl	-9353
▁grows	-9354
▁gusts	-9355
▁haird	-9356
▁infle	-9357
▁intri	-9358
▁kills	-9359
▁labor	-9360
▁langs	-9361
▁leans	-9362
▁limpy	-9363
▁loops	-9364
▁lttle	-9365
▁masks	-9366
▁maths	-9367
▁mercy	-9368
▁mooed	-9369
▁motiv	-9370
▁niece	-9371
▁nonch	-9372
▁nudge	-9373
▁patio	-9374
▁peels	-9375
▁pipes	-9376
▁pisto	-9377
▁potty	-9378
▁prere	-9379
▁purrs	-9380
▁pyosm	-9381
▁pypro	-9382
▁query	-9383
▁raked	-9384
▁ratio	-9385
▁raven	-9386
▁recyc	-9387
▁reply	-9388
▁rescu	-9389
▁rider	-9390
▁rides	-9391
▁roads	-9392
▁royal	-9393
▁sends	-9394
▁sewed	-9395
▁slots	-9396
▁sneak	-9397
▁soapy	-9398
▁spits	-9399
:]	-9400
"``	-9401
:")	-9402
:].	-9403
:``	-9404
Key	-9405
bly	-9406
ien	-9407
onf	-9408
prj	-9409
shx	-9410
▁PA	-9411
Food	-9412
aven	-9413
cape	-9414
cuff	-9415
oosh	-9416
prog	-9417
ship	-9418
shop	-9419
ulti	-9420
uney	-9421
ypot	-9422
▁","	-9423
▁Att	-9424
▁PAD	-9425
▁amb	-9426
▁shh	-9427
(":")	-9428
>/``.	-9429
Benny	-9430
Hypot	-9431
arker	-9432
cuffs	-9433
ields	-9434
range	-9435
sport	-9436
three	-9437
▁","}	-9438
▁Conf	-9439
▁code	-9440
▁flas	-9441
▁flip	-9442
▁hoof	-9443
▁pitc	-9444
Yields	-9445
attery	-9446
getKey	-9447
icated	-9448
ienced	-9449
ilting	-9450
marker	-9451
orship	-9452
please	-9453
sports	-9454
ultipl	-9455
unning	-9456
whoosh	-9457
worker	-9458
▁alley	-9459
▁drool	-9460
▁gramm	-9461
▁joked	-9462
▁stalk	-9463
▁stems	-9464
▁stern	-9465
▁stiff	-9466
▁swimm	-9467
▁taped	-9468
▁thous	-9469
▁ticks	-9470
▁tirel	-9471
▁trips	-9472
▁trunc	-9473
▁tunes	-9474
▁types	-9475
▁units	-9476
▁untag	-9477
▁untou	-9478
▁unwra	-9479
▁valid	-9480
▁wipes	-9481
▁wires	-9482
▁wondr	-9483
▁wrigg	-9484
▁{}!",	-9485
BREGION	-9486
Beautif	-9487
Congrat	-9488
Content	-9489
Dataset	-9490
Derives	-9491
ECIMALS	-9492
Exactly	-9493
Extract	-9494
Imagine	-9495
Integer	-9496
Lexical	-9497
Perhaps	-9498
Puzzles	-9499
MY	-9500
(()	-9501
Itâ	-9502
``:	-9503
eat	-9504
▁(+	-9505
).__	-9506
Item	-9507
Mary	-9508
fied	-9509
link	-9510
▁Tap	-9511
Looks	-9512
eaten	-9513
issue	-9514
mense	-9515
▁Navy	-9516
▁arct	-9517
▁croo	-9518
▁disc	-9519
▁eyel	-9520
▁hoot	-9521
▁rule	-9522
Listen	-9523
change	-9524
loaded	-9525
obwebs	-9526
resser	-9527
unlink	-9528
▁Johnâ	-9529
▁Watch	-9530
▁gummy	-9531
▁hopes	-9532
▁moons	-9533
▁nameâ	-9534
▁noble	-9535
▁rolls	-9536
▁soonL	-9537
ECONOMY	-9538
Someone	-9539
Special	-9540
``)."""	-9541
ability	-9542
accepts	-9543
aciscdn	-9544
alantly	-9545
amenity	-9546
arative	-9547
artment	-9548
artwork	-9549
ashells	-9550
atorics	-9551
attling	-9552
attract	-9553
battery	-9554
bincode	-9555
bjascob	-9556
boolean	-9557
context	-9558
cstatic	-9559
datedAt	-9560
economy	-9561
eliness	-9562
endship	-9563
entured	-9564
erkeley	-9565
ertools	-9566
example	-9567
factory	-9568
findOne	-9569
groupBy	-9570
hyphens	-9571
ibility	-9572
illiest	-9573
imented	-9574
implest	-9575
inkling	-9576
istered	-9577
istoric	-9578
jecture	-9579
knownId	-9580
latitud	-9581
leisure	-9582
library	-9583
matched	-9584
missing	-9585
mkstemp	-9586
omework	-9587
onsters	-9588
onument	-9589
opacity	-9590
oponyms	-9591
ordered	-9592
ossible	-9593
partial	-9594
postfix	-9595
primary	-9596
printed	-9597
quarium	-9598
rayList	-9599
▁Gi	-9600
Mine	-9601
argo	-9602
bars	-9603
fall	-9604
ingu	-9605
them	-9606
tiny	-9607
uted	-9608
œMrs	-9609
œWho	-9610
▁Git	-9611
▁[]:	-9612
▁adj	-9613
▁unl	-9614
ENDIN	-9615
abled	-9616
aised	-9617
cargo	-9618
eries	-9619
imity	-9620
mical	-9621
ooled	-9622
raint	-9623
rench	-9624
▁GitH	-9625
▁Maps	-9626
▁Wipe	-9627
▁brag	-9628
▁dies	-9629
▁dren	-9630
▁oars	-9631
▁rage	-9632
▁unan	-9633
▁unbe	-9634
▁vars	-9635
▁wool	-9636
ENDING	-9637
Raised	-9638
allery	-9639
ildren	-9640
inting	-9641
lluted	-9642
riving	-9643
semble	-9644
themro	-9645
▁Given	-9646
▁Marri	-9647
▁anger	-9648
▁dears	-9649
▁doork	-9650
▁glist	-9651
▁greet	-9652
▁neigh	-9653
▁pause	-9654
▁safeâ	-9655
▁skies	-9656
▁slick	-9657
▁snout	-9658
gallery	-9659
ithered	-9660
redibly	-9661
reeched	-9662
reserve	-9663
results	-9664
reverse	-9665
ripleWr	-9666
roccoli	-9667
rysalis	-9668
serServ	-9669
slaying	-9670
squares	-9671
stadium	-9672
strings	-9673
synsets	-9674
theatre	-9675
tourism	-9676
ultiply	-9677
umbling	-9678
underst	-9679
updated	-9680
urating	-9681
urrying	-9682
usician	-9683
vesting	-9684
without	-9685
working	-9686
worship	-9687
œThereâ	-9688
œWhereâ	-9689
▁...)",	-9690
▁Active	-9691
▁Always	-9692
▁Apples	-9693
▁Bobbyâ	-9694
▁Covers	-9695
▁Filter	-9696
▁France	-9697
▁GEOHAS	-9698
▁GitHub	-9699
DO	-9700
sq	-9701
Lem	-9702
ODO	-9703
Put	-9704
__,	-9705
cve	-9706
ipF	-9707
mem	-9708
sqr	-9709
upt	-9710
Bang	-9711
HTTP	-9712
Poor	-9713
burn	-9714
inty	-9715
okay	-9716
oyed	-9717
pass	-9718
sied	-9719
sqrt	-9720
▁dev	-9721
Bunny	-9722
alues	-9723
erupt	-9724
memor	-9725
noyed	-9726
oding	-9727
oughs	-9728
there	-9729
vered	-9730
▁Rect	-9731
▁TODO	-9732
▁bars	-9733
▁blur	-9734
▁chip	-9735
▁teap	-9736
▁trig	-9737
cessed	-9738
eturns	-9739
ipFile	-9740
▁Alert	-9741
▁Since	-9742
▁____,	-9743
▁cones	-9744
▁erupt	-9745
▁petal	-9746
▁shady	-9747
▁tease	-9748
▁woven	-9749
elation	-9750
ication	-9751
ientist	-9752
ipation	-9753
oughing	-9754
▁Golden	-9755
▁Hooray	-9756
▁Intrig	-9757
▁Neighb	-9758
▁Normal	-9759
▁Pieces	-9760
▁Resume	-9761
▁Sanity	-9762
▁School	-9763
▁Source	-9764
▁Sparks	-9765
▁Square	-9766
▁Synset	-9767
▁actual	-9768
▁alleys	-9769
▁antenn	-9770
▁arctic	-9771
▁argmax	-9772
▁artist	-9773
▁attrib	-9774
▁avocad	-9775
▁beards	-9776
▁beeped	-9777
▁begins	-9778
▁beyond	-9779
▁binary	-9780
▁blades	-9781
▁bleeds	-9782
▁blonde	-9783
▁boomed	-9784
▁brains	-9785
▁bubble	-9786
▁buckle	-9787
▁burden	-9788
▁burrow	-9789
▁buzzed	-9790
▁buzzes	-9791
▁caller	-9792
▁cardig	-9793
▁cheeky	-9794
▁cheery	-9795
▁chilly	-9796
▁chirps	-9797
▁chosen	-9798
▁cinema	-9799
`;	-9800
cl	-9801
!`;	-9802
"].	-9803
God	-9804
ege	-9805
▁CC	-9806
▁CL	-9807
▁Cl	-9808
▁Cu	-9809
Face	-9810
Meow	-9811
Turn	-9812
__":	-9813
date	-9814
emma	-9815
}!`;	-9816
▁CLI	-9817
▁Com	-9818
▁Par	-9819
▁Pow	-9820
▁Set	-9821
▁bye	-9822
Count	-9823
after	-9824
aults	-9825
bbing	-9826
crazy	-9827
icate	-9828
ithub	-9829
ldest	-9830
œStop	-9831
▁Make	-9832
▁axle	-9833
▁hall	-9834
▁hops	-9835
▁rung	-9836
▁sync	-9837
▁trim	-9838
Mother	-9839
cising	-9840
clinic	-9841
garden	-9842
gather	-9843
github	-9844
import	-9845
itment	-9846
nytime	-9847
riends	-9848
▁Clone	-9849
▁Hurry	-9850
▁Index	-9851
▁Lemma	-9852
▁Paris	-9853
▁Reuse	-9854
▁avoid	-9855
▁landm	-9856
▁niceâ	-9857
▁overw	-9858
▁sized	-9859
▁stool	-9860
▁stray	-9861
▁twice	-9862
Anytime	-9863
Country	-9864
Friends	-9865
builder	-9866
college	-9867
ilation	-9868
ingFace	-9869
unicate	-9870
▁Mother	-9871
▁client	-9872
▁cliffs	-9873
▁collap	-9874
▁colony	-9875
▁comets	-9876
▁consid	-9877
▁copies	-9878
▁cosied	-9879
▁coughs	-9880
▁cutest	-9881
▁daring	-9882
▁dashed	-9883
▁decode	-9884
▁detect	-9885
▁donate	-9886
▁doorkn	-9887
▁eldest	-9888
▁ensure	-9889
▁errors	-9890
▁events	-9891
▁explic	-9892
▁extend	-9893
▁filter	-9894
▁fooled	-9895
▁fragil	-9896
▁french	-9897
▁frying	-9898
▁gazing	-9899
aos	-9900
job	-9901
mma	-9902
olf	-9903
run	-9904
ulo	-9905
▁NE	-9906
▁fd	-9907
Four	-9908
aggy	-9909
arma	-9910
jobs	-9911
vive	-9912
▁abo	-9913
▁hob	-9914
▁iff	-9915
▁pip	-9916
▁tim	-9917
creat	-9918
eline	-9919
isite	-9920
itial	-9921
retty	-9922
▁Find	-9923
▁Wolf	-9924
▁cuck	-9925
▁hour	-9926
▁hudd	-9927
▁lull	-9928
▁lump	-9929
▁perm	-9930
▁puck	-9931
▁thaw	-9932
!("{}:	-9933
armacy	-9934
create	-9935
ential	-9936
entive	-9937
ilemma	-9938
issing	-9939
malloc	-9940
▁areas	-9941
▁berry	-9942
▁chaos	-9943
▁craft	-9944
▁dries	-9945
▁evens	-9946
▁extre	-9947
▁girlâ	-9948
▁hobby	-9949
▁sells	-9950
▁timid	-9951
quisite	-9952
wayside	-9953
▁Pretty	-9954
▁aboard	-9955
▁biting	-9956
▁charge	-9957
▁cuckoo	-9958
▁dipped	-9959
▁dusted	-9960
▁ghosts	-9961
▁gladly	-9962
▁glided	-9963
▁goodby	-9964
▁googly	-9965
▁grapes	-9966
▁growls	-9967
▁guests	-9968
▁halves	-9969
▁heaven	-9970
▁heroes	-9971
▁hiking	-9972
▁hooted	-9973
▁horror	-9974
▁howled	-9975
▁humans	-9976
▁images	-9977
▁income	-9978
▁insert	-9979
▁joyful	-9980
▁kinder	-9981
▁knives	-9982
▁knocks	-9983
▁larger	-9984
▁lasers	-9985
▁leader	-9986
▁leaked	-9987
▁lemmas	-9988
▁litter	-9989
▁littly	-9990
▁lookup	-9991
▁lowest	-9992
▁lulled	-9993
▁manner	-9994
▁master	-9995
▁merges	-9996
▁mitten	-9997
▁modulo	-9998
▁months	-9999
?.	-10000
-")	-10001
?.(	-10002
ERE	-10003
ept	-10004
▁Fe	-10005
Disp	-10006
HERE	-10007
Hand	-10008
aisy	-10009
byte	-10010
dder	-10011
quid	-10012
tale	-10013
uits	-10014
▁Put	-10015
▁bru	-10016
▁{}:	-10017
▁}()	-10018
Daisy	-10019
andas	-10020
ilant	-10021
istry	-10022
modif	-10023
uster	-10024
▁Feel	-10025
▁Fort	-10026
▁ages	-10027
▁choo	-10028
▁cuts	-10029
▁decl	-10030
▁sess	-10031
Pandas	-10032
aching	-10033
anting	-10034
common	-10035
elight	-10036
ripped	-10037
▁Fight	-10038
▁WHERE	-10039
▁array	-10040
▁bride	-10041
▁chain	-10042
▁chime	-10043
▁crisp	-10044
▁elseâ	-10045
▁flick	-10046
▁flock	-10047
▁swept	-10048
▁towed	-10049
▁udder	-10050
▁zeros	-10051
Dolphin	-10052
Println	-10053
igilant	-10054
irthday	-10055
unction	-10056
▁damage	-10057
▁filmed	-10058
▁grassy	-10059
▁liquid	-10060
▁marked	-10061
▁napped	-10062
▁nearer	-10063
▁necess	-10064
▁nested	-10065
▁nights	-10066
▁nonneg	-10067
▁oceans	-10068
▁onions	-10069
▁orders	-10070
▁paints	-10071
▁palind	-10072
▁parted	-10073
▁payoff	-10074
▁permil	-10075
▁pinned	-10076
▁pointy	-10077
▁pooped	-10078
▁priced	-10079
▁printf	-10080
▁pruney	-10081
▁radioâ	-10082
▁ragged	-10083
▁raises	-10084
▁ranker	-10085
▁rather	-10086
▁recess	-10087
▁recipe	-10088
▁refuse	-10089
▁replac	-10090
▁ribbit	-10091
▁roamed	-10092
▁roller	-10093
▁rumble	-10094
▁runner	-10095
▁rustle	-10096
▁scalar	-10097
▁scolds	-10098
▁scoops	-10099
>)	-10100
dog	-10101
mel	-10102
ogy	-10103
▁<<	-10104
▁AB	-10105
None	-10106
Take	-10107
Temp	-10108
ably	-10109
ands	-10110
bell	-10111
best	-10112
boos	-10113
cted	-10114
full	-10115
ners	-10116
uade	-10117
uick	-10118
zipâ	-10119
▁ABC	-10120
▁Bun	-10121
▁Day	-10122
▁For	-10123
▁rus	-10124
alogy	-10125
icorn	-10126
imous	-10127
ioned	-10128
melon	-10129
nbest	-10130
super	-10131
yummy	-10132
œzipâ	-10133
▁ABCs	-10134
▁Days	-10135
▁Hand	-10136
▁Life	-10137
▁Samu	-10138
▁Show	-10139
▁Such	-10140
▁boyâ	-10141
▁carn	-10142
▁dayd	-10143
▁plus	-10144
▁saus	-10145
▁zone	-10146
Freeze	-10147
Tokens	-10148
arably	-10149
archae	-10150
entryS	-10151
ousers	-10152
uickly	-10153
▁Share	-10154
▁grime	-10155
▁leads	-10156
▁reass	-10157
▁stall	-10158
indings	-10159
opyfile	-10160
▁Samuel	-10161
▁carved	-10162
▁cooped	-10163
▁neater	-10164
▁script	-10165
▁server	-10166
▁shaggy	-10167
▁sheets	-10168
▁shines	-10169
▁shooed	-10170
▁skullâ	-10171
▁sleeve	-10172
▁slider	-10173
▁smarty	-10174
▁snatch	-10175
▁snowed	-10176
▁somers	-10177
▁sorryâ	-10178
▁speeds	-10179
▁sprays	-10180
▁sprout	-10181
▁starry	-10182
▁stolen	-10183
▁straps	-10184
▁streak	-10185
▁stroke	-10186
▁struck	-10187
▁styles	-10188
▁surely	-10189
▁swamps	-10190
▁tagset	-10191
▁teapot	-10192
▁teased	-10193
▁threat	-10194
▁throne	-10195
▁tilted	-10196
▁tingly	-10197
▁tissue	-10198
▁toasty	-10199
})	-10200
Add	-10201
]):	-10202
nan	-10203
pop	-10204
rex	-10205
rie	-10206
zoo	-10207
▁Ha	-10208
bach	-10209
coop	-10210
lock	-10211
math	-10212
▁Run	-10213
▁lon	-10214
▁mop	-10215
▁pbf	-10216
▁sav	-10217
▁wav	-10218
Hurry	-10219
Somet	-10220
Weigh	-10221
clock	-10222
hings	-10223
icest	-10224
incts	-10225
iters	-10226
orted	-10227
print	-10228
▁Sure	-10229
▁Wait	-10230
▁beam	-10231
▁cane	-10232
▁mane	-10233
▁mend	-10234
▁oils	-10235
▁priz	-10236
▁pure	-10237
▁scan	-10238
▁todd	-10239
▁wavy	-10240
▁worn	-10241
ceeded	-10242
elting	-10243
encing	-10244
iented	-10245
rieked	-10246
roundt	-10247
sizeof	-10248
▁Scoop	-10249
▁foxes	-10250
▁grump	-10251
▁hairs	-10252
▁stare	-10253
▁Rabbit	-10254
▁Things	-10255
▁Within	-10256
▁huffed	-10257
▁injury	-10258
▁nicest	-10259
▁nurser	-10260
▁oinked	-10261
▁owning	-10262
▁prizes	-10263
▁rivers	-10264
▁tongue	-10265
▁trades	-10266
▁tricky	-10267
▁trunks	-10268
▁trusts	-10269
▁twisty	-10270
▁unfair	-10271
▁unless	-10272
▁unzips	-10273
▁vector	-10274
▁walker	-10275
▁warmly	-10276
▁washes	-10277
▁weaved	-10278
▁whilst	-10279
▁whines	-10280
▁wicked	-10281
▁wiggly	-10282
▁wisely	-10283
▁wobbly	-10284
▁worlds	-10285
▁zebras	-10286
('/')}/{	-10287
>/``."""	-10288
BTreeMap	-10289
Berkeley	-10290
Congrats	-10291
DATASETS	-10292
DECIMALS	-10293
Distance	-10294
MANIFEST	-10295
Printing	-10296
Protocol	-10297
Standard	-10298
aindrops	-10299
CC	-10300
.".	-10301
Mum	-10302
Phe	-10303
SEL	-10304
`),	-10305
tom	-10306
yly	-10307
▁Câ	-10308
▁Io	-10309
Bust	-10310
Isla	-10311
Phew	-10312
beep	-10313
dged	-10314
exit	-10315
gart	-10316
kind	-10317
toml	-10318
town	-10319
urch	-10320
when	-10321
woof	-10322
▁CDN	-10323
▁Did	-10324
▁Hot	-10325
▁Mit	-10326
▁jut	-10327
▁spy	-10328
▁var	-10329
arded	-10330
inter	-10331
townh	-10332
ugary	-10333
œBust	-10334
▁Donâ	-10335
▁Mitz	-10336
▁Take	-10337
▁Work	-10338
▁boom	-10339
▁boot	-10340
▁exer	-10341
▁halo	-10342
▁heap	-10343
▁smok	-10344
▁tame	-10345
▁yelp	-10346
SELECT	-10347
church	-10348
edient	-10349
fdopen	-10350
garten	-10351
ightly	-10352
making	-10353
▁Mitzi	-10354
▁coyly	-10355
▁flaps	-10356
▁loose	-10357
▁meows	-10358
▁pyshp	-10359
▁reind	-10360
▁smoky	-10361
▁usual	-10362
▁couldâ	-10363
▁dodged	-10364
▁hollow	-10365
▁pearls	-10366
▁reinde	-10367
▁snakes	-10368
▁splits	-10369
▁suffix	-10370
▁sugary	-10371
▁unkind	-10372
apostrop	-10373
appeared	-10374
aquarium	-10375
atically	-10376
basename	-10377
berkeley	-10378
bindings	-10379
boundary	-10380
contents	-10381
copyfile	-10382
cultural	-10383
distance	-10384
elighted	-10385
entrySet	-10386
function	-10387
hospital	-10388
ierarchy	-10389
ikipedia	-10390
inosaurs	-10391
irectory	-10392
kerchief	-10393
lloWorld	-10394
mInflect	-10395
memorial	-10396
monument	-10397
mporting	-10398
namelist	-10399
wg	-10400
},	-10401
Bun	-10402
aes	-10403
alt	-10404
bra	-10405
))``	-10406
Abra	-10407
Nice	-10408
Slow	-10409
arts	-10410
away	-10411
edup	-10412
inel	-10413
ltim	-10414
nome	-10415
otel	-10416
tide	-10417
▁Col	-10418
▁Mir	-10419
▁Try	-10420
▁lip	-10421
hotel	-10422
ndaes	-10423
share	-10424
▁Safe	-10425
▁albe	-10426
▁date	-10427
▁fond	-10428
▁sadd	-10429
▁send	-10430
▁shot	-10431
Change	-10432
ckless	-10433
œSplit	-10434
▁antic	-10435
▁aside	-10436
▁cooed	-10437
▁dedup	-10438
▁fealt	-10439
▁gnome	-10440
▁gusto	-10441
▁hoses	-10442
▁rises	-10443
Ladybug	-10444
atively	-10445
intment	-10446
reaking	-10447
▁albeit	-10448
▁curren	-10449
▁delete	-10450
▁fondly	-10451
▁goinng	-10452
▁honour	-10453
▁hopper	-10454
▁length	-10455
▁racers	-10456
▁shrunk	-10457
▁socket	-10458
▁whined	-10459
classids	-10460
ndefined	-10461
nknownId	-10462
ointment	-10463
ological	-10464
omelette	-10465
oriented	-10466
pharmacy	-10467
produced	-10468
progress	-10469
property	-10470
synonyms	-10471
terflies	-10472
timezone	-10473
tokenize	-10474
townhall	-10475
transfer	-10476
uddently	-10477
unsigned	-10478
validate	-10479
vigilant	-10480
œWelcome	-10481
▁Altough	-10482
▁Anytime	-10483
▁Cheered	-10484
▁Cobwebs	-10485
▁Columns	-10486
▁Coordin	-10487
▁Curious	-10488
▁Driving	-10489
▁Filters	-10490
▁Finders	-10491
▁Furious	-10492
▁GEOHASH	-10493
▁Geohash	-10494
▁Goodbye	-10495
▁Imagine	-10496
▁Invalid	-10497
▁Johnnyâ	-10498
▁Johnson	-10499
.<	-10500
dx	-10501
wn	-10502
Got	-10503
MSI	-10504
dec	-10505
etc	-10506
hop	-10507
ral	-10508
▁._	-10509
▁AR	-10510
▁FF	-10511
▁Tr	-10512
")).	-10513
Cent	-10514
Done	-10515
Mmmm	-10516
iddy	-10517
isle	-10518
llie	-10519
lmed	-10520
mely	-10521
sees	-10522
uack	-10523
▁Bin	-10524
▁FFN	-10525
▁Top	-10526
▁Wet	-10527
▁dab	-10528
▁etc	-10529
▁sob	-10530
▁ups	-10531
Ellie	-10532
Giddy	-10533
Start	-10534
balls	-10535
ulary	-10536
years	-10537
▁Fire	-10538
▁Pure	-10539
▁Trim	-10540
▁argv	-10541
▁bits	-10542
▁canâ	-10543
▁hast	-10544
▁hiss	-10545
▁mild	-10546
▁rotl	-10547
▁rout	-10548
▁urls	-10549
Johnny	-10550
Trying	-10551
decode	-10552
helmed	-10553
uction	-10554
▁ARCHI	-10555
▁Which	-10556
▁aisle	-10557
▁carve	-10558
▁cupbo	-10559
▁hasty	-10560
▁hides	-10561
▁lumpy	-10562
▁pools	-10563
▁route	-10564
▁smack	-10565
Central	-10566
bershop	-10567
omitted	-10568
▁confus	-10569
▁dabbed	-10570
▁device	-10571
▁neared	-10572
▁warmed	-10573
▁wealth	-10574
overflow	-10575
▁Bincode	-10576
▁Keeping	-10577
▁Licence	-10578
▁Mapping	-10579
▁Minimum	-10580
▁Mirrors	-10581
▁Missing	-10582
▁Monkeys	-10583
▁Officer	-10584
▁Outside	-10585
▁PENDING	-10586
▁PRIMARY	-10587
▁Pending	-10588
▁Playing	-10589
▁Popcorn	-10590
▁Primary	-10591
▁Release	-10592
▁Replace	-10593
▁Respect	-10594
▁Returns	-10595
▁Reverse	-10596
▁Sources	-10597
▁Teacher	-10598
▁Triples	-10599
/<	-10600
`)	-10601
oi	-10602
>.{	-10603
>>,	-10604
Bad	-10605
Ooo	-10606
acc	-10607
bay	-10608
got	-10609
lad	-10610
oah	-10611
ooo	-10612
tos	-10613
vec	-10614
wow	-10615
▁"(	-10616
▁()	-10617
▁AC	-10618
▁Im	-10619
Glad	-10620
Oooh	-10621
Woah	-10622
raps	-10623
rupt	-10624
ueue	-10625
zoom	-10626
▁Too	-10627
▁boo	-10628
▁mil	-10629
▁weâ	-10630
▁wow	-10631
Sugar	-10632
earby	-10633
irror	-10634
▁ACTI	-10635
▁atoi	-10636
▁lime	-10637
▁pets	-10638
▁sheâ	-10639
▁sooo	-10640
▁west	-10641
Reader	-10642
ouches	-10643
shakes	-10644
▁Lilyâ	-10645
▁curls	-10646
▁deser	-10647
▁haven	-10648
▁leapt	-10649
▁sandp	-10650
▁shyly	-10651
▁usage	-10652
▁waded	-10653
Sharing	-10654
ificant	-10655
neezing	-10656
▁Nearby	-10657
▁append	-10658
▁blooms	-10659
▁enjoys	-10660
▁lemons	-10661
▁milked	-10662
▁mirror	-10663
▁parked	-10664
▁scraps	-10665
▁thereâ	-10666
▁unknow	-10667
Sneezing	-10668
failures	-10669
historic	-10670
▁ability	-10671
▁accepts	-10672
▁address	-10673
▁alerted	-10674
▁allover	-10675
▁amongst	-10676
▁analogy	-10677
▁angrily	-10678
▁annoyed	-10679
▁appetit	-10680
▁arrange	-10681
▁asserts	-10682
▁beaming	-10683
▁bedtime	-10684
▁beehive	-10685
▁behaved	-10686
▁benches	-10687
▁bincode	-10688
▁blessed	-10689
▁bloomed	-10690
▁blushed	-10691
▁boiling	-10692
▁bounded	-10693
▁bragged	-10694
▁brining	-10695
▁bruises	-10696
▁burgers	-10697
▁buttery	-10698
▁calming	-10699
!!	-10700
',	-10701
([	-10702
)"	-10703
?;	-10704
!,"	-10705
)?;	-10706
Get	-10707
Hot	-10708
Man	-10709
don	-10710
gen	-10711
oni	-10712
▁MA	-10713
▁Se	-10714
):",	-10715
DATA	-10716
Lost	-10717
anit	-10718
bows	-10719
dest	-10720
easy	-10721
lled	-10722
ller	-10723
uing	-10724
ygen	-10725
▁ADJ	-10726
▁Sit	-10727
▁bid	-10728
Doggy	-10729
Whatâ	-10730
color	-10731
oting	-10732
xygen	-10733
▁Data	-10734
▁More	-10735
▁clue	-10736
▁grey	-10737
▁moat	-10738
▁rhym	-10739
▁root	-10740
▁snoo	-10741
▁wasâ	-10742
Corpus	-10743
anitor	-10744
owling	-10745
▁Theyâ	-10746
▁delta	-10747
▁downs	-10748
▁gloom	-10749
▁leaks	-10750
▁metad	-10751
▁piled	-10752
▁tires	-10753
▁Father	-10754
▁calmly	-10755
▁deeply	-10756
▁losing	-10757
▁oxygen	-10758
▁python	-10759
▁rhymes	-10760
▁runway	-10761
▁screws	-10762
▁snooze	-10763
▁spices	-10764
▁surged	-10765
▁uneasy	-10766
▁weekly	-10767
Manifest	-10768
Monsters	-10769
colorado	-10770
naciscdn	-10771
▁Feeling	-10772
▁Peppers	-10773
▁Seagull	-10774
▁Sitting	-10775
▁banging	-10776
▁capital	-10777
▁carries	-10778
▁casting	-10779
▁charity	-10780
▁chatted	-10781
▁checkup	-10782
▁chewing	-10783
▁cleared	-10784
▁clearly	-10785
▁clinked	-10786
▁closets	-10787
▁closing	-10788
▁clucked	-10789
▁cluster	-10790
▁coaster	-10791
▁combine	-10792
▁compact	-10793
▁confuse	-10794
▁corners	-10795
▁corpora	-10796
▁couches	-10797
▁crashes	-10798
▁crushed	-10799
=[	-10800
RP	-10801
Sc	-10802
TF	-10803
uv	-10804
▁?	-10805
'."	-10806
GRP	-10807
His	-10808
iti	-10809
itâ	-10810
nit	-10811
œis	-10812
▁db	-10813
▁fs	-10814
▁wn	-10815
▁}:	-10816
Cool	-10817
Hive	-10818
Life	-10819
Lucy	-10820
anes	-10821
immy	-10822
into	-10823
lest	-10824
opes	-10825
tags	-10826
œitâ	-10827
▁Wow	-10828
▁iso	-10829
Jimmy	-10830
hibit	-10831
named	-10832
owing	-10833
speak	-10834
▁Bang	-10835
▁Thus	-10836
▁dads	-10837
▁guns	-10838
▁twin	-10839
▁zips	-10840
erpart	-10841
ipated	-10842
▁Strip	-10843
▁faith	-10844
▁horri	-10845
▁least	-10846
▁metro	-10847
▁okayâ	-10848
▁ropes	-10849
▁scent	-10850
▁solid	-10851
▁unzip	-10852
▁combed	-10853
▁proven	-10854
▁states	-10855
▁tested	-10856
▁vanish	-10857
Scissors	-10858
smelling	-10859
▁barrels	-10860
▁bounces	-10861
▁chiming	-10862
▁columns	-10863
▁crooked	-10864
▁cuddles	-10865
▁decides	-10866
▁delayed	-10867
▁descend	-10868
▁deserve	-10869
▁designs	-10870
▁diggers	-10871
▁dilemma	-10872
▁disappe	-10873
▁disturb	-10874
▁divided	-10875
▁dollars	-10876
▁domains	-10877
▁doubled	-10878
▁drivers	-10879
▁dusting	-10880
▁dustpan	-10881
▁element	-10882
▁emotion	-10883
▁enchant	-10884
▁endless	-10885
▁entries	-10886
▁equator	-10887
▁example	-10888
▁exhibit	-10889
▁experim	-10890
▁extinct	-10891
▁eyelids	-10892
▁factual	-10893
▁feeding	-10894
▁fencing	-10895
▁fetches	-10896
▁figures	-10897
▁filters	-10898
▁flashed	-10899
Eq	-10900
MB	-10901
Mo	-10902
œO	-10903
Mod	-10904
Noa	-10905
Pat	-10906
`);	-10907
dep	-10908
ees	-10909
pri	-10910
usr	-10911
yum	-10912
()).	-10913
Make	-10914
▁Boo	-10915
▁THE	-10916
▁neq	-10917
▁ris	-10918
']}")	-10919
("../	-10920
Tilly	-10921
essly	-10922
ivity	-10923
price	-10924
theme	-10925
umpet	-10926
œOven	-10927
œYour	-10928
▁Spin	-10929
▁hash	-10930
Modern	-10931
Prince	-10932
pieces	-10933
œGreat	-10934
œStand	-10935
œWould	-10936
▁Piece	-10937
▁hangs	-10938
▁hawks	-10939
▁paste	-10940
▁risen	-10941
▁risks	-10942
▁rotor	-10943
▁snore	-10944
▁spike	-10945
special	-10946
▁Acting	-10947
▁blamed	-10948
▁calmer	-10949
▁clinic	-10950
▁cuddly	-10951
▁fruity	-10952
▁jumper	-10953
▁layers	-10954
▁levers	-10955
▁nuzzle	-10956
▁shaken	-10957
▁sooner	-10958
▁surger	-10959
▁traced	-10960
coreType	-10961
œNothing	-10962
▁Friends	-10963
▁Puddles	-10964
▁birdies	-10965
▁colored	-10966
▁decades	-10967
▁flavour	-10968
▁flicked	-10969
▁floatie	-10970
▁flooded	-10971
▁flopped	-10972
▁fluffed	-10973
▁fooling	-10974
▁forgets	-10975
▁funnier	-10976
▁gardens	-10977
▁gripped	-10978
▁grouped	-10979
▁guarded	-10980
▁guiding	-10981
▁hardest	-10982
▁hayride	-10983
▁healing	-10984
▁heavily	-10985
▁heights	-10986
▁hitting	-10987
▁honesty	-10988
▁honored	-10989
▁honours	-10990
▁hovered	-10991
▁however	-10992
▁huddled	-10993
▁humming	-10994
▁ignorat	-10995
▁immense	-10996
▁include	-10997
▁indices	-10998
▁inherit	-10999
<-	-11000
>{	-11001
Ad	-11002
WB	-11003
fn	-11004
tw	-11005
Was	-11006
bar	-11007
two	-11008
utc	-11009
}``	-11010
▁ls	-11011
Jail	-11012
Lila	-11013
Shoo	-11014
Wear	-11015
disk	-11016
http	-11017
▁"")	-11018
▁mul	-11019
▁rap	-11020
Could	-11021
Marry	-11022
async	-11023
field	-11024
pyshp	-11025
world	-11026
▁"'"}	-11027
▁Dora	-11028
▁FROM	-11029
▁Mine	-11030
▁Sueâ	-11031
▁Yuck	-11032
▁ache	-11033
▁navy	-11034
Option	-11035
cannot	-11036
frozen	-11037
▁Words	-11038
▁baths	-11039
▁dates	-11040
▁emits	-11041
▁fever	-11042
▁gates	-11043
▁parse	-11044
▁sails	-11045
▁stays	-11046
version	-11047
▁cooled	-11048
▁greens	-11049
▁slower	-11050
▁smiley	-11051
▁thorns	-11052
▁toured	-11053
Optional	-11054
▁coolest	-11055
▁grumble	-11056
▁howling	-11057
▁initial	-11058
▁injured	-11059
▁integer	-11060
▁invites	-11061
▁itching	-11062
▁janitor	-11063
▁joining	-11064
▁juggled	-11065
▁jumbled	-11066
▁jutting	-11067
▁keepers	-11068
▁kneeled	-11069
▁lawyers	-11070
▁laziest	-11071
▁leisure	-11072
▁lessons	-11073
▁lexicon	-11074
▁licking	-11075
▁lookout	-11076
▁looming	-11077
▁lowered	-11078
▁manners	-11079
▁markers	-11080
▁marking	-11081
▁masterp	-11082
▁matches	-11083
▁matters	-11084
▁maximum	-11085
▁meowing	-11086
▁mittens	-11087
▁multipl	-11088
▁mustard	-11089
▁napkins	-11090
▁natural	-11091
▁neither	-11092
▁numeric	-11093
▁nursery	-11094
▁onClick	-11095
▁outfits	-11096
▁outsing	-11097
▁overall	-11098
▁pancake	-11099
An	-11100
hn	-11101
Arf	-11102
Bow	-11103
▁Eq	-11104
▁Only	-11105
▁luhn	-11106
▁wilt	-11107
▁Momma	-11108
▁meets	-11109
▁chilli	-11110
▁fights	-11111
▁manage	-11112
▁minded	-11113
▁player	-11114
▁wildly	-11115
▁beeping	-11116
▁panting	-11117
▁parsing	-11118
▁partner	-11119
▁passion	-11120
▁patches	-11121
▁pecking	-11122
▁pelting	-11123
▁pencils	-11124
▁perched	-11125
▁picnics	-11126
▁pillows	-11127
▁pinches	-11128
▁pistols	-11129
▁pitcher	-11130
▁pounced	-11131
▁prepped	-11132
▁pricked	-11133
▁primary	-11134
▁prouder	-11135
▁purpose	-11136
▁quacked	-11137
▁queries	-11138
▁raising	-11139
▁reasonâ	-11140
▁recipes	-11141
▁recycle	-11142
▁refuses	-11143
▁renamed	-11144
▁replies	-11145
▁reports	-11146
▁rescuer	-11147
▁restart	-11148
▁resting	-11149
▁ripples	-11150
▁roasted	-11151
▁ruffled	-11152
▁runtime	-11153
▁rushing	-11154
▁saddest	-11155
▁sadness	-11156
▁sandpit	-11157
▁sausage	-11158
▁scamper	-11159
▁scaring	-11160
▁schools	-11161
▁science	-11162
▁scoring	-11163
▁seafood	-11164
▁secrets	-11165
▁seeking	-11166
▁shallow	-11167
▁shivers	-11168
▁singers	-11169
▁sisters	-11170
▁skinned	-11171
▁sleeves	-11172
▁slowing	-11173
▁smoking	-11174
▁snapped	-11175
▁snorted	-11176
▁snowing	-11177
▁snowmen	-11178
▁sobbing	-11179
▁softest	-11180
▁somehow	-11181
▁sorting	-11182
▁soundly	-11183
▁sources	-11184
▁speaker	-11185
▁spreads	-11186
▁squishy	-11187
▁staying	-11188
▁stomped	-11189
▁storing	-11190
▁strayed	-11191
▁streams	-11192
▁streets	-11193
▁strikes	-11194
▁stringâ	-11195
▁stroked	-11196
▁strokes	-11197
▁student	-11198
▁sundaes	-11199
▁sunning	-11200
▁surfing	-11201
▁surgery	-11202
▁survive	-11203
▁swapped	-11204
▁tallest	-11205
▁tapping	-11206
▁tempted	-11207
▁theater	-11208
▁theatre	-11209
▁tickled	-11210
▁toddler	-11211
▁toolbox	-11212
▁tooting	-11213
▁tourism	-11214
▁trading	-11215
▁travels	-11216
▁treated	-11217
▁trigger	-11218
▁trumpet	-11219
▁tunnels	-11220
▁twinkly	-11221
▁unclean	-11222
▁uncover	-11223
▁unicorn	-11224
▁unlucky	-11225
▁useless	-11226
▁usually	-11227
▁verbnet	-11228
▁vibrant	-11229
▁victims	-11230
▁villain	-11231
▁visitor	-11232
▁waffles	-11233
▁warmest	-11234
▁weekday	-11235
▁wetsuit	-11236
▁whether	-11237
▁widened	-11238
▁wilting	-11239
▁wordnet	-11240
▁workers	-11241
▁worries	-11242
▁yapping	-11243
▁zipping	-11244
ArrayList	-11245
Beautiful	-11246
Butterfly	-11247
CONTINENT	-11248
Canonical	-11249
Chocolate	-11250
Geofabrik	-11251
Goodnight	-11252
Jellyfish	-11253
PRECISION	-11254
Princeton	-11255
Sometimes	-11256
TypedDict	-11257
alueError	-11258
artifacts	-11259
ationally	-11260
candidate	-11261
classific	-11262
delicious	-11263
fibonacci	-11264
inguished	-11265
insertOne	-11266
isoformat	-11267
istically	-11268
itemLabel	-11269
latitudes	-11270
ltimately	-11271
modifiers	-11272
nderneath	-11273
partition	-11274
princeton	-11275
processed	-11276
recommend	-11277
roundtrip	-11278
sensitive	-11279
stringify	-11280
substring	-11281
themroles	-11282
troponyms	-11283
uncategor	-11284
viewpoint	-11285
wikipedia	-11286
œRemember	-11287
œSneezing	-11288
▁Anything	-11289
▁Archived	-11290
▁Birthday	-11291
▁Breaking	-11292
▁Broccoli	-11293
▁Children	-11294
▁Confused	-11295
▁Distance	-11296
▁Dreaming	-11297
▁Festival	-11298
▁Fighting	-11299
▁Homework	-11300
▁KeyError	-11301
▁Learning	-11302
▁Marriage	-11303
▁Matching	-11304
▁Musician	-11305
▁Protocol	-11306
▁ReadOnly	-11307
▁Relation	-11308
▁Remember	-11309
▁Reserved	-11310
▁Scooping	-11311
▁Shequest	-11312
▁Sneezing	-11313
▁Synonyms	-11314
▁Teachers	-11315
▁TripleWr	-11316
▁absorbed	-11317
▁accuracy	-11318
▁addition	-11319
▁agreeing	-11320
▁announce	-11321
▁antennas	-11322
▁arranged	-11323
▁arriving	-11324
▁artifact	-11325
▁assemble	-11326
▁attracts	-11327
▁avocados	-11328
▁barefoot	-11329
▁basement	-11330
▁bathtubs	-11331
▁beehives	-11332
▁behaving	-11333
▁believed	-11334
▁believes	-11335
▁blanketâ	-11336
▁blending	-11337
▁blessing	-11338
▁blinking	-11339
▁boarding	-11340
▁boastful	-11341
▁brighten	-11342
▁bubbling	-11343
▁callable	-11344
▁campsite	-11345
▁capitals	-11346
▁cardigan	-11347
▁carnival	-11348
▁chemical	-11349
▁clothing	-11350
▁coloring	-11351
▁compiled	-11352
▁contents	-11353
▁contexts	-11354
▁coughing	-11355
▁counties	-11356
▁cracking	-11357
▁crashing	-11358
▁creaking	-11359
▁creeping	-11360
▁currency	-11361
▁customer	-11362
▁deadband	-11363
▁deciding	-11364
▁declared	-11365
▁decoding	-11366
▁deferred	-11367
▁delaying	-11368
▁deserved	-11369
▁designed	-11370
▁designer	-11371
▁directly	-11372
▁disabled	-11373
▁disagree	-11374
▁disaster	-11375
▁doorbell	-11376
▁doorknob	-11377
▁drenched	-11378
▁drooling	-11379
▁drowning	-11380
▁economic	-11381
▁ecstatic	-11382
▁endpoint	-11383
▁entering	-11384
▁exchange	-11385
▁explains	-11386
▁explicit	-11387
▁exploded	-11388
▁farthest	-11389
▁features	-11390
▁findById	-11391
▁flagpole	-11392
▁flashing	-11393
▁flooding	-11394
▁forgives	-11395
▁frighted	-11396
▁frosting	-11397
▁furriest	-11398
▁furthest	-11399
▁gestured	-11400
▁goldbach	-11401
▁goodbyes	-11402
▁goodness	-11403
▁graffiti	-11404
▁grammars	-11405
▁granting	-11406
▁greatest	-11407
▁grilling	-11408
▁grouping	-11409
▁grumbled	-11410
▁grumpily	-11411
▁guarding	-11412
▁guzzling	-11413
▁halftime	-11414
▁harmonic	-11415
▁haystack	-11416
▁historic	-11417
▁holidays	-11418
▁horrible	-11419
▁hurrying	-11420
▁identity	-11421
▁ignition	-11422
▁injuries	-11423
▁inventor	-11424
▁kayaking	-11425
▁ladybugs	-11426
▁laziness	-11427
▁littlest	-11428
▁lockdown	-11429
▁lovingly	-11430
▁mappings	-11431
▁marrying	-11432
▁matchbox	-11433
▁matching	-11434
▁mattered	-11435
▁measures	-11436
▁meronyms	-11437
▁metadata	-11438
▁midrange	-11439
▁millions	-11440
▁miniters	-11441
▁mischief	-11442
▁missiles	-11443
▁mistreat	-11444
▁monorepo	-11445
▁multiply	-11446
▁musician	-11447
▁omelette	-11448
▁optional	-11449
▁overalls	-11450
▁overcome	-11451
▁override	-11452
▁pairings	-11453
▁patching	-11454
▁peanutes	-11455
▁penguins	-11456
▁permille	-11457
▁persuade	-11458
▁pipeline	-11459
▁playdate	-11460
▁pleasant	-11461
▁politely	-11462
▁polluted	-11463
▁potatoes	-11464
▁presence	-11465
▁pretends	-11466
▁previous	-11467
▁produced	-11468
▁prompted	-11469
▁property	-11470
▁protocol	-11471
▁provided	-11472
▁provides	-11473
▁puckered	-11474
▁pyosmium	-11475
▁quacking	-11476
▁quenched	-11477
▁rainbows	-11478
▁rattling	-11479
▁reaching	-11480
▁reckless	-11481
▁refusing	-11482
▁registry	-11483
▁reindeer	-11484
▁relative	-11485
▁renaming	-11486
▁repaired	-11487
▁reporter	-11488
▁resolved	-11489
▁resolves	-11490
▁rewarded	-11491
▁rumbling	-11492
▁sausages	-11493
▁savoring	-11494
▁scolding	-11495
▁scowling	-11496
▁searches	-11497
▁seatbelt	-11498
▁sentinel	-11499
▁sequined	-11500
▁services	-11501
▁sessions	-11502
▁settling	-11503
▁shedding	-11504
▁shooting	-11505
▁shrieked	-11506
▁siblings	-11507
▁silliest	-11508
▁simplest	-11509
▁slapping	-11510
▁slightly	-11511
▁slipping	-11512
▁smacking	-11513
▁smartest	-11514
▁smelling	-11515
▁smoothie	-11516
▁smoothly	-11517
▁snatched	-11518
▁sniffing	-11519
▁sniffled	-11520
▁softened	-11521
▁specific	-11522
▁splatter	-11523
▁spoiling	-11524
▁spurious	-11525
▁stations	-11526
▁steaming	-11527
▁sticking	-11528
▁stitched	-11529
▁stressed	-11530
▁stroking	-11531
▁strolled	-11532
▁stroller	-11533
▁stuffing	-11534
▁stunning	-11535
▁supports	-11536
▁surfaces	-11537
▁swapping	-11538
▁sweeping	-11539
▁swimmers	-11540
▁swirling	-11541
▁switched	-11542
▁synonyms	-11543
▁tickling	-11544
▁timezone	-11545
▁tinkling	-11546
▁towering	-11547
▁trailing	-11548
▁trainers	-11549
▁treating	-11550
▁trophies	-11551
▁troubleâ	-11552
▁trousers	-11553
▁tweeting	-11554
▁twirlers	-11555
▁unloaded	-11556
▁unpacked	-11557
▁unsigned	-11558
▁untagged	-11559
▁unzipped	-11560
▁ventured	-11561
▁verifier	-11562
▁villains	-11563
▁weakness	-11564
▁whatever	-11565
▁whirring	-11566
▁whistles	-11567
▁wildlife	-11568
▁wondrous	-11569
▁worrying	-11570
▁wriggled	-11571
▁youngest	-11572
Dispatches	-11573
Everything	-11574
Incredible	-11575
Protection	-11576
TemporaryD	-11577
Throughout	-11578
absorption	-11579
attraction	-11580
department	-11581
ensitively	-11582
extractors	-11583
handleSave	-11584
pretrained	-11585
provenance	-11586
restaurant	-11587
serProfile	-11588
serService	-11589
setdefault	-11590
splitlines	-11591
startswith	-11592
understood	-11593
university	-11594
unreadable	-11595
valueLabel	-11596
▁ArrayList	-11597
▁Attribute	-11598
▁Chocolate	-11599
▁Curiosity	-11600
▁Delicious	-11601
▁Delighted	-11602
▁Dinosaurs	-11603
▁Following	-11604
▁Happiness	-11605
▁Importing	-11606
▁Intrigued	-11607
▁Investing	-11608
▁Jellyfish	-11609
▁Neighbors	-11610
▁Otherwise	-11611
▁PartialEq	-11612
▁Preserves	-11613
▁Raindrops	-11614
▁Something	-11615
▁Somewhere	-11616
▁Suddently	-11617
▁Tokenizer	-11618
▁Troponyms	-11619
▁TypedDict	-11620
▁Yesterday	-11621
▁allowance	-11622
▁amazingly	-11623
▁ambulance	-11624
▁apartment	-11625
▁attending	-11626
▁attentive	-11627
▁backwards	-11628
▁batteries	-11629
▁behaviour	-11630
▁blessings	-11631
▁blueberry	-11632
▁borrowing	-11633
▁bothering	-11634
▁breathing	-11635
▁cafeteria	-11636
▁character	-11637
▁checkable	-11638
▁childhood	-11639
▁chrysalis	-11640
▁className	-11641
▁collapses	-11642
▁colouring	-11643
▁compareTo	-11644
▁competing	-11645
▁complaint	-11646
▁component	-11647
▁confusion	-11648
▁constants	-11649
▁consumers	-11650
▁corrupted	-11651
▁countries	-11652
▁cupboards	-11653
▁decisions	-11654
▁delimiter	-11655
▁descended	-11656
▁desperate	-11657
▁detective	-11658
▁direction	-11659
▁discarded	-11660
▁discovers	-11661
▁discussed	-11662
▁disgusted	-11663
▁displayed	-11664
▁elevators	-11665
▁enchanted	-11666
▁explorers	-11667
▁extension	-11668
▁extremely	-11669
▁fallbacks	-11670
▁fireworks	-11671
▁footsteps	-11672
▁forrecogn	-11673
▁fragments	-11674
▁furiously	-11675
▁glistened	-11676
▁guarantee	-11677
▁handcuffs	-11678
▁hierarchy	-11679
▁honeycomb	-11680
▁horseshoe	-11681
▁hypernyms	-11682
▁imaginary	-11683
▁installed	-11684
▁instantly	-11685
▁instincts	-11686
▁interrupt	-11687
▁intervals	-11688
▁inventing	-11689
▁itertools	-11690
▁landmarks	-11691
▁monuments	-11692
▁motivated	-11693
▁movements	-11694
▁necessary	-11695
▁nervously	-11696
▁normalise	-11697
▁nutrition	-11698
▁ornaments	-11699
▁otherwise	-11700
▁ourselves	-11701
▁overboard	-11702
▁parachute	-11703
▁pepperoni	-11704
▁playhouse	-11705
▁potential	-11706
▁practised	-11707
▁preschool	-11708
▁prettiest	-11709
▁prevented	-11710
▁proceeded	-11711
▁providing	-11712
▁provinces	-11713
▁proximity	-11714
▁purchased	-11715
▁pyproject	-11716
▁quietness	-11717
▁realising	-11718
▁reassured	-11719
▁recording	-11720
▁recovered	-11721
▁recycling	-11722
▁replacing	-11723
▁resolving	-11724
▁resources	-11725
▁responded	-11726
▁returning	-11727
▁revealing	-11728
▁rewritten	-11729
▁riverbank	-11730
▁satisfied	-11731
▁scampered	-11732
▁scientist	-11733
▁scratches	-11734
▁screeched	-11735
▁scrubbing	-11736
▁scurrying	-11737
▁seashells	-11738
▁semantics	-11739
▁sequences	-11740
▁shrinking	-11741
▁silliness	-11742
▁skittered	-11743
▁slithered	-11744
▁snowballs	-11745
▁snuggling	-11746
▁solutions	-11747
▁soonLizzy	-11748
▁souvenirs	-11749
▁sovereign	-11750
▁squeezing	-11751
▁stretches	-11752
▁stripping	-11753
▁strongest	-11754
▁subregion	-11755
▁substance	-11756
▁successes	-11757
▁summarise	-11758
▁sunscreen	-11759
▁swimsuits	-11760
▁teaspoons	-11761
▁terrified	-11762
▁thiserror	-11763
▁thousands	-11764
▁tightened	-11765
▁tokenised	-11766
▁travelled	-11767
▁triangles	-11768
▁troponyms	-11769
▁truncated	-11770
▁unanimous	-11771
▁uncovered	-11772
▁undefined	-11773
▁universal	-11774
▁unpacking	-11775
▁untangled	-11776
▁untangles	-11777
▁untouched	-11778
▁unwrapped	-11779
▁updatedAt	-11780
▁wandering	-11781
▁waterfall	-11782
▁welcoming	-11783
▁whitelist	-11784
▁yourselfâ	-11785
Abracadabra	-11786
Adventurous	-11787
DatasetMeta	-11788
LemmInflect	-11789
abracadabra	-11790
apostrophes	-11791
application	-11792
copyfileobj	-11793
derivations	-11794
downloaders	-11795
interaction	-11796
lemminflect	-11797
▁Comparable	-11798
▁Coordinate	-11799
▁Downloader	-11800
▁Friendship	-11801
▁HelloWorld	-11802
▁Normaliser	-11803
▁Repository	-11804
▁Throughout	-11805
▁accidently	-11806
▁aeroplanes	-11807
▁applauding	-11808
▁assistance	-11809
▁atomically	-11810
▁background	-11811
▁barbershop	-11812
▁carelessly	-11813
▁challenged	-11814
▁challenges	-11815
▁cheerfully	-11816
▁cherishing	-11817
▁comforting	-11818
▁commitment	-11819
▁complained	-11820
▁components	-11821
▁compressed	-11822
▁conjecture	-11823
▁considered	-11824
▁constraint	-11825
▁containers	-11826
▁containing	-11827
▁continuing	-11828
▁controller	-11829
▁currencies	-11830
▁definition	-11831
▁delicately	-11832
▁delivering	-11833
▁dependency	-11834
▁discussion	-11835
▁disobeying	-11836
▁exercising	-11837
▁experiment	-11838
▁extraction	-11839
▁flickering	-11840
▁forgetting	-11841
▁generosity	-11842
▁guarantees	-11843
▁handleSave	-11844
▁handlebars	-11845
▁hesitation	-11846
▁implements	-11847
▁impossible	-11848
▁incredibly	-11849
▁instanceof	-11850
▁interested	-11851
▁intriguing	-11852
▁lightening	-11853
▁loneliness	-11854
▁medication	-11855
▁membership	-11856
▁mentioning	-11857
▁mesmerised	-11858
▁milkshakes	-11859
▁misbehaved	-11860
▁normalised	-11861
▁officially	-11862
▁organizing	-11863
▁overridden	-11864
▁perfection	-11865
▁permissive	-11866
▁pleasantly	-11867
▁positional	-11868
▁positivity	-11869
▁protection	-11870
▁recordered	-11871
▁recordings	-11872
▁redirected	-11873
▁registered	-11874
▁repeatedly	-11875
▁requesting	-11876
▁saturating	-11877
▁separating	-11878
▁sharpening	-11879
▁snowflakes	-11880
▁spacecraft	-11881
▁speechless	-11882
▁staircases	-11883
▁succeeding	-11884
▁surprising	-11885
▁throughout	-11886
▁thundering	-11887
▁tirelessly	-11888
▁tokenizing	-11889
▁toothbrush	-11890
▁transforms	-11891
▁triangular	-11892
▁unbearably	-11893
▁underwater	-11894
▁unreadable	-11895
▁vocabulary	-11896
▁watermelon	-11897
▁weightless	-11898
▁wonderland	-11899
▁worthwhile	-11900
Inflectional	-11901
RuntimeError	-11902
subFrameName	-11903
transformers	-11904
▁Butterflies	-11905
▁Deserialize	-11906
▁Fortunately	-11907
▁HuggingFace	-11908
▁Immediately	-11909
▁apologizing	-11910
▁appointment	-11911
▁appreciated	-11912
▁approaching	-11913
▁attribution	-11914
▁collections	-11915
▁communicate	-11916
▁comparative	-11917
▁compilation	-11918
▁complicated	-11919
▁confidently	-11920
▁counterpart	-11921
▁daydreaming	-11922
▁definitions	-11923
▁derivatives	-11924
▁destruction	-11925
▁differences	-11926
▁dishwashers	-11927
▁disobedient	-11928
▁downloaders	-11929
▁entailments	-11930
▁experienced	-11931
▁experiments	-11932
▁firefighter	-11933
▁hairdresser	-11934
▁hardworking	-11935
▁helicopters	-11936
▁hospitality	-11937
▁implemented	-11938
▁inseparable	-11939
▁introducing	-11940
▁masterpiece	-11941
▁misbehaving	-11942
▁motorcycles	-11943
▁nonnegative	-11944
▁overwhelmed	-11945
▁palindromic	-11946
▁performance	-11947
▁possibility	-11948
▁pretokenize	-11949
▁processItem	-11950
▁redirection	-11951
▁respectfull	-11952
▁seriousness	-11953
▁significant	-11954
▁somersaults	-11955
▁subnational	-11956
▁superheroes	-11957
▁surrounding	-11958
▁tentatively	-11959
▁transformed	-11960
▁unknowingly	-11961
OpenStreetMap	-11962
SpecialTokens	-11963
insensitively	-11964
stackoverflow	-11965
uncategorised	-11966
▁MissingToken	-11967
▁RuntimeError	-11968
▁TripleWriter	-11969
▁announcement	-11970
▁anticipation	-11971
▁competitions	-11972
▁complimented	-11973
▁congratulate	-11974
▁dependencies	-11975
▁derivational	-11976
▁disappearing	-11977
▁extinguished	-11978
▁handkerchief	-11979
▁inflectional	-11980
▁intersection	-11981
▁kindergarten	-11982
▁materialised	-11983
▁nonchalantly	-11984
▁participated	-11985
▁peacefulness	-11986
▁performances	-11987
▁prerequisite	-11988
▁recommending	-11989
▁satisfaction	-11990
▁straightened	-11991
▁tokenization	-11992
OsmGbExtractor	-11993
OsmGbRawLayout	-11994
archaeological	-11995
derivationally	-11996
superFrameName	-11997
▁Shequestioned	-11998
▁automatically	-11999
▁combinatorics	-12000
▁dependability	-12001
▁distinguished	-12002
▁encouragingly	-12003
▁international	-12004
▁misunderstood	-12005
▁normalisation	-12006
▁statistically	-12007
▁summarisation	-12008
▁unfortunately	-12009
OsmGbDownloader	-12010
classifications	-12011
▁AttributeError	-12012
▁OsmGbExtractor	-12013
▁disappointment	-12014
▁forrecognizing	-12015
▁implementation	-12016
▁multiplication	-12017
▁recommendation	-12018
▁thoughtfulness	-12019
WordNetExtractor	-12020
WordNetRawLayout	-12021
naturalearthdata	-12022
▁recommendations	-12023
II	-12024
Lu	-12025
ND	-12026
TT	-12027
]}	-12028
dD	-12029
dN	-12030
eM	-12031
eW	-12032
gv	-12033
lâ	-12034
sb	-12035
sd	-12036
si	-12037
xh	-12038
œP	-12039
']}	-12040
('/	-12041
AYO	-12042
BRE	-12043
Dut	-12044
EDG	-12045
ELA	-12046
FAB	-12047
Foo	-12048
Han	-12049
ION	-12050
ISI	-12051
ISS	-12052
LED	-12053
LLO	-12054
Mll	-12055
NOW	-12056
Nap	-12057
ODb	-12058
ONO	-12059
PAT	-12060
RAC	-12061
RCH	-12062
REC	-12063
REG	-12064
RIK	-12065
RIM	-12066
Rap	-12067
Rrr	-12068
SCA	-12069
SCI	-12070
SET	-12071
TOR	-12072
WOR	-12073
Wet	-12074
abl	-12075
abs	-12076
agn	-12077
awy	-12078
cog	-12079
eck	-12080
ego	-12081
eom	-12082
eou	-12083
epl	-12084
etM	-12085
etn	-12086
eyE	-12087
fed	-12088
ffy	-12089
gre	-12090
gur	-12091
hym	-12092
irs	-12093
kly	-12094
lty	-12095
mIn	-12096
mun	-12097
nah	-12098
ohn	-12099
=(	-12100
Jo	-12101
uh	-12102
Ach	-12103
Dif	-12104
Geo	-12105
ONT	-12106
ehe	-12107
lri	-12108
ogg	-12109
oll	-12110
olp	-12111
ouv	-12112
ran	-12113
reâ	-12114
roz	-12115
sam	-12116
tar	-12117
thi	-12118
tif	-12119
ubd	-12120
ucc	-12121
vew	-12122
wik	-12123
wim	-12124
wks	-12125
xer	-12126
yed	-12127
œAh	-12128
▁..	-12129
▁LA	-12130
▁Mu	-12131
▁ir	-12132
▁mu	-12133
▁ty	-12134
!("{	-12135
('/'	-12136
)}/{	-12137
>/``	-12138
?}")	-12139
AGEN	-12140
AYER	-12141
CALA	-12142
Corp	-12143
ERMI	-12144
ERTI	-12145
Geof	-12146
INCO	-12147
Load	-12148
OORD	-12149
OPER	-12150
Pyth	-12151
REGI	-12152
RELA	-12153
RIES	-12154
RIMA	-12155
Runt	-12156
SION	-12157
TIME	-12158
TION	-12159
TRIC	-12160
WLED	-12161
]}")	-12162
``--	-12163
aitG	-12164
aliz	-12165
allo	-12166
ansf	-12167
asen	-12168
ataD	-12169
atab	-12170
atio	-12171
ayer	-12172
bbon	-12173
blem	-12174
bout	-12175
bweb	-12176
cere	-12177
chae	-12178
cils	-12179
dlib	-12180
dnet	-12181
duce	-12182
ears	-12183
ebug	-12184
eets	-12185
emem	-12186
enis	-12187
ergy	-12188
ethe	-12189
ezed	-12190
fact	-12191
fdop	-12192
geho	-12193
gion	-12194
gory	-12195
gott	-12196
halk	-12197
herw	-12198
ibil	-12199
FF	-12200
Hmm	-12201
Sar	-12202
Wit	-12203
]}:	-12204
dam	-12205
heq	-12206
hqu	-12207
ndu	-12208
rav	-12209
rls	-12210
yon	-12211
▁Ph	-12212
▁ya	-12213
Magg	-12214
ambd	-12215
arls	-12216
ataE	-12217
coli	-12218
cord	-12219
idea	-12220
ildf	-12221
imez	-12222
incl	-12223
ingy	-12224
inks	-12225
iraf	-12226
iscd	-12227
isks	-12228
isob	-12229
liza	-12230
lles	-12231
mbol	-12232
mbre	-12233
mmin	-12234
mons	-12235
nake	-12236
ndle	-12237
nfle	-12238
nony	-12239
ntri	-12240
olds	-12241
onar	-12242
onds	-12243
ooms	-12244
ophe	-12245
osmi	-12246
othb	-12247
ounc	-12248
oupB	-12249
ppin	-12250
ppor	-12251
ppre	-12252
prin	-12253
prod	-12254
quas	-12255
ramC	-12256
ramm	-12257
rans	-12258
rats	-12259
rayL	-12260
rays	-12261
reeM	-12262
repl	-12263
repp	-12264
roco	-12265
scre	-12266
sses	-12267
ssoc	-12268
stic	-12269
sult	-12270
synt	-12271
tand	-12272
thwh	-12273
tive	-12274
trib	-12275
trop	-12276
uddl	-12277
unde	-12278
veil	-12279
wels	-12280
whit	-12281
wled	-12282
xamp	-12283
xury	-12284
yjam	-12285
œHmm	-12286
œWel	-12287
▁Beh	-12288
▁Dan	-12289
▁Els	-12290
▁FRO	-12291
▁Lit	-12292
▁ODb	-12293
▁Osm	-12294
▁Reb	-12295
▁Ret	-12296
▁SCA	-12297
▁SPA	-12298
▁Syn	-12299
(!	-12300
pF	-12301
');	-12302
)."	-12303
Aut	-12304
__}	-12305
adg	-12306
ggs	-12307
lim	-12308
pat	-12309
seu	-12310
usu	-12311
▁Bo	-12312
▁PR	-12313
Dogg	-12314
enth	-12315
erke	-12316
hine	-12317
ibon	-12318
ingâ	-12319
itin	-12320
logy	-12321
luey	-12322
modu	-12323
nnyâ	-12324
onch	-12325
oole	-12326
ssib	-12327
urns	-12328
vels	-12329
vour	-12330
▁Bib	-12331
▁Dor	-12332
▁Str	-12333
▁WOR	-12334
▁avo	-12335
▁cit	-12336
▁cus	-12337
▁diz	-12338
▁esp	-12339
▁fut	-12340
▁gig	-12341
▁jok	-12342
▁lil	-12343
▁lis	-12344
▁ltt	-12345
▁oft	-12346
▁paj	-12347
▁rrr	-12348
▁tur	-12349
ALLOW	-12350
ATASE	-12351
CONTI	-12352
ECIMA	-12353
ECTOR	-12354
ENAME	-12355
Janie	-12356
NLTKB	-12357
PERMI	-12358
PERTI	-12359
Princ	-12360
RANCH	-12361
RIMAR	-12362
ROPER	-12363
TIONS	-12364
TRACT	-12365
TRICT	-12366
abies	-12367
ackie	-12368
adius	-12369
akery	-12370
aller	-12371
althy	-12372
amera	-12373
amers	-12374
anoes	-12375
apers	-12376
arshm	-12377
artes	-12378
arthe	-12379
asier	-12380
asonâ	-12381
assur	-12382
atist	-12383
atura	-12384
avior	-12385
azing	-12386
bbons	-12387
boole	-12388
bwebs	-12389
cabul	-12390
capac	-12391
ciate	-12392
conom	-12393
coura	-12394
cstat	-12395
cters	-12396
ctual	-12397
cused	-12398
dgeho	-12399
>=	-12400
RG	-12401
bF	-12402
mG	-12403
rj	-12404
yt	-12405
Fan	-12406
OKE	-12407
Sor	-12408
atf	-12409
hei	-12410
imb	-12411
oys	-12412
pha	-12413
rin	-12414
war	-12415
xed	-12416
Stre	-12417
asps	-12418
atac	-12419
enSt	-12420
fits	-12421
gize	-12422
ickl	-12423
iffs	-12424
ivis	-12425
izeR	-12426
llar	-12427
mory	-12428
ourt	-12429
roto	-12430
uded	-12431
▁Lav	-12432
▁nud	-12433
▁tup	-12434
acesh	-12435
apsed	-12436
arrot	-12437
arthl	-12438
asetM	-12439
eadOn	-12440
eaked	-12441
ebras	-12442
elery	-12443
eltas	-12444
eness	-12445
enges	-12446
entac	-12447
erals	-12448
eropl	-12449
erpie	-12450
eshoe	-12451
esitt	-12452
esume	-12453
etasp	-12454
etely	-12455
ether	-12456
ffort	-12457
ganiz	-12458
gency	-12459
ggled	-12460
gnize	-12461
guins	-12462
gular	-12463
happy	-12464
haved	-12465
hetti	-12466
hocol	-12467
hosts	-12468
htubs	-12469
husia	-12470
ialTo	-12471
ibbit	-12472
ifull	-12473
ights	-12474
igits	-12475
igloo	-12476
ignit	-12477
ilent	-12478
ilted	-12479
ilthy	-12480
inces	-12481
incet	-12482
inclu	-12483
indep	-12484
ingle	-12485
inval	-12486
isdig	-12487
isses	-12488
istol	-12489
itemL	-12490
izeof	-12491
jured	-12492
kerch	-12493
kstem	-12494
langu	-12495
llect	-12496
logiz	-12497
luffy	-12498
mands	-12499
Ty	-12500
yR	-12501
...	-12502
Wat	-12503
eez	-12504
egg	-12505
eks	-12506
ffe	-12507
inv	-12508
jar	-12509
mmm	-12510
nlt	-12511
ooe	-12512
web	-12513
Sitt	-12514
ailb	-12515
apac	-12516
ares	-12517
cery	-12518
dled	-12519
mmer	-12520
obwe	-12521
oops	-12522
otal	-12523
subF	-12524
subf	-12525
tell	-12526
trut	-12527
▁rip	-12528
addle	-12529
almer	-12530
anish	-12531
antee	-12532
arved	-12533
aying	-12534
esmer	-12535
ffect	-12536
maris	-12537
mbols	-12538
mmedi	-12539
namel	-12540
ndent	-12541
nderl	-12542
nfort	-12543
nownI	-12544
nsets	-12545
nting	-12546
ntrig	-12547
numer	-12548
oform	-12549
ogurt	-12550
oiled	-12551
olloc	-12552
ompar	-12553
onged	-12554
onica	-12555
onneg	-12556
oogly	-12557
ooted	-12558
ooter	-12559
ortan	-12560
orway	-12561
otals	-12562
ouncy	-12563
penSt	-12564
perny	-12565
plied	-12566
plitl	-12567
polog	-12568
ppets	-12569
princ	-12570
racad	-12571
rameN	-12572
raord	-12573
ratul	-12574
rince	-12575
roduc	-12576
royed	-12577
selfâ	-12578
setde	-12579
sists	-12580
sitiv	-12581
solve	-12582
staur	-12583
stder	-12584
subre	-12585
subst	-12586
swith	-12587
timez	-12588
ttach	-12589
uddly	-12590
uided	-12591
umans	-12592
ummed	-12593
ummer	-12594
unter	-12595
uralE	-12596
urple	-12597
urric	-12598
urser	-12599
Dor	-12600
TAS	-12601
Typ	-12602
chy	-12603
eky	-12604
ola	-12605
ono	-12606
opi	-12607
opy	-12608
tou	-12609
▁PB	-12610
Fest	-12611
anan	-12612
bNet	-12613
brat	-12614
brit	-12615
eadO	-12616
ifts	-12617
ingi	-12618
mmas	-12619
orpt	-12620
rack	-12621
retc	-12622
rett	-12623
rint	-12624
ypes	-12625
ypon	-12626
zzle	-12627
▁Abb	-12628
▁Kir	-12629
▁Nin	-12630
▁``-	-12631
▁dre	-12632
▁han	-12633
arest	-12634
brant	-12635
brary	-12636
chugg	-12637
ddent	-12638
ecret	-12639
eterm	-12640
ifted	-12641
iggly	-12642
lakes	-12643
mless	-12644
oards	-12645
ollyâ	-12646
oplan	-12647
ormer	-12648
racts	-12649
ubdiv	-12650
urses	-12651
userI	-12652
usted	-12653
uthor	-12654
vator	-12655
viron	-12656
vokes	-12657
wikid	-12658
xcept	-12659
ynset	-12660
ystem	-12661
ziest	-12662
zzing	-12663
zzled	-12664
zzles	-12665
▁...)	-12666
▁Alth	-12667
▁Brit	-12668
▁Broo	-12669
▁Chie	-12670
▁Cind	-12671
▁Coop	-12672
▁DATA	-12673
▁Doll	-12674
▁Gold	-12675
▁Hann	-12676
▁Imag	-12677
▁Inst	-12678
▁Isab	-12679
▁Lion	-12680
▁Litt	-12681
▁Magg	-12682
▁Nobo	-12683
▁Phoe	-12684
▁Play	-12685
▁Pyth	-12686
▁Sheq	-12687
▁Snee	-12688
▁Soph	-12689
▁Sour	-12690
▁Stor	-12691
▁Word	-12692
▁abso	-12693
▁acce	-12694
▁accu	-12695
▁alph	-12696
▁alri	-12697
▁angr	-12698
▁asyn	-12699
Fo	-12700
ai	-12701
au	-12702
gs	-12703
ju	-12704
?}:	-12705
NLT	-12706
dio	-12707
eis	-12708
hal	-12709
isg	-12710
raz	-12711
ros	-12712
sec	-12713
sie	-12714
sim	-12715
tup	-12716
▁DA	-12717
MANI	-12718
Prom	-12719
aire	-12720
bute	-12721
cale	-12722
chup	-12723
eety	-12724
ercy	-12725
erts	-12726
heet	-12727
ilms	-12728
lcom	-12729
mire	-12730
mper	-12731
ndat	-12732
omew	-12733
ords	-12734
othe	-12735
oudy	-12736
quea	-12737
redd	-12738
reds	-12739
sets	-12740
▁Car	-12741
▁PRI	-12742
▁Som	-12743
▁sup	-12744
▁wee	-12745
agset	-12746
almed	-12747
assed	-12748
epper	-12749
erred	-12750
erted	-12751
igram	-12752
lcome	-12753
lving	-12754
ndred	-12755
opper	-12756
orced	-12757
ppery	-12758
queal	-12759
queen	-12760
ragil	-12761
ragon	-12762
rames	-12763
restr	-12764
strum	-12765
terfl	-12766
ubstr	-12767
▁Jenn	-12768
▁Whis	-12769
▁bene	-12770
▁bogg	-12771
▁caul	-12772
▁caus	-12773
▁cere	-12774
▁chug	-12775
▁cine	-12776
▁coco	-12777
▁coop	-12778
▁cott	-12779
▁daug	-12780
▁deli	-12781
▁desp	-12782
▁emer	-12783
▁emot	-12784
▁enth	-12785
▁fasc	-12786
▁flex	-12787
▁forw	-12788
▁froz	-12789
▁gonn	-12790
▁guid	-12791
▁guil	-12792
▁harb	-12793
▁harv	-12794
▁hayr	-12795
▁hell	-12796
▁hidd	-12797
▁hipp	-12798
▁inde	-12799
Fu	-12800
rR	-12801
tH	-12802
///	-12803
FES	-12804
Kim	-12805
Mar	-12806
Mim	-12807
bol	-12808
eli	-12809
fet	-12810
imn	-12811
lbo	-12812
pbo	-12813
ugs	-12814
uin	-12815
NENT	-12816
abys	-12817
ashM	-12818
avor	-12819
ciss	-12820
cred	-12821
eser	-12822
hash	-12823
hett	-12824
hoco	-12825
hopp	-12826
mits	-12827
nced	-12828
ndef	-12829
otat	-12830
ppyâ	-12831
quat	-12832
rian	-12833
tent	-12834
term	-12835
uage	-12836
uppy	-12837
urre	-12838
▁Gho	-12839
▁jav	-12840
▁nav	-12841
ackbo	-12842
ardbo	-12843
arthd	-12844
auses	-12845
avors	-12846
bling	-12847
cakes	-12848
cated	-12849
collo	-12850
gling	-12851
iated	-12852
icult	-12853
ierar	-12854
inced	-12855
iners	-12856
lingu	-12857
onade	-12858
orill	-12859
ouped	-12860
plash	-12861
rated	-12862
tling	-12863
ublic	-12864
udent	-12865
▁Hash	-12866
▁actu	-12867
▁jeal	-12868
▁jogg	-12869
▁juic	-12870
▁jumb	-12871
▁ladd	-12872
▁lemm	-12873
▁merg	-12874
▁midd	-12875
▁nuzz	-12876
▁onCl	-12877
▁patt	-12878
▁penc	-12879
▁pepp	-12880
▁pian	-12881
▁picn	-12882
▁piec	-12883
▁pigg	-12884
▁pizz	-12885
▁poop	-12886
▁powd	-12887
▁priv	-12888
▁publ	-12889
▁pyth	-12890
▁racc	-12891
▁radi	-12892
▁seco	-12893
▁sect	-12894
▁shak	-12895
▁spag	-12896
▁spic	-12897
▁stum	-12898
▁stup	-12899
?}	-12900
dE	-12901
ka	-12902
nS	-12903
IER	-12904
Ple	-12905
bou	-12906
ctu	-12907
ima	-12908
irp	-12909
jur	-12910
lor	-12911
ncy	-12912
nee	-12913
omf	-12914
unn	-12915
wit	-12916
}).	-12917
Base	-12918
amel	-12919
brus	-12920
eday	-12921
esig	-12922
esti	-12923
ette	-12924
ftly	-12925
herr	-12926
irts	-12927
ixed	-12928
lain	-12929
rigu	-12930
roze	-12931
scot	-12932
sitt	-12933
uest	-12934
▁Kik	-12935
▁pix	-12936
▁thu	-12937
amped	-12938
amper	-12939
angar	-12940
angle	-12941
aving	-12942
bined	-12943
enceP	-12944
fined	-12945
icine	-12946
ixing	-12947
ndles	-12948
oneyc	-12949
ownst	-12950
reddy	-12951
seful	-12952
uffix	-12953
uined	-12954
▁Sund	-12955
▁almo	-12956
▁memb	-12957
▁nois	-12958
▁ripp	-12959
▁spee	-12960
▁subf	-12961
▁summ	-12962
▁sunr	-12963
▁suns	-12964
▁tunn	-12965
▁unex	-12966
▁unre	-12967
▁velv	-12968
▁vers	-12969
▁wagg	-12970
▁ward	-12971
▁wick	-12972
▁zigz	-12973
/')}/{	-12974
Import	-12975
LENAME	-12976
Whereâ	-12977
achute	-12978
adabra	-12979
adband	-12980
agerly	-12981
aggers	-12982
agined	-12983
agulls	-12984
akness	-12985
alming	-12986
amaged	-12987
ambour	-12988
amenet	-12989
amonds	-12990
ancing	-12991
ansfor	-12992
anutes	-12993
arable	-12994
arming	-12995
arthqu	-12996
artwor	-12997
ashier	-12998
asions	-12999
HI	-13000
œL	-13001
("/	-13002
("_	-13003
("{	-13004
Cob	-13005
END	-13006
WED	-13007
ayL	-13008
cky	-13009
esh	-13010
hos	-13011
osa	-13012
tly	-13013
zem	-13014
▁ta	-13015
TART	-13016
appe	-13017
appl	-13018
arkn	-13019
bnet	-13020
esce	-13021
etty	-13022
gage	-13023
impy	-13024
inos	-13025
jasc	-13026
osen	-13027
rews	-13028
ypro	-13029
▁Ran	-13030
▁bas	-13031
)."""	-13032
Jelly	-13033
actus	-13034
andle	-13035
appin	-13036
bject	-13037
cient	-13038
jects	-13039
mired	-13040
ngest	-13041
nging	-13042
oking	-13043
oping	-13044
stery	-13045
yster	-13046
▁Mapp	-13047
▁bitt	-13048
▁norm	-13049
▁proc	-13050
▁prof	-13051
▁skir	-13052
▁tapp	-13053
▁tong	-13054
adject	-13055
agreed	-13056
askets	-13057
assing	-13058
atchbo	-13059
aviour	-13060
aximum	-13061
brated	-13062
butors	-13063
cement	-13064
cepted	-13065
ceries	-13066
chanic	-13067
chools	-13068
contin	-13069
cussed	-13070
ebooks	-13071
edDict	-13072
edding	-13073
elings	-13074
enches	-13075
eneric	-13076
enised	-13077
entang	-13078
entity	-13079
entral	-13080
erator	-13081
ercase	-13082
ermiss	-13083
ertOne	-13084
ervice	-13085
ervous	-13086
espect	-13087
espite	-13088
essert	-13089
estion	-13090
ferent	-13091
fileob	-13092
flakes	-13093
flower	-13094
formed	-13095
forted	-13096
fortun	-13097
ganize	-13098
gative	-13099
Ms	-13100
Hen	-13101
Jil	-13102
Lis	-13103
azy	-13104
fts	-13105
igl	-13106
rri	-13107
usb	-13108
wir	-13109
Happ	-13110
RawT	-13111
abul	-13112
airc	-13113
erhe	-13114
hile	-13115
istm	-13116
kdir	-13117
lute	-13118
nite	-13119
pike	-13120
rash	-13121
resh	-13122
sRaw	-13123
uity	-13124
unsh	-13125
wist	-13126
ycle	-13127
▁Imp	-13128
▁Wik	-13129
▁ram	-13130
aired	-13131
anceo	-13132
ardsE	-13133
asetS	-13134
asets	-13135
enter	-13136
erRaw	-13137
hakes	-13138
ispat	-13139
mance	-13140
momet	-13141
onate	-13142
phere	-13143
reman	-13144
serve	-13145
thier	-13146
urbed	-13147
œHell	-13148
▁Hair	-13149
▁atmo	-13150
▁diff	-13151
▁pare	-13152
▁trou	-13153
Father	-13154
allows	-13155
athers	-13156
atters	-13157
elease	-13158
elfish	-13159
gister	-13160
gnized	-13161
hatted	-13162
having	-13163
herits	-13164
heroes	-13165
ialize	-13166
iately	-13167
ibling	-13168
ibrant	-13169
ibrary	-13170
iceman	-13171
icense	-13172
ickets	-13173
icnics	-13174
icular	-13175
icycle	-13176
idates	-13177
ifests	-13178
iffing	-13179
iffled	-13180
ifying	-13181
igging	-13182
iggled	-13183
igrams	-13184
ikiped	-13185
ilable	-13186
ilence	-13187
ilters	-13188
ilures	-13189
imping	-13190
inated	-13191
inches	-13192
ingred	-13193
inimum	-13194
inkles	-13195
insens	-13196
iraffe	-13197
irates	-13198
irrels	-13199
Ry	-13200
bn	-13201
ALA	-13202
eco	-13203
eep	-13204
eyb	-13205
ibl	-13206
ige	-13207
nsp	-13208
osp	-13209
pap	-13210
rol	-13211
sla	-13212
tty	-13213
ude	-13214
vis	-13215
Puzz	-13216
Trip	-13217
ctiv	-13218
erde	-13219
eriv	-13220
fely	-13221
give	-13222
hosp	-13223
hyth	-13224
idth	-13225
ildh	-13226
irly	-13227
irth	-13228
ivat	-13229
ivit	-13230
minf	-13231
oday	-13232
owth	-13233
pony	-13234
rels	-13235
rips	-13236
spir	-13237
spon	-13238
thon	-13239
▁Inv	-13240
▁Sou	-13241
▁mor	-13242
▁tou	-13243
agine	-13244
cited	-13245
eying	-13246
gions	-13247
gized	-13248
ivide	-13249
nized	-13250
olice	-13251
onest	-13252
relat	-13253
ricks	-13254
ripes	-13255
rokes	-13256
roupB	-13257
uffed	-13258
uffer	-13259
urden	-13260
▁Trip	-13261
▁alth	-13262
▁barb	-13263
▁jung	-13264
▁numb	-13265
▁ruff	-13266
Sitter	-13267
anized	-13268
arents	-13269
cessIt	-13270
chieve	-13271
cument	-13272
iggles	-13273
isfied	-13274
istant	-13275
isters	-13276
istics	-13277
istled	-13278
istory	-13279
itated	-13280
itcase	-13281
itchen	-13282
ithout	-13283
itions	-13284
itterL	-13285
iverse	-13286
ivided	-13287
ixture	-13288
joiced	-13289
lassif	-13290
latter	-13291
lauded	-13292
leSave	-13293
learth	-13294
lebrat	-13295
lidays	-13296
llipop	-13297
llowed	-13298
locked	-13299
hs	-13300
yl	-13301
"))	-13302
Cou	-13303
__"	-13304
__)	-13305
``"	-13306
``-	-13307
``_	-13308
```	-13309
``{	-13310
bby	-13311
cyc	-13312
ein	-13313
fie	-13314
hry	-13315
isi	-13316
kan	-13317
pho	-13318
sso	-13319
Pick	-13320
TASE	-13321
``."	-13322
acti	-13323
hape	-13324
igns	-13325
ikes	-13326
leph	-13327
lies	-13328
mbar	-13329
nize	-13330
oken	-13331
rary	-13332
spit	-13333
ults	-13334
wned	-13335
▁dum	-13336
▁fla	-13337
▁fli	-13338
▁hou	-13339
ardly	-13340
esign	-13341
hange	-13342
ignal	-13343
ignor	-13344
ilmed	-13345
ionat	-13346
ookie	-13347
oomed	-13348
owman	-13349
reign	-13350
rning	-13351
roken	-13352
tched	-13353
ultur	-13354
xical	-13355
zling	-13356
▁beag	-13357
▁hosp	-13358
▁magn	-13359
▁relu	-13360
▁trud	-13361
▁unco	-13362
▁unif	-13363
▁wrot	-13364
addled	-13365
antony	-13366
aptain	-13367
arning	-13368
asketb	-13369
asurem	-13370
cesses	-13371
daught	-13372
etting	-13373
ignore	-13374
incess	-13375
ivered	-13376
logize	-13377
lrestr	-13378
lution	-13379
mances	-13380
marise	-13381
mbarra	-13382
merony	-13383
minfle	-13384
mkstem	-13385
mpting	-13386
natura	-13387
nected	-13388
nglish	-13389
nowing	-13390
nowled	-13391
nowman	-13392
nownId	-13393
oToken	-13394
obbled	-13395
ointed	-13396
olding	-13397
ologiz	-13398
omelet	-13399
IL	-13400
sI	-13401
AGE	-13402
Cat	-13403
YER	-13404
cco	-13405
otc	-13406
typ	-13407
zzy	-13408
▁ze	-13409
▁zi	-13410
▁zo	-13411
Hash	-13412
OKEN	-13413
ailw	-13414
anor	-13415
bbit	-13416
bons	-13417
care	-13418
eded	-13419
ertO	-13420
getK	-13421
ilit	-13422
inco	-13423
ipto	-13424
obil	-13425
onsi	-13426
ooey	-13427
oors	-13428
pons	-13429
ppos	-13430
rawl	-13431
roph	-13432
sume	-13433
tons	-13434
unat	-13435
vors	-13436
vous	-13437
wors	-13438
▁Kat	-13439
▁Pen	-13440
▁Rap	-13441
▁cli	-13442
▁tid	-13443
dress	-13444
gress	-13445
ictim	-13446
ictor	-13447
inner	-13448
issor	-13449
itors	-13450
ndled	-13451
rived	-13452
unity	-13453
unwra	-13454
▁Slow	-13455
▁crat	-13456
▁cris	-13457
▁disa	-13458
▁disg	-13459
▁enco	-13460
▁enve	-13461
▁fron	-13462
▁hors	-13463
▁nail	-13464
▁penn	-13465
▁plen	-13466
▁trac	-13467
▁usel	-13468
abbits	-13469
ddress	-13470
entail	-13471
icture	-13472
omfort	-13473
onents	-13474
onored	-13475
onours	-13476
onster	-13477
ontent	-13478
ooming	-13479
opcorn	-13480
oplane	-13481
ordnet	-13482
orilla	-13483
oscope	-13484
otting	-13485
oubleâ	-13486
ounces	-13487
ourful	-13488
ourney	-13489
owever	-13490
parate	-13491
paring	-13492
partit	-13493
pation	-13494
phants	-13495
pharma	-13496
pholog	-13497
played	-13498
pperon	-13499
:/	-13500
Ro	-13501
Wa	-13502
)):	-13503
,"}	-13504
ANC	-13505
Fig	-13506
Fre	-13507
hyt	-13508
tow	-13509
unf	-13510
▁Fu	-13511
▁IS	-13512
▁Os	-13513
▁oi	-13514
TRAC	-13515
augh	-13516
bleâ	-13517
died	-13518
eigh	-13519
enve	-13520
ighs	-13521
lied	-13522
luff	-13523
oary	-13524
▁Dis	-13525
▁Sis	-13526
▁Tho	-13527
▁lec	-13528
▁leo	-13529
▁unc	-13530
▁uni	-13531
▁unp	-13532
▁unw	-13533
▁unz	-13534
▁voc	-13535
▁vol	-13536
Thatâ	-13537
arble	-13538
artif	-13539
entri	-13540
issed	-13541
issil	-13542
lexic	-13543
ntact	-13544
oiced	-13545
ortab	-13546
ounts	-13547
roble	-13548
tress	-13549
ubble	-13550
uperF	-13551
xious	-13552
▁Prop	-13553
▁Siss	-13554
▁allo	-13555
▁firm	-13556
▁stol	-13557
▁voll	-13558
▁writ	-13559
aceful	-13560
ackets	-13561
arched	-13562
assids	-13563
cident	-13564
heered	-13565
icious	-13566
imeout	-13567
inched	-13568
iously	-13569
issile	-13570
joying	-13571
leased	-13572
mazing	-13573
nament	-13574
omewor	-13575
owered	-13576
produc	-13577
proper	-13578
provin	-13579
quator	-13580
quined	-13581
quired	-13582
racked	-13583
racted	-13584
ractic	-13585
raging	-13586
ragons	-13587
rained	-13588
rammar	-13589
randma	-13590
rankie	-13591
rassed	-13592
rawber	-13593
rawing	-13594
rawled	-13595
raying	-13596
reathe	-13597
reeMap	-13598
reling	-13599
:"	-13600
CIM	-13601
Cir	-13602
GES	-13603
Met	-13604
Nod	-13605
beh	-13606
bot	-13607
eah	-13608
erh	-13609
ffs	-13610
nbe	-13611
orr	-13612
rif	-13613
rms	-13614
sti	-13615
tis	-13616
vit	-13617
chas	-13618
erId	-13619
esom	-13620
ffin	-13621
ffit	-13622
ffle	-13623
gile	-13624
intl	-13625
intm	-13626
isbe	-13627
laim	-13628
llyâ	-13629
onqu	-13630
reng	-13631
rmor	-13632
robe	-13633
▁apr	-13634
▁bot	-13635
▁lun	-13636
▁sla	-13637
▁sli	-13638
Canon	-13639
actly	-13640
actor	-13641
ctorI	-13642
eetie	-13643
esert	-13644
ffing	-13645
ffled	-13646
ffles	-13647
iserC	-13648
lways	-13649
orror	-13650
ouldn	-13651
reeNo	-13652
rmest	-13653
tered	-13654
▁Mint	-13655
▁earl	-13656
▁fren	-13657
▁nobo	-13658
▁setL	-13659
▁slam	-13660
▁slit	-13661
▁stun	-13662
▁tras	-13663
▁trop	-13664
▁weig	-13665
ackage	-13666
alised	-13667
andles	-13668
ctised	-13669
eeties	-13670
eeting	-13671
essage	-13672
gerous	-13673
illage	-13674
lished	-13675
ooking	-13676
orised	-13677
ostrop	-13678
raised	-13679
rector	-13680
rement	-13681
reshed	-13682
retted	-13683
ricket	-13684
rinted	-13685
rition	-13686
roccol	-13687
roduce	-13688
rossed	-13689
roupBy	-13690
sensit	-13691
setdef	-13692
solute	-13693
sponse	-13694
stract	-13695
struct	-13696
subreg	-13697
tached	-13698
teract	-13699
LE	-13700
Mou	-13701
Pet	-13702
Rac	-13703
TES	-13704
adi	-13705
ani	-13706
nti	-13707
ppr	-13708
sel	-13709
}()	-13710
▁GE	-13711
▁Gh	-13712
CONO	-13713
aniz	-13714
aryD	-13715
ashi	-13716
bbed	-13717
bedi	-13718
cane	-13719
gled	-13720
gniz	-13721
gurt	-13722
hies	-13723
husi	-13724
iane	-13725
isin	-13726
joys	-13727
onne	-13728
oord	-13729
rail	-13730
shes	-13731
stle	-13732
tool	-13733
zled	-13734
▁App	-13735
▁Dre	-13736
▁byt	-13737
▁coz	-13738
▁lib	-13739
▁puz	-13740
▁sen	-13741
▁sna	-13742
▁spu	-13743
WaitG	-13744
Yield	-13745
aders	-13746
atoes	-13747
categ	-13748
eties	-13749
ffins	-13750
flake	-13751
ibble	-13752
iries	-13753
onall	-13754
ooler	-13755
orbed	-13756
owled	-13757
rikes	-13758
ucket	-13759
ungry	-13760
▁Eart	-13761
▁endp	-13762
▁fier	-13763
▁hous	-13764
▁inte	-13765
▁ratt	-13766
▁snif	-13767
▁snug	-13768
▁turt	-13769
▁unus	-13770
▁watc	-13771
andage	-13772
ardens	-13773
arkled	-13774
eaking	-13775
ickled	-13776
illies	-13777
omains	-13778
ookies	-13779
oolish	-13780
ottles	-13781
ouched	-13782
ubbles	-13783
uctant	-13784
ucture	-13785
uffing	-13786
uffins	-13787
ugging	-13788
uished	-13789
ularly	-13790
umpkin	-13791
unread	-13792
urated	-13793
urpose	-13794
urrent	-13795
usband	-13796
ustard	-13797
utomat	-13798
utomob	-13799
Js	-13800
Ke	-13801
ov	-13802
(":	-13803
)``	-13804
Beh	-13805
TAR	-13806
adm	-13807
byt	-13808
byâ	-13809
ckw	-13810
emb	-13811
ipâ	-13812
lip	-13813
mpf	-13814
ssy	-13815
tem	-13816
tip	-13817
œTh	-13818
Dolp	-13819
Lady	-13820
____	-13821
arby	-13822
asem	-13823
auti	-13824
cuse	-13825
eaut	-13826
euse	-13827
eves	-13828
ipal	-13829
ipat	-13830
kill	-13831
oons	-13832
ordn	-13833
orep	-13834
poon	-13835
reeN	-13836
reso	-13837
rmly	-13838
umer	-13839
vell	-13840
view	-13841
▁Nav	-13842
▁Rem	-13843
▁Wip	-13844
▁fes	-13845
▁flu	-13846
▁sch	-13847
▁waf	-13848
arsed	-13849
empor	-13850
eople	-13851
hough	-13852
iping	-13853
oline	-13854
reamt	-13855
reamy	-13856
tough	-13857
uable	-13858
ypony	-13859
▁Bobb	-13860
▁Jump	-13861
▁Lady	-13862
▁afra	-13863
▁crun	-13864
▁guit	-13865
▁mars	-13866
▁muse	-13867
artoon	-13868
covery	-13869
erable	-13870
gement	-13871
iation	-13872
ionate	-13873
lation	-13874
mpfile	-13875
nation	-13876
sitant	-13877
ubject	-13878
uttled	-13879
valueL	-13880
vation	-13881
vement	-13882
venirs	-13883
vereig	-13884
vestig	-13885
viding	-13886
warded	-13887
ziness	-13888
zzling	-13889
▁Canon	-13890
▁Charl	-13891
▁Coord	-13892
▁Delic	-13893
▁Frame	-13894
▁GEOFA	-13895
▁Inval	-13896
▁Jelly	-13897
▁LAYER	-13898
▁Marsh	-13899
)(	-13900
Iâ	-13901
Je	-13902
nv	-13903
Opt	-13904
Osm	-13905
Rec	-13906
alm	-13907
awL	-13908
awT	-13909
awe	-13910
awn	-13911
ipf	-13912
keu	-13913
las	-13914
ndp	-13915
rou	-13916
sag	-13917
ueâ	-13918
▁(`	-13919
("."	-13920
addy	-13921
assp	-13922
corp	-13923
esaw	-13924
gins	-13925
guin	-13926
happ	-13927
heel	-13928
hins	-13929
lept	-13930
maid	-13931
omeb	-13932
rept	-13933
ript	-13934
rmer	-13935
uins	-13936
urpo	-13937
▁Opt	-13938
▁buz	-13939
▁nos	-13940
▁usu	-13941
▁wol	-13942
assag	-13943
asses	-13944
assif	-13945
assro	-13946
dvent	-13947
dying	-13948
hereâ	-13949
imals	-13950
insen	-13951
inser	-13952
opped	-13953
plies	-13954
rains	-13955
urrow	-13956
utest	-13957
vents	-13958
▁Runt	-13959
▁Sitt	-13960
▁appl	-13961
▁buil	-13962
▁cons	-13963
▁conv	-13964
▁corp	-13965
▁curi	-13966
▁foll	-13967
▁lett	-13968
▁thes	-13969
fident	-13970
orners	-13971
ration	-13972
ulated	-13973
vented	-13974
ventor	-13975
ventur	-13976
▁Event	-13977
▁Morph	-13978
▁NLTKB	-13979
▁Offic	-13980
▁Rapun	-13981
▁Rebec	-13982
▁Repos	-13983
▁Reser	-13984
▁Rever	-13985
▁Snugg	-13986
▁Spark	-13987
▁Stand	-13988
▁TreeS	-13989
▁Whisk	-13990
▁accom	-13991
▁addit	-13992
▁admir	-13993
▁airpl	-13994
▁appet	-13995
▁appre	-13996
▁argum	-13997
▁artif	-13998
▁attri	-13999
Ov	-14000
Wr	-14001
Yo	-14002
eE	-14003
KAG	-14004
Liz	-14005
Rem	-14006
giz	-14007
liz	-14008
roa	-14009
siz	-14010
ube	-14011
uea	-14012
▁PE	-14013
▁PO	-14014
▁Pl	-14015
▁Po	-14016
▁Pr	-14017
▁Py	-14018
ANCH	-14019
Kase	-14020
ONTI	-14021
anif	-14022
ansd	-14023
aseE	-14024
aser	-14025
born	-14026
chun	-14027
gers	-14028
izab	-14029
izat	-14030
nect	-14031
ommy	-14032
oriz	-14033
otty	-14034
pect	-14035
racy	-14036
rais	-14037
turn	-14038
ucce	-14039
ucer	-14040
uche	-14041
▁Luc	-14042
▁Pet	-14043
▁Tri	-14044
▁blu	-14045
▁dea	-14046
▁dem	-14047
▁edg	-14048
▁org	-14049
▁siz	-14050
alued	-14051
athro	-14052
essag	-14053
estro	-14054
etwor	-14055
ializ	-14056
iving	-14057
loves	-14058
onfly	-14059
orner	-14060
otect	-14061
othie	-14062
oudly	-14063
owers	-14064
uched	-14065
urnit	-14066
urred	-14067
▁Pend	-14068
▁____	-14069
▁anyw	-14070
▁blin	-14071
▁blus	-14072
▁brav	-14073
▁chee	-14074
▁chem	-14075
▁chun	-14076
▁dogg	-14077
▁drin	-14078
▁oran	-14079
▁pref	-14080
▁quer	-14081
▁runn	-14082
▁stam	-14083
▁sunl	-14084
▁sunn	-14085
ective	-14086
eetest	-14087
ording	-14088
orning	-14089
ulling	-14090
urning	-14091
▁Wikid	-14092
▁backw	-14093
▁batht	-14094
▁bedro	-14095
▁behav	-14096
▁binco	-14097
▁birth	-14098
▁bloss	-14099
>>	-14100
gr	-14101
kâ	-14102
tO	-14103
End	-14104
OOR	-14105
akn	-14106
bur	-14107
cak	-14108
eak	-14109
hak	-14110
nak	-14111
ndy	-14112
xie	-14113
Dire	-14114
acec	-14115
ashl	-14116
asta	-14117
asty	-14118
aurs	-14119
axed	-14120
berj	-14121
card	-14122
dent	-14123
ecca	-14124
hank	-14125
indn	-14126
live	-14127
razy	-14128
rele	-14129
sert	-14130
ueak	-14131
uran	-14132
xtra	-14133
yshp	-14134
▁Cir	-14135
▁Con	-14136
▁Coo	-14137
▁NLT	-14138
▁Ros	-14139
▁cac	-14140
▁cak	-14141
▁cin	-14142
▁raz	-14143
▁tak	-14144
▁tog	-14145
▁vel	-14146
anill	-14147
anket	-14148
arber	-14149
astle	-14150
astry	-14151
berke	-14152
cting	-14153
idata	-14154
inded	-14155
isast	-14156
istak	-14157
loded	-14158
ohnny	-14159
orryâ	-14160
strop	-14161
ubber	-14162
umber	-14163
xture	-14164
▁argm	-14165
▁ench	-14166
▁jell	-14167
▁keyo	-14168
▁mast	-14169
▁roug	-14170
▁thie	-14171
arsing	-14172
astful	-14173
asting	-14174
astles	-14175
ckable	-14176
edaled	-14177
izable	-14178
morrow	-14179
others	-14180
▁bookc	-14181
▁bounc	-14182
▁brace	-14183
▁campf	-14184
▁camps	-14185
▁caref	-14186
▁categ	-14187
▁champ	-14188
▁chann	-14189
▁cheat	-14190
▁chees	-14191
▁choic	-14192
▁chuck	-14193
▁cleve	-14194
▁colon	-14195
▁colum	-14196
▁conso	-14197
▁cooln	-14198
▁corre	-14199
Ac	-14200
`:	-14201
Hub	-14202
dil	-14203
ems	-14204
geh	-14205
gem	-14206
geo	-14207
ini	-14208
lax	-14209
oub	-14210
pli	-14211
ppl	-14212
rge	-14213
tig	-14214
ubF	-14215
ubs	-14216
yId	-14217
▁Ac	-14218
▁Fo	-14219
RawL	-14220
adge	-14221
arge	-14222
arit	-14223
cate	-14224
elta	-14225
enge	-14226
ffor	-14227
fled	-14228
heme	-14229
inkl	-14230
ishm	-14231
ishy	-14232
lash	-14233
lish	-14234
lite	-14235
orge	-14236
ousa	-14237
riag	-14238
rink	-14239
rive	-14240
uake	-14241
ubre	-14242
ubse	-14243
uice	-14244
vill	-14245
▁Rec	-14246
▁Rel	-14247
▁Rut	-14248
▁hos	-14249
▁tru	-14250
adish	-14251
arate	-14252
asher	-14253
erate	-14254
idate	-14255
ildly	-14256
ilter	-14257
inate	-14258
inkly	-14259
irate	-14260
irler	-14261
nders	-14262
quish	-14263
stair	-14264
ulate	-14265
unish	-14266
ventu	-14267
▁airp	-14268
▁catc	-14269
▁cele	-14270
▁hock	-14271
▁holl	-14272
▁howl	-14273
▁seaf	-14274
▁seaw	-14275
▁stub	-14276
▁teas	-14277
▁tink	-14278
▁trad	-14279
▁tran	-14280
unnies	-14281
▁Johnn	-14282
▁Round	-14283
▁becom	-14284
▁cater	-14285
▁compa	-14286
▁corru	-14287
▁coura	-14288
▁crank	-14289
▁crumb	-14290
▁cryst	-14291
▁darkn	-14292
▁datab	-14293
▁datet	-14294
▁defin	-14295
▁desig	-14296
▁dinos	-14297
▁dishw	-14298
▁displ	-14299
tb	-14300
'",	-14301
Dum	-14302
Lou	-14303
Luc	-14304
Per	-14305
acl	-14306
aft	-14307
iat	-14308
kid	-14309
pac	-14310
tac	-14311
▁Ru	-14312
▁Sl	-14313
File	-14314
Pudd	-14315
])()	-14316
acce	-14317
acer	-14318
acit	-14319
ackb	-14320
adyb	-14321
asks	-14322
dile	-14323
dist	-14324
fles	-14325
fted	-14326
gles	-14327
iate	-14328
ippy	-14329
irty	-14330
kins	-14331
lore	-14332
onac	-14333
oray	-14334
plac	-14335
raft	-14336
rate	-14337
rift	-14338
roac	-14339
rump	-14340
sile	-14341
ture	-14342
umps	-14343
wber	-14344
▁Dav	-14345
▁Dri	-14346
▁Ind	-14347
▁Lac	-14348
▁ama	-14349
▁lac	-14350
▁lam	-14351
▁mov	-14352
Langu	-14353
acher	-14354
arger	-14355
backs	-14356
enged	-14357
etter	-14358
feter	-14359
fterw	-14360
fting	-14361
nside	-14362
ounti	-14363
press	-14364
stles	-14365
umper	-14366
urged	-14367
▁Sudd	-14368
▁hars	-14369
▁payo	-14370
▁plac	-14371
▁spac	-14372
▁ting	-14373
▁voic	-14374
ingdom	-14375
inions	-14376
ounted	-14377
ountry	-14378
ramAss	-14379
viting	-14380
▁appla	-14381
▁dripp	-14382
▁dropp	-14383
▁elder	-14384
▁eleph	-14385
▁emitt	-14386
▁encod	-14387
▁encou	-14388
▁energ	-14389
▁enorm	-14390
▁envel	-14391
▁equal	-14392
▁escap	-14393
▁examp	-14394
▁excla	-14395
▁extin	-14396
▁fallb	-14397
▁famil	-14398
▁filen	-14399
lk	-14400
Fes	-14401
Lat	-14402
PAC	-14403
Rel	-14404
Rob	-14405
Tob	-14406
bis	-14407
bst	-14408
cob	-14409
eac	-14410
eob	-14411
feg	-14412
feâ	-14413
hre	-14414
iao	-14415
obb	-14416
obe	-14417
obs	-14418
rob	-14419
ubf	-14420
▁MS	-14421
▁Na	-14422
▁RA	-14423
apit	-14424
eria	-14425
fere	-14426
gged	-14427
hene	-14428
hive	-14429
lane	-14430
mult	-14431
obed	-14432
omob	-14433
otos	-14434
oven	-14435
phen	-14436
rage	-14437
tate	-14438
ulia	-14439
vens	-14440
▁Joj	-14441
▁Jos	-14442
▁Nob	-14443
▁Nor	-14444
▁Pie	-14445
▁kep	-14446
▁wes	-14447
anged	-14448
ceive	-14449
ctive	-14450
enced	-14451
illbo	-14452
itive	-14453
ively	-14454
llows	-14455
ooden	-14456
ouven	-14457
raged	-14458
reath	-14459
rowed	-14460
uries	-14461
venan	-14462
▁Dian	-14463
▁Maxw	-14464
▁Pepp	-14465
▁Thei	-14466
▁marb	-14467
▁myse	-14468
▁pean	-14469
▁peep	-14470
▁peer	-14471
▁prod	-14472
▁scre	-14473
▁sham	-14474
aliser	-14475
erries	-14476
essary	-14477
icence	-14478
idened	-14479
ntries	-14480
reated	-14481
reater	-14482
repped	-14483
tering	-14484
unting	-14485
vening	-14486
▁favor	-14487
▁firef	-14488
▁firet	-14489
▁firew	-14490
▁flapp	-14491
▁fount	-14492
▁freez	-14493
▁frequ	-14494
▁frust	-14495
▁goodb	-14496
▁grabb	-14497
▁groan	-14498
▁halft	-14499
ao	-14500
dr	-14501
hr	-14502
nh	-14503
wf	-14504
"."	-14505
Any	-14506
Ema	-14507
Non	-14508
Wik	-14509
lft	-14510
lfâ	-14511
mac	-14512
nym	-14513
rre	-14514
tic	-14515
▁Wa	-14516
▁ci	-14517
bour	-14518
cour	-14519
ekly	-14520
erma	-14521
erny	-14522
iali	-14523
ials	-14524
ildl	-14525
iour	-14526
lour	-14527
oked	-14528
ourh	-14529
rmed	-14530
rned	-14531
rray	-14532
sour	-14533
tour	-14534
ulls	-14535
ullâ	-14536
▁Des	-14537
▁bos	-14538
▁det	-14539
▁ema	-14540
▁pog	-14541
▁wit	-14542
Repos	-14543
achin	-14544
anned	-14545
arise	-14546
arned	-14547
asped	-14548
erned	-14549
errif	-14550
erves	-14551
ialis	-14552
icial	-14553
ilder	-14554
ildre	-14555
isely	-14556
isper	-14557
itely	-14558
mpted	-14559
onour	-14560
ontin	-14561
orial	-14562
oured	-14563
ouris	-14564
vided	-14565
▁blad	-14566
▁exha	-14567
▁pock	-14568
▁poll	-14569
▁quen	-14570
▁shar	-14571
▁snak	-14572
▁trut	-14573
▁usag	-14574
TINENT	-14575
abinet	-14576
artial	-14577
elling	-14578
ilding	-14579
imiter	-14580
incere	-14581
mories	-14582
ouring	-14583
romise	-14584
▁PENDI	-14585
▁greed	-14586
▁handc	-14587
▁handk	-14588
▁handl	-14589
▁hayst	-14590
▁healt	-14591
▁helic	-14592
▁highe	-14593
▁holid	-14594
▁hopel	-14595
▁hopsc	-14596
▁horiz	-14597
▁hyper	-14598
▁ident	-14599
Ge	-14600
KE	-14601
Ki	-14602
tn	-14603
vr	-14604
..)	-14605
akf	-14606
axw	-14607
cal	-14608
cti	-14609
erI	-14610
eze	-14611
gar	-14612
oss	-14613
rce	-14614
rct	-14615
sif	-14616
ssi	-14617
tus	-14618
ueE	-14619
▁om	-14620
Dist	-14621
LLOW	-14622
ampf	-14623
ante	-14624
arah	-14625
axim	-14626
inem	-14627
lect	-14628
nuck	-14629
ollo	-14630
reig	-14631
ruck	-14632
runk	-14633
sect	-14634
tant	-14635
uckl	-14636
unct	-14637
vant	-14638
vect	-14639
▁Ext	-14640
▁abs	-14641
▁ens	-14642
▁fas	-14643
▁opt	-14644
▁sme	-14645
alant	-14646
alind	-14647
amine	-14648
antag	-14649
antic	-14650
arely	-14651
asted	-14652
ctant	-14653
eally	-14654
icant	-14655
inish	-14656
itant	-14657
ndern	-14658
orant	-14659
oying	-14660
pered	-14661
quite	-14662
rocer	-14663
ssing	-14664
ssion	-14665
stume	-14666
urant	-14667
utors	-14668
▁betw	-14669
▁bree	-14670
▁corr	-14671
▁dadd	-14672
▁reco	-14673
▁snat	-14674
▁tang	-14675
▁tuck	-14676
▁yuck	-14677
andies	-14678
antast	-14679
antell	-14680
inally	-14681
ittens	-14682
lphins	-14683
ndered	-14684
ometim	-14685
orated	-14686
▁cluck	-14687
▁finis	-14688
▁helpf	-14689
▁ignit	-14690
▁impat	-14691
▁inclu	-14692
▁indic	-14693
▁insep	-14694
▁intro	-14695
▁janit	-14696
▁journ	-14697
▁ketch	-14698
▁kindn	-14699
gh	-14700
hD	-14701
hM	-14702
wp	-14703
")]	-14704
Mag	-14705
OFA	-14706
Pap	-14707
aff	-14708
apo	-14709
aqu	-14710
cen	-14711
edE	-14712
erd	-14713
ett	-14714
lif	-14715
nap	-14716
ndm	-14717
nds	-14718
orl	-14719
pst	-14720
qui	-14721
wom	-14722
▁Fi	-14723
▁um	-14724
▁va	-14725
acef	-14726
ailm	-14727
anta	-14728
apot	-14729
arel	-14730
arse	-14731
elay	-14732
esho	-14733
flow	-14734
iant	-14735
iday	-14736
itud	-14737
lows	-14738
muse	-14739
quar	-14740
quir	-14741
quis	-14742
quit	-14743
requ	-14744
rmos	-14745
▁Fal	-14746
▁Fat	-14747
▁Fir	-14748
▁Fro	-14749
▁gum	-14750
▁onl	-14751
▁reb	-14752
ament	-14753
blems	-14754
cling	-14755
cycle	-14756
erive	-14757
iflow	-14758
lided	-14759
lowed	-14760
morph	-14761
orest	-14762
quack	-14763
reams	-14764
ustac	-14765
▁Fest	-14766
▁brid	-14767
▁brin	-14768
▁chil	-14769
▁doug	-14770
▁graf	-14771
▁impo	-14772
▁leap	-14773
▁setE	-14774
▁weap	-14775
anguag	-14776
cticed	-14777
ectful	-14778
exical	-14779
manded	-14780
ortant	-14781
ragile	-14782
▁brill	-14783
▁knowl	-14784
▁langu	-14785
▁laund	-14786
▁lexic	-14787
▁lifeg	-14788
▁looku	-14789
▁magaz	-14790
▁mailw	-14791
▁marve	-14792
▁merch	-14793
▁metas	-14794
▁metho	-14795
▁micro	-14796
▁minim	-14797
▁minut	-14798
▁misbe	-14799
Rit	-14800
eap	-14801
eni	-14802
eon	-14803
epy	-14804
mid	-14805
nis	-14806
owd	-14807
ubl	-14808
▁er	-14809
Walk	-14810
attâ	-14811
bols	-14812
book	-14813
daug	-14814
ddit	-14815
ench	-14816
eply	-14817
etde	-14818
fins	-14819
ialE	-14820
indO	-14821
iply	-14822
ishw	-14823
keep	-14824
lead	-14825
omis	-14826
pers	-14827
rect	-14828
rust	-14829
sist	-14830
step	-14831
usto	-14832
ustp	-14833
usts	-14834
usty	-14835
uteE	-14836
yped	-14837
▁Onl	-14838
▁cla	-14839
▁clu	-14840
▁dep	-14841
Fight	-14842
alled	-14843
ammar	-14844
anton	-14845
apses	-14846
autif	-14847
epart	-14848
epers	-14849
epest	-14850
ightl	-14851
ightn	-14852
ighty	-14853
linic	-14854
meron	-14855
obble	-14856
ocado	-14857
ucing	-14858
ushes	-14859
ustle	-14860
ustom	-14861
▁Stat	-14862
▁cler	-14863
▁danc	-14864
▁deco	-14865
▁flut	-14866
▁leat	-14867
▁naug	-14868
▁shap	-14869
▁swep	-14870
▁taug	-14871
▁whoe	-14872
TypedD	-14873
atoric	-14874
erised	-14875
raight	-14876
rapped	-14877
ropped	-14878
uggage	-14879
uggled	-14880
usting	-14881
▁click	-14882
▁clust	-14883
▁decim	-14884
▁decis	-14885
▁delet	-14886
▁goodn	-14887
▁monke	-14888
▁monst	-14889
▁morph	-14890
▁motor	-14891
▁mount	-14892
▁neckl	-14893
▁noteb	-14894
▁notic	-14895
▁octop	-14896
▁orang	-14897
▁ordin	-14898
▁ostri	-14899
DB	-14900
Fa	-14901
xi	-14902
"",	-14903
'"}	-14904
Sen	-14905
etâ	-14906
noy	-14907
uis	-14908
yse	-14909
Cand	-14910
Imag	-14911
Pure	-14912
Sess	-14913
andi	-14914
eave	-14915
essI	-14916
essy	-14917
fect	-14918
gist	-14919
hist	-14920
houg	-14921
iped	-14922
ista	-14923
istl	-14924
isty	-14925
ourn	-14926
rank	-14927
tist	-14928
uced	-14929
xist	-14930
▁Smo	-14931
▁chi	-14932
▁chu	-14933
▁piz	-14934
▁swa	-14935
▁vic	-14936
▁vie	-14937
▁vow	-14938
▁vro	-14939
abrac	-14940
acers	-14941
aning	-14942
athst	-14943
ekday	-14944
entur	-14945
essar	-14946
essed	-14947
esser	-14948
hters	-14949
imple	-14950
inist	-14951
istan	-14952
isten	-14953
istin	-14954
istra	-14955
owave	-14956
pting	-14957
stand	-14958
tened	-14959
uffin	-14960
uises	-14961
▁Cand	-14962
▁Mand	-14963
▁Sand	-14964
▁cate	-14965
▁chal	-14966
▁cham	-14967
▁chry	-14968
▁clif	-14969
▁feat	-14970
▁popc	-14971
▁rumb	-14972
▁swit	-14973
▁swoo	-14974
▁swor	-14975
▁useS	-14976
▁vall	-14977
▁vent	-14978
▁vide	-14979
entist	-14980
ersist	-14981
essful	-14982
essing	-14983
istake	-14984
▁Dream	-14985
▁chall	-14986
▁impre	-14987
▁lambd	-14988
▁ourse	-14989
▁outdo	-14990
▁overb	-14991
▁overj	-14992
▁overr	-14993
▁pajam	-14994
▁passp	-14995
▁pathl	-14996
▁perim	-14997
▁pipel	-14998
▁playf	-14999
Ju	-15000
gl	-15001
wm	-15002
+",	-15003
Rab	-15004
aba	-15005
abb	-15006
eit	-15007
fab	-15008
gic	-15009
hap	-15010
iab	-15011
irr	-15012
lab	-15013
oal	-15014
owe	-15015
sab	-15016
tab	-15017
zab	-15018
▁JS	-15019
abil	-15020
abor	-15021
abri	-15022
adab	-15023
alar	-15024
arab	-15025
arly	-15026
ckab	-15027
ders	-15028
eeze	-15029
erab	-15030
ersh	-15031
ilab	-15032
isab	-15033
mers	-15034
mous	-15035
orab	-15036
ortE	-15037
ortl	-15038
rous	-15039
sers	-15040
sive	-15041
sser	-15042
▁Bab	-15043
▁cab	-15044
▁cha	-15045
▁rou	-15046
▁sis	-15047
▁tab	-15048
Morph	-15049
allab	-15050
ayers	-15051
endab	-15052
erous	-15053
erson	-15054
etRaw	-15055
hared	-15056
heers	-15057
icers	-15058
icket	-15059
iders	-15060
igers	-15061
lared	-15062
onous	-15063
orate	-15064
reets	-15065
tract	-15066
umers	-15067
uried	-15068
uters	-15069
▁chas	-15070
▁conj	-15071
▁cult	-15072
▁defa	-15073
▁gott	-15074
▁pump	-15075
▁putt	-15076
▁rubb	-15077
▁sove	-15078
ainers	-15079
assage	-15080
ciated	-15081
ickers	-15082
inders	-15083
ingers	-15084
orable	-15085
verage	-15086
▁birdc	-15087
▁birdh	-15088
▁birdi	-15089
▁conte	-15090
▁makeu	-15091
▁playg	-15092
▁plead	-15093
▁pluck	-15094
▁polis	-15095
▁preto	-15096
▁princ	-15097
▁proce	-15098
▁proto	-15099
ET	-15100
Mr	-15101
aj	-15102
fâ	-15103
kb	-15104
pk	-15105
Hel	-15106
hnn	-15107
ipl	-15108
itH	-15109
lig	-15110
lus	-15111
ndc	-15112
nus	-15113
pla	-15114
spl	-15115
uad	-15116
upp	-15117
usc	-15118
usi	-15119
uss	-15120
▁Sa	-15121
Cong	-15122
Pand	-15123
acki	-15124
andm	-15125
atal	-15126
caus	-15127
dNet	-15128
ects	-15129
enco	-15130
impl	-15131
ingF	-15132
ionF	-15133
ipel	-15134
kers	-15135
leng	-15136
long	-15137
loud	-15138
mong	-15139
nnie	-15140
omeh	-15141
ongr	-15142
ookc	-15143
ooki	-15144
ooks	-15145
opus	-15146
ouds	-15147
pion	-15148
plan	-15149
plas	-15150
plis	-15151
pysh	-15152
rize	-15153
rost	-15154
stor	-15155
usag	-15156
veal	-15157
vite	-15158
▁Dut	-15159
▁Liz	-15160
▁Mus	-15161
▁Sus	-15162
▁poe	-15163
onath	-15164
onent	-15165
ously	-15166
plain	-15167
rnado	-15168
▁agre	-15169
▁argu	-15170
▁carp	-15171
▁carr	-15172
▁claw	-15173
▁cong	-15174
Colloc	-15175
chless	-15176
entire	-15177
ionall	-15178
itedly	-15179
itterE	-15180
ongest	-15181
rmomet	-15182
ushing	-15183
▁Chick	-15184
▁carri	-15185
▁excit	-15186
▁partn	-15187
▁purch	-15188
▁radis	-15189
▁recip	-15190
▁recom	-15191
▁refus	-15192
▁relat	-15193
▁relie	-15194
▁remem	-15195
▁renam	-15196
▁respo	-15197
▁restl	-15198
▁resum	-15199
+"	-15200
AS	-15201
HA	-15202
eg	-15203
uâ	-15204
wT	-15205
Mil	-15206
ati	-15207
gis	-15208
ilv	-15209
kit	-15210
oco	-15211
pir	-15212
ppi	-15213
ste	-15214
tir	-15215
uar	-15216
ueL	-15217
wes	-15218
▁Ed	-15219
▁Er	-15220
▁Ry	-15221
▁WA	-15222
>();	-15223
Free	-15224
aRaw	-15225
edro	-15226
ello	-15227
geta	-15228
hatt	-15229
hatâ	-15230
hens	-15231
hree	-15232
mell	-15233
nado	-15234
ofab	-15235
onum	-15236
orse	-15237
plic	-15238
pret	-15239
rade	-15240
reeh	-15241
stre	-15242
uman	-15243
wers	-15244
▁Dat	-15245
▁Del	-15246
▁Eil	-15247
▁Jer	-15248
▁Ral	-15249
▁coa	-15250
▁coc	-15251
▁hip	-15252
▁med	-15253
▁ped	-15254
angul	-15255
dings	-15256
elled	-15257
etest	-15258
iggle	-15259
igher	-15260
inion	-15261
lives	-15262
nings	-15263
onger	-15264
onkey	-15265
ottle	-15266
retch	-15267
therw	-15268
urved	-15269
wings	-15270
▁Jell	-15271
▁Pret	-15272
▁copp	-15273
▁coug	-15274
▁faul	-15275
▁frid	-15276
▁pant	-15277
▁perc	-15278
▁prou	-15279
▁prun	-15280
▁scis	-15281
▁thei	-15282
▁wort	-15283
Bigram	-15284
esture	-15285
icaliz	-15286
inator	-15287
irings	-15288
owance	-15289
umming	-15290
▁brist	-15291
▁retur	-15292
▁rhyth	-15293
▁safet	-15294
▁sandb	-15295
▁satis	-15296
▁sciss	-15297
▁scrat	-15298
▁scrub	-15299
bp	-15300
hl	-15301
hp	-15302
lb	-15303
yI	-15304
œC	-15305
.""	-15306
Cen	-15307
Spl	-15308
ddl	-15309
ddy	-15310
fun	-15311
gue	-15312
iri	-15313
isb	-15314
lau	-15315
lum	-15316
mor	-15317
nen	-15318
oma	-15319
oti	-15320
rus	-15321
tur	-15322
uee	-15323
vil	-15324
yle	-15325
Letâ	-15326
alan	-15327
ameâ	-15328
ddle	-15329
ddly	-15330
ddre	-15331
edat	-15332
eful	-15333
esty	-15334
foot	-15335
gett	-15336
icat	-15337
irlâ	-15338
lend	-15339
mest	-15340
pare	-15341
reem	-15342
reep	-15343
roll	-15344
roug	-15345
ucks	-15346
ueal	-15347
ustl	-15348
yone	-15349
yway	-15350
▁Lar	-15351
▁obe	-15352
▁sca	-15353
▁tha	-15354
▁wel	-15355
agged	-15356
arful	-15357
cense	-15358
dedup	-15359
eking	-15360
elted	-15361
entic	-15362
icker	-15363
icrow	-15364
lping	-15365
oodby	-15366
ounds	-15367
ownlo	-15368
oyful	-15369
ramed	-15370
stful	-15371
ubdir	-15372
urled	-15373
vited	-15374
▁Kase	-15375
▁mann	-15376
▁scam	-15377
▁spir	-15378
▁stas	-15379
▁stru	-15380
▁surv	-15381
▁thir	-15382
anking	-15383
areful	-15384
irling	-15385
roking	-15386
rosses	-15387
▁enoug	-15388
▁hardw	-15389
▁hover	-15390
▁manif	-15391
▁plast	-15392
▁repor	-15393
▁sandc	-15394
▁searc	-15395
▁seatb	-15396
▁secur	-15397
▁setLo	-15398
▁shopp	-15399
mr	-15400
nm	-15401
sl	-15402
uf	-15403
Old	-15404
Pie	-15405
Yie	-15406
agp	-15407
dul	-15408
eag	-15409
eci	-15410
[...]
