<pad>	0
<unk>	0
<s>	0
</s>	0
.	-2.8042
▁	-3.01663
▁and	-3.54267
,	-3.56978
▁the	-3.60719
▁a	-3.77289
▁to	-3.90068
1	-4.18412
▁was	-4.19679
0	-4.22808
2	-4.49888
3	-4.5843
▁"	-4.72287
5	-4.73843
7	-4.74102
8	-4.75146
4	-4.76056
6	-4.76273
9	-4.7756
▁it	-4.81098
▁=	-4.82783
s	-4.84716
▁They	-4.93889
'	-4.94275
▁her	-4.95579
#	-4.96489
▁She	-4.97474
▁He	-5.00837
▁The	-5.05369
▁+	-5.07964
▁said	-5.08403
▁in	-5.1516
▁he	-5.25495
▁she	-5.30434
▁with	-5.30714
+	-5.33865
▁c	-5.36396
|	-5.40883
▁of	-5.40957
▁had	-5.41992
ed	-5.4352
▁Lily	-5.46794
▁his	-5.47125
▁so	-5.48433
▁that	-5.4913
▁you	-5.5042
▁day	-5.51064
▁they	-5.53325
▁.	-5.53934
▁on	-5.68162
d	-5.70466
▁for	-5.71361
!	-5.76899
▁mom	-5.78458
▁is	-5.8086
▁very	-5.8285
t	-5.83111
▁time	-5.87626
=	-5.88225
▁be	-5.88672
▁were	-5.89291
▁there	-5.89757
▁It	-5.92007
▁little	-5.92767
▁w	-5.94375
!"	-5.95854
▁happy	-5.96295
."	-5.96712
▁I	-5.9896
▁saw	-5.99224
▁not	-6.00913
▁b	-6.03492
▁big	-6.06976
▁but	-6.08008
One	-6.08666
_	-6.12241
▁them	-6.1341
▁Once	-6.13538
▁play	-6.19086
▁their	-6.19568
▁Ben	-6.22706
▁are	-6.23208
▁girl	-6.23994
▁wanted	-6.2701
▁have	-6.27617
▁upon	-6.27714
ing	-6.30812
▁up	-6.30847
▁him	-6.33068
▁go	-6.33818
▁all	-6.35439
?"	-6.37814
▁went	-6.38691
▁can	-6.38869
▁Tom	-6.39657
▁smiled	-6.41353
:	-6.42456
▁friends	-6.4589
▁But	-6.47795
▁asked	-6.48064
▁at	-6.48172
▁name	-6.52623
▁like	-6.54022
â	-6.55534
€	-6.55534
▁from	-6.5848
▁could	-6.60317
▁back	-6.6305
▁out	-6.63785
▁looked	-6.66716
▁too	-6.67011
▁felt	-6.67175
▁around	-6.68675
▁fun	-6.70189
▁loved	-6.71613
;	-6.72151
▁what	-6.72253
▁see	-6.7348
▁boy	-6.74374
▁help	-6.74764
▁something	-6.75137
▁found	-6.7654
▁would	-6.77097
,"	-6.77116
I	-6.77183
▁Timmy	-6.77484
(	-6.77527
▁then	-6.78788
▁some	-6.7932
▁more	-6.80221
>	-6.81198
▁ran	-6.83436
▁put	-6.83452
m	-6.83713
▁made	-6.84536
▁started	-6.84758
▁Sam	-6.85885
▁make	-6.86115
▁You	-6.86509
▁park	-6.87707
▁want	-6.87718
▁do	-6.88213
▁new	-6.8889
▁home	-6.89809
▁Tim	-6.91176
▁did	-6.91606
call	-6.91867
▁an	-6.93563
▁together	-6.94449
▁other	-6.94833
▁away	-6.94837
▁excited	-6.97702
▁Anna	-6.98227
▁we	-6.98852
▁says	-6.99611
▁things	-6.99876
)	-7.00023
▁one	-7.00334
▁liked	-7.03292
▁who	-7.03636
▁get	-7.0392
▁when	-7.04347
▁Mom	-7.04744
▁again	-7.04828
▁playing	-7.05401
▁find	-7.1013
▁sad	-7.11224
▁man	-7.12163
▁came	-7.12357
▁i	-7.133
▁got	-7.13577
▁if	-7.14514
▁will	-7.14768
▁your	-7.151
▁bird	-7.15254
▁friend	-7.15267
▁take	-7.17221
▁as	-7.17459
▁old	-7.17539
▁thought	-7.20345
▁When	-7.20683
-	-7.20727
▁special	-7.21199
▁me	-7.21964
▁down	-7.22124
▁dad	-7.22362
▁o	-7.22624
st	-7.23757
▁scared	-7.23781
▁each	-7.23954
▁car	-7.2448
▁ans	-7.24942
▁pick	-7.25951
▁Max	-7.2649
▁look	-7.26505
n	-7.28189
e	-7.28888
▁outside	-7.29371
▁So	-7.29929
▁knew	-7.31492
▁about	-7.3198
▁this	-7.3232
▁Jack	-7.32526
",	-7.32788
▁didn	-7.33236
▁always	-7.34974
▁good	-7.35923
▁tree	-7.3717
▁how	-7.38109
▁my	-7.38157
▁Her	-7.39127
▁mommy	-7.39237
▁thank	-7.3978
▁know	-7.41342
▁toys	-7.4198
ok	-7.42149
▁over	-7.42624
▁house	-7.42947
▁<	-7.43359
▁decide	-7.43754
▁proud	-7.43963
▁come	-7.44237
▁Mia	-7.45104
▁much	-7.45399
▁sorry	-7.46118
▁A	-7.46422
▁no	-7.46513
▁g	-7.47287
▁heard	-7.47323
▁water	-7.4946
▁kind	-7.49745
▁inside	-7.50176
ave	-7.50817
▁toy	-7.51412
▁room	-7.51463
▁told	-7.52221
▁couldn	-7.5273
▁His	-7.52862
ever	-7.5291
▁Sara	-7.5363
▁even	-7.53726
▁Suddenly	-7.53935
▁show	-7.54042
▁berries	-7.54783
▁nice	-7.54995
▁bear	-7.57006
▁has	-7.58098
▁Sue	-7.58722
▁dog	-7.58785
▁many	-7.58806
▁small	-7.58893
▁We	-7.58915
▁ju	-7.60471
▁hugged	-7.61151
Yes	-7.62749
▁</	-7.64581
▁And	-7.64656
▁Then	-7.64848
▁box	-7.67153
▁learned	-7.68231
y	-7.68574
▁don	-7.70273
▁beautiful	-7.70709
▁sky	-7.71178
▁tried	-7.71217
▁better	-7.7166
▁import	-7.71738
▁two	-7.72617
▁best	-7.73568
into	-7.73669
▁played	-7.74178
▁careful	-7.7492
▁people	-7.75003
▁laughed	-7.75046
▁let	-7.75058
▁ball	-7.75751
cause	-7.75887
▁n	-7.75975
?	-7.77146
▁say	-7.77465
▁off	-7.78151
▁family	-7.79834
▁both	-7.80467
▁animals	-7.81516
▁eat	-7.81768
▁garden	-7.81858
▁by	-7.82373
▁left	-7.84047
▁end	-7.8427
▁Fro	-7.84645
▁machine	-7.84749
▁explore	-7.85129
▁love	-7.86912
lots	-7.87152
▁long	-7.87288
▁flowers	-7.8807
▁opened	-7.88367
▁shiny	-7.89287
▁t	-7.90077
▁feel	-7.90807
▁walked	-7.91158
▁still	-7.91524
▁Every	-7.91872
You	-7.92562
▁{	-7.92732
▁should	-7.93245
▁give	-7.94105
No	-7.9414
▁Lucy	-7.944
▁door	-7.95411
▁brave	-7.95548
▁safe	-7.95699
▁or	-7.96166
▁called	-7.96247
▁sun	-7.96603
▁way	-7.96809
▁soon	-7.97046
▁cat	-7.97198
▁hard	-7.97284
▁nodded	-7.9733
▁return	-7.98515
▁noise	-7.98973
▁⟨	-7.99056
That	-7.99059
▁try	-7.99071
Let	-7.99288
▁going	-7.99303
What	-7.99338
▁Amy	-7.99724
It	-8.00018
▁before	-8.00978
re	-8.01236
▁lived	-8.01729
▁share	-8.01894
▁flew	-8.02826
▁pretty	-8.02836
▁lot	-8.02892
▁idea	-8.03331
▁everyone	-8.03483
▁After	-8.03938
▁notice	-8.03942
▁red	-8.04139
▁every	-8.04166
"	-8.05974
▁smile	-8.06105
▁John	-8.06849
▁looking	-8.07819
▁us	-8.08366
▁angry	-8.08684
ll	-8.09183
▁Bob	-8.09309
▁loud	-8.09329
▁great	-8.0952
▁apples	-8.09605
▁keep	-8.09804
▁stopped	-8.10033
▁ground	-8.10123
▁walking	-8.10141
▁stay	-8.10386
▁after	-8.10621
▁hurt	-8.11137
▁also	-8.11473
▁next	-8.11682
Thank	-8.12083
▁children	-8.1209
▁There	-8.12228
ept	-8.12659
il	-8.12853
▁place	-8.13535
▁-	-8.13908
▁}	-8.14402
▁run	-8.14538
▁hand	-8.14599
▁hug	-8.15821
▁counted	-8.16392
▁bad	-8.16453
▁k	-8.16473
▁rabbit	-8.17046
▁Everyone	-8.17063
▁unt	-8.17118
▁feeling	-8.17192
▁use	-8.17895
▁been	-8.17966
Look	-8.18297
▁voice	-8.18507
▁fish	-8.19087
▁replied	-8.19258
▁remember	-8.20004
▁bit	-8.20414
▁Now	-8.20833
▁eyes	-8.20839
/	-8.21036
▁hands	-8.21367
▁Jane	-8.21545
▁its	-8.21701
▁learn	-8.21852
▁ever	-8.22432
▁Mommy	-8.22757
▁important	-8.23068
▁right	-8.23408
▁need	-8.23819
▁That	-8.25231
ly	-8.25355
▁head	-8.25541
▁while	-8.25642
Can	-8.26266
▁forest	-8.26368
▁goodbye	-8.26979
▁fast	-8.27003
▁kids	-8.27003
▁boat	-8.27015
▁closer	-8.27016
▁Dad	-8.27115
▁listen	-8.2729
▁clean	-8.27795
▁curious	-8.27796
▁three	-8.27906
to	-8.27971
▁okay	-8.29457
▁truck	-8.30344
Maybe	-8.30954
▁blue	-8.31099
()	-8.31984
▁food	-8.32062
▁rock	-8.32208
▁bed	-8.32534
▁now	-8.32632
▁worked	-8.33099
▁store	-8.3364
[	-8.33844
is	-8.34022
▁Joe	-8.35253
▁glad	-8.35338
▁grabb	-8.3548
▁work	-8.35652
▁done	-8.36123
▁high	-8.37062
▁making	-8.37177
▁than	-8.37304
▁fly	-8.37939
▁lost	-8.38026
▁first	-8.38168
▁near	-8.38888
▁game	-8.39074
We	-8.39109
ook	-8.39147
▁warm	-8.39765
▁green	-8.3981
->	-8.40465
▁decid	-8.40604
▁quickly	-8.40735
▁story	-8.4075
▁carefully	-8.40795
▁trees	-8.40994
▁Spot	-8.41302
▁Sarah	-8.4276
▁cake	-8.42779
▁def	-8.4329
▁birds	-8.43406
▁Sally	-8.43533
▁world	-8.43588
As	-8.43743
▁turn	-8.43801
▁our	-8.43919
▁only	-8.44052
ver	-8.44197
▁cry	-8.4446
▁favorite	-8.44489
▁adventure	-8.44698
TM	-8.44781
▁Let	-8.44847
▁walk	-8.45168
▁Tommy	-8.45491
a	-8.45663
▁tell	-8.45845
▁face	-8.45963
▁grass	-8.46412
▁reach	-8.46543
▁coming	-8.46702
▁watched	-8.46707
")	-8.47071
▁pond	-8.4739
▁shouted	-8.47446
▁having	-8.4747
▁jumped	-8.4761
▁slide	-8.47726
▁books	-8.48065
▁ready	-8.48467
dir	-8.49606
▁flower	-8.4964
▁sure	-8.49695
▁sound	-8.49856
▁yummy	-8.50456
▁At	-8.50816
▁think	-8.51518
▁brother	-8.51675
▁catch	-8.51991
▁doing	-8.52212
▁wait	-8.52606
▁open	-8.53478
▁began	-8.53483
▁happened	-8.536
▁sign	-8.53812
▁ne	-8.54144
▁surprise	-8.5436
▁kitchen	-8.54543
▁pretend	-8.54543
▁boxes	-8.54595
▁where	-8.54601
]	-8.54897
▁doll	-8.54915
▁lady	-8.55593
▁happily	-8.55606
▁wonderful	-8.55611
▁hot	-8.55739
▁sees	-8.56044
▁hear	-8.56349
▁through	-8.56688
▁why	-8.56689
▁watch	-8.56797
▁here	-8.56861
▁am	-8.56887
▁years	-8.5713
Hello	-8.57636
▁strong	-8.5774
▁funny	-8.57766
▁night	-8.57853
▁number	-8.58296
self	-8.58709
r	-8.58824
▁waved	-8.58987
▁seen	-8.59706
▁bright	-8.59951
▁mother	-8.59991
▁needed	-8.60461
sat	-8.60698
▁dark	-8.61086
▁What	-8.61461
▁under	-8.62284
▁book	-8.62311
▁surprised	-8.62647
▁fell	-8.63381
▁Lila	-8.63475
▁enjoyed	-8.63654
▁On	-8.63982
("	-8.64428
▁lesson	-8.6455
Wow	-8.6458
▁Benny	-8.64623
▁delicious	-8.64626
▁Can	-8.64627
▁thing	-8.6473
▁full	-8.6475
▁"""	-8.64887
▁ate	-8.65057
▁Grandma	-8.65142
▁really	-8.65734
▁arrived	-8.65735
▁does	-8.65861
▁Jill	-8.65861
▁buttons	-8.65933
▁Do	-8.66354
▁mean	-8.67004
▁blocks	-8.67057
▁stayed	-8.67492
▁touch	-8.68009
▁floor	-8.68112
▁agreed	-8.68176
ve	-8.68538
f	-8.69038
▁anymore	-8.6934
▁magical	-8.69344
):	-8.69515
▁hole	-8.69544
▁close	-8.6958
came	-8.69662
▁frog	-8.69798
="	-8.70188
▁Th	-8.70563
▁amazing	-8.70572
▁sweet	-8.7092
▁broken	-8.71883
▁fill	-8.71921
▁himself	-8.72015
▁won	-8.72019
▁picture	-8.72316
▁shared	-8.72581
▁(	-8.72602
▁soft	-8.73018
▁running	-8.73089
▁fair	-8.73102
▁anything	-8.73106
▁Daisy	-8.7316
▁finished	-8.73201
▁move	-8.74466
▁class	-8.74861
▁ice	-8.74892
▁set	-8.7539
▁different	-8.75674
▁cool	-8.75681
▁buy	-8.75714
▁friendly	-8.75807
al	-8.75888
▁parents	-8.7628
o	-8.7647
▁any	-8.76825
▁Billy	-8.77013
▁tired	-8.77069
▁wind	-8.77171
▁hopped	-8.77182
▁cold	-8.77329
▁path	-8.77428
▁bag	-8.77576
▁s	-8.77633
▁br	-8.78039
▁yellow	-8.78313
▁grew	-8.78319
▁cheered	-8.78377
▁dress	-8.78398
▁else	-8.78462
▁beach	-8.78532
▁tall	-8.78668
▁coins	-8.78794
▁helped	-8.79563
▁fox	-8.79654
▁princess	-8.79674
▁held	-8.7985
▁understand	-8.7999
est	-8.8019
▁bike	-8.80272
▁field	-8.80315
ting	-8.80336
".	-8.80461
▁rain	-8.80718
▁str	-8.80912
▁wrong	-8.8103
▁sometimes	-8.81083
▁mum	-8.81341
▁shop	-8.81748
▁own	-8.81927
ought	-8.81945
▁cars	-8.82086
▁behind	-8.8242
name	-8.82739
▁Mama	-8.82853
▁hat	-8.82873
▁care	-8.83054
Why	-8.83385
▁another	-8.83874
▁T	-8.83985
▁gone	-8.84064
▁leaves	-8.84407
▁followed	-8.85474
▁swing	-8.85803
▁enjoy	-8.86365
▁morning	-8.86709
▁worry	-8.86713
▁explained	-8.8675
▁spot	-8.8736
▁spoon	-8.87391
▁mouse	-8.88178
▁cried	-8.88297
used	-8.8861
▁realize	-8.88871
▁elephant	-8.88871
▁op	-8.88888
▁top	-8.89593
▁bunny	-8.89669
▁Soon	-8.89787
path	-8.90269
▁ga	-8.90304
▁stop	-8.90338
▁pile	-8.9048
▁herself	-8.90573
▁S	-8.91045
▁grandma	-8.91185
▁faster	-8.91227
▁someone	-8.91279
▁train	-8.91515
▁balloons	-8.91763
▁talk	-8.92279
▁please	-8.92436
▁cream	-8.92471
es	-8.9293
▁promised	-8.92933
Mom	-8.93634
▁crate	-8.9433
▁farm	-8.94349
▁None	-8.9438
▁deep	-8.94469
▁stones	-8.94555
▁jump	-8.94568
▁ride	-8.94648
▁wish	-8.95158
▁build	-8.95816
▁backyard	-8.95877
raw	-8.95996
▁pulled	-8.96096
▁cookies	-8.96187
▁listened	-8.96641
▁lion	-8.96724
▁tower	-8.96835
▁hide	-8.96854
▁star	-8.9686
▁far	-8.97266
▁amazed	-8.97481
▁bigger	-8.97484
▁Jimmy	-8.97582
▁colors	-8.97726
▁Path	-8.97784
▁stepp	-8.97879
▁shells	-8.97935
▁window	-8.98184
▁yes	-8.98222
▁hill	-8.98343
Don	-8.98434
▁moment	-8.98443
▁strange	-8.9906
▁puppy	-8.99115
▁Finally	-8.99122
▁finally	-8.99125
▁candy	-8.99131
▁Mary	-8.99215
▁pumpkins	-8.9925
▁laugh	-8.99395
▁u	-8.99523
▁sat	-8.99614
▁welcome	-8.99881
T	-8.99995
▁liv	-9.00299
But	-9.0077
▁dinner	-9.00785
▁continued	-9.00982
▁join	-9.00994
▁Daddy	-9.00995
▁drink	-9.01499
__	-9.01509
▁dolls	-9.01999
▁purple	-9.02479
▁fire	-9.02505
▁stickers	-9.02681
▁joy	-9.02898
▁bowl	-9.03414
or	-9.03487
eddy	-9.03735
▁fix	-9.04003
ir	-9.04033
▁Inside	-9.04209
▁butterfly	-9.0421
▁dangerous	-9.0421
▁juice	-9.04215
▁baby	-9.04232
▁town	-9.04463
▁read	-9.04825
▁swim	-9.04927
▁self	-9.04954
div	-9.05486
▁everything	-9.05978
▁table	-9.06027
▁monkey	-9.06963
▁music	-9.07233
Oh	-9.07649
▁pink	-9.07733
▁gentle	-9.07745
▁party	-9.0779
▁crying	-9.08065
▁visit	-9.09163
able	-9.09457
▁money	-9.09554
rote	-9.09709
▁bucket	-9.10548
▁dream	-9.10656
▁leave	-9.10678
▁scary	-9.11409
▁hungry	-9.11411
get	-9.11609
▁flying	-9.1172
▁woods	-9.11783
▁rest	-9.12042
▁break	-9.12294
▁wet	-9.12694
▁drove	-9.13291
▁start	-9.13352
▁forgot	-9.13358
▁today	-9.13363
ntil	-9.13623
▁along	-9.1367
▁cut	-9.13846
▁paper	-9.14467
▁piece	-9.14565
▁__	-9.14654
▁pack	-9.14668
▁quiet	-9.15186
▁alone	-9.15238
▁waited	-9.15824
▁side	-9.15825
▁brown	-9.16088
▁ask	-9.16245
▁light	-9.16834
Okay	-9.1707
▁might	-9.17087
The	-9.17179
str	-9.17266
▁DatasetMeta	-9.17313
▁stick	-9.18251
▁``	-9.18902
▁smart	-9.19172
▁silly	-9.19176
▁twins	-9.19187
▁must	-9.19236
▁child	-9.19302
▁life	-9.19331
▁air	-9.19562
▁f	-9.1975
▁th	-9.19901
▁sweets	-9.20426
▁asks	-9.20445
▁balloon	-9.2045
▁coin	-9.20516
▁race	-9.20551
▁Molly	-9.21212
▁enough	-9.21217
▁heavy	-9.21229
▁nap	-9.21248
▁runs	-9.2134
▁marbles	-9.21359
▁though	-9.21396
▁closed	-9.21898
RawLayout	-9.2193
▁others	-9.22226
▁squirrel	-9.22512
▁sand	-9.23108
▁wolf	-9.23293
▁Alice	-9.23297
▁clothes	-9.2332
▁across	-9.23372
▁climbed	-9.23618
▁believe	-9.23824
``	-9.24106
aught	-9.24168
▁duck	-9.24648
▁helping	-9.25149
▁plane	-9.25195
▁cheese	-9.25425
▁suddenly	-9.2544
▁wants	-9.25605
<	-9.25618
▁Bobo	-9.2575
▁sh	-9.26029
▁pieces	-9.2642
▁storm	-9.26552
▁bottle	-9.2679
▁treasure	-9.26811
▁castle	-9.26968
▁sounds	-9.27006
▁thinks	-9.27032
▁("	-9.27039
▁grateful	-9.27604
▁everywhere	-9.2762
▁Red	-9.27833
▁soup	-9.27855
▁school	-9.2786
er	-9.28181
œ	-9.28289
▁smiles	-9.28336
▁gift	-9.28635
▁//	-9.28694
▁swings	-9.28775
▁x	-9.28908
▁In	-9.29131
and	-9.29159
▁bow	-9.29317
▁paint	-9.29383
▁year	-9.29435
Hi	-9.29544
▁reache	-9.29683
▁land	-9.29772
▁white	-9.29816
▁hair	-9.2982
▁sharing	-9.29844
▁Mum	-9.29939
▁pub	-9.30221
Mommy	-9.30344
▁trying	-9.30374
▁without	-9.30436
▁climb	-9.30528
w	-9.30692
▁bags	-9.31079
▁blanket	-9.31221
▁follow	-9.31753
▁pull	-9.31803
▁mess	-9.32045
▁nearby	-9.32098
▁lake	-9.32114
▁taking	-9.32143
▁With	-9.32181
▁META	-9.32223
▁singing	-9.32226
▁bite	-9.32398
OK	-9.32764
▁forget	-9.32997
annot	-9.33526
▁job	-9.3359
▁apple	-9.33646
▁treat	-9.33763
▁adventures	-9.33935
▁al	-9.34139
▁daddy	-9.3442
▁bread	-9.34484
▁tiny	-9.34547
ids	-9.34649
▁dry	-9.34723
▁most	-9.34776
▁same	-9.34832
▁hoped	-9.34837
▁bought	-9.34863
▁moved	-9.35174
▁words	-9.35551
wards	-9.36001
"""	-9.36131
▁dance	-9.3627
▁doctor	-9.36795
▁course	-9.36944
▁Johnny	-9.36947
▁acorns	-9.37217
Do	-9.3722
▁throw	-9.37905
▁B	-9.38007
▁answer	-9.38014
▁huge	-9.38062
base	-9.38105
▁building	-9.38684
▁sea	-9.38937
▁mor	-9.3895
▁sing	-9.39088
▁broke	-9.39116
▁few	-9.39223
▁slowly	-9.39246
▁wild	-9.39285
▁Emily	-9.39382
":	-9.39385
▁pet	-9.39448
▁danced	-9.39623
▁wings	-9.39821
▁noises	-9.39842
▁wise	-9.40146
▁Come	-9.40734
▁animal	-9.40951
▁makes	-9.41171
▁lift	-9.41279
▁chase	-9.41294
Sure	-9.41649
▁giant	-9.41727
▁secret	-9.41731
▁polite	-9.41731
▁rainbow	-9.41736
▁may	-9.41871
▁pushed	-9.41971
▁odd	-9.4232
uch	-9.42565
TMt	-9.42687
▁hello	-9.4294
he	-9.43011
▁tail	-9.43534
▁games	-9.4387
Lily	-9.44021
▁p	-9.44044
▁cloth	-9.44268
▁jar	-9.44291
▁lunch	-9.44294
▁exciting	-9.44304
▁corner	-9.44321
▁Blue	-9.44342
▁longer	-9.44409
▁river	-9.44413
▁hugs	-9.44626
▁knock	-9.44692
it	-9.45226
round	-9.4531
▁rod	-9.45551
▁piles	-9.45567
M	-9.46183
▁nose	-9.46229
▁spicy	-9.46921
▁sister	-9.46924
▁shoes	-9.46946
▁upset	-9.46951
▁wear	-9.47145
▁wondered	-9.47162
▁grow	-9.47535
▁dragon	-9.48788
▁key	-9.49155
▁teach	-9.49159
▁zoo	-9.49247
▁int	-9.49415
▁cow	-9.49432
▁Jim	-9.49604
▁milk	-9.49617
▁Julia	-9.49622
▁worried	-9.49634
▁fence	-9.49635
▁snowman	-9.49636
▁coal	-9.49637
▁mine	-9.49649
▁trust	-9.4967
▁busy	-9.49688
▁higher	-9.49699
dded	-9.49774
Be	-9.49815
▁wall	-9.50103
nt	-9.50108
▁Mr	-9.50436
id	-9.50743
▁promise	-9.50905
▁stars	-9.51067
S	-9.51175
▁RawTriple	-9.51382
▁forever	-9.51398
▁mouth	-9.51588
▁young	-9.52063
data	-9.52311
twee	-9.52361
future	-9.52375
▁flea	-9.52394
▁Jenny	-9.52399
▁modern	-9.52402
▁colorful	-9.52408
▁street	-9.5241
▁stories	-9.52411
▁daughter	-9.52415
▁healthy	-9.52425
▁)	-9.52483
▁counting	-9.52521
▁holding	-9.52542
▁corn	-9.52744
▁owner	-9.52777
▁miss	-9.52851
add	-9.52882
▁spen	-9.53043
▁part	-9.53171
▁eating	-9.53441
▁heart	-9.53985
▁pictures	-9.54132
▁snow	-9.54289
▁monster	-9.54454
his	-9.54484
œI	-9.54855
▁win	-9.54878
▁these	-9.55002
▁dirt	-9.5523
▁hanger	-9.55264
▁dirty	-9.55341
Thi	-9.55445
ar	-9.555
▁bench	-9.55834
ch	-9.55902
▁touched	-9.56241
▁cute	-9.56279
in	-9.56797
▁pocket	-9.57314
▁robot	-9.57374
ted	-9.57609
▁trouble	-9.57796
rows	-9.58035
▁perfect	-9.58163
▁black	-9.58192
▁prize	-9.58193
▁Rose	-9.58196
▁Fluffy	-9.58197
▁road	-9.58199
ations	-9.58236
Where	-9.58245
▁teacher	-9.58246
▁seemed	-9.58359
▁wearing	-9.58367
▁wide	-9.58375
h	-9.58506
▁mod	-9.58565
::	-9.58665
▁sold	-9.58756
▁well	-9.58989
▁treats	-9.59137
rew	-9.60284
▁hold	-9.60362
▁shirt	-9.60411
▁cover	-9.60767
▁const	-9.60863
▁tea	-9.61037
▁sleep	-9.61117
▁Bill	-9.61138
▁bridge	-9.61225
▁lonely	-9.61226
▁yield	-9.61227
▁maybe	-9.61229
▁relieved	-9.6123
▁exploring	-9.61259
▁screamed	-9.61344
▁clapped	-9.6136
▁write	-9.61362
▁rope	-9.6141
▁uncle	-9.61411
▁ducks	-9.62334
together	-9.62564
model	-9.63017
▁spider	-9.63542
▁L	-9.6359
▁bus	-9.63997
▁taste	-9.64004
▁cup	-9.64034
▁song	-9.64167
▁tight	-9.64274
▁magic	-9.64328
▁teeth	-9.64344
▁sugar	-9.64344
▁gently	-9.6435
▁harvest	-9.64351
▁instead	-9.64351
▁tasty	-9.64352
▁creative	-9.64354
▁swimming	-9.64356
▁smiling	-9.64384
▁last	-9.64492
▁fall	-9.64734
))	-9.64961
mul	-9.65053
Hey	-9.65233
▁R	-9.65458
ree	-9.65735
▁puzzle	-9.66335
▁turns	-9.66347
g	-9.6652
▁real	-9.66828
▁bring	-9.66848
▁live	-9.66937
▁discover	-9.67475
▁Jake	-9.67565
▁Later	-9.67569
▁leaf	-9.67574
▁naughty	-9.67575
▁sunshine	-9.67577
▁sitting	-9.67589
▁Even	-9.6759
▁shining	-9.67601
▁mad	-9.67735
▁pour	-9.67765
▁laughing	-9.67892
ught	-9.67917
▁hit	-9.67948
▁tasted	-9.67965
▁cave	-9.682
l	-9.68213
▁owl	-9.68282
▁waves	-9.68311
▁fork	-9.68588
▁relation	-9.68636
Well	-9.68764
▁sticks	-9.68877
▁round	-9.68935
▁realiz	-9.69398
▁happen	-9.69447
▁police	-9.6969
en	-9.69779
multipl	-9.69821
▁Thank	-9.70017
▁rose	-9.70093
▁creature	-9.70101
▁continue	-9.70552
▁respect	-9.70602
▁bug	-9.70731
▁pot	-9.70827
▁Susie	-9.709
▁stuck	-9.70901
▁furry	-9.70902
▁journey	-9.70906
▁sunny	-9.70907
▁mysterious	-9.70912
▁visitor	-9.70962
▁value	-9.70979
▁lovely	-9.71082
▁branch	-9.71082
▁shapes	-9.7113
W	-9.71157
▁smelled	-9.71219
at	-9.7149
▁working	-9.71717
▁smalle	-9.72239
▁hop	-9.72499
▁brush	-9.72988
▁E	-9.73134
N	-9.73202
▁line	-9.73381
▁orange	-9.73472
▁team	-9.73597
▁Please	-9.73954
▁rocks	-9.74027
▁band	-9.74126
▁smooth	-9.74317
▁Emma	-9.74341
▁Rosie	-9.74346
▁screw	-9.74347
▁afraid	-9.74349
▁meadow	-9.74349
▁roof	-9.74351
▁selfish	-9.74354
▁Together	-9.74357
▁caterpillar	-9.74359
▁driver	-9.744
▁shore	-9.744
▁late	-9.74436
▁gather	-9.74594
▁clock	-9.74597
▁yard	-9.74647
▁jumping	-9.74698
▁plant	-9.74756
▁clouds	-9.74773
A	-9.75232
▁bugs	-9.75292
▁P	-9.75555
bout	-9.75634
▁wave	-9.75742
▁roll	-9.76195
Come	-9.76472
woke	-9.76508
O	-9.76574
▁basket	-9.77044
▁W	-9.77081
▁object	-9.77239
▁wood	-9.77274
▁raw	-9.77283
▁sit	-9.77343
Downloader	-9.7751
ceil	-9.7759
▁Off	-9.77863
▁cozy	-9.7791
▁village	-9.77916
▁jungle	-9.77919
▁tomorrow	-9.77923
▁Dave	-9.77951
▁dropped	-9.77951
▁met	-9.77958
▁crown	-9.77986
▁phone	-9.78003
▁asleep	-9.78013
▁accident	-9.78062
▁lucky	-9.78138
▁Maggie	-9.78139
▁kissed	-9.78153
▁battery	-9.78159
▁talking	-9.78293
▁protect	-9.78609
▁peek	-9.78663
▁ear	-9.79274
▁How	-9.79357
extractor	-9.79403
Th	-9.79419
▁showe	-9.79891
▁bro	-9.803
▁smell	-9.80521
▁NLTK	-9.80707
sub	-9.80714
▁print	-9.80888
▁swam	-9.81571
▁anchor	-9.8162
▁picnic	-9.8162
▁nervous	-9.81623
▁delicate	-9.81625
▁mattress	-9.81625
▁Bobby	-9.81632
▁bedroom	-9.81635
▁thankful	-9.8164
▁Peter	-9.8164
▁calm	-9.81643
▁sang	-9.81669
▁shelf	-9.81687
le	-9.81758
▁oven	-9.81853
▁fairy	-9.81878
▁yourself	-9.81882
▁cook	-9.81929
▁Class	-9.81971
Good	-9.82154
▁arms	-9.82168
▁push	-9.82216
"]	-9.82281
▁plan	-9.82282
}	-9.82658
▁horse	-9.83105
etting	-9.83292
all	-9.83455
knowledge	-9.83482
▁fro	-9.83509
▁hid	-9.83899
old	-9.84223
▁...	-9.84446
▁computer	-9.84504
▁takes	-9.84595
▁[	-9.84673
ent	-9.84696
▁cookie	-9.84702
▁coat	-9.84792
▁ocean	-9.8546
▁bush	-9.85462
▁garage	-9.85464
▁eventually	-9.85474
▁sick	-9.85498
▁station	-9.85556
▁un	-9.85615
▁Ju	-9.85684
▁feathers	-9.85762
i	-9.85891
▁Mummy	-9.86119
▁nest	-9.86223
▁calling	-9.86295
safe	-9.86547
▁onto	-9.86682
▁M	-9.86945
▁match	-9.8718
▁shell	-9.87743
▁wishe	-9.87955
▁wonder	-9.88114
▁crab	-9.8851
▁letter	-9.8869
C	-9.8875
▁lit	-9.88812
▁roar	-9.88961
▁Li	-9.89041
▁skip	-9.89452
▁Grace	-9.89456
▁honey	-9.89457
▁figure	-9.89461
▁matter	-9.89462
▁forward	-9.89464
▁poor	-9.89466
▁sack	-9.89466
▁lemonade	-9.89466
▁birthday	-9.89472
▁island	-9.89476
▁iron	-9.89485
▁nothing	-9.89575
▁_	-9.89611
▁mind	-9.89676
▁lead	-9.89686
▁feed	-9.89691
not	-9.89699
▁forgive	-9.89715
{	-9.89728
▁places	-9.89738
▁Annie	-9.8996
▁H	-9.89976
▁free	-9.90005
▁waiting	-9.90038
▁answered	-9.90038
▁ideas	-9.90293
Of	-9.90464
till	-9.90522
▁finish	-9.90534
▁quit	-9.90662
▁m	-9.90873
Ben	-9.90935
the	-9.90993
Extractor	-9.91279
▁trip	-9.9178
ally	-9.922
ound	-9.92668
▁mountain	-9.92814
▁fruit	-9.92838
▁offer	-9.93108
▁belong	-9.93359
▁fight	-9.935
▁hawk	-9.93617
▁rude	-9.93618
▁flag	-9.93618
▁David	-9.93622
▁Jen	-9.93624
▁penguin	-9.93628
▁valuable	-9.9363
▁expensive	-9.93631
▁interesting	-9.93638
aid	-9.93718
▁check	-9.93796
▁hope	-9.93815
▁searched	-9.93855
▁Ellie	-9.93874
▁understood	-9.93896
▁sharp	-9.94327
▁tent	-9.94474
▁boys	-9.94523
ser	-9.94925
v	-9.95074
▁meant	-9.95083
▁save	-9.95084
me	-9.95092
▁count	-9.95123
class	-9.95545
▁card	-9.95901
where	-9.96203
▁frogs	-9.96288
▁zip	-9.96481
▁`	-9.96994
▁mistake	-9.97135
▁stone	-9.97227
▁worm	-9.97317
▁grab	-9.97343
▁acorn	-9.97432
▁question	-9.97448
ach	-9.97608
▁button	-9.97726
▁typ	-9.9776
▁spread	-9.97807
k	-9.97953
▁whale	-9.97967
▁stuff	-9.97967
▁famous	-9.9797
▁parrot	-9.9797
▁barrel	-9.9797
▁already	-9.97974
]]	-9.97976
▁powerful	-9.97976
▁excitement	-9.97978
▁embarrassed	-9.97979
▁disappointed	-9.97987
▁incredible	-9.97992
▁sparkly	-9.9801
▁kick	-9.98062
▁cries	-9.98122
▁lock	-9.98359
▁Joey	-9.98414
▁shy	-9.98621
▁whi	-9.98747
▁word	-9.988
▁talked	-9.98992
▁arm	-9.99095
frame	-9.99499
▁dreams	-9.99724
standing	-9.99785
▁Don	-10.0042
▁Some	-10.0049
▁fn	-10.0084
▁loves	-10.0095
▁numbers	-10.0115
▁problem	-10.0154
▁mix	-10.0192
▁prince	-10.0192
▁tie	-10.0224
▁change	-10.0225
▁mole	-10.0249
▁Ella	-10.025
▁End	-10.0251
▁trunk	-10.0251
▁ashamed	-10.0252
▁helicopter	-10.0252
▁competitive	-10.0252
▁scissors	-10.0252
▁impressed	-10.0253
They	-10.0254
▁later	-10.0258
ished	-10.0259
▁peaceful	-10.0266
▁cage	-10.0269
▁mark	-10.027
▁l	-10.0271
▁Leo	-10.0277
▁crazy	-10.0278
▁distance	-10.028
▁frame	-10.0283
▁dolphins	-10.0287
▁point	-10.0287
▁pointed	-10.03
▁Rex	-10.0306
▁country	-10.0309
▁bake	-10.0335
▁add	-10.0381
▁fit	-10.0422
▁file	-10.0464
p	-10.0464
type	-10.052
▁lay	-10.0533
▁content	-10.0541
▁spend	-10.0545
year	-10.0597
▁slow	-10.0602
▁faces	-10.0619
▁cube	-10.0667
▁float	-10.0672
ould	-10.0686
▁present	-10.0692
▁drop	-10.0693
▁Lola	-10.0722
▁Mimi	-10.0722
▁ugly	-10.0722
provenance	-10.0723
▁eager	-10.0724
▁chest	-10.0725
▁Jamie	-10.0727
▁kitty	-10.0727
▁borrow	-10.0727
▁humble	-10.0727
▁kitten	-10.0727
▁mill	-10.0727
▁reliable	-10.0728
▁bathroom	-10.0728
▁breakfast	-10.0728
▁bitter	-10.0729
▁mummy	-10.0729
▁confused	-10.0731
▁needs	-10.0733
▁feet	-10.0734
▁farmer	-10.0735
▁city	-10.074
▁list	-10.0741
▁yelled	-10.0743
▁barked	-10.0744
▁fighting	-10.0745
▁hiding	-10.0746
▁crawled	-10.0747
▁happening	-10.0751
▁empty	-10.0755
▁gold	-10.0757
▁appeared	-10.0776
▁dataset	-10.081
ttle	-10.0832
▁ignore	-10.0856
▁mail	-10.087
▁pay	-10.0899
▁days	-10.0949
▁nod	-10.096
▁cone	-10.0963
▁subject	-10.0976
value	-10.1004
▁sort	-10.1049
band	-10.1081
D	-10.1088
▁sparkle	-10.1108
licked	-10.1119
Tom	-10.1126
body	-10.1135
▁panda	-10.1137
▁ears	-10.1137
json	-10.1145
▁finger	-10.1148
out	-10.1159
▁color	-10.1178
led	-10.1188
▁carry	-10.1219
▁pass	-10.1219
linguistics	-10.1222
▁drum	-10.1222
▁alert	-10.1222
▁pillow	-10.1223
▁carpet	-10.1223
▁noisy	-10.1223
▁father	-10.1223
▁chocolate	-10.1227
▁miserable	-10.1227
▁motorcycle	-10.1228
▁successful	-10.1228
▁Teddy	-10.123
▁helpful	-10.1233
▁giggled	-10.1246
▁tire	-10.1251
▁hospital	-10.1257
▁adventurous	-10.1259
▁saved	-10.1266
▁proudly	-10.1268
▁captain	-10.129
▁message	-10.129
▁group	-10.1291
▁excitedly	-10.1292
Are	-10.1294
▁layout	-10.132
▁fixed	-10.1322
▁r	-10.1333
▁zoom	-10.134
▁meta	-10.135
▁stream	-10.1358
▁hay	-10.136
▁closet	-10.144
▁monkeys	-10.1447
▁Fr	-10.1481
▁carrie	-10.1486
▁extra	-10.1503
om	-10.1522
▁layer	-10.1574
downloader	-10.1594
Who	-10.1606
Now	-10.1621
most	-10.1663
on	-10.1663
▁con	-10.1676
▁splash	-10.1695
True	-10.1707
▁polish	-10.1711
▁kiss	-10.1712
▁draw	-10.1734
from	-10.1744
lib	-10.1744
▁aeroplane	-10.1749
▁avocado	-10.1749
▁dessert	-10.1749
▁festival	-10.1749
▁knife	-10.1749
▁generous	-10.1749
▁drank	-10.1749
▁neighbor	-10.1749
▁person	-10.1749
▁blouse	-10.1749
▁lazy	-10.1749
▁tidy	-10.1749
▁pool	-10.1749
▁clap	-10.175
▁market	-10.175
▁boots	-10.1751
▁anyone	-10.1752
▁tightly	-10.1753
▁uncomfortable	-10.1754
▁patient	-10.1754
ies	-10.1756
▁jam	-10.1757
▁sailed	-10.1763
▁sleepy	-10.1764
▁rocket	-10.1764
▁ok	-10.1776
▁fibonacci	-10.1785
▁tries	-10.1797
▁tools	-10.1797
▁map	-10.1835
▁questions	-10.1845
thing	-10.1846
an	-10.186
▁falls	-10.187
▁case	-10.1899
▁comet	-10.1917
▁Give	-10.1957
▁measure	-10.1963
ose	-10.1989
Me	-10.2005
x	-10.2012
P	-10.2047
b	-10.2093
▁test	-10.2165
▁rat	-10.2193
▁toward	-10.2195
▁tiger	-10.2207
▁invite	-10.223
▁stamp	-10.223
ked	-10.2245
pt	-10.2246
▁Be	-10.2298
▁copper	-10.2304
▁enormous	-10.2304
▁fancy	-10.2304
▁foolish	-10.2304
▁thirsty	-10.2304
▁newspaper	-10.2304
▁dict	-10.2304
▁calendar	-10.2304
▁lamp	-10.2304
▁blew	-10.2304
▁leaving	-10.2305
▁stove	-10.2306
▁weak	-10.2306
list	-10.2306
▁moving	-10.2306
▁veil	-10.2307
▁rules	-10.2307
▁kindness	-10.2307
œLet	-10.2309
▁mule	-10.2309
▁wander	-10.231
▁playground	-10.231
▁rich	-10.2311
▁determined	-10.2313
▁sighed	-10.232
E	-10.2321
▁become	-10.2322
▁butter	-10.2322
▁Sammy	-10.2324
▁louder	-10.2325
▁mud	-10.2326
▁harder	-10.2328
▁cell	-10.2332
▁restaurant	-10.2342
▁built	-10.2342
▁mixed	-10.2347
▁seat	-10.2348
▁whistle	-10.2355
▁true	-10.2356
▁snacks	-10.2374
stood	-10.2376
▁locked	-10.241
▁nods	-10.2418
▁raced	-10.2433
▁task	-10.2436
▁songs	-10.2442
▁split	-10.2459
▁Go	-10.2464
▁beca	-10.2625
▁extractor	-10.2642
▁balls	-10.2683
big	-10.2735
▁seek	-10.2746
key	-10.2757
c	-10.2765
▁net	-10.2773
▁minute	-10.2813
▁egg	-10.2821
▁eye	-10.2822
▁type	-10.2829
▁escape	-10.285
▁support	-10.2854
error	-10.2855
▁drive	-10.2892
▁ancient	-10.2892
▁elevator	-10.2892
▁exclaimed	-10.2892
▁middle	-10.2892
▁muffin	-10.2892
▁peanut	-10.2892
▁themselves	-10.2892
▁unusual	-10.2892
▁thief	-10.2892
▁hidden	-10.2892
▁vase	-10.2892
▁jeep	-10.2892
▁deliver	-10.2893
▁snake	-10.2893
▁otter	-10.2894
▁June	-10.2894
▁dough	-10.2895
▁smoke	-10.2896
▁gasped	-10.2896
▁cheerful	-10.2899
▁disappeared	-10.29
œWhat	-10.29
œYes	-10.29
special	-10.2902
▁dishes	-10.2903
▁playful	-10.2904
▁stronger	-10.2906
▁often	-10.2906
▁comfortable	-10.2913
tuple	-10.2916
lic	-10.2921
▁horn	-10.2922
▁office	-10.2928
▁factory	-10.2931
▁To	-10.2939
Stop	-10.2939
classid	-10.2946
▁legs	-10.2949
▁j	-10.2961
▁ma	-10.2992
▁fruits	-10.3005
▁cleaning	-10.3014
▁thin	-10.3041
▁Andy	-10.3057
▁tag	-10.3075
▁realis	-10.3087
▁v	-10.3096
se	-10.3109
▁sock	-10.3113
▁D	-10.3143
▁less	-10.3186
▁wor	-10.3197
hole	-10.3202
▁breath	-10.3228
▁windows	-10.3246
▁yours	-10.3333
▁ticket	-10.342
▁dogs	-10.3423
ittle	-10.3432
▁nltk	-10.3435
▁chair	-10.3435
▁snack	-10.3439
▁block	-10.3445
▁cloud	-10.3452
pair	-10.3453
▁sight	-10.3472
K	-10.3474
▁delight	-10.3483
▁imagine	-10.3485
▁create	-10.35
}")	-10.3511
ill	-10.3514
▁quick	-10.3515
▁clever	-10.3516
▁Danny	-10.3517
▁Harry	-10.3517
▁ingredients	-10.3517
▁lizard	-10.3517
▁stubborn	-10.3517
▁popular	-10.3517
▁stumbled	-10.3517
▁spaceship	-10.3517
▁trash	-10.3517
False	-10.3517
▁scatter	-10.3518
▁pipe	-10.3518
▁Matt	-10.3518
▁Mark	-10.3518
▁desk	-10.3518
▁boring	-10.3519
▁thick	-10.3519
▁hours	-10.352
▁bubbles	-10.3521
▁branches	-10.3522
▁beak	-10.3523
▁painter	-10.3525
▁cooler	-10.3529
▁kite	-10.353
▁gun	-10.3534
▁pray	-10.3534
▁reward	-10.354
▁elde	-10.3541
Help	-10.3546
▁language	-10.3555
▁Lizzy	-10.3557
▁fur	-10.3558
▁Pat	-10.356
Sorry	-10.3562
▁sweetie	-10.3566
user	-10.3579
▁woman	-10.3598
▁stamps	-10.3603
▁dreaming	-10.3608
▁sour	-10.3612
▁triples	-10.3642
▁Who	-10.3657
▁cups	-10.3679
▁Brown	-10.3682
int	-10.3725
▁session	-10.3725
ne	-10.3732
▁lights	-10.3773
▁string	-10.3777
▁search	-10.378
▁downloader	-10.3792
▁rush	-10.3812
ometimes	-10.3821
▁bell	-10.3821
▁tap	-10.3848
▁call	-10.3969
▁cart	-10.3972
ile	-10.3977
ust	-10.3987
ail	-10.3989
▁raise	-10.3998
▁Wh	-10.4061
▁shake	-10.4067
▁cub	-10.407
▁hammer	-10.4086
▁movie	-10.4099
▁slid	-10.4113
▁sticker	-10.4114
▁seal	-10.4122
▁painting	-10.4142
▁bounce	-10.4147
▁strip	-10.416
▁Rob	-10.4172
▁Tweet	-10.4174
▁since	-10.4178
ment	-10.4181
BaseDownloader	-10.4184
PACKAGES	-10.4184
▁Nemo	-10.4184
▁bathtub	-10.4184
▁bottom	-10.4184
▁dishwasher	-10.4184
▁microscope	-10.4184
▁large	-10.4184
▁demand	-10.4184
▁deaf	-10.4184
▁oasis	-10.4184
▁honest	-10.4184
▁advice	-10.4184
▁above	-10.4184
▁zipper	-10.4184
▁colourful	-10.4184
▁half	-10.4184
▁nails	-10.4184
▁grumpy	-10.4184
▁happier	-10.4184
▁skipped	-10.4185
▁suggested	-10.4185
ular	-10.4185
▁shade	-10.4186
▁dig	-10.4196
▁clear	-10.4197
▁skin	-10.4198
▁folder	-10.4201
▁axe	-10.4203
▁sneezed	-10.4204
▁cooking	-10.4216
▁safely	-10.4217
▁easy	-10.422
▁speed	-10.4226
▁accept	-10.4231
▁once	-10.4234
rly	-10.4235
▁peppers	-10.4236
▁seeds	-10.4236
▁bar	-10.4239
▁ke	-10.4245
Please	-10.4248
▁asking	-10.4261
nltk	-10.4273
String	-10.4274
())	-10.428
▁houses	-10.4288
▁results	-10.4296
▁worms	-10.4302
["	-10.4314
ness	-10.4316
▁Today	-10.4316
▁walls	-10.4353
▁checked	-10.4371
▁neare	-10.4388
ma	-10.4406
▁buildings	-10.4408
ur	-10.4428
▁bees	-10.4487
aving	-10.4522
▁rag	-10.4533
▁laughs	-10.4553
▁stem	-10.4574
▁moms	-10.4611
of	-10.4617
▁rough	-10.4624
▁lean	-10.4626
▁extract	-10.4633
▁stand	-10.4709
▁load	-10.4716
▁operand	-10.476
▁shout	-10.4764
▁step	-10.4776
▁week	-10.4812
▁helmet	-10.4815
▁power	-10.4815
▁costume	-10.4815
▁sweater	-10.4815
▁wing	-10.4816
▁colour	-10.4818
▁crayon	-10.4818
▁pig	-10.4822
▁paw	-10.4837
with	-10.484
▁edge	-10.4867
▁Alex	-10.4884
▁George	-10.4898
▁Snowball	-10.4898
▁emergency	-10.4898
▁fisherman	-10.4898
▁igloo	-10.4898
▁jealous	-10.4898
▁ladder	-10.4898
▁mechanic	-10.4898
▁shield	-10.4898
▁unique	-10.4898
▁video	-10.4898
▁palace	-10.4898
▁radio	-10.4898
length	-10.4898
▁Iterator	-10.4898
▁angel	-10.4898
▁biggest	-10.4898
▁frightened	-10.4898
▁dentist	-10.4898
▁lightning	-10.4898
▁prevent	-10.4899
▁fluffy	-10.4899
▁trophy	-10.4899
▁data	-10.4899
▁marry	-10.4899
▁fireman	-10.4899
▁freezer	-10.49
▁fragile	-10.49
▁shaking	-10.49
▁bored	-10.4901
▁neck	-10.4901
either	-10.4902
▁whispered	-10.4903
▁blowing	-10.4906
▁past	-10.4907
▁study	-10.4908
▁pale	-10.491
▁ribbons	-10.4913
▁yawned	-10.4915
▁foot	-10.4932
▁tears	-10.4938
▁obedient	-10.494
▁nature	-10.494
▁counter	-10.4943
▁nicely	-10.4952
).	-10.4954
▁wash	-10.4956
▁smaller	-10.4961
hopping	-10.4963
tmp	-10.4976
▁default	-10.4989
▁eggs	-10.4994
▁seats	-10.4995
▁minutes	-10.4996
write	-10.5
▁older	-10.5006
▁fingers	-10.5013
text	-10.5023
object	-10.5024
▁/	-10.5025
▁target	-10.5036
operand	-10.5039
▁wa	-10.5047
▁replace	-10.507
▁#[	-10.5073
▁pleased	-10.5085
▁stack	-10.5092
start	-10.5115
Here	-10.5152
▁saying	-10.5187
▁favo	-10.5227
▁cheer	-10.5242
▁decorate	-10.5269
urned	-10.5271
▁tape	-10.5289
ake	-10.5326
▁config	-10.5328
knowing	-10.5413
▁itself	-10.5422
▁reminde	-10.5424
▁==	-10.547
▁low	-10.5506
▁fountain	-10.5577
▁rub	-10.558
▁walks	-10.5596
▁leg	-10.5598
▁march	-10.5609
▁pear	-10.5621
▁destroy	-10.5631
▁wipe	-10.5633
▁normal	-10.5642
count	-10.5649
▁crack	-10.5649
▁sudden	-10.5665
▁sandwich	-10.5665
▁Fanny	-10.5668
▁bracelet	-10.5668
▁clumsy	-10.5668
▁cricket	-10.5668
▁difficult	-10.5668
▁original	-10.5668
▁pattern	-10.5668
▁serious	-10.5668
▁universe	-10.5668
▁impressive	-10.5668
alpha	-10.5668
▁terrible	-10.5668
▁breeze	-10.5668
▁compassionate	-10.5668
▁teaspoon	-10.5668
▁Henry	-10.5668
▁queen	-10.5668
▁happiness	-10.5668
▁seagull	-10.5668
manifest	-10.5669
▁candle	-10.5669
▁friendship	-10.5669
▁dancing	-10.5669
▁hurry	-10.5669
▁scoop	-10.5673
▁reg	-10.5673
▁pushes	-10.5674
▁fake	-10.5675
▁chose	-10.5677
▁four	-10.5678
▁couch	-10.568
▁shone	-10.5681
▁moon	-10.5683
▁spoiled	-10.5683
▁searching	-10.5686
▁rare	-10.5687
▁relaxed	-10.5694
▁leading	-10.5694
▁speak	-10.5697
▁hairy	-10.5698
▁remained	-10.57
▁ha	-10.5707
▁celebrated	-10.5708
ion	-10.5709
use	-10.571
▁Lisa	-10.5713
▁goal	-10.5713
▁dear	-10.5717
▁allowed	-10.572
▁passed	-10.572
▁icy	-10.5721
▁vegetables	-10.5722
▁leak	-10.5725
▁circles	-10.5735
▁behave	-10.5736
zip	-10.5767
max	-10.5785
side	-10.5794
▁Next	-10.5816
▁plants	-10.5826
▁shine	-10.5841
NLTK	-10.5847
parent	-10.5853
Error	-10.5854
ation	-10.5882
exist	-10.5891
▁No	-10.5905
])	-10.5928
▁result	-10.5934
one	-10.5944
▁hats	-10.5944
choo	-10.5963
▁co	-10.5967
▁picking	-10.5985
lying	-10.5986
▁thoughtful	-10.603
▁jumps	-10.6093
▁len	-10.6114
▁N	-10.6164
ray	-10.6189
wait	-10.6213
for	-10.6217
▁brothers	-10.629
▁url	-10.6328
B	-10.6334
▁agree	-10.6349
▁bath	-10.635
▁twist	-10.6366
▁text	-10.6372
▁knee	-10.6376
He	-10.6392
▁basketball	-10.6402
▁drawer	-10.6406
▁discuss	-10.6407
▁knight	-10.6412
▁pie	-10.6417
▁crawl	-10.645
we	-10.6455
th	-10.6457
cream	-10.6458
▁O	-10.6462
▁squeeze	-10.6464
▁remain	-10.6466
▁pain	-10.6474
▁nut	-10.6477
▁Pete	-10.6496
▁success	-10.6501
BackedDownloader	-10.6501
▁Ducky	-10.6501
▁afternoon	-10.6501
▁anxious	-10.6501
▁frustrated	-10.6501
▁holiday	-10.6501
▁intelligent	-10.6501
▁lollipop	-10.6501
▁neighbour	-10.6501
▁ornament	-10.6501
▁telephone	-10.6501
▁thermometer	-10.6501
▁barber	-10.6501
▁charming	-10.6501
http	-10.6501
▁jolly	-10.6501
▁supply	-10.6501
▁danger	-10.6501
▁pitch	-10.6501
▁license	-10.6501
▁sandbox	-10.6501
▁gloomy	-10.6501
▁dish	-10.6501
▁six	-10.6501
Yay	-10.6501
▁careless	-10.6502
ueen	-10.6502
fresh	-10.6502
▁weird	-10.6503
▁punish	-10.6503
▁hung	-10.6503
▁nosy	-10.6503
▁sandwiches	-10.6504
▁deer	-10.6505
▁bool	-10.6505
▁spear	-10.6505
▁petals	-10.6505
▁Robot	-10.6507
▁rail	-10.6509
▁manage	-10.6511
▁gray	-10.6512
▁mask	-10.6513
Ow	-10.6514
▁structure	-10.6516
▁singer	-10.6517
▁recognize	-10.652
▁tank	-10.6521
▁smelly	-10.6523
▁brightly	-10.6523
▁poked	-10.6526
oral	-10.6528
▁carrying	-10.653
abel	-10.6532
▁messy	-10.6536
▁grown	-10.6546
▁delighted	-10.6548
▁project	-10.655
▁hotel	-10.655
▁growing	-10.6553
▁pole	-10.6555
▁splashed	-10.6558
▁fine	-10.6562
▁dancer	-10.6564
▁loaded	-10.6566
icked	-10.6571
▁download	-10.6571
u	-10.6571
L	-10.6577
iggy	-10.6586
▁hut	-10.6588
▁museum	-10.6606
▁ordinary	-10.6606
▁sent	-10.6625
▁painted	-10.6642
▁body	-10.6651
▁cards	-10.6665
as	-10.6668
▁gain	-10.6686
▁collect	-10.6696
▁Thi	-10.67
▁ahead	-10.6708
▁description	-10.6721
▁cows	-10.6732
▁h	-10.6733
▁counts	-10.6747
▁pre	-10.6752
NLTKRawLayout	-10.6772
hocke	-10.6777
▁lives	-10.6786
▁forth	-10.679
▁order	-10.6823
▁ow	-10.6827
framed	-10.6831
▁complete	-10.6842
▁C	-10.6877
pairs	-10.6883
▁lick	-10.6906
▁soar	-10.6949
users	-10.6957
amed	-10.6958
un	-10.6994
▁bikes	-10.7001
pressed	-10.7022
▁hang	-10.7027
▁measur	-10.7044
ied	-10.7051
ried	-10.706
▁admire	-10.7065
▁dare	-10.7074
giving	-10.7086
`	-10.7129
member	-10.7171
▁perc	-10.7192
▁slides	-10.7205
▁thre	-10.7236
urit	-10.7267
ant	-10.7268
▁li	-10.7282
▁scream	-10.7282
til	-10.7292
▁["	-10.7294
▁guard	-10.7305
appen	-10.7313
▁insect	-10.732
▁mineral	-10.732
▁pigeon	-10.7329
▁carrot	-10.7331
▁wheel	-10.7332
▁plate	-10.7339
▁mint	-10.7362
▁meal	-10.7375
▁celebrate	-10.7382
▁lid	-10.7389
▁recommend	-10.7409
▁brilliant	-10.741
▁chimney	-10.741
▁envious	-10.741
▁genie	-10.741
▁grocery	-10.741
▁leopard	-10.741
▁necklace	-10.741
▁plastic	-10.741
▁shrugged	-10.741
▁umbrella	-10.741
▁yucky	-10.741
▁grandpa	-10.741
▁cereal	-10.741
▁harsh	-10.741
▁raft	-10.741
▁Sandy	-10.741
▁salad	-10.741
▁dependable	-10.741
▁Burt	-10.741
▁slept	-10.741
▁pastry	-10.7411
▁disgusting	-10.7411
▁hoop	-10.7411
▁policeman	-10.7411
▁spun	-10.7411
▁urge	-10.7411
▁crow	-10.7412
▁safety	-10.7412
▁itchy	-10.7412
▁anyway	-10.7413
▁witch	-10.7413
▁sofa	-10.7414
▁whip	-10.7414
▁turtle	-10.7415
▁Aunt	-10.7415
▁ruined	-10.7415
▁treehouse	-10.7415
▁modest	-10.7416
://	-10.7416
▁shut	-10.7417
▁refused	-10.7418
▁shocked	-10.742
▁blinked	-10.7426
▁somewhere	-10.7427
See	-10.7428
▁yet	-10.743
▁chickens	-10.7437
▁circle	-10.744
▁meet	-10.745
▁loudly	-10.745
▁pages	-10.7451
▁bark	-10.7454
▁gate	-10.7455
▁bananas	-10.746
▁exc	-10.7471
▁imagined	-10.7474
▁Big	-10.7477
▁nuts	-10.7484
▁wheels	-10.7489
▁tough	-10.7495
▁crayons	-10.7514
▁swinging	-10.7515
▁colours	-10.7515
▁forg	-10.7516
▁hurts	-10.7517
She	-10.7522
▁Frankie	-10.7524
▁washed	-10.7535
}`	-10.7544
▁merge	-10.7546
▁Fred	-10.7547
▁fat	-10.7549
▁twirl	-10.7553
▁FrameNet	-10.7565
▁apart	-10.7568
▁birdie	-10.7568
▁knows	-10.7575
▁ring	-10.7579
▁parity	-10.7587
▁listening	-10.76
ction	-10.7607
▁space	-10.7627
▁prayed	-10.7638
Spot	-10.7643
▁trade	-10.7664
▁board	-10.7666
file	-10.7678
▁fetch	-10.7712
▁category	-10.7713
RawTriple	-10.7733
▁e	-10.7735
admin	-10.7754
▁treasures	-10.7761
BaseExtractor	-10.7768
▁squirrels	-10.7776
rubbed	-10.7788
▁goat	-10.779
tract	-10.7814
▁size	-10.7814
▁bone	-10.7841
▁guess	-10.7844
▁spill	-10.7863
▁beep	-10.7938
▁d	-10.7964
▁total	-10.7979
q	-10.8008
▁parent	-10.801
▁scratch	-10.8042
▁hook	-10.806
king	-10.8091
▁NLTKRawLayout	-10.8095
▁seem	-10.8143
▁]	-10.8185
▁toast	-10.8224
▁per	-10.8237
cked	-10.8255
▁spray	-10.826
▁diamond	-10.8311
▁symbol	-10.8311
▁thumb	-10.8315
▁second	-10.8319
▁Bett	-10.8324
▁pair	-10.8327
▁cheek	-10.8328
▁jewel	-10.8329
▁twig	-10.833
▁pepper	-10.8331
▁pumpkin	-10.8331
▁dolphin	-10.8331
▁feather	-10.8332
▁film	-10.8342
▁rel	-10.8362
▁bu	-10.8364
▁ones	-10.8364
▁giggle	-10.8374
▁relax	-10.8375
▁peace	-10.8378
her	-10.8389
▁Charlie	-10.841
▁Sunshine	-10.841
▁adorable	-10.841
▁amazement	-10.841
▁bicycle	-10.841
▁entrance	-10.841
▁fierce	-10.841
▁fridge	-10.841
▁furniture	-10.841
▁improve	-10.841
▁investigate	-10.841
▁opinion	-10.841
▁pizza	-10.841
▁razor	-10.841
▁shrimp	-10.841
▁tqdm	-10.841
▁waffle	-10.841
▁memories	-10.841
▁James	-10.841
▁Linda	-10.841
▁cherries	-10.841
▁statue	-10.841
▁permission	-10.841
wordnet	-10.841
▁unpack	-10.841
▁yarn	-10.841
▁Eventually	-10.841
▁bookshelf	-10.841
▁triangle	-10.841
▁sandcastle	-10.841
▁choose	-10.841
▁chance	-10.841
▁alarm	-10.841
▁hunter	-10.8411
▁shiver	-10.8411
▁leash	-10.8411
▁underground	-10.8411
▁missile	-10.8411
▁surf	-10.8411
▁pride	-10.8412
▁frowned	-10.8412
▁bloom	-10.8412
▁bossy	-10.8412
▁useful	-10.8413
▁dead	-10.8413
▁setup	-10.8414
▁golden	-10.8414
▁tummy	-10.8415
▁eagerly	-10.8416
▁stir	-10.8419
œYou	-10.8421
"{	-10.8422
py	-10.8423
œThat	-10.8423
▁courage	-10.8423
▁blooming	-10.8426
▁meeting	-10.8426
▁enter	-10.8428
▁examine	-10.8428
▁crawling	-10.843
▁princesses	-10.843
▁curtains	-10.8432
▁barn	-10.8433
▁softly	-10.8433
▁players	-10.8437
▁tray	-10.8437
▁splashing	-10.8441
▁glow	-10.8443
▁scale	-10.8444
▁sail	-10.8455
▁spin	-10.8455
▁shoot	-10.8455
▁mighty	-10.8459
▁sleeping	-10.8464
▁Janie	-10.8466
▁Cindy	-10.8466
▁Bunny	-10.8466
▁library	-10.8468
▁failures	-10.8488
▁vest	-10.8492
▁carrots	-10.8499
▁roared	-10.85
▁respectful	-10.8505
▁joke	-10.8507
Welcome	-10.8509
▁missing	-10.8516
ory	-10.8521
lemmas	-10.8522
▁gas	-10.8525
▁Papa	-10.8527
▁burned	-10.8529
go	-10.8532
▁God	-10.8534
▁shouts	-10.8541
was	-10.8542
▁cooked	-10.8547
▁hits	-10.8567
▁printed	-10.8567
TMm	-10.8571
œIt	-10.8572
aby	-10.8604
unch	-10.8604
▁vi	-10.8608
▁{}	-10.8633
▁wishes	-10.8661
▁sell	-10.8663
▁panic	-10.8667
▁son	-10.8738
relation	-10.8756
▁chas	-10.8757
▁lose	-10.8789
H	-10.8802
▁OK	-10.8827
lang	-10.8831
owed	-10.887
config	-10.8875
layer	-10.8879
total	-10.8881
▁heal	-10.8892
▁tables	-10.891
less	-10.8916
▁item	-10.8927
▁lions	-10.8933
Is	-10.8942
uring	-10.8948
▁calls	-10.8961
▁press	-10.8993
▁stops	-10.9017
▁items	-10.9021
F	-10.9058
▁source	-10.9067
▁caring	-10.9078
ore	-10.9102
▁soil	-10.9112
▁pen	-10.9117
▁means	-10.9128
▁bat	-10.9134
▁row	-10.914
lapped	-10.915
▁contain	-10.9182
▁ch	-10.9194
▁exist	-10.9202
▁starts	-10.9229
iso	-10.9292
▁opens	-10.9309
▁yell	-10.9357
agged	-10.9365
▁String	-10.937
AR	-10.9407
▁seeing	-10.9408
▁nurse	-10.9431
▁wrap	-10.9434
▁bandage	-10.9435
▁trucks	-10.9441
▁vegetable	-10.9441
▁marble	-10.9442
▁shape	-10.9443
▁triple	-10.9446
▁fear	-10.945
ful	-10.9462
▁handle	-10.9479
▁comfort	-10.948
▁act	-10.9483
▁suit	-10.9486
▁complain	-10.9505
œNo	-10.9508
▁glass	-10.9518
DIR	-10.9521
▁Amber	-10.9521
▁Hopper	-10.9521
▁Jerry	-10.9521
▁Puppy	-10.9521
▁Ralph	-10.9521
▁ashtray	-10.9521
▁cushion	-10.9521
▁earthquake	-10.9521
▁enthusiastic	-10.9521
▁faucet	-10.9521
▁graceful	-10.9521
▁independent	-10.9521
▁lecture	-10.9521
▁medicine	-10.9521
▁photo	-10.9521
▁rhythm	-10.9521
▁soccer	-10.9521
▁sunglasses	-10.9521
▁tunnel	-10.9521
▁valley	-10.9521
corpora	-10.9521
▁distant	-10.9521
▁style	-10.9521
▁beetle	-10.9521
▁Cody	-10.9521
▁cherry	-10.9521
Yum	-10.9521
▁surface	-10.9521
▁Peep	-10.9521
Wait	-10.9521
▁invitation	-10.9521
▁Neil	-10.9521
Yuck	-10.9521
▁jellyfish	-10.9521
▁glue	-10.9521
▁Sunny	-10.9521
▁pedal	-10.9521
identity	-10.9522
▁Meg	-10.9522
▁flavor	-10.9522
▁travel	-10.9522
▁baker	-10.9522
▁judge	-10.9522
▁scarf	-10.9522
▁racing	-10.9523
▁energy	-10.9523
▁rubber	-10.9523
▁stage	-10.9523
▁thunder	-10.9524
▁sweetheart	-10.9524
▁shelter	-10.9525
▁sink	-10.9525
tagged	-10.9525
▁scold	-10.9526
▁Kim	-10.9527
▁chirped	-10.9528
▁camera	-10.9528
▁flat	-10.9529
▁bushes	-10.9529
▁clapping	-10.953
▁tube	-10.9531
yster	-10.9531
▁tugged	-10.9532
▁sailing	-10.9534
▁stretched	-10.9534
(`	-10.9536
▁unit	-10.9537
▁nowhere	-10.9543
▁Alexa	-10.9544
▁closely	-10.955
▁early	-10.9552
▁exam	-10.9552
▁shadows	-10.9555
▁beans	-10.9565
▁badly	-10.9566
▁begged	-10.9573
OR	-10.9574
▁squeezed	-10.9577
▁knob	-10.9581
▁vocab	-10.9582
▁version	-10.9582
osm	-10.9588
▁bounced	-10.9589
uckily	-10.9592
▁twinkle	-10.9592
▁Result	-10.9592
▁requests	-10.9593
▁cross	-10.9608
▁soap	-10.9618
▁changed	-10.962
len	-10.9623
▁dust	-10.9628
▁response	-10.9659
▁gear	-10.9663
▁short	-10.9701
▁thinking	-10.9709
loom	-10.9718
load	-10.9727
way	-10.9741
▁letters	-10.9753
▁visited	-10.9755
ec	-10.9778
▁st	-10.9788
▁trick	-10.9802
hat	-10.9814
▁puzzles	-10.9817
▁TreeSitter	-10.9823
▁main	-10.984
▁introduce	-10.985
▁Collocations	-10.9859
▁remind	-10.989
ripped	-10.9907
NO	-10.9908
▁bin	-10.9944
▁planes	-10.995
▁castles	-10.9958
▁Are	-10.9971
▁Al	-10.9974
▁corpus	-10.9974
ving	-10.9983
Grandma	-10.9987
▁papers	-11.0013
ina	-11.0037
node	-11.0052
Countries	-11.0061
replace	-11.0077
url	-11.0084
▁drinks	-11.0087
▁WordNet	-11.0106
subject	-11.0109
module	-11.0114
subfolder	-11.0121
hello	-11.0123
▁subfolder	-11.0132
be	-11.0137
ped	-11.0147
▁isn	-11.0155
▁crash	-11.017
▁wrapp	-11.0179
datasets	-11.0184
items	-11.0203
▁inter	-11.0203
up	-11.0243
▁BaseExtractor	-11.0291
ative	-11.0319
▁lo	-11.0329
▁ant	-11.034
▁Countries	-11.0353
nd	-11.0373
tches	-11.0383
▁snuggle	-11.0457
▁pairs	-11.0457
▁id	-11.0518
œM	-11.0532
ke	-11.0535
sum	-11.0639
Ok	-11.0658
▁bears	-11.0662
you	-11.0664
▁puddle	-11.0672
▁sunflower	-11.0672
ED	-11.0686
▁request	-11.069
▁rooms	-11.0691
▁sigh	-11.07
▁law	-11.071
▁Help	-11.072
▁swan	-11.0722
▁struct	-11.0729
▁stranger	-11.0733
▁sneeze	-11.0733
▁jog	-11.0736
▁explain	-11.0737
ow	-11.0745
▁future	-11.0745
▁Ma	-11.0748
▁attach	-11.0748
▁encourage	-11.0749
▁salt	-11.0763
▁canonicalize	-11.0767
▁perform	-11.0768
▁experience	-11.0771
▁traffic	-11.0771
BYTES	-11.0771
verbnet	-11.0771
▁Claire	-11.0771
▁Cooper	-11.0771
▁Earth	-11.0771
▁Jessie	-11.0771
▁Jojo	-11.0771
▁Percy	-11.0771
▁Rachel	-11.0771
▁cocoa	-11.0771
▁desert	-11.0771
▁fashion	-11.0771
▁flexible	-11.0771
▁flute	-11.0771
▁flutter	-11.0771
▁impatient	-11.0771
▁rescue	-11.0771
▁stomach	-11.0771
▁wisdom	-11.0771
▁zero	-11.0771
▁cliff	-11.0771
▁harmless	-11.0771
▁skull	-11.0771
▁stupid	-11.0771
▁summer	-11.0771
▁daisy	-11.0771
▁weapon	-11.0771
▁Kelly	-11.0771
▁assert	-11.0771
▁Tara	-11.0771
▁outfit	-11.0771
▁Abbie	-11.0771
▁attention	-11.0771
▁popcorn	-11.0771
▁fuel	-11.0771
Mmm	-11.0771
▁Penny	-11.0771
▁stirring	-11.0771
▁bouncing	-11.0772
▁clown	-11.0772
▁firetruck	-11.0772
▁Tweetie	-11.0772
▁immediately	-11.0772
▁stirred	-11.0772
▁juicy	-11.0772
countries	-11.0772
▁attic	-11.0772
▁spoke	-11.0773
▁chess	-11.0773
▁shark	-11.0773
▁Mike	-11.0773
▁radishes	-11.0773
Tim	-11.0774
ncle	-11.0775
▁jet	-11.0776
Evie	-11.0777
▁peach	-11.0778
▁Lilly	-11.0781
▁warned	-11.0781
▁helpless	-11.0784
▁thread	-11.0784
▁dis	-11.0785
Isla	-11.0786
▁pup	-11.0786
▁practiced	-11.0789
▁highest	-11.0791
▁below	-11.0792
▁five	-11.0794
▁received	-11.0795
▁Everyday	-11.0795
▁pasta	-11.0797
▁argued	-11.08
▁age	-11.0807
▁patch	-11.0807
▁pine	-11.081
▁playroom	-11.0811
▁zooming	-11.0811
▁goose	-11.0821
▁port	-11.0825
wo	-11.0827
▁alive	-11.083
▁loop	-11.0834
▁F	-11.0836
▁Carl	-11.0837
▁Remy	-11.0838
▁spell	-11.0838
▁Cleary	-11.0839
▁Optional	-11.084
Fe	-11.0845
▁codes	-11.0846
▁allow	-11.0869
▁jewels	-11.0875
▁belonged	-11.0882
▁pigeons	-11.0886
min	-11.0888
▁Noa	-11.0895
▁rubs	-11.091
▁async	-11.0912
▁powers	-11.0925
▁cubs	-11.0937
Max	-11.0945
▁[]	-11.0951
▁hurri	-11.0957
head	-11.0958
▁ti	-11.097
▁json	-11.0974
G	-11.0976
▁lower	-11.0994
▁score	-11.0995
▁ship	-11.0997
▁atomic	-11.1015
▁Point	-11.1015
▁beamed	-11.1025
oo	-11.104
▁appreciate	-11.106
▁wagg	-11.1071
().	-11.1089
▁keeper	-11.1094
▁creatures	-11.1095
▁attract	-11.11
▁event	-11.1114
▁spiders	-11.1117
▁Node	-11.1122
▁Here	-11.1124
And	-11.1134
▁role	-11.1136
served	-11.1142
▁NaturalEarth	-11.1149
▁monsters	-11.115
▁Morphology	-11.1215
red	-11.128
▁#	-11.1291
next	-11.13
ey	-11.1317
▁Standards	-11.1352
▁breaks	-11.136
▁error	-11.1368
ry	-11.1397
▁knowledge	-11.1452
▁stat	-11.1462
ive	-11.147
brown	-11.1471
item	-11.1474
▁trains	-11.1475
result	-11.1484
▁beat	-11.1485
framenet	-11.1497
part	-11.1503
ung	-11.151
▁towers	-11.1521
rapped	-11.1526
tokens	-11.1536
size	-11.1544
▁rise	-11.1578
strip	-11.162
string	-11.1633
ordered	-11.1656
▁Mi	-11.1722
sed	-11.1725
ng	-11.1736
▁bal	-11.1827
ble	-11.185
ely	-11.1863
R	-11.189
ity	-11.1893
How	-11.1954
▁Wikidata	-11.2007
▁notebook	-11.21
▁warning	-11.2109
▁dinosaur	-11.2115
▁banana	-11.2119
▁blow	-11.2131
▁glitter	-11.2162
▁yawn	-11.2165
▁poke	-11.2173
▁shoulder	-11.2174
▁suffer	-11.2182
▁sneak	-11.219
strict	-11.2194
▁stitch	-11.2197
▁radish	-11.2197
mentation	-11.2199
▁cabin	-11.2199
universal	-11.22
▁jelly	-11.22
suffix	-11.22
▁lemon	-11.22
holonyms	-11.22
meronyms	-11.22
▁Bibi	-11.22
▁Bobbie	-11.22
▁Chicky	-11.22
▁Eileen	-11.22
▁Hannah	-11.22
▁Holly	-11.22
▁Instead	-11.22
▁Jennie	-11.22
▁approach	-11.22
▁audience	-11.22
▁downstairs	-11.22
▁earlier	-11.22
▁engine	-11.22
▁increasing	-11.22
▁luxury	-11.22
▁mystery	-11.22
▁octopus	-11.22
▁patience	-11.22
▁pencil	-11.22
▁persistent	-11.22
▁pistol	-11.22
▁powder	-11.22
▁require	-11.22
▁situation	-11.22
▁squash	-11.22
▁volcano	-11.22
▁Sunday	-11.22
▁easily	-11.22
▁solution	-11.22
▁wardrobe	-11.22
▁Bella	-11.22
▁accomplish	-11.22
▁Bongo	-11.22
▁difference	-11.22
▁operation	-11.22
▁spinning	-11.22
▁flashlight	-11.22
▁greedy	-11.22
▁potato	-11.22
▁restored	-11.22
▁imagination	-11.22
▁silver	-11.22
▁network	-11.22
▁alien	-11.22
▁Jones	-11.22
▁Josh	-11.22
▁beauty	-11.22
▁issues	-11.22
Great	-11.22
▁skipping	-11.22
▁leather	-11.22
▁package	-11.22
▁towel	-11.22
ance	-11.22
LL	-11.22
▁forgotten	-11.2201
▁butterflies	-11.2201
tagset	-11.2201
▁struggling	-11.2201
insert	-11.2201
▁whistling	-11.2202
▁Lou	-11.2202
▁laughter	-11.2202
▁solve	-11.2202
▁dull	-11.2202
▁Shake	-11.2202
▁lab	-11.2203
▁drain	-11.2203
▁vanished	-11.2203
▁sunset	-11.2203
▁homework	-11.2205
FA	-11.2205
false	-11.2206
▁single	-11.2206
▁Samina	-11.2208
▁patiently	-11.2208
▁mixer	-11.2208
▁sword	-11.221
▁printer	-11.2211
▁Maya	-11.2211
RE	-11.2211
▁fog	-11.2212
▁organized	-11.2212
▁mice	-11.2213
▁bakery	-11.2213
▁lively	-11.2215
▁metal	-11.2216
▁flood	-11.2216
▁swamp	-11.2218
▁Tweety	-11.2221
▁quietly	-11.2223
▁warmth	-11.2223
▁yelling	-11.2224
▁apologized	-11.2224
▁taller	-11.2226
▁screaming	-11.2227
▁selling	-11.2229
▁trapped	-11.2229
▁baking	-11.223
room	-11.2241
▁attached	-11.2242
▁crossed	-11.2245
▁makeup	-11.2249
▁gust	-11.2258
▁hive	-11.2259
▁roaring	-11.226
▁Helen	-11.2261
▁kneel	-11.2266
▁Bear	-11.2268
▁drawing	-11.227
▁falling	-11.2272
▁view	-11.2273
▁Tilly	-11.2276
bby	-11.2277
▁needle	-11.2279
▁spi	-11.2285
▁price	-11.2293
▁climbing	-11.2312
▁Frog	-11.2314
▁twigs	-11.2318
▁plates	-11.2319
▁sizes	-11.2323
▁trap	-11.2324
▁fold	-11.2324
▁pinch	-11.2326
▁ours	-11.2327
▁synsets	-11.2334
▁jogg	-11.2349
▁tide	-11.2358
▁Not	-11.2361
▁Mae	-11.2362
▁pigs	-11.2367
lower	-11.2368
▁sadly	-11.2373
▁resume	-11.2377
▁post	-11.2394
▁rid	-11.2402
▁bury	-11.2416
▁worker	-11.2427
▁cubes	-11.2462
▁nicer	-11.2465
▁radius	-11.2481
▁unknown	-11.2483
▁mountains	-11.25
▁range	-11.2505
shakes	-11.2506
▁earth	-11.2507
▁expected	-11.2507
▁Lia	-11.2538
▁smells	-11.2555
▁keeping	-11.2575
▁cable	-11.2579
▁dove	-11.259
▁seed	-11.2613
▁shirts	-11.2614
▁holds	-11.2615
▁hi	-11.2636
eople	-11.2637
arried	-11.265
▁weigh	-11.2662
ug	-11.2678
▁settle	-11.2682
▁verb	-11.2748
▁ex	-11.2767
▁relations	-11.277
▁bites	-11.2772
▁gifts	-11.2773
▁sw	-11.2786
▁ways	-11.2802
▁bang	-11.2831
▁sp	-11.2864
hanging	-11.2871
read	-11.2882
▁swims	-11.2888
▁machines	-11.2892
▁breathe	-11.2932
There	-11.2962
tag	-11.2983
▁pal	-11.2988
▁sum	-11.299
ers	-11.3003
ned	-11.3026
Map	-11.3038
ie	-11.3053
œWh	-11.3058
▁elephants	-11.3058
content	-11.3072
age	-11.3105
match	-11.3106
Y	-11.3109
domain	-11.3119
▁fields	-11.3135
illed	-11.3143
syntax	-11.3149
Standards	-11.3157
expect	-11.3164
parents	-11.3164
Go	-11.3177
tokeniser	-11.3182
headers	-11.3192
chunk	-11.3196
region	-11.3196
Give	-11.3198
ISO	-11.3203
corpus	-11.3208
profile	-11.321
role	-11.3217
ten	-11.3239
▁holes	-11.3259
[]	-11.3267
▁mu	-11.3312
▁Whi	-11.3313
▁node	-11.3366
efore	-11.3373
TI	-11.3384
ld	-11.3387
FrameNet	-11.339
mk	-11.3414
▁fort	-11.3452
us	-11.3496
▁re	-11.3504
▁Re	-11.3519
▁slippe	-11.3536
test	-11.3543
▁ignor	-11.3557
▁Lin	-11.3567
ded	-11.3608
▁po	-11.3622
▁slap	-11.3628
what	-11.3641
none	-11.3665
rs	-11.3672
▁mag	-11.3684
encod	-11.3697
attr	-11.3708
rit	-11.3751
▁cur	-11.3775
▁talent	-11.3776
▁jacket	-11.3779
▁glove	-11.3793
▁page	-11.3794
▁officer	-11.3799
▁tmp	-11.3802
▁increase	-11.3823
▁balance	-11.3823
▁argue	-11.3828
▁succeed	-11.3829
▁spoil	-11.3834
▁Ke	-11.3853
▁Star	-11.3856
▁quiz	-11.3857
▁batter	-11.3858
▁health	-11.386
Read	-11.3862
erbNet	-11.3864
natural	-11.3866
START	-11.3866
AGENT	-11.3866
curated	-11.3866
permissive	-11.3866
▁Caroline	-11.3866
▁Dutch	-11.3866
▁First	-11.3866
▁Jasper	-11.3866
▁Larry	-11.3866
▁Pepper	-11.3866
▁Squeak	-11.3866
▁Tammy	-11.3866
▁arguing	-11.3866
▁campfire	-11.3866
▁challenge	-11.3866
▁crumbs	-11.3866
▁guitar	-11.3866
▁hippo	-11.3866
▁laundry	-11.3866
▁merchant	-11.3866
▁microphone	-11.3866
▁microwave	-11.3866
▁scarecrow	-11.3866
▁separat	-11.3866
▁spaghetti	-11.3866
▁thermos	-11.3866
▁zebra	-11.3866
▁Bennett	-11.3866
▁Katie	-11.3866
▁decorations	-11.3866
▁ghost	-11.3866
▁landscape	-11.3866
▁crystal	-11.3866
▁kayak	-11.3866
▁overjoyed	-11.3866
▁Brian	-11.3866
pbf	-11.3866
▁Jumpy	-11.3866
▁Kitty	-11.3866
substance	-11.3866
▁prune	-11.3866
treesitter	-11.3866
▁mention	-11.3866
▁neighborhood	-11.3866
▁airplane	-11.3867
▁weather	-11.3867
▁regret	-11.3867
▁Bettie	-11.3867
▁fearful	-11.3867
▁slimy	-11.3867
▁shopkeeper	-11.3867
▁slippery	-11.3867
▁final	-11.3867
▁passport	-11.3867
▁firefly	-11.3867
▁flour	-11.3867
▁delta	-11.3867
▁Kate	-11.3867
erbNetRawLayout	-11.3867
▁mailman	-11.3867
▁grill	-11.3867
▁Finn	-11.3867
▁bookcase	-11.3867
▁siren	-11.3868
▁sunrise	-11.3868
▁restless	-11.3868
neath	-11.3868
▁Maxwell	-11.3868
▁junk	-11.3868
▁Julie	-11.3869
▁broccoli	-11.3869
▁adult	-11.387
▁disturbed	-11.387
▁chirping	-11.3871
▁unhappy	-11.3871
▁sewing	-11.3872
▁limes	-11.3872
MIN	-11.3872
▁worth	-11.3873
▁chores	-11.3875
▁ceiling	-11.3875
▁Diana	-11.3876
▁focused	-11.3876
▁history	-11.3877
▁sip	-11.3878
œDon	-11.3879
▁startled	-11.3881
▁unite	-11.3881
▁quack	-11.3881
▁hedge	-11.3881
WordNetRawLayout	-11.3882
▁bumped	-11.3885
▁drew	-11.3886
RA	-11.3888
▁bravery	-11.3888
▁herbs	-11.3889
▁burning	-11.389
▁skills	-11.389
fmt	-11.3891
▁vet	-11.3895
▁fastest	-11.3897
op	-11.3897
▁dried	-11.3898
▁buyer	-11.39
▁tip	-11.3903
azine	-11.3904
util	-11.3908
▁shouting	-11.391
▁brighter	-11.391
include	-11.3914
▁crashed	-11.3919
▁olive	-11.392
omeone	-11.392
▁fought	-11.3926
▁mixing	-11.3932
▁spreading	-11.3934
▁screen	-11.3939
▁gloves	-11.3946
▁swans	-11.3947
▁tug	-11.3948
▁Monster	-11.3948
▁pushing	-11.3948
▁destroyed	-11.395
▁truth	-11.3951
▁desc	-11.3953
▁Milo	-11.3953
▁Python	-11.3955
▁double	-11.3955
▁frozen	-11.3956
▁sticky	-11.396
▁laws	-11.3962
▁myself	-11.3962
▁blows	-11.3963
▁J	-11.3968
gb	-11.3972
Anna	-11.3982
▁List	-11.3983
__(	-11.3996
▁func	-11.3996
▁setting	-11.3997
▁tear	-11.4002
▁grant	-11.4002
▁True	-11.4009
▁eaten	-11.401
▁mints	-11.4012
el	-11.4024
Thanks	-11.4024
▁Ro	-11.4029
saw	-11.4037
▁Natural	-11.404
▁died	-11.4046
▁seals	-11.4067
▁GB	-11.4071
▁sweaters	-11.4072
▁costumes	-11.4072
▁shower	-11.4073
▁label	-11.4077
▁shapefile	-11.4079
▁sights	-11.4085
code	-11.4085
CL	-11.409
ER	-11.4095
hose	-11.4109
▁helper	-11.411
▁troubled	-11.4115
▁matched	-11.412
▁actual	-11.412
▁dest	-11.4141
▁pin	-11.4145
▁gifted	-11.4175
▁files	-11.4186
▁strings	-11.4192
▁squeak	-11.4201
▁tokenizer	-11.4203
▁dataclass	-11.4205
Di	-11.4212
▁snap	-11.4214
▁G	-11.4218
▁coats	-11.4223
▁sir	-11.4223
end	-11.4236
▁meat	-11.4252
init	-11.4267
▁fishing	-11.4273
▁cr	-11.4287
ES	-11.4331
▁sparkl	-11.4331
▁struggle	-11.4331
Jack	-11.4336
Share	-11.4343
cious	-11.4344
te	-11.4344
▁lemma	-11.4352
!("	-11.4354
▁lie	-11.4377
▁robots	-11.4379
▁[])	-11.4383
▁rake	-11.4387
▁tru	-11.4396
▁mouths	-11.4404
▁pr	-11.4412
▁parts	-11.4427
▁doors	-11.4439
▁profile	-11.4458
coming	-11.4465
Sara	-11.4499
▁guide	-11.4501
▁toes	-11.4509
AL	-11.4515
▁Y	-11.4528
▁expect	-11.4542
▁bottles	-11.4561
▁admir	-11.4569
!(	-11.461
▁Out	-11.4612
▁exact	-11.4618
ts	-11.4621
am	-11.4697
ite	-11.4713
oom	-11.472
œWe	-11.4745
ut	-11.4751
log	-11.4755
▁cons	-11.4813
▁ants	-11.4818
while	-11.4863
SC	-11.4887
time	-11.491
▁spoons	-11.4911
▁tagged	-11.4913
>(	-11.4916
stem	-11.4919
has	-11.4939
line	-11.4958
def	-11.4967
by	-11.4995
▁die	-11.5012
▁horses	-11.5035
Mama	-11.5038
hoe	-11.5043
Sh	-11.5045
noun	-11.5045
dataset	-11.5049
space	-11.507
icate	-11.5076
lemma	-11.5087
▁moves	-11.511
err	-11.5118
confidence	-11.5126
▁Bo	-11.513
ple	-11.5135
table	-11.5154
though	-11.5157
digits	-11.5166
Morphology	-11.5169
collocations	-11.5176
▁char	-11.5176
words	-11.5179
push	-11.5186
session	-11.5195
category	-11.5195
dbf	-11.5197
▁pa	-11.5209
▁users	-11.5212
day	-11.5234
io	-11.5253
Collocations	-11.5268
▁Soph	-11.5277
['	-11.5294
map	-11.5299
ith	-11.5304
▁verif	-11.5327
▁spec	-11.5347
▁ro	-11.5366
rel	-11.538
▁ended	-11.5388
▁mo	-11.5404
rie	-11.5537
▁bother	-11.5541
▁ar	-11.5598
lines	-11.5608
port	-11.5614
▁ho	-11.5638
ole	-11.5659
▁user	-11.5708
▁twinkl	-11.5734
alue	-11.5736
Timmy	-11.574
ate	-11.5742
œTh	-11.5748
▁buzz	-11.5763
▁cartoon	-11.5767
▁boats	-11.5772
▁pilot	-11.5776
ries	-11.5781
▁marshmallow	-11.5782
▁square	-11.5782
▁flame	-11.5783
▁track	-11.5786
▁dump	-11.5806
▁fh	-11.5819
▁melt	-11.582
▁Jacki	-11.5824
▁receive	-11.5827
antly	-11.5829
▁determin	-11.5832
▁prepare	-11.5845
▁steal	-11.5852
▁Ki	-11.5856
▁poison	-11.5866
▁LAY	-11.5866
flies	-11.5866
RELATIONS	-11.5866
▁Aja	-11.5866
▁Exception	-11.5866
▁JSON	-11.5866
▁Jessica	-11.5866
▁Jonathan	-11.5866
▁Lacy	-11.5866
▁Marsha	-11.5866
▁Millie	-11.5866
▁Rebecca	-11.5866
▁Sailboat	-11.5866
▁Snuggles	-11.5866
▁Spike	-11.5866
▁Whiskers	-11.5866
▁activities	-11.5866
▁cauliflower	-11.5866
▁cautious	-11.5866
▁confident	-11.5866
▁earthlings	-11.5866
▁fabric	-11.5866
▁hesitated	-11.5866
▁method	-11.5866
▁ostrich	-11.5866
▁pajamas	-11.5866
▁perfume	-11.5866
▁raccoon	-11.5866
▁repeating	-11.5866
▁sauce	-11.5866
▁strawberries	-11.5866
▁strength	-11.5866
▁vacation	-11.5866
▁billboard	-11.5866
▁families	-11.5866
▁Paul	-11.5866
▁yacht	-11.5866
▁Marty	-11.5866
▁swoop	-11.5866
▁Joni	-11.5866
▁grandmother	-11.5866
▁apron	-11.5866
▁mixture	-11.5866
Session	-11.5866
▁Shape	-11.5866
▁baseball	-11.5866
▁blood	-11.5866
▁grinned	-11.5867
▁center	-11.5867
wikidata	-11.5867
▁cheating	-11.5867
▁control	-11.5867
▁thrilled	-11.5867
▁mister	-11.5867
▁zookeeper	-11.5867
▁obey	-11.5867
▁properly	-11.5867
▁club	-11.5867
▁tuna	-11.5867
status	-11.5867
▁mailbox	-11.5867
▁blackboard	-11.5867
RL	-11.5867
▁hopeful	-11.5867
Remember	-11.5867
▁Mouse	-11.5867
▁prev	-11.5868
▁further	-11.5868
▁Moral	-11.5868
▁Dolly	-11.5868
▁camping	-11.5868
▁pants	-11.5868
▁laser	-11.5868
▁lips	-11.5869
▁alright	-11.5869
currency	-11.587
▁jail	-11.587
▁toilet	-11.587
▁divide	-11.5871
static	-11.5871
▁crosses	-11.5871
▁anywhere	-11.5872
▁sneezing	-11.5872
▁badge	-11.5872
▁bumpy	-11.5872
▁flash	-11.5873
▁worse	-11.5873
œHi	-11.5873
▁prayer	-11.5873
▁completely	-11.5874
▁deal	-11.5875
ACT	-11.5875
CH	-11.5876
Ready	-11.5877
▁strike	-11.5877
▁pancakes	-11.5877
whitespace	-11.5878
œHello	-11.5878
▁insisted	-11.5879
▁candidate	-11.588
▁achieved	-11.588
prime	-11.5881
▁pearl	-11.5881
▁jogging	-11.5882
▁kid	-11.5884
▁inviting	-11.5885
▁mug	-11.5886
▁suppo	-11.5886
extracted	-11.5887
▁shelves	-11.5888
▁synset	-11.5891
msi	-11.5892
▁puppets	-11.5895
▁glowing	-11.5896
▁regions	-11.5901
▁melted	-11.5902
▁folded	-11.5905
▁pill	-11.5908
▁brain	-11.591
▁stairs	-11.591
▁beds	-11.5913
▁speaking	-11.5913
mum	-11.5916
▁slips	-11.5921
that	-11.5921
▁dresses	-11.5923
▁burn	-11.5925
▁catcher	-11.5926
Behave	-11.5928
▁sale	-11.5929
▁encouraged	-11.5932
▁discovery	-11.5933
appy	-11.5935
api	-11.5943
▁tracks	-11.5948
▁marshmallows	-11.5952
wb	-11.5955
njoy	-11.5958
▁delay	-11.5959
▁twisted	-11.596
▁OSM	-11.597
▁vroom	-11.5971
▁reverse	-11.5971
▁Toby	-11.5973
▁stadium	-11.5973
AS	-11.5974
▁copy	-11.5975
▁jug	-11.5975
▁OsmGbRawLayout	-11.5975
▁tricks	-11.5978
▁helpers	-11.5986
states	-11.5986
▁accepted	-11.5987
▁dinosaurs	-11.599
▁throwing	-11.6004
ang	-11.6004
▁feelings	-11.6028
▁presented	-11.6036
hree	-11.6038
▁cheeks	-11.6041
▁kindly	-11.6049
▁rot	-11.6052
▁purr	-11.6072
▁names	-11.6074
▁goals	-11.6097
▁roles	-11.6098
onicalizeResult	-11.61
enny	-11.6108
▁helmets	-11.6121
▁related	-11.6124
▁HashMap	-11.6125
▁Type	-11.6126
▁ringing	-11.6126
▁canonicalizer	-11.6138
▁vn	-11.6143
▁Bug	-11.6144
ME	-11.6147
▁understanding	-11.6148
tier	-11.6165
▁onion	-11.6172
stat	-11.6238
▁void	-11.6244
▁Is	-11.6256
▁Ka	-11.6266
ter	-11.6267
▁Follow	-11.6279
▁mistakes	-11.6295
▁bigrams	-11.631
▁provide	-11.6315
struction	-11.6349
▁pause	-11.6352
▁sons	-11.6365
▁peck	-11.6369
paths	-11.6381
sh	-11.6384
▁prints	-11.6385
▁roses	-11.642
▁wonders	-11.6428
▁morphology	-11.6437
TOK	-11.6511
spec	-11.6517
▁happens	-11.6522
▁restr	-11.6525
▁cared	-11.6552
iving	-11.6556
os	-11.6567
▁noses	-11.6569
▁dragons	-11.6569
right	-11.6601
▁en	-11.6619
but	-11.6621
▁ten	-11.6636
▁design	-11.6641
▁Fredd	-11.666
▁oil	-11.6662
▁sides	-11.6666
▁sta	-11.6672
Wikidata	-11.6674
▁Map	-11.6716
▁pat	-11.6733
aking	-11.6741
▁ca	-11.677
▁jobs	-11.6773
iggled	-11.6774
▁math	-11.6778
fore	-11.6782
ised	-11.6794
iter	-11.6824
ava	-11.6836
db	-11.6838
▁king	-11.6846
}"	-11.6847
are	-11.6895
no	-11.6901
▁pl	-11.6906
▁scurr	-11.6927
ast	-11.6934
▁slipp	-11.6935
▁keys	-11.6956
▁bowls	-11.6965
shp	-11.698
ce	-11.6991
left	-11.7043
▁wo	-11.7091
Then	-11.7104
▁combine	-11.7114
▁driv	-11.7163
great	-11.7173
John	-11.7181
▁os	-11.7183
']}	-11.7194
yes	-11.7215
gged	-11.7227
▁meow	-11.7267
mp	-11.728
▁complet	-11.732
▁area	-11.7322
ered	-11.7341
nna	-11.7349
▁sho	-11.7353
▁wound	-11.7364
▁tu	-11.739
▁times	-11.7404
▁cuddle	-11.7418
▁Abb	-11.7425
und	-11.7451
face	-11.7469
word	-11.7497
▁sting	-11.7498
sing	-11.7499
▁wh	-11.751
prop	-11.7514
said	-11.7517
filter	-11.7528
▁rolle	-11.7567
verb	-11.7569
ome	-11.7573
▁growl	-11.7582
▁Dr	-11.7593
▁Min	-11.7602
DE	-11.762
const	-11.7623
Open	-11.7634
split	-11.7638
board	-11.7638
mail	-11.7652
download	-11.7653
userId	-11.7658
ying	-11.7662
Bye	-11.7665
fetch	-11.7667
NaturalEarth	-11.7671
metaspace	-11.7672
grammar	-11.7673
TreeSitter	-11.7673
Brown	-11.7674
▁bull	-11.7674
/``	-11.7674
seek	-11.7677
bytes	-11.7677
scratch	-11.7677
morphology	-11.7678
description	-11.768
PBF	-11.7683
▁plu	-11.7692
Node	-11.7693
--	-11.7696
▁Ted	-11.7698
ID	-11.7701
stream	-11.7701
▁hero	-11.771
case	-11.772
▁Error	-11.7725
input	-11.7744
edges	-11.7747
null	-11.7767
▁bare	-11.7787
de	-11.7789
meta	-11.7794
restr	-11.7821
earth	-11.784
▁collection	-11.7894
Print	-11.79
▁surprises	-11.7917
repo	-11.7921
uck	-11.7928
iced	-11.8022
leve	-11.8035
▁se	-11.8037
ame	-11.8047
put	-11.8072
ama	-11.8121
▁slot	-11.8166
nta	-11.8171
▁heads	-11.8203
▁watered	-11.8206
▁hate	-11.8215
▁penn	-11.8222
▁da	-11.8223
site	-11.8237
fe	-11.8252
▁mermaid	-11.8266
▁darling	-11.8267
▁choice	-11.8276
▁creation	-11.8277
▁giraffe	-11.8279
▁sprinkle	-11.828
▁shadow	-11.8286
▁chicken	-11.8286
▁pai	-11.8287
rk	-11.8291
ade	-11.8292
com	-11.831
ki	-11.8313
▁resist	-11.8327
▁practice	-11.8328
▁disappear	-11.8332
▁appear	-11.8332
▁apologize	-11.8334
▁blink	-11.8336
▁scare	-11.8344
▁lexic	-11.8351
▁Dian	-11.8352
TR	-11.8358
▁prove	-11.8361
▁freeze	-11.8361
▁cheap	-11.8364
eofabrik	-11.8365
▁useState	-11.8366
NTRIES	-11.8366
ALLOWED	-11.8366
Festival	-11.8366
antonyms	-11.8366
cultural	-11.8366
▁Animal	-11.8366
▁Circle	-11.8366
▁DatasetSpec	-11.8366
▁Harvey	-11.8366
▁automobile	-11.8366
▁available	-11.8366
▁bamboo	-11.8366
▁cashier	-11.8366
▁character	-11.8366
▁crocodile	-11.8366
▁crunchy	-11.8366
▁easier	-11.8366
▁enthusiasm	-11.8366
▁fascinated	-11.8366
▁filthy	-11.8366
▁firefighter	-11.8366
▁guilty	-11.8366
▁hesitant	-11.8366
▁journal	-11.8366
▁lettuce	-11.8366
▁lifeguard	-11.8366
▁luggage	-11.8366
▁occasion	-11.8366
▁particular	-11.8366
▁principal	-11.8366
▁repeated	-11.8366
▁safari	-11.8366
▁simple	-11.8366
▁snowflake	-11.8366
▁sovereign	-11.8366
▁television	-11.8366
▁upstairs	-11.8366
▁velvet	-11.8366
numeric	-11.8366
▁claws	-11.8366
▁comfy	-11.8366
▁groceries	-11.8366
▁husband	-11.8366
▁instruments	-11.8366
▁kingdom	-11.8366
▁porch	-11.8366
▁refreshed	-11.8366
▁steady	-11.8366
adjective	-11.8366
freq	-11.8366
pkg	-11.8366
▁LAYERS	-11.8366
▁Ryan	-11.8366
▁piano	-11.8366
▁sniff	-11.8366
▁memory	-11.8366
▁skirt	-11.8366
▁victory	-11.8366
provinces	-11.8366
}/{	-11.8366
▁rubbish	-11.8366
nfortunately	-11.8366
▁decision	-11.8366
liza	-11.8366
▁tempfile	-11.8366
▁Mandy	-11.8366
▁outdoors	-11.8366
▁digging	-11.8366
▁mismatch	-11.8366
▁GEO	-11.8366
▁canonicalizable	-11.8366
▁winner	-11.8366
▁suitcase	-11.8366
▁Kira	-11.8367
▁ripe	-11.8367
▁chalk	-11.8367
▁Sophie	-11.8367
▁forehead	-11.8367
▁winning	-11.8367
▁paintbrush	-11.8367
▁shrink	-11.8367
▁creek	-11.8367
Range	-11.8367
▁Milly	-11.8367
▁Ruth	-11.8367
▁secur	-11.8367
▁birdcage	-11.8367
▁wagon	-11.8367
▁Judy	-11.8367
britain	-11.8367
▁pastries	-11.8367
GE	-11.8367
▁rebuild	-11.8367
▁temple	-11.8367
▁chillies	-11.8367
▁Tony	-11.8367
▁directory	-11.8367
▁bouncy	-11.8367
▁dragonfly	-11.8367
▁slice	-11.8367
▁steep	-11.8367
▁cacti	-11.8367
▁babysitter	-11.8367
▁belts	-11.8367
nteger	-11.8367
▁tomatoes	-11.8368
subregion	-11.8368
▁Graceful	-11.8368
▁unsure	-11.8368
▁puff	-11.8368
▁indeed	-11.8368
println	-11.8368
▁backpack	-11.8368
latest	-11.8369
▁Paw	-11.8369
▁merry	-11.8369
▁bcd	-11.837
▁{}).	-11.837
▁scooter	-11.837
▁company	-11.837
▁human	-11.8371
▁waist	-11.8371
▁chef	-11.8371
▁onSave	-11.8371
▁million	-11.8371
centre	-11.8372
▁icing	-11.8372
▁peaches	-11.8372
▁seller	-11.8372
▁pupil	-11.8372
▁goodnight	-11.8372
▁checkout	-11.8373
▁spring	-11.8373
▁damaged	-11.8373
LT	-11.8374
esterday	-11.8374
▁chewed	-11.8374
▁tune	-11.8374
▁wallet	-11.8374
▁curiosity	-11.8375
NE	-11.8375
▁fairies	-11.8375
▁eight	-11.8376
▁May	-11.8377
▁thicker	-11.8378
hood	-11.8378
▁ranger	-11.8379
▁token	-11.838
▁customers	-11.8381
▁gotten	-11.8381
▁petted	-11.8381
▁chu	-11.8381
▁directions	-11.8381
▁seeker	-11.8381
▁kisses	-11.8382
uctor	-11.8383
▁sneaky	-11.8384
▁braid	-11.8386
Return	-11.8387
▁stealing	-11.8388
œLook	-11.839
usage	-11.8391
▁van	-11.8392
▁revealed	-11.8394
▁awake	-11.8395
▁possible	-11.8395
▁grand	-11.8396
▁cherish	-11.8399
▁Ali	-11.8401
hook	-11.8404
▁complaining	-11.8407
▁sweep	-11.8409
▁rug	-11.8413
▁twirling	-11.8413
▁shopping	-11.8416
▁winked	-11.8418
park	-11.842
▁supplies	-11.842
here	-11.8424
▁succeeded	-11.8426
▁remove	-11.8432
▁cheering	-11.8433
▁stole	-11.8434
▁lang	-11.8435
▁zipped	-11.8437
▁glittered	-11.8437
unwrap	-11.8438
▁sheep	-11.844
œThe	-11.8443
uct	-11.8443
▁prepared	-11.8448
ily	-11.845
▁sprinkles	-11.8454
▁giraffes	-11.8454
▁warmer	-11.846
:{	-11.8475
▁flames	-11.8476
▁Bluey	-11.8478
▁humm	-11.8479
▁fishes	-11.848
▁seesaw	-11.8494
▁byte	-11.8495
▁super	-11.8498
▁process	-11.8499
▁Ladybug	-11.8503
▁jackets	-11.8504
▁officers	-11.8504
▁context	-11.8504
▁marched	-11.8504
▁dr	-11.8509
trim	-11.8513
▁works	-11.8515
▁mid	-11.852
▁supported	-11.8547
lassName	-11.8556
▁strangers	-11.8559
▁escaped	-11.8566
▁polished	-11.8566
▁record	-11.8566
▁bandages	-11.8579
▁marker	-11.8586
={	-11.8589
immer	-11.8592
▁Cha	-11.8606
▁squares	-11.8613
▁sew	-11.8615
▁yells	-11.864
▁screams	-11.8666
sel	-11.8684
xcept	-11.8696
▁section	-11.87
▁weeks	-11.8702
▁CO	-11.8707
ntell	-11.8708
▁cape	-11.8718
▁movies	-11.8725
▁{"	-11.8728
ystem	-11.8743
▁puzzled	-11.8748
▁chairs	-11.8751
▁output	-11.8762
domains	-11.8763
▁sa	-11.8764
▁display	-11.8774
ap	-11.8789
shed	-11.8789
>/	-11.879
ery	-11.8805
NAME	-11.8823
▁bank	-11.8831
▁united	-11.8842
neg	-11.8852
she	-11.8853
▁pandas	-11.8855
▁email	-11.8858
away	-11.8886
▁crew	-11.8898
▁motion	-11.8899
▁vectors	-11.8919
▁peel	-11.8928
▁mini	-11.8932
em	-11.8952
▁rested	-11.8957
ice	-11.899
let	-11.8991
▁cast	-11.9002
pos	-11.901
So	-11.9015
fh	-11.9028
▁spit	-11.9043
▁snuggl	-11.9071
there	-11.9071
man	-11.9074
▁baskets	-11.9075
ous	-11.908
top	-11.9086
▁PBF	-11.91
▁grammar	-11.9111
▁metaspace	-11.9113
▁Bye	-11.9152
▁lands	-11.9155
▁cop	-11.9177
Shar	-11.9227
ha	-11.9264
std	-11.9266
▁rained	-11.9267
▁frames	-11.9275
ig	-11.928
▁tails	-11.9327
▁collocations	-11.9328
▁input	-11.9359
▁edges	-11.9381
▁};	-11.9412
▁ripped	-11.9424
▁answers	-11.9441
how	-11.945
▁tool	-11.9467
▁ISO	-11.9502
▁chunk	-11.9515
Once	-11.9526
▁headers	-11.9532
▁tokeniser	-11.9542
▁ending	-11.9583
▁dive	-11.9595
ical	-11.9601
▁greet	-11.9611
ealthy	-11.9656
▁evening	-11.9682
derive	-11.9699
▁pred	-11.9731
Mia	-11.9761
▁Ch	-11.9787
▁tooth	-11.979
berries	-11.9798
▁rocked	-11.98
▁tokens	-11.9839
et	-11.9908
▁module	-11.9937
ring	-11.994
parse	-11.9952
this	-11.9974
▁writ	-11.9981
eq	-11.999
▁fr	-12.001
lay	-12.0021
even	-12.0028
ully	-12.0037
Only	-12.0089
valid	-12.0122
▁q	-12.0139
clean	-12.0177
ugga	-12.0198
▁bean	-12.022
``.	-12.0221
na	-12.0235
looking	-12.0257
vel	-12.0257
▁lu	-12.0268
oe	-12.0277
types	-12.0283
ragged	-12.0302
layed	-12.0325
▁sequence	-12.0326
▁heat	-12.0327
rectly	-12.0341
▁celebrat	-12.0374
ure	-12.0387
▁base	-12.0394
▁bo	-12.0437
▁datasets	-12.0441
ear	-12.0469
first	-12.0479
Dad	-12.0482
apping	-12.0498
sure	-12.0502
▁wins	-12.0548
metimes	-12.0551
number	-12.0577
light	-12.0617
œA	-12.0623
ttribute	-12.0662
ggy	-12.0672
SI	-12.0675
▁soak	-12.0678
"}	-12.0694
ty	-12.0712
set	-12.0747
▁com	-12.0756
Path	-12.0759
bow	-12.0775
ight	-12.0778
cache	-12.0783
▁signs	-12.0784
ue	-12.0789
believe	-12.0798
▁cha	-12.0813
▁sno	-12.0834
over	-12.0838
language	-12.085
pub	-12.0878
▁cou	-12.0878
ich	-12.0882
bench	-12.0882
source	-12.0884
▁polar	-12.0886
print	-12.0888
chan	-12.0899
standards	-12.0909
collect	-12.0916
▁'	-12.0917
▁wi	-12.0919
`)	-12.0922
hyponyms	-12.0925
filename	-12.0931
new	-12.0945
▁Any	-12.095
▁framed	-12.0951
hopped	-12.0953
very	-12.0965
forced	-12.0967
ImportError	-12.097
fallback	-12.097
categories	-12.097
Today	-12.0984
layout	-12.0984
target	-12.0993
vectors	-12.0995
prov	-12.0996
Next	-12.1
parity	-12.1001
mode	-12.1002
Follow	-12.1003
motion	-12.1004
tokenizer	-12.1007
▁squea	-12.1007
dataclass	-12.1008
unknown	-12.1008
atomic	-12.101
Point	-12.101
radius	-12.101
checked	-12.1013
▁stretch	-12.1026
cle	-12.1046
{}	-12.1048
bigrams	-12.1053
void	-12.1063
▁twirle	-12.1069
ition	-12.1098
expected	-12.1101
email	-12.1114
entry	-12.1133
Ha	-12.1172
};	-12.118
ride	-12.1246
▁flap	-12.1293
them	-12.1298
▁max	-12.1325
To	-12.133
boo	-12.1341
▁neat	-12.1343
had	-12.1348
ah	-12.1365
loads	-12.14
▁slip	-12.1412
▁pro	-12.1444
ank	-12.1444
dventurous	-12.1463
sync	-12.1466
ier	-12.1478
wake	-12.1504
▁sys	-12.1512
▁bee	-12.1546
so	-12.157
starts	-12.1571
▁includ	-12.1596
▁pirate	-12.16
▁curtain	-12.1619
▁failure	-12.1619
▁ribbon	-12.162
▁exte	-12.1622
▁prepar	-12.1625
▁supplie	-12.1625
▁spark	-12.1635
rough	-12.1636
▁stair	-12.1638
urious	-12.1644
▁state	-12.1647
Mummy	-12.1647
update	-12.1651
values	-12.1653
▁applaud	-12.166
▁reveal	-12.1662
▁sway	-12.1663
▁y	-12.1664
▁wobble	-12.1666
▁bri	-12.1671
▁surround	-12.1676
▁shock	-12.1678
▁quarrel	-12.168
bbled	-12.168
urtle	-12.1681
▁wand	-12.1685
▁repair	-12.1686
ial	-12.1686
lves	-12.1688
▁stud	-12.1689
œDo	-12.1697
▁Option	-12.1698
▁boss	-12.1698
sitter	-12.1699
▁bleed	-12.1699
environ	-12.17
Atomic	-12.17
Ribbit	-12.17
entailments	-12.17
entangled	-12.17
hypernyms	-12.17
identical	-12.17
jazz	-12.17
▁DBF	-12.17
▁Excited	-12.17
▁Flakes	-12.17
▁Ghost	-12.17
▁TokeniserCheck	-12.17
▁afford	-12.17
▁argument	-12.17
▁balancing	-12.17
▁bathrobes	-12.17
▁burger	-12.17
▁celery	-12.17
▁chuckled	-12.17
▁cocoon	-12.17
▁congratulate	-12.17
▁decrease	-12.17
▁dictionary	-12.17
▁disobey	-12.17
▁effort	-12.17
▁envelope	-12.17
▁fascinating	-12.17
▁firmly	-12.17
▁gesture	-12.17
▁harbor	-12.17
▁hedgehog	-12.17
▁hopscotch	-12.17
▁horizon	-12.17
▁hundred	-12.17
▁lumberjack	-12.17
▁massage	-12.17
▁pixie	-12.17
▁precision	-12.17
▁predators	-12.17
▁reference	-12.17
▁rejoiced	-12.17
▁remote	-12.17
▁responsible	-12.17
▁shampoo	-12.17
▁sibling	-12.17
▁simply	-12.17
▁souvenir	-12.17
▁tambourine	-12.17
▁temperature	-12.17
▁transducer	-12.17
▁uniform	-12.17
▁volleyball	-12.17
▁exhausted	-12.17
▁refreshing	-12.17
Deserialize	-12.17
REGION	-12.17
continent	-12.17
official	-12.17
▁environment	-12.17
▁lambda	-12.17
▁tremble	-12.17
▁lawyer	-12.17
▁superhero	-12.17
▁consequences	-12.17
▁extinguishe	-12.17
Tokenizer	-12.17
Index	-12.17
▁dizzy	-12.17
Father	-12.17
serRepository	-12.17
▁datetime	-12.17
▁wreck	-12.17
▁measurements	-12.17
▁Iterable	-12.17
▁competition	-12.17
▁vanilla	-12.17
▁Counter	-12.17
▁pleasure	-12.17
▁scarves	-12.17
pacity	-12.17
▁mustache	-12.17
▁surfboard	-12.17
▁menu	-12.17
▁serde	-12.17
▁switch	-12.17
▁blade	-12.17
erbNetExtractor	-12.1701
▁muddy	-12.1701
▁zf	-12.1701
▁napkin	-12.1701
ctic	-12.1701
▁cupboard	-12.1701
▁digger	-12.1701
erbNetDownloader	-12.1701
▁gym	-12.1701
▁agreement	-12.1701
▁purse	-12.1701
▁wildflowers	-12.1701
▁tub	-12.1701
}</	-12.1701
entity	-12.1701
derivations	-12.1701
▁nudge	-12.1701
▁coverage	-12.1702
▁praised	-12.1702
▁glee	-12.1702
▁neatly	-12.1702
œSee	-12.1702
▁cabinet	-12.1702
geofabrik	-12.1702
▁papa	-12.1702
▁contest	-12.1702
PMI	-12.1703
▁belongings	-12.1703
▁joking	-12.1703
▁flipped	-12.1703
▁underneath	-12.1703
▁harmonica	-12.1703
œPlease	-12.1703
▁cheaper	-12.1704
▁huff	-12.1704
▁boast	-12.1704
▁risk	-12.1704
▁weekend	-12.1704
▁frowning	-12.1704
▁rotting	-12.1705
▁fireplace	-12.1705
▁discoveries	-12.1705
pmi	-12.1705
▁inherit	-12.1706
rchived	-12.1706
▁encouraging	-12.1706
▁villagers	-12.1706
topic	-12.1706
▁collapsed	-12.1707
▁hunt	-12.1707
lish	-12.1707
▁Patch	-12.1707
▁birdseed	-12.1707
▁flight	-12.1708
▁disagreed	-12.171
Ouch	-12.171
▁arrows	-12.171
dedup	-12.1711
▁adv	-12.1714
œOh	-12.1714
WordNetExtractor	-12.1715
stles	-12.1715
▁injur	-12.1716
▁doggy	-12.1716
info	-12.1716
▁hunting	-12.1716
▁chains	-12.1717
obbled	-12.1717
▁sc	-12.1718
▁wheat	-12.1721
▁grin	-12.1722
▁splashes	-12.1722
▁lotion	-12.1723
lexicon	-12.1724
▁overhead	-12.1726
▁writing	-12.1726
▁released	-12.1726
▁movement	-12.1727
▁salty	-12.1728
▁Joy	-12.1728
▁prettie	-12.1729
▁moos	-12.1729
Doggy	-12.1729
▁melting	-12.1731
▁birdhouse	-12.1732
▁desp	-12.1732
▁inches	-12.1734
::{	-12.1734
istance	-12.1738
▁applauded	-12.174
bin	-12.174
▁chip	-12.1741
▁soaked	-12.1742
▁suffering	-12.1746
tartled	-12.1747
gent	-12.175
ECT	-12.1751
▁trail	-12.1755
ine	-12.1755
▁resisted	-12.1755
rinkle	-12.1761
▁fo	-12.1761
▁instant	-12.1765
rnal	-12.1778
▁everyday	-12.178
▁changing	-12.178
org	-12.1786
▁itches	-12.1788
▁pee	-12.1789
▁increased	-12.1795
▁balanced	-12.1796
amenit	-12.1796
Ye	-12.1799
Listen	-12.1805
▁plea	-12.1805
▁wobbled	-12.1806
▁"")	-12.1817
▁drift	-12.1817
▁Cat	-12.1819
▁pans	-12.1821
▁Lee	-12.1825
▁choices	-12.1827
▁creations	-12.1828
")[	-12.1829
pid	-12.1834
▁loving	-12.1835
▁comforted	-12.1836
▁buckle	-12.1846
▁offering	-12.1849
▁weight	-12.1856
treet	-12.1858
▁candidates	-12.1865
▁scratched	-12.1865
▁scoote	-12.1869
ected	-12.187
▁mus	-12.1886
▁pilots	-12.1886
▁artwork	-12.1888
▁World	-12.189
▁steam	-12.1891
▁boundary	-12.1893
▁DATASETS	-12.1893
▁university	-12.1893
▁printing	-12.1895
▁guessed	-12.1895
▁basename	-12.1897
▁talents	-12.1899
ps	-12.1905
▁kit	-12.1911
Boy	-12.1915
▁guest	-12.1918
OS	-12.1923
▁positiv	-12.1929
MI	-12.1944
▁Roar	-12.1946
▁lily	-12.1952
▁serve	-12.1954
▁gardener	-12.1962
linked	-12.197
Whe	-12.1996
▁fears	-12.2006
▁nurses	-12.2008
▁someday	-12.201
now	-12.2016
▁films	-12.2026
▁scales	-12.204
▁seconds	-12.2047
▁dollar	-12.2057
)()	-12.2064
acking	-12.2073
▁depend	-12.2075
▁"-"	-12.2077
▁insects	-12.2084
▁minerals	-12.2084
artifacts	-12.2096
▁paws	-12.2098
▁breaking	-12.2101
})	-12.2109
▁playtime	-12.2114
▁knights	-12.2118
see	-12.2128
▁drinking	-12.2129
▁wg	-12.2141
▁reading	-12.2157
▁fountains	-12.2159
▁src	-12.2162
▁comb	-12.2168
SS	-12.2175
ian	-12.2183
▁payload	-12.2185
▁TreeNode	-12.2186
num	-12.2191
▁invit	-12.2197
▁Look	-12.2211
▁rings	-12.2217
▁raining	-12.2219
ral	-12.222
ollocationFinder	-12.2221
▁stroke	-12.2221
creams	-12.2227
▁doc	-12.2229
▁agrees	-12.223
▁element	-12.2233
▁paintings	-12.2237
▁yo	-12.2245
gnif	-12.2251
▁princes	-12.2254
▁knot	-12.2272
leaning	-12.2276
▁transform	-12.2277
dumps	-12.2278
opped	-12.229
uth	-12.2291
BR	-12.2307
▁chill	-12.2308
eeping	-12.2308
▁fries	-12.2311
▁entry	-12.2332
▁kn	-12.2338
▁finder	-12.234
▁arg	-12.235
WordNet	-12.2354
pped	-12.2369
▁safer	-12.2384
oke	-12.2391
collections	-12.2399
▁ob	-12.2404
▁equa	-12.2407
▁momma	-12.2413
our	-12.2414
▁lap	-12.2416
orit	-12.2418
▁exp	-12.2439
▁tickle	-12.2453
▁categories	-12.2486
▁ImportError	-12.2486
▁fallback	-12.2491
▁racer	-12.2503
then	-12.2508
▁pies	-12.2514
▁tempt	-12.2529
▁pan	-12.2546
▁forced	-12.2547
▁noon	-12.2558
LE	-12.2563
▁mis	-12.2576
Sam	-12.2582
▁proce	-12.2583
▁creat	-12.2602
▁ax	-12.2602
>()	-12.2616
ic	-12.2622
▁null	-12.2625
▁implement	-12.263
▁By	-12.2656
ved	-12.2684
ups	-12.2691
▁dropp	-12.2693
ge	-12.2729
▁oranges	-12.2753
▁languages	-12.2754
▁teams	-12.2758
hing	-12.2768
▁hurting	-12.2773
▁unzip	-12.2774
▁userId	-12.2776
▁zi	-12.2781
they	-12.2782
▁sits	-12.2787
▁<-	-12.2812
drop	-12.2813
▁Open	-12.2818
inter	-12.282
long	-12.2822
▁((	-12.2826
HE	-12.2829
oth	-12.2884
med	-12.2894
▁bytes	-12.2905
▁mode	-12.2924
ared	-12.2926
▁domain	-12.2929
avy	-12.2939
▁itch	-12.2946
▁pockets	-12.2947
counter	-12.2989
▁dbf	-12.302
action	-12.3028
arefully	-12.3031
▁touche	-12.3038
▁enti	-12.3048
▁hugg	-12.3052
▁plans	-12.3057
▁ham	-12.3087
▁trai	-12.312
▁bathe	-12.3122
ough	-12.3126
▁cor	-12.313
▁de	-12.3133
▁behavio	-12.3136
▁wag	-12.3143
nnot	-12.3172
aring	-12.3186
hile	-12.321
▁policem	-12.3228
ater	-12.3257
}.	-12.3264
▁ris	-12.3265
Her	-12.3272
ding	-12.3279
▁blankets	-12.3331
other	-12.3343
eered	-12.3371
tting	-12.3379
ool	-12.3392
▁news	-12.3392
ined	-12.3402
ish	-12.3422
eg	-12.3432
▁lea	-12.3459
▁pic	-12.3461
▁(!	-12.3483
▁constr	-12.3528
thank	-12.3568
house	-12.3575
za	-12.3595
▁bows	-12.3596
dy	-12.3613
#[	-12.3629
▁bet	-12.3714
▁buckets	-12.3717
fterwards	-12.3718
▁cats	-12.3763
ication	-12.3787
gur	-12.3822
▁art	-12.3826
IN	-12.3845
pending	-12.3855
water	-12.3881
my	-12.3897
▁guesse	-12.3924
▁decorat	-12.3941
▁hills	-12.3947
raised	-12.3955
edicat	-12.4005
ick	-12.4052
▁patte	-12.4053
come	-12.4075
ot	-12.4091
tokeniz	-12.4151
can	-12.4168
▁Licen	-12.4197
▁tour	-12.423
▁scu	-12.4236
Sue	-12.4252
acting	-12.4289
pot	-12.4293
▁gl	-12.4304
people	-12.4316
▁Pe	-12.4364
>;	-12.437
box	-12.4422
▁hose	-12.4449
▁shops	-12.445
ars	-12.4463
▁beard	-12.4464
(|	-12.447
▁ge	-12.4517
</	-12.4525
▁shp	-12.4549
▁goo	-12.456
▁el	-12.4581
oh	-12.459
▁ni	-12.4624
▁dec	-12.4629
▁admin	-12.464
im	-12.4662
place	-12.4694
▁weep	-12.4724
▁Sh	-12.4737
cur	-12.4815
ca	-12.482
ping	-12.4833
▁imagin	-12.4865
Every	-12.4867
▁ra	-12.4904
also	-12.493
Bob	-12.4948
dding	-12.4949
sport	-12.4955
▁shoo	-12.4972
coding	-12.4978
ovel	-12.4979
▁mash	-12.4982
▁wiggl	-12.4995
ivate	-12.505
▁shall	-12.506
▁parse	-12.5064
▁qui	-12.5078
▁di	-12.509
▁known	-12.5105
food	-12.5107
ipping	-12.5108
ary	-12.5139
De	-12.5154
verrid	-12.5157
Tree	-12.5164
Sarah	-12.5168
:?}	-12.5182
ad	-12.5209
ags	-12.5211
walk	-12.5239
udge	-12.527
mal	-12.5298
ns	-12.5301
▁stroll	-12.5305
mplemented	-12.5347
only	-12.5349
▁sets	-12.5367
Jill	-12.5373
open	-12.5385
trip	-12.5389
œW	-12.5393
▁appreciat	-12.5404
▁par	-12.5411
ence	-12.5427
main	-12.5432
▁rubb	-12.5433
loss	-12.5454
▁An	-12.5458
shop	-12.5505
else	-12.5508
Daddy	-12.5555
ouldn	-12.5567
post	-12.5572
join	-12.5577
cut	-12.5585
son	-12.559
EO	-12.5626
At	-12.5655
▁limp	-12.5676
Run	-12.5687
extract	-12.5696
install	-12.5715
LEN	-12.5734
school	-12.5737
ives	-12.5739
point	-12.5744
sound	-12.5748
▁imported	-12.575
bug	-12.5757
resolve	-12.5777
sa	-12.5785
digit	-12.5785
check	-12.5808
owner	-12.581
ST	-12.5818
keeper	-12.5819
merge	-12.582
attracti	-12.5827
bigram	-12.5834
Piece	-12.5837
failed	-12.5846
Annie	-12.5854
display	-12.5871
▁wip	-12.5873
country	-12.5874
group	-12.5883
fully	-12.5883
element	-12.5884
captain	-12.5886
message	-12.5887
button	-12.5888
By	-12.5889
raise	-12.5898
capital	-12.59
pertainyms	-12.59
similar	-12.5903
Rex	-12.5903
sequence	-12.592
format	-12.5921
short	-12.5925
woman	-12.593
free	-12.5931
triples	-12.5932
bank	-12.5932
default	-12.5938
accept	-12.5939
▁paths	-12.5948
Natural	-12.595
ordinary	-12.5953
TreeNode	-12.5953
museum	-12.5954
payload	-12.5955
Frankie	-12.5957
Bug	-12.5959
stack	-12.597
response	-12.5974
canonicalizer	-12.5974
circle	-12.5974
Type	-12.5979
shapefile	-12.5979
CO	-12.598
HashMap	-12.598
scale	-12.5981
related	-12.5985
resume	-12.5987
section	-12.599
output	-12.5996
GB	-12.6007
label	-12.6011
Papa	-12.6013
src	-12.6016
env	-12.6026
united	-12.6028
arg	-12.6053
gu	-12.6069
tasks	-12.6077
▁ignora	-12.6079
locked	-12.6079
▁waits	-12.608
▁cakes	-12.61
ship	-12.6145
languages	-12.6158
ional	-12.617
haring	-12.6189
avour	-12.6202
▁curl	-12.6219
duce	-12.6257
spaces	-12.6272
istic	-12.6285
some	-12.6319
▁slapp	-12.6334
▁believ	-12.6343
▁luck	-12.6349
▁foods	-12.6362
fic	-12.6367
▁shin	-12.6388
pples	-12.6396
active	-12.6411
dam	-12.6422
▁sn	-12.6425
▁pop	-12.6428
lo	-12.6429
ub	-12.6437
ccident	-12.6457
▁tuple	-12.6458
œMom	-12.6477
loop	-12.6492
▁Bu	-12.6498
relations	-12.6519
keys	-12.6521
rror	-12.6528
▁whisper	-12.6552
um	-12.6554
elf	-12.6559
speci	-12.656
▁insist	-12.6564
ize	-12.658
▁material	-12.6601
▁cobweb	-12.6601
ower	-12.661
▁puppet	-12.6616
CT	-12.6616
Sweet	-12.6617
▁ago	-12.6617
zzes	-12.662
▁skill	-12.6621
▁brick	-12.6623
▁bundle	-12.6625
bble	-12.6633
like	-12.6646
▁chirp	-12.6647
▁paddle	-12.6652
▁release	-12.6657
▁achieve	-12.6659
▁bump	-12.666
▁focus	-12.6664
▁arrive	-12.667
laying	-12.6671
▁warn	-12.6671
mom	-12.6677
▁organize	-12.6677
neezing	-12.6684
urprise	-12.6686
plash	-12.6686
magine	-12.6689
nowman	-12.6689
▁energ	-12.6691
▁librar	-12.6691
miling	-12.6691
▁ruin	-12.6692
▁Wi	-12.6692
tagge	-12.6692
anguage	-12.6695
ifferent	-12.6696
▁impl	-12.6696
▁opera	-12.6697
romise	-12.6697
▁recogni	-12.6698
▁min	-12.6698
FrameN	-12.6698
ocab	-12.6698
ritain	-12.6699
▁synta	-12.6699
ellyfish	-12.6699
▁bunn	-12.6699
▁curren	-12.6699
▁tomato	-12.6699
equenc	-12.6699
▁compassion	-12.6699
▁AutoTokenizer	-12.67
▁collapsing	-12.67
▁punctuation	-12.67
▁summaris	-12.67
econom	-12.67
▁practicing	-12.67
▁subdivisions	-12.67
▁useEffect	-12.67
Chocolate	-12.67
Exc	-12.67
Inflect	-12.67
PropertyDump	-12.67
RuntimeError	-12.67
TOKENS	-12.67
TypedDict	-12.67
WaitGroup	-12.67
bracadabra	-12.67
chief	-12.67
sensitive	-12.67
▁BRANCHES	-12.67
▁Brooke	-12.67
▁Generic	-12.67
▁PROPERTIES	-12.67
▁Police	-12.67
▁Rapunzel	-12.67
▁Serialize	-12.67
▁TABLES	-12.67
▁abilities	-12.67
▁activity	-12.67
▁alligator	-12.67
▁atmosphere	-12.67
▁beginning	-12.67
▁boundaries	-12.67
▁chamber	-12.67
▁channel	-12.67
▁component	-12.67
▁contributors	-12.67
▁convention	-12.67
▁cotton	-12.67
▁cranky	-12.67
▁document	-12.67
▁experiment	-12.67
▁fantastic	-12.67
▁fault	-12.67
▁frustration	-12.67
▁giggling	-12.67
▁gorilla	-12.67
▁grasshopper	-12.67
▁groaned	-12.67
▁guarantee	-12.67
▁hurricane	-12.67
▁inchworm	-12.67
▁independence	-12.67
▁ketchup	-12.67
▁luxurious	-12.67
▁mesmerized	-12.67
▁misbehav	-12.67
▁platform	-12.67
▁pyjamas	-12.67
▁recipe	-12.67
▁recycl	-12.67
▁relief	-12.67
▁resolution	-12.67
▁rrrr	-12.67
▁silence	-12.67
▁sleeve	-12.67
▁squish	-12.67
▁stethoscope	-12.67
▁strawberry	-12.67
▁swirls	-12.67
▁tornado	-12.67
▁useCallback	-12.67
▁villain	-12.67
Hurry	-12.67
▁shoppers	-12.67
TYPE	-12.67
historic	-12.67
inflect	-12.67
monument	-12.67
▁Source	-12.67
▁babies	-12.67
▁beehive	-12.67
▁dependenc	-12.67
▁expert	-12.67
▁heavier	-12.67
▁inspecting	-12.67
▁scamper	-12.67
▁tangled	-12.67
Really	-12.67
clinic	-12.67
leisure	-12.67
ticipat	-12.67
▁Filter	-12.67
▁Status	-12.67
▁calend	-12.67
laces	-12.67
▁Arella	-12.67
▁granddaughter	-12.67
▁speech	-12.67
ArrayList	-12.67
BASE	-12.67
IANA	-12.67
ascii	-12.67
▁dusk	-12.67
▁rustling	-12.67
cinema	-12.67
ntrigu	-12.67
▁Slowly	-12.67
timezone	-12.67
tourism	-12.67
▁satisf	-12.67
▁seaweed	-12.67
▁untangle	-12.67
PATH	-12.67
Token	-12.67
▁distinct	-12.67
▁grandchild	-12.67
▁overseer	-12.67
▁shinier	-12.67
derivational	-12.67
wiki	-12.67
▁Partial	-12.67
ADJ	-12.67
▁cheated	-12.67
▁silent	-12.67
OsmGbExtractor	-12.67
▁invention	-12.67
▁sense	-12.67
▁Ruby	-12.67
Oops	-12.67
▁honour	-12.67
▁limit	-12.67
▁performance	-12.67
▁poisonous	-12.67
▁reason	-12.67
pyshp	-12.67
▁achievement	-12.67
▁awesome	-12.67
▁yourselves	-12.67
Split	-12.67
naturalearth	-12.67
craft	-12.67
ertain	-12.67
property	-12.67
▁asyncio	-12.67
handleSave	-12.67
uess	-12.67
▁setLoading	-12.67
parable	-12.67
▁width	-12.67
▁Props	-12.67
▁emitted	-12.6701
▁combinations	-12.6701
▁uncover	-12.6701
▁admiration	-12.6701
▁tippy	-12.6701
Close	-12.6701
▁Slap	-12.6701
PER	-12.6701
Protocol	-12.6701
▁Lego	-12.6701
ERB	-12.6701
▁candies	-12.6701
Sugar	-12.6701
▁arrange	-12.6701
▁definition	-12.6701
▁lazily	-12.6701
▁BOS	-12.6702
▁dragonflies	-12.6702
matic	-12.6702
▁among	-12.6702
▁mitten	-12.6702
▁buddy	-12.6702
Raw	-12.6703
▁hopeless	-12.6703
unreadable	-12.6703
▁streamers	-12.6703
▁ramp	-12.6703
▁clothesline	-12.6704
▁zipfile	-12.6704
Yummy	-12.6704
obj	-12.6704
▁blessing	-12.6705
▁shaky	-12.6705
▁regist	-12.6705
▁sausage	-12.6705
▁airport	-12.6705
▁Stay	-12.6705
▁compan	-12.6705
EN	-12.6706
▁grumble	-12.6706
reserve	-12.6707
({"	-12.6707
CON	-12.6707
>/``.	-12.6707
▁blond	-12.6707
▁chop	-12.6707
▁court	-12.6708
>/<	-12.6708
▁wedding	-12.6708
▁calf	-12.6708
solut	-12.6708
▁furious	-12.6709
Fine	-12.6709
ector	-12.6709
Anytime	-12.6709
Enum	-12.671
commit	-12.671
▁report	-12.671
▁snatch	-12.671
▁readers	-12.671
▁fatal	-12.671
▁parties	-12.6711
▁manner	-12.6711
▁definit	-12.6712
ocer	-12.6712
▁stopping	-12.6712
▁stitches	-12.6712
▁wife	-12.6712
▁setError	-12.6712
primary	-12.6713
▁farther	-12.6713
▁darkness	-12.6713
query	-12.6713
▁posed	-12.6714
▁performer	-12.6715
▁scrubbed	-12.6716
▁married	-12.6717
▁smok	-12.6717
maze	-12.6717
▁rustled	-12.6717
iration	-12.6717
▁novel	-12.6718
▁vows	-12.6719
▁glasses	-12.672
œWhere	-12.672
œThere	-12.6721
▁invent	-12.6723
œOkay	-12.6723
▁quiver	-12.6724
▁shutil	-12.6724
tories	-12.6725
▁```	-12.6727
▁chimes	-12.6728
▁clues	-12.6729
▁bleeding	-12.673
▁conti	-12.673
sign	-12.673
Bird	-12.673
▁cleverer	-12.6731
▁repairing	-12.6732
▁quarreling	-12.6732
▁growling	-12.6733
▁third	-12.6734
▁stomp	-12.6736
▁students	-12.6736
▁parachutes	-12.6737
subdir	-12.6737
▁surroundings	-12.6737
▁rack	-12.6737
▁carton	-12.6739
▁handler	-12.674
▁passes	-12.6742
▁King	-12.6745
▁anytime	-12.6746
FE	-12.6747
perime	-12.6747
▁yumm	-12.6748
▁paddled	-12.6748
partment	-12.675
absor	-12.6751
▁smel	-12.6752
argc	-12.6753
▁importlib	-12.6756
Fire	-12.6758
iate	-12.6759
ination	-12.676
▁smoother	-12.6761
▁pleasant	-12.6761
▁Keep	-12.6761
▁sincere	-12.6764
▁lately	-12.6766
▁Emi	-12.6767
cess	-12.677
▁blend	-12.6771
iction	-12.6771
▁recording	-12.6772
ease	-12.6774
▁doorway	-12.6774
hin	-12.6774
core	-12.6775
▁gaining	-12.6776
▁Robo	-12.6776
rned	-12.6776
▁refuse	-12.6777
▁perfectly	-12.6778
decode	-12.678
▁bundles	-12.6781
updated	-12.6781
▁fact	-12.6783
▁compil	-12.6784
▁bricks	-12.6797
weetheart	-12.6798
▁materials	-12.68
▁wink	-12.6801
▁insists	-12.6801
)["	-12.6801
oulder	-12.6804
synonyms	-12.6804
▁gasp	-12.6804
bincode	-12.6806
▁sla	-12.6807
▁surge	-12.6808
▁whispers	-12.6812
▁cobwebs	-12.6813
▁El	-12.6819
mission	-12.6819
▁Mar	-12.682
utf	-12.6821
``--	-12.6826
▁online	-12.6832
loading	-12.6836
▁signal	-12.6837
▁cact	-12.6837
▁``.	-12.6843
ling	-12.6847
▁clu	-12.6847
▁leaking	-12.6853
troponyms	-12.6854
same	-12.686
edu	-12.6861
▁marching	-12.6864
▁pirates	-12.6865
lter	-12.6866
▁forgiving	-12.6868
rename	-12.6868
earned	-12.687
pon	-12.6872
▁classes	-12.6881
▁bur	-12.6886
little	-12.6887
patches	-12.6887
ium	-12.6888
arch	-12.6889
moke	-12.6889
back	-12.689
▁tr	-12.6893
▁enco	-12.6898
▁insp	-12.6904
▁roast	-12.6909
▁Bigram	-12.691
▁structur	-12.691
▁sweeter	-12.6912
▁deserve	-12.6913
({	-12.692
▁tenta	-12.6923
▁darlings	-12.693
▁mermaids	-12.6931
gs	-12.6936
▁yum	-12.6937
▁oppo	-12.694
▁soaring	-12.695
rist	-12.6954
▁softer	-12.6954
}>	-12.6957
▁fu	-12.6985
cles	-12.699
▁healed	-12.6996
▁cartoons	-12.6996
Ah	-12.6997
Ru	-12.6999
divis	-12.7001
▁acted	-12.7002
TRI	-12.7004
theatre	-12.7004
``).	-12.701
▁chew	-12.7012
▁cracked	-12.7024
▁master	-12.7025
▁mar	-12.7026
▁ODbL	-12.703
undef	-12.7031
▁disk	-12.7032
▁prefix	-12.7034
ures	-12.7034
▁transformers	-12.7038
▁lightly	-12.7038
▁OsmGbDownloader	-12.7038
▁classification	-12.704
ind	-12.7041
ears	-12.7047
▁MB	-12.7048
▁handled	-12.7051
were	-12.7058
▁watches	-12.7059
tted	-12.7059
uff	-12.706
mmed	-12.7061
▁recommendation	-12.7071
▁cost	-12.7076
▁profiles	-12.7078
▁suc	-12.7079
▁downloaded	-12.7079
▁stormy	-12.7079
enched	-12.7081
▁dep	-12.7104
▁afar	-12.711
olumns	-12.7112
▁clicked	-12.7114
▁defer	-12.7116
▁warnings	-12.7118
▁notebooks	-12.713
▁tweet	-12.7135
▁shoulders	-12.7148
▁lazi	-12.7149
tically	-12.7149
▁Triple	-12.7156
roduce	-12.7179
ervice	-12.7181
▁Key	-12.7181
Mother	-12.7184
▁puddles	-12.7198
tching	-12.7204
▁dresser	-12.7209
▁nation	-12.721
▁sunflowers	-12.7212
car	-12.7213
▁renam	-12.722
▁ste	-12.7226
"[	-12.7226
sorted	-12.7237
ev	-12.7247
▁beautifully	-12.7248
mall	-12.7254
frames	-12.7271
traps	-12.7286
▁thumbs	-12.7305
▁exten	-12.7307
quer	-12.7309
▁Le	-12.731
ability	-12.7322
elt	-12.7326
▁broom	-12.733
▁symbols	-12.733
▁diamonds	-12.733
▁fool	-12.7333
▁anno	-12.7339
▁torn	-12.7351
urls	-12.7353
▁meals	-12.7356
rupt	-12.7367
lid	-12.7382
▁learner	-12.7404
▁abs	-12.7413
▁suits	-12.7425
▁spe	-12.7433
▁guardi	-12.7444
rt	-12.7446
▁bigram	-12.7457
rry	-12.7458
dio	-12.7461
▁twists	-12.7464
▁drawers	-12.7466
▁basketballs	-12.7467
iers	-12.7469
ctive	-12.7479
▁filet	-12.7504
▁knees	-12.7508
ck	-12.7543
▁pears	-12.7544
▁downloads	-12.755
▁format	-12.755
▁similar	-12.7564
▁digit	-12.7564
▁tokeniz	-12.7566
▁pertainyms	-12.7566
▁capital	-12.7567
œS	-12.7571
gle	-12.7579
happy	-12.7583
▁"_"	-12.7592
▁arf	-12.7603
▁Turn	-12.7606
▁swapp	-12.7619
rom	-12.7626
iled	-12.7628
▁rang	-12.7632
▁failed	-12.7633
▁bl	-12.7638
▁Piece	-12.7642
▁moo	-12.7648
▁within	-12.765
uses	-12.7663
▁wil	-12.7666
▁hammers	-12.7668
▁Co	-12.7669
AN	-12.7706
ven	-12.771
▁tickets	-12.7732
ul	-12.7733
ged	-12.7734
cho	-12.777
▁sav	-12.777
Try	-12.7786
▁install	-12.7796
ims	-12.7799
aster	-12.78
▁RawLayout	-12.7804
)"	-12.7858
fun	-12.7863
ta	-12.7864
▁tigers	-12.7871
▁lump	-12.7872
▁bea	-12.7888
:]	-12.7897
▁tilt	-12.7906
▁deci	-12.7925
lity	-12.7927
rying	-12.7929
▁nets	-12.7954
▁loader	-12.7967
▁Me	-12.7968
▁'-	-12.7998
▁ba	-12.7999
dest	-12.8004
▁causes	-12.8024
++	-12.8033
.{	-12.805
▁repo	-12.8073
▁hissed	-12.8075
pping	-12.8081
▁hyponyms	-12.8107
▁bells	-12.8114
any	-12.8131
▁filename	-12.8137
▁standards	-12.8138
ational	-12.8147
▁problems	-12.8151
▁spaces	-12.816
▁flapp	-12.8168
▁tags	-12.8192
bed	-12.8223
reaking	-12.827
Ju	-12.8286
ification	-12.8287
▁var	-12.83
▁compar	-12.83
unning	-12.8314
tory	-12.832
▁crabs	-12.8325
▁fright	-12.8326
▁rocking	-12.8343
gar	-12.836
ench	-12.8381
▁sub	-12.8395
▁deed	-12.8408
ide	-12.8432
▁computers	-12.8433
▁cache	-12.8433
▁Ea	-12.8465
cafe	-12.8518
:?}"	-12.8535
rest	-12.8575
tim	-12.8575
ro	-12.858
▁brat	-12.8583
▁acc	-12.8591
▁teache	-12.8653
▁attribut	-12.8658
serv	-12.8665
char	-12.8684
usician	-12.8721
▁clay	-12.8742
eeped	-12.8753
▁trained	-12.8763
ECI	-12.8777
▁covers	-12.886
▁member	-12.8876
▁filter	-12.8907
▁replac	-12.8937
▁stru	-12.8938
terin	-12.8949
▁capt	-12.8951
▁fa	-12.8961
▁mall	-12.8991
▁le	-12.9013
▁loser	-12.9015
cat	-12.9041
unt	-12.9109
got	-12.9116
bber	-12.9124
ri	-12.9137
▁celebrati	-12.9139
▁bill	-12.9166
rinceton	-12.9174
ramAssocMeasures	-12.9185
▁ID	-12.9198
▁overrid	-12.9202
ex	-12.9206
▁confidence	-12.9223
calling	-12.923
▁:	-12.9238
▁gra	-12.924
▁cle	-12.9242
ushed	-12.9284
when	-12.9288
▁digits	-12.9291
`.	-12.9342
▁vow	-12.9346
▁straight	-12.9364
Boo	-12.937
▁region	-12.9387
vince	-12.9402
▁rust	-12.9406
olf	-12.9444
pit	-12.9485
okes	-12.9504
((	-12.9511
iness	-12.9512
Lemm	-12.9558
find	-12.9575
ugged	-12.958
J	-12.9587
ack	-12.9591
▁gr	-12.9606
ker	-12.9608
▁promises	-12.9698
(".	-12.9728
appe	-12.9729
▁syntax	-12.9757
who	-12.9809
lick	-12.9832
act	-12.9861
ab	-12.9866
œC	-12.9877
▁storms	-12.9882
▁blu	-12.9917
▁date	-12.9922
▁caus	-12.9924
down	-12.9926
▁usual	-12.994
ticed	-12.9942
▁naps	-12.9942
nvalid	-12.995
▁cla	-12.9986
ings	-13.006
When	-13.0079
']}"	-13.01
▁cuddl	-13.0125
▁fin	-13.0126
▁exce	-13.0147
have	-13.0157
▁boo	-13.0161
ard	-13.0171
▁values	-13.0198
▁compli	-13.0224
▁climbs	-13.0228
lapping	-13.023
▁dri	-13.0254
▁Sa	-13.026
▁normalise	-13.0265
▁resolv	-13.0276
ay	-13.0285
adly	-13.0294
▁defin	-13.03
▁pur	-13.0306
ho	-13.0315
▁combin	-13.0317
▁framenet	-13.032
cheers	-13.0324
lled	-13.0362
▁fins	-13.0371
▁ab	-13.0386
▁awe	-13.0389
▁mon	-13.0397
ched	-13.0416
▁brushe	-13.0465
▁sill	-13.0479
▁tha	-13.05
air	-13.0518
art	-13.0618
somed	-13.0671
hange	-13.0715
ran	-13.0779
ending	-13.0812
ht	-13.0857
▁blo	-13.0952
their	-13.096
▁welcom	-13.0963
therwise	-13.0966
▁moments	-13.1075
him	-13.1115
oor	-13.1148
▁normalis	-13.118
rops	-13.1195
▁ouch	-13.1209
writ	-13.1214
▁nodd	-13.1218
œB	-13.1221
▁silli	-13.1249
▁pad	-13.125
▁deriv	-13.1275
Wi	-13.1277
▁Des	-13.1345
play	-13.1373
kind	-13.1373
arity	-13.1376
dent	-13.1393
▁height	-13.1402
langs	-13.1431
mas	-13.1448
▁Ant	-13.1451
▁spots	-13.1464
rope	-13.1499
xactly	-13.155
aint	-13.1565
wanted	-13.1631
try	-13.165
sources	-13.1652
each	-13.1686
▁fl	-13.1697
▁Po	-13.1782
Bigram	-13.1803
nch	-13.1835
ening	-13.1836
▁maths	-13.1854
bear	-13.1868
import	-13.1871
if	-13.1888
dog	-13.1915
errors	-13.1918
▁happie	-13.1926
▁coo	-13.198
▁understands	-13.201
erkeley	-13.2052
iff	-13.2071
tok	-13.2073
▁finishe	-13.2091
sting	-13.2103
ics	-13.2108
girl	-13.2205
His	-13.2213
garden	-13.2215
▁guid	-13.2218
▁wealth	-13.2226
best	-13.2249
bit	-13.227
ightened	-13.2288
appointment	-13.2307
two	-13.2327
income	-13.2339
œH	-13.2377
œBu	-13.2378
nail	-13.2382
▁herb	-13.2388
ground	-13.2395
▁resolve	-13.2403
▁mi	-13.2414
▁flicke	-13.2421
▁redirect	-13.254
lean	-13.2546
off	-13.256
▁settl	-13.2598
ny	-13.2599
OM	-13.2604
Prince	-13.2634
men	-13.2682
ther	-13.2699
upon	-13.2763
ific	-13.2783
etty	-13.2808
Lucy	-13.2815
(_	-13.2894
cting	-13.2898
▁introduc	-13.2903
share	-13.2936
run	-13.2957
eing	-13.2977
Ma	-13.3058
▁fe	-13.3094
▁ski	-13.3109
œO	-13.3117
▁tir	-13.314
after	-13.316
ince	-13.321
lly	-13.3219
don	-13.3254
ingly	-13.3302
▁sci	-13.3346
Some	-13.3378
fast	-13.3413
coop	-13.343
unde	-13.3445
Jane	-13.3581
ened	-13.36
eat	-13.3602
ys	-13.3613
▁tease	-13.3644
bound	-13.3673
unit	-13.3675
unti	-13.3679
three	-13.3681
▁aw	-13.3683
▁tok	-13.3704
making	-13.374
corn	-13.3742
okay	-13.3743
smiled	-13.3801
▁trad	-13.3816
lipped	-13.3837
▁provid	-13.3861
itting	-13.3878
hand	-13.3897
world	-13.3906
ugging	-13.3917
ress	-13.3921
artial	-13.3929
▁creak	-13.3939
night	-13.3975
rotection	-13.3977
▁Ab	-13.3997
").	-13.4004
ean	-13.4007
range	-13.4016
▁tickl	-13.4029
▁temp	-13.4045
yummy	-13.4049
near	-13.4113
fly	-13.4151
uality	-13.4167
delicious	-13.4169
IM	-13.4173
friends	-13.4186
ating	-13.4216
Class	-13.422
ummy	-13.4232
contents	-13.4235
tter	-13.4261
Benny	-13.4297
app	-13.4316
ls	-13.4333
Lila	-13.4412
Daisy	-13.4431
ster	-13.4432
ants	-13.4442
▁rumbl	-13.4455
went	-13.4466
fair	-13.4521
▁scor	-13.4526
field	-13.4542
beach	-13.4543
cross	-13.4599
ita	-13.4617
▁hu	-13.4627
ip	-13.463
done	-13.4631
itten	-13.4634
please	-13.4682
rted	-13.4737
nger	-13.4744
▁wro	-13.4747
build	-13.4764
▁wr	-13.477
raps	-13.4774
Jimmy	-13.4776
listened	-13.4779
shells	-13.4784
own	-13.4791
ots	-13.4802
downloaders	-13.4816
fix	-13.4828
verywhere	-13.484
Mary	-13.4853
piece	-13.4854
▁ri	-13.4868
having	-13.4868
▁dst	-13.488
castle	-13.4887
DatasetMeta	-13.4893
sees	-13.4902
years	-13.491
tower	-13.4928
ikidataRawLayout	-13.4938
ike	-13.4965
None	-13.499
cape	-13.4999
child	-13.503
▁bec	-13.5044
ikidataExtractor	-13.505
ggled	-13.5064
ets	-13.507
rust	-13.5085
Turn	-13.5099
cover	-13.5106
easing	-13.5111
ession	-13.5117
oes	-13.5119
▁kne	-13.5123
▁Care	-13.514
uddles	-13.5141
without	-13.5142
life	-13.5149
causes	-13.515
Johnny	-13.5166
course	-13.5168
META	-13.5189
▁artifact	-13.5189
pieces	-13.5191
▁sli	-13.5196
appeared	-13.52
Mum	-13.5202
Emily	-13.5214
▁heav	-13.523
▁Ha	-13.5251
rrupt	-13.5278
ility	-13.528
Blue	-13.5293
tiny	-13.5299
truck	-13.5301
asked	-13.5315
owling	-13.5321
appl	-13.5325
mod	-13.5335
zips	-13.5338
brush	-13.535
bar	-13.5363
zoo	-13.5367
ime	-13.5383
Tru	-13.5387
rian	-13.5395
pecial	-13.5408
pens	-13.5411
..."	-13.5413
branch	-13.5436
town	-13.5442
ells	-13.5448
well	-13.5451
gather	-13.5456
▁recorde	-13.5456
battery	-13.5459
zi	-13.546
alk	-13.547
Maggie	-13.5471
lock	-13.5471
working	-13.5472
clock	-13.5482
lucky	-13.5509
bars	-13.5525
understood	-13.5528
pass	-13.5534
▁pinche	-13.5536
question	-13.557
pr	-13.5574
Ellie	-13.5575
▁Pre	-13.5591
crazy	-13.5618
hospital	-13.5632
▁Sorry	-13.5639
fibonacci	-13.5644
token	-13.5649
empty	-13.5651
eaming	-13.5652
wn	-13.5659
Friends	-13.5659
restaurant	-13.5667
create	-13.5677
hi	-13.5689
zoom	-13.5694
color	-13.5698
distance	-13.5699
tools	-13.5701
factory	-13.5702
column	-13.5713
For	-13.5717
▁rais	-13.5717
built	-13.572
▁classid	-13.5723
known	-13.5724
fall	-13.5726
Leo	-13.5728
office	-13.5735
PR	-13.5738
ext	-13.5742
Lizzy	-13.5744
riter	-13.5745
Fr	-13.5749
Result	-13.5749
Bun	-13.5751
▁su	-13.5759
touched	-13.5765
transform	-13.5771
bugs	-13.578
ifier	-13.5781
nature	-13.5806
obedient	-13.5806
true	-13.5806
project	-13.5811
dreaming	-13.5817
Per	-13.5825
comb	-13.5825
byte	-13.5826
suit	-13.5827
sort	-13.5828
recommend	-13.5828
hotel	-13.5836
Key	-13.5844
guest	-13.5846
Lisa	-13.5847
beep	-13.5848
failures	-13.585
library	-13.5855
nce	-13.586
EL	-13.586
Cindy	-13.5864
Bunny	-13.5865
Janie	-13.5865
Pat	-13.5876
missing	-13.588
marker	-13.588
version	-13.5881
OsmGbDownloader	-13.5881
price	-13.5882
classification	-13.5883
transformers	-13.5884
Near	-13.5884
▁members	-13.5885
easy	-13.5886
Optional	-13.5886
vocab	-13.5889
speak	-13.589
prefix	-13.5892
Cleary	-13.5894
ODbL	-13.5899
knob	-13.5911
Remy	-13.5912
dresser	-13.5913
Carl	-13.5913
List	-13.5914
mark	-13.5914
worker	-13.5917
Tilly	-13.5917
actual	-13.5921
synset	-13.5923
OsmGbRawLayout	-13.5923
disk	-13.5923
ner	-13.5923
double	-13.5924
Python	-13.5926
frozen	-13.5928
Andy	-13.5928
university	-13.593
DATASETS	-13.593
boundary	-13.593
▁"'"	-13.5933
MB	-13.5935
stadium	-13.5936
Ladybug	-13.5939
World	-13.5939
candidate	-13.594
context	-13.594
view	-13.5941
▁forgiven	-13.5943
Milo	-13.5944
acc	-13.5945
prayed	-13.5948
artwork	-13.595
Toby	-13.595
squares	-13.5951
reverse	-13.5953
desc	-13.5955
master	-13.596
process	-13.596
OSM	-13.5962
super	-13.5968
async	-13.598
truth	-13.5982
copy	-13.5984
burn	-13.5985
vroom	-13.5985
Monster	-13.5986
pole	-13.6004
ends	-13.6004
exam	-13.6018
orns	-13.6018
synsets	-13.6027
ff	-13.6034
ural	-13.6053
▁tim	-13.6055
pop	-13.6063
screen	-13.6068
ood	-13.6074
basename	-13.6074
printed	-13.6077
pe	-13.6101
jobs	-13.6105
[])	-13.6108
xim	-13.6113
step	-13.6115
foot	-13.6116
▁forests	-13.6117
bell	-13.612
j	-13.613
Gi	-13.6137
yum	-13.6155
ddy	-13.6157
ify	-13.6159
▁drag	-13.616
▁blueberr	-13.6162
ended	-13.6178
Bu	-13.6183
rates	-13.6198
eaten	-13.6198
pro	-13.6209
smell	-13.621
rous	-13.6217
▁sha	-13.6224
lightly	-13.6224
land	-13.6233
▁sur	-13.6253
▁buck	-13.6254
▁hum	-13.6278
ull	-13.6311
roponyms	-13.6316
wor	-13.6339
recogniz	-13.6343
God	-13.6347
pl	-13.636
▁refus	-13.6377
▁awa	-13.6384
▁Jo	-13.6384
ra	-13.6385
qui	-13.6389
œSt	-13.6399
bbed	-13.6429
ynonyms	-13.6439
▁surpris	-13.6448
matched	-13.6458
atch	-13.6461
stance	-13.6461
raced	-13.6478
▁imag	-13.648
▁qu	-13.6482
igh	-13.6487
▁pu	-13.6491
Ra	-13.6495
▁littl	-13.6495
oven	-13.6495
nity	-13.65
roo	-13.6508
▁clos	-13.652
possible	-13.6534
Standard	-13.6538
Start	-13.6544
bu	-13.6572
incode	-13.6574
▁continu	-13.6578
ynset	-13.6584
results	-13.6596
uzzle	-13.6601
▁parachute	-13.6606
peak	-13.6608
codes	-13.6613
▁student	-13.6614
▁confus	-13.6614
▁fenc	-13.6615
▁squeez	-13.6616
▁customer	-13.6617
tinct	-13.6619
▁pancake	-13.6619
suits	-13.662
▁wobbl	-13.6621
▁organiz	-13.6622
▁apologiz	-13.6624
▁vector	-13.6625
quar	-13.6631
▁rule	-13.6635
▁chore	-13.6641
bbing	-13.6646
▁bubbl	-13.6648
uzzl	-13.6649
date	-13.6649
hildren	-13.665
uriosity	-13.6652
▁incredibl	-13.6654
▁rustle	-13.6659
ields	-13.6659
▁disagree	-13.6659
▁scrubb	-13.6659
▁replie	-13.6659
anted	-13.666
▁damage	-13.666
link	-13.6661
chool	-13.6662
▁fragil	-13.6662
▁impress	-13.6663
▁disturb	-13.6666
limb	-13.6666
▁suggest	-13.6666
rimary	-13.6666
▁vanish	-13.6666
▁twin	-13.6667
obwebs	-13.6667
▁canonicaliz	-13.6671
▁collapse	-13.6671
igger	-13.6671
▁bubble	-13.6672
orpus	-13.6673
onfused	-13.6673
roccoli	-13.6673
▁modul	-13.6675
irthday	-13.6675
▁frown	-13.6675
▁explo	-13.6678
anifest	-13.6679
▁currenc	-13.668
ults	-13.6681
elicious	-13.6682
▁harmonic	-13.6684
cissors	-13.6684
wirling	-13.6685
▁disgust	-13.6685
eagull	-13.6685
▁froze	-13.6688
mmediately	-13.6689
ounced	-13.669
ncredible	-13.669
▁chime	-13.6691
lemm	-13.6691
▁fluff	-13.6692
▁grump	-13.6692
leep	-13.6692
bj	-13.6693
appiness	-13.6695
irectory	-13.6696
inosaurs	-13.6696
issue	-13.6696
eighbor	-13.6696
rotocol	-13.6696
▁Sudden	-13.6697
categor	-13.6697
Extract	-13.6697
omework	-13.6697
runk	-13.6697
OsmGb	-13.6697
Loading	-13.6698
nderneath	-13.6698
olphin	-13.6699
▁possib	-13.6699
zzy	-13.6699
▁ribb	-13.6699
ourselves	-13.6699
▁triang	-13.6699
▁genero	-13.6699
Repository	-13.6699
ortunately	-13.6699
Countr	-13.6699
anilla	-13.67
rrible	-13.67
▁Array	-13.67
uickly	-13.67
▁canonical	-13.67
▁lamb	-13.67
▁mesmeri	-13.67
Canonical	-13.67
DATA	-13.67
script	-13.67
transf	-13.67
▁lumber	-13.67
ject	-13.67
opcorn	-13.67
abbit	-13.67
colle	-13.67
memori	-13.67
venture	-13.67
▁flip	-13.67
▁proper	-13.67
▁stor	-13.67
▁blank	-13.67
▁men	-13.6701
ython	-13.6701
teria	-13.6701
▁vict	-13.6702
odern	-13.6702
▁Word	-13.6702
▁scree	-13.6703
▁Import	-13.6703
ordina	-13.6703
ongrat	-13.6703
▁adj	-13.6704
eatures	-13.6704
▁scar	-13.6704
▁practi	-13.6705
elighted	-13.6705
▁rhy	-13.6705
tinguishe	-13.6705
▁angr	-13.6705
ION	-13.6705
inary	-13.6706
rofile	-13.6706
hyp	-13.6706
▁respon	-13.6706
▁chick	-13.6706
entist	-13.6706
▁lonel	-13.6706
▁chain	-13.6707
▁sequ	-13.6708
▁autom	-13.6708
▁chilli	-13.6708
oads	-13.6708
ves	-13.671
▁Data	-13.671
eeling	-13.671
▁confuse	-13.6711
umb	-13.6711
▁Geo	-13.6712
ENT	-13.6712
ERS	-13.6713
▁whil	-13.6713
eeze	-13.6714
readable	-13.6715
▁surrounding	-13.6715
Slow	-13.6715
▁attenti	-13.6715
▁permi	-13.6715
▁terri	-13.6716
œOk	-13.6716
AG	-13.6717
▁frag	-13.6717
lease	-13.6717
forms	-13.6719
▁combinat	-13.672
nknown	-13.6721
œL	-13.6721
▁neigh	-13.6723
lette	-13.6728
oze	-13.673
uack	-13.6735
ptional	-13.6737
▁Resu	-13.6737
onkeys	-13.6738
iece	-13.6738
flow	-13.6739
▁purp	-13.674
ontent	-13.6746
Wo	-13.6746
vice	-13.6747
elation	-13.6747
ption	-13.6749
▁merc	-13.6749
▁interest	-13.6753
mpor	-13.6759
▁Com	-13.6761
iana	-13.6763
quare	-13.6764
ival	-13.6764
OD	-13.6765
▁begin	-13.6766
logy	-13.6771
▁dete	-13.6771
▁petal	-13.6774
mpet	-13.6777
▁derivati	-13.678
▁ign	-13.6781
▁spla	-13.6781
ious	-13.6783
▁gloom	-13.6786
▁emit	-13.6787
stinct	-13.6788
kills	-13.6792
▁(``	-13.6794
▁Snow	-13.6801
ratio	-13.6805
<-	-13.6809
▁importan	-13.6812
ddled	-13.6812
utterflies	-13.6814
▁harm	-13.6816
▁presen	-13.6816
▁proven	-13.6822
anim	-13.6828
works	-13.6828
Sun	-13.6829
lance	-13.6829
▁invest	-13.6834
lex	-13.6836
▁camp	-13.6842
TE	-13.6843
uzzles	-13.6845
▁uni	-13.6848
▁clue	-13.6849
cent	-13.685
alks	-13.6855
▁lug	-13.6859
airy	-13.6868
lati	-13.6873
▁spr	-13.6877
roles	-13.688
fficer	-13.6881
▁closes	-13.6885
MA	-13.689
ttach	-13.6893
tags	-13.6897
ately	-13.6908
tty	-13.691
espect	-13.6911
▁boot	-13.6916
▁bru	-13.6921
pret	-13.6931
▁pol	-13.6938
arts	-13.6939
tics	-13.694
rick	-13.6947
nted	-13.695
passion	-13.6958
arning	-13.6962
irring	-13.6966
nac	-13.6969
ttered	-13.6976
tale	-13.6988
▁comp	-13.6993
mble	-13.6995
▁furthe	-13.6997
dress	-13.7021
▁troph	-13.7022
strings	-13.7026
rrors	-13.7027
``)	-13.7029
val	-13.7038
/<	-13.7039
▁hour	-13.7042
icky	-13.7052
elting	-13.7052
balls	-13.7053
œNot	-13.7053
ntry	-13.7055
▁scal	-13.7056
rowning	-13.7059
talk	-13.7068
Li	-13.7083
mitted	-13.7092
azing	-13.7093
▁competi	-13.7097
ace	-13.7099
whi	-13.7115
mical	-13.7115
orn	-13.7128
▁"+"	-13.7135
▁positi	-13.7139
afe	-13.714
uit	-13.7147
ia	-13.7151
Poi	-13.7151
requ	-13.7155
oodbye	-13.7168
▁tokenise	-13.7178
▁Friends	-13.7194
elp	-13.7208
cy	-13.7226
lad	-13.7228
looming	-13.723
ays	-13.7233
etc	-13.7259
iss	-13.7276
An	-13.729
▁miner	-13.7297
kip	-13.731
ighting	-13.7318
rained	-13.7322
▁Chi	-13.7324
riendship	-13.7324
Ch	-13.7334
tern	-13.7346
▁Pu	-13.7353
▁direction	-13.7353
could	-13.7362
ddle	-13.7362
loaded	-13.7365
belt	-13.7369
ru	-13.7373
umbled	-13.739
Save	-13.7393
erb	-13.7461
aps	-13.7463
orie	-13.7483
een	-13.7495
▁deli	-13.7516
▁imme	-13.7535
`."	-13.7538
reaming	-13.7546
▁lett	-13.7548
▁code	-13.7581
acts	-13.7589
▁lime	-13.7615
Dis	-13.763
▁pi	-13.7637
aying	-13.7638
▁que	-13.7641
pan	-13.7643
earby	-13.7651
counts	-13.7659
▁arriv	-13.766
▁cli	-13.7662
gen	-13.7673
tor	-13.7694
▁colo	-13.7711
alues	-13.7733
▁trun	-13.7733
▁Bon	-13.7738
▁buzze	-13.7815
▁PR	-13.7816
AD	-13.7825
troph	-13.7894
rr	-13.7898
hap	-13.79
ild	-13.7926
▁gu	-13.796
ndly	-13.7967
▁ceil	-13.7971
▁la	-13.7985
▁AD	-13.7986
looked	-13.799
▁rank	-13.8004
olden	-13.8006
sity	-13.8023
isite	-13.8023
hen	-13.8033
inkl	-13.8039
▁For	-13.8044
▁Per	-13.8066
rim	-13.807
ol	-13.8097
lt	-13.8097
rden	-13.8128
ac	-13.8142
chase	-13.8188
▁fai	-13.8248
around	-13.8337
ealt	-13.8385
treat	-13.8398
lways	-13.8415
retty	-13.8462
▁comm	-13.8481
omet	-13.8483
tage	-13.8508
▁worrie	-13.8509
ift	-13.8517
▁bless	-13.8532
ork	-13.8558
▁Fin	-13.8569
▁floati	-13.8583
ises	-13.8592
something	-13.8619
▁Bun	-13.862
ameNetRawLayout	-13.8626
▁discussi	-13.8635
▁Ok	-13.8635
vi	-13.8693
sion	-13.8695
▁farthe	-13.8699
low	-13.8728
▁pe	-13.873
fort	-13.8731
den	-13.8776
sq	-13.8788
rried	-13.8836
temp	-13.884
▁env	-13.8846
br	-13.8846
▁brin	-13.8895
ressed	-13.8939
▁carve	-13.8975
▁verifi	-13.8986
pend	-13.8993
too	-13.8997
more	-13.9043
)[	-13.9095
▁fi	-13.9113
rite	-13.913
▁shoe	-13.913
ments	-13.9135
ated	-13.9151
ices	-13.9165
ayed	-13.917
mes	-13.9183
}!	-13.922
eacher	-13.9273
ess	-13.9285
inked	-13.9293
isc	-13.9299
rrow	-13.9305
felt	-13.9315
▁repl	-13.938
loved	-13.9381
Lo	-13.9384
gain	-13.9408
oped	-13.945
rumble	-13.9508
▁swimm	-13.954
onal	-13.9551
▁ve	-13.9581
▁Ru	-13.9606
dge	-13.9672
rg	-13.9706
meone	-13.9708
lle	-13.9719
rts	-13.9724
▁num	-13.9782
▁stretche	-13.9821
▁wav	-13.9835
oggy	-13.9841
rintln	-13.9852
▁ver	-13.9858
asty	-13.9957
lon	-13.9958
▁Run	-13.9973
oni	-14.0006
ived	-14.0041
▁prov	-14.0116
▁Ra	-14.0217
▁rea	-14.023
found	-14.03
▁thr	-14.0334
▁roo	-14.0346
tel	-14.0408
would	-14.0414
▁extr	-14.0593
œWel	-14.0649
ado	-14.0657
eating	-14.0668
▁mic	-14.0678
▁unknow	-14.0681
▁Gr	-14.0691
ollow	-14.0695
cense	-14.0703
▁asse	-14.072
parti	-14.0726
ticks	-14.0727
help	-14.0734
ler	-14.0759
:")	-14.0786
gly	-14.0809
started	-14.0933
nything	-14.1147
▁Ge	-14.1149
▁decod	-14.1307
nked	-14.134
▁chan	-14.1344
-"	-14.1373
eak	-14.1396
ag	-14.1403
icense	-14.1416
▁spic	-14.1417
▁whe	-14.145
▁z	-14.1461
oc	-14.1484
itor	-14.1494
ct	-14.1509
Ja	-14.1536
IMA	-14.1551
▁strolle	-14.1574
▁hopp	-14.1594
ience	-14.1647
fi	-14.1659
ef	-14.1676
ips	-14.171
uple	-14.1874
mm	-14.1889
boy	-14.1926
riving	-14.2008
oring	-14.2041
▁tw	-14.2049
direction	-14.2132
/``.	-14.2214
iling	-14.2279
Noa	-14.2301
▁sm	-14.2343
mon	-14.2384
▁gre	-14.2393
Big	-14.2412
ophy	-14.2419
har	-14.2456
Mr	-14.2476
▁"-	-14.2481
▁chim	-14.2534
tiva	-14.2552
made	-14.2673
▁Cl	-14.2747
co	-14.2749
ox	-14.2773
uted	-14.2778
pin	-14.2793
▁wond	-14.2848
ders	-14.2882
▁zipp	-14.2893
ement	-14.2938
mping	-14.2959
▁>	-14.296
▁containe	-14.2976
make	-14.3
do	-14.3066
▁becom	-14.3103
▁multipl	-14.3113
▁hoo	-14.3172
aze	-14.3255
issing	-14.3318
want	-14.3321
Ge	-14.333
▁medic	-14.3335
heir	-14.3344
RO	-14.3371
ris	-14.3388
hugg	-14.3452
▁imagina	-14.3468
excited	-14.3533
▁prop	-14.3584
▁homes	-14.3621
udde	-14.3682
okenize	-14.3683
ooked	-14.3723
home	-14.3766
▁disappoint	-14.3896
ipped	-14.4126
▁stati	-14.4328
ifica	-14.4336
▁Alt	-14.4373
▁sna	-14.4402
ope	-14.4418
ordNetDownloader	-14.4419
oking	-14.4435
things	-14.444
rain	-14.4447
atio	-14.4452
kies	-14.4545
ringing	-14.4587
rkeley	-14.4675
ssion	-14.4703
ins	-14.4718
tion	-14.4759
allow	-14.4824
ways	-14.4868
▁snowm	-14.4917
▁goin	-14.4929
mo	-14.4969
▁pret	-14.5025
▁los	-14.5039
▁cri	-14.5101
▁cit	-14.5142
Co	-14.5168
▁happi	-14.5176
playing	-14.5182
▁direct	-14.5227
▁Tree	-14.5261
did	-14.53
Ar	-14.5328
▁girls	-14.5438
elling	-14.5466
▁hops	-14.5488
oy	-14.5525
▁ja	-14.5556
')	-14.5593
▁mil	-14.564
ncode	-14.5653
liked	-14.5808
▁relati	-14.5839
wise	-14.5856
says	-14.59
▁disc	-14.5984
▁flo	-14.608
ans	-14.6086
again	-14.6149
▁model	-14.6327
spit	-14.6523
nes	-14.668
▁dar	-14.6808
aw	-14.6811
dicat	-14.6876
wed	-14.6996
yo	-14.701
ob	-14.7102
▁player	-14.7169
der	-14.723
eir	-14.7354
▁del	-14.7367
earn	-14.7436
▁stu	-14.7496
verse	-14.75
anger	-14.7568
ulled	-14.7651
▁crashe	-14.7774
Po	-14.7791
tly	-14.7819
sp	-14.7839
friend	-14.7917
eautiful	-14.8048
azed	-14.8215
('	-14.8305
ided	-14.8331
▁stoo	-14.843
take	-14.8455
▁teas	-14.856
change	-14.865
thought	-14.8682
z	-14.8707
ons	-14.879
▁Tw	-14.8792
//	-14.8803
▁tow	-14.8817
ist	-14.8937
si	-14.9031
⟨	-15.054
