{"<pad>":0,"<unk>":1,"<s>":2,"</s>":3,"!":4,"\"":5,"#":6,"$":7,"%":8,"&":9,"'":10,"(":11,")":12,"*":13,"+":14,",":15,"-":16,".":17,"/":18,"0":19,"1":20,"2":21,"3":22,"4":23,"5":24,"6":25,"7":26,"8":27,"9":28,":":29,";":30,"<":31,"=":32,">":33,"?":34,"@":35,"A":36,"B":37,"C":38,"D":39,"E":40,"F":41,"G":42,"H":43,"I":44,"J":45,"K":46,"L":47,"M":48,"N":49,"O":50,"P":51,"Q":52,"R":53,"S":54,"T":55,"U":56,"V":57,"W":58,"X":59,"Y":60,"Z":61,"[":62,"\\":63,"]":64,"^":65,"_":66,"`":67,"a":68,"b":69,"c":70,"d":71,"e":72,"f":73,"g":74,"h":75,"i":76,"j":77,"k":78,"l":79,"m":80,"n":81,"o":82,"p":83,"q":84,"r":85,"s":86,"t":87,"u":88,"v":89,"w":90,"x":91,"y":92,"z":93,"{":94,"|":95,"}":96,"~":97,"¡":98,"¢":99,"£":100,"¤":101,"¥":102,"¦":103,"§":104,"¨":105,"©":106,"ª":107,"«":108,"¬":109,"®":110,"¯":111,"°":112,"±":113,"²":114,"³":115,"´":116,"µ":117,"¶":118,"·":119,"¸":120,"¹":121,"º":122,"»":123,"¼":124,"½":125,"¾":126,"¿":127,"À":128,"Á":129,"Â":130,"Ã":131,"Ä":132,"Å":133,"Æ":134,"Ç":135,"È":136,"É":137,"Ê":138,"Ë":139,"Ì":140,"Í":141,"Î":142,"Ï":143,"Ð":144,"Ñ":145,"Ò":146,"Ó":147,"Ô":148,"Õ":149,"Ö":150,"×":151,"Ø":152,"Ù":153,"Ú":154,"Û":155,"Ü":156,"Ý":157,"Þ":158,"ß":159,"à":160,"á":161,"â":162,"ã":163,"ä":164,"å":165,"æ":166,"ç":167,"è":168,"é":169,"ê":170,"ë":171,"ì":172,"í":173,"î":174,"ï":175,"ð":176,"ñ":177,"ò":178,"ó":179,"ô":180,"õ":181,"ö":182,"÷":183,"ø":184,"ù":185,"ú":186,"û":187,"ü":188,"ý":189,"þ":190,"ÿ":191,"Ā":192,"ā":193,"Ă":194,"ă":195,"Ą":196,"ą":197,"Ć":198,"ć":199,"Ĉ":200,"ĉ":201,"Ċ":202,"ċ":203,"Č":204,"č":205,"Ď":206,"ď":207,"Đ":208,"đ":209,"Ē":210,"ē":211,"Ĕ":212,"ĕ":213,"Ė":214,"ė":215,"Ę":216,"ę":217,"Ě":218,"ě":219,"Ĝ":220,"ĝ":221,"Ğ":222,"ğ":223,"Ġ":224,"ġ":225,"Ģ":226,"ģ":227,"Ĥ":228,"ĥ":229,"Ħ":230,"ħ":231,"Ĩ":232,"ĩ":233,"Ī":234,"ī":235,"Ĭ":236,"ĭ":237,"Į":238,"į":239,"İ":240,"ı":241,"Ĳ":242,"ĳ":243,"Ĵ":244,"ĵ":245,"Ķ":246,"ķ":247,"ĸ":248,"Ĺ":249,"ĺ":250,"Ļ":251,"ļ":252,"Ľ":253,"ľ":254,"Ŀ":255,"ŀ":256,"Ł":257,"ł":258,"Ń":259,"ĠĠ":260,"he":261,"Ġt":262,"Ġa":263,"Ġs":264,"Ġw":265,"nd":266,"Ġthe":267,"ĠĠĠĠ":268,"ed":269,"in":270,"Ġb":271,"Ġand":272,"re":273,"Ġto":274,"Ġc":275,"Ġh":276,"ou":277,"Ġf":278,"it":279,"er":280,"Ġwa":281,"ĠT":282,"Ġl":283,"on":284,"Ġd":285,"Ġp":286,"Ġm":287,"om":288,"at":289,"Ġhe":290,"Ġ\"":291,"Ġwas":292,"ar":293,"is":294,"ĠThe":295,"ing":296,"or":297,"en":298,"id":299,"il":300,"ĠĠĠĠĠĠĠĠ":301,"ay":302,"Ġg":303,"an":304,"ĠS":305,"Ġn":306,"es":307,"ad":308,"Ġo":309,"ll":310,"et":311,"im":312,"Ġ=":313,"Ġsa":314,"Ġth":315,"le":316,"Ġit":317,"ĠH":318,"Ġin":319,"ir":320,"ot":321,"ow":322,"am":323,"Ġe":324,"Ġher":325,"ĠThey":326,"ver":327,"ut":328,"ac":329,"ĠShe":330,"ĠHe":331,"Ġ+":332,"ri":333,"Ġha":334,"Ġ.":335,"ld":336,"Ġst":337,"Ġu":338,"Ġy":339,"ic":340,"Ġsaid":341,"ked":342,"oo":343,"Ġr":344,"ĠI":345,"ve":346,"pp":347,"ke":348,"Ġbe":349,"ith":350,"ĠL":351,"st":352,"Ġshe":353,"Ġof":354,"ig":355,"al":356,"Ġwith":357,"ily":358,"nt":359,"Ġyou":360,"Ġso":361,"ĠB":362,"el":363,"Ġon":364,"On":365,"\",":366,"Ġ|":367,"very":368,"Ġhad":369,"Ġ1":370,"all":371,"Ġfor":372,"Ġhis":373,"ent":374,"Ġpl":375,"Ġre":376,"Ġthat":377,"Ġwe":378,"Ġday":379,"se":380,"ĠLily":381,"Ġthey":382,"out":383,"un":384,"Ġmom":385,"Ġup":386,"ec":387,"Ġan":388,"ĠM":389,"'s":390,"ould":391,"ce":392,"Ġsh":393,"Ġplay":394,"ĠA":395,"--":396,"ound":397,"itt":398,"her":399,"Ġis":400,"ur":401,"Ġli":402,"my":403,"ome":404,"Ġhapp":405,"end":406,"\":":407,"ly":408,"Ġk":409,"Ġnot":410,"ore":411,"Ġas":412,"Ġsm":413,"Ġwant":414,"Ġne":415,"ht":416,"Ġvery":417,"Ġwh":418,"ime":419,"as":420,"Ġdo":421,"Ġtime":422,"ittle":423,"ĠIt":424,"Ġthere":425,"Ġwere":426,".\"":427,"Ġbut":428,"Ġlittle":429,"if":430,"ul":431,"ch":432,"ry":433,"ack":434,"ter":435,"!\"":436,"Ġfri":437,"Ġ3":438,"Ġhappy":439,"ame":440,"ion":441,"ĠJ":442,"ide":443,"Ġfriend":444,"Ġsaw":445,"Ġ2":446,"Ġbig":447,"ra":448,"ake":449,"Ġex":450,"rom":451,"One":452,"um":453,"ug":454,"'t":455,"Ġse":456,"Ġbo":457,"Ġloo":458,"Ġlo":459,"ind":460,"op":461,"Ġthem":462,"Ġ5":463,"Ġgo":464,"ved":465,"ĠĠĠĠĠĠĠĠĠĠĠĠ":466,"ill":467,"Ġout":468,"Ġ9":469,"Ġ7":470,"Ġsp":471,"Once":472,"one":473,"Ġ8":474,"ĠOne":475,"Ġ4":476,"ard":477,"Ġsmil":478,"Ġ6":479,"Ġj":480,"ain":481,"Ġat":482,"art":483,"Ġtoo":484,"ĠBen":485,"Ġtheir":486,"Ġare":487,"ĠW":488,"ĠTim":489,"irl":490,"Ġgirl":491,"ue":492,"Ġhim":493,"lo":494,"Ġle":495,"Ġcould":496,"Ġwanted":497,"ck":498,"Ġhave":499,"Ġupon":500,"od":501,"ag":502,"hen":503,"Ġall":504,"Ġar":505,"Ġcan":506,"Ġpr":507,"hing":508,"hed":509,"way":510,"ĠTom":511,"?\"":512,"are":513,"Ġwent":514,"ab":515,"lp":516,"Ġdid":517,"Ġfrom":518,"Ġsmiled":519,"ght":520,"Ġkn":521,"get":522,"Ġfriends":523,"ach":524,"ark":525,"Ġhelp":526,"----":527,"own":528,"ĠBut":529,"ree":530,"est":531,"Ġasked":532,"ood":533,"Ġ{":534,"ie":535,"ure":536,"Ġal":537,"Ġback":538,"Ġif":539,"ice":540,"omet":541,"Ġfun":542,"ort":543,"You":544,"Ã¢":545,"âĤ":546,"âĤ¬":547,"Ġsc":548,"()":549,"ro":550,"side":551,"Ġman":552,"ĠĠĠĠĠĠĠĠĠĠĠĠĠĠĠĠ":553,"us":554,"Ġsay":555,"Ġ0":556,"pl":557,"amed":558,"Ġro":559,"Ġv":560,"ĠD":561,"ang":562,"Ġsee":563,"ĠE":564,"Ġsomet":565,"elt":566,"king":567,"Ġlike":568,"Ġwor":569,"Ġsome":570,"Ġlooked":571,"Ġco":572,"ers":573,"ist":574,"Ġfelt":575,"Ġme":576,"ings":577,"ful":578,"Ġaround":579,"Ġstart":580,"ell":581,"to":582,"and":583,"ong":584,"Ġboy":585,"hat":586,"Ġim":587,"ap":588,"Ġwhat":589,"Ġloved":590,"elf":591,"Ġno":592,"Ġthen":593,"ade":594,"Ġsomething":595,"xt":596,"Ġfound":597,",\"":598,"Ġtoy":599,"Ġ<":600,"Ġwould":601,"ited":602,"Ġnamed":603,"Ġexc":604,"ub":605,"ast":606,"ĠTimmy":607,"ĠMom":608,"Ġag":609,"Ġch":610,"Ġmore":611,"ath":612,"Ġimp":613,"Ġot":614,"ook":615,"call":616,"Ġbir":617,"Ġcar":618,"nn":619,"gether":620,"oud":621,"ate":622,"Ġran":623,"Ġnew":624,"ought":625,"Ġput":626,"qu":627,"urn":628,"Ġother":629,"\")":630,"ĠYou":631,"Ġmade":632,"Ġstarted":633,"Ġmake":634,"Ġ}":635,"ick":636,"ared":637,"ess":638,"ous":639,"Ġbird":640,"Ġpark":641,"Ġhome":642,"ace":643,"(\"":644,"ave":645,"Ġstr":646,"ep":647,"ial":648,"ation":649,"ĠSam":650,"Ġsw":651,"Ġcl":652,"ax":653,"Ġimport":654,"ĠN":655,"Ġexcited":656,"ĠF":657,"Ġtogether":658,"Ġaway":659,"Ġfe":660,"Ġgr":661,"ect":662,"dd":663,"em":664,"Ġone":665,"Ġhug":666,"Ġget":667,"ust":668,"ass":669,"nna":670,"iz":671,"ight":672,"Ġans":673,"low":674,"Ġdec":675,"Ġwal":676,"ia":677,"pped":678,"Ġwho":679,"Ġsays":680,"Ġthings":681,"aug":682,"Ġthan":683,"Ġbr":684,"Ġgood":685,"Ġlet":686,"pt":687,"Ġde":688,"Ġ-":689,"Ġwhen":690,"Ġdown":691,"ant":692,"Ġevery":693,"ecial":694,"Ġliked":695,"Ġagain":696,"Ġyour":697,"Ġplaying":698,"ount":699,"ine":700,"ile":701,"Ġab":702,"ally":703,"ild":704,"uch":705,"ĠP":706,"Ġfind":707,"ma":708,"our":709,"ĠR":710,"Ġi":711,"Ġsad":712,"Ġcare":713,"Ġpic":714,"Ġke":715,"cy":716,"âĶ":717,"âĶĢ":718,"ive":719,"nder":720,"Ġdad":721,"Ġpo":722,"ob":723,"ouse":724,"Ġgot":725,"Ġcame":726,"ny":727,"ven":728,"ĠSo":729,"uck":730,"Ġold":731,"ĠAnna":732,"ew":733,"Ġwill":734,"act":735,"Ġspecial":736,"âĶĢâĶĢ":737,"ull":738,"ara":739,"ont":740,"ided":741,"aw":742,"ite":743,"Ġpre":744,"ĠĠĠĠĠ":745,"ried":746,"ise":747,"self":748,"Ġdecided":749,"ĠC":750,"Ġthought":751,"Ġcom":752,"ber":753,"arn":754,"ty":755,"=\"":756,"ase":757,"oc":758,"Ġ_":759,"ened":760,"ries":761,"ĠWhen":762,"Ġor":763,"Ġeach":764,"Ġtake":765,"ump":766,"fe":767,"Ġpe":768,"ish":769,"Ġtr":770,"Ġtook":771,"--------":772,"Ġscared":773,"ken":774,"name":775,"ss":776,"Ġgre":777,"ft":778,"Ġlot":779,"Ġmy":780,"Ġ10":781,"Ġthis":782,"Ġlook":783,"Ġtw":784,"Ġlearn":785,"udd":786,"Ġball":787,"``":788,"Ġâ":789,"ĠSara":790,"ged":791,"les":792,"Ġ;":793,"ren":794,"Ġknow":795,"Ġop":796,"Ġoutside":797,"ext":798,"ĠJo":799,"av":800,"fter":801,"ĠMax":802,"Ġret":803,"ĠEvery":804,"Ġabout":805,"Ġknew":806,"ct":807,"Ġtree":808,"Ġlaug":809,"Ġbox":810,"Ġfeel":811,"ink":812,"Ġreturn":813,"ĠJack":814,"ways":815,"Ġdidn":816,"udden":817,"Ġbec":818,"Ġalways":819,"Ġclo":820,"ars":821,"Ġ(":822,"Ġsk":823,"int":824,"Ġen":825,"Ġover":826,"Ġgave":827,"\"\"":828,"ak":829,"Ġcat":830,"Ġproud":831,"uddenly":832,"ph":833,"Ġhow":834,"10":835,"Ġ/":836,"Ġdef":837,"Ġqu":838,"Ġrun":839,"Ġexpl":840,"ĠHer":841,"Ġmommy":842,"Ġshow":843,"orry":844,"Ġche":845,"Ġho":846,"Ġhand":847,"Ġtoys":848,"other":849,"Ġany":850,"Ġkind":851,"Ġlist":852,"Ġnever":853,"ple":854,"ins":855,"ank":856,"ode":857,"Ġhouse":858,"Ġinto":859,"here":860,"Ġflow":861,"Ġmuch":862,"by":863,"oth":864,"Ġus":865,"11":866,"Ġsorry":867,"ory":868,"Ġheard":869,"ract":870,"Ġwater":871,"ult":872,"Ġroom":873,"dir":874,"ĠÃ¢":875,"Ġinside":876,"Ġcount":877,"Ġeven":878,"air":879,"Ġdog":880,"Ġhas":881,"Ġtold":882,"Ġ#":883,"Ġoff":884,"Ġsmall":885,"Ġcouldn":886,"Ġsun":887,"Ġbet":888,"age":889,"Åĵ":890,"ĠHis":891,"Ġby":892,"ĠSuddenly":893,"Ġbl":894,"Ġbu":895,"Ġber":896,"orn":897,"'m":898,"Th":899,"Ġpret":900,"Ġberries":901,"Yes":902,"Ġnice":903,"Ġneed":904,"iny":905,"able":906,"ĠWe":907,"oll":908,"Ġapp":909,"Ġmany":910,"ids":911,"ĠAnd":912,"Ġtre":913,"ĠMia":914,"ject":915,"Ġmo":916,"right":917,"Ġbear":918,"Ġjust":919,"Ġpicked":920,"Ġ->":921,"gh":922,"imal":923,"ough":924,"ady":925,"32":926,"au":927,"vent":928,"Ġhugged":929,"Ġwo":930,"Ġfam":931,"Ġeat":932,"::":933,"aut":934,"ip":935,"Ġad":936,"Ġcall":937,"ons":938,"Ġthanked":939,"ies":940,"pr":941,"Ġlong":942,"ĠThen":943,"str":944,"Ġanimal":945,"ge":946,"ving":947,"ontin":948,"Ġ[":949,"iec":950,"Ġgra":951,"Ġ</":952,"12":953,"ĠG":954,"Ġtry":955,"ata":956,"Ġstay":957,"ool":958,"Ġrel":959,"ff":960,"Ġwr":961,"load":962,"oy":963,"ople":964,"Ġsur":965,"Ġbest":966,"Ġbeaut":967,"mem":968,"ream":969,"eet":970,"led":971,"ĠBob":972,"Ġlearned":973,"dy":974,"hes":975,"Ġdon":976,"ary":977,"Ġtwo":978,"Ġun":979,"raw":980,"Ġbeautif":981,"lang":982,"ĠĠĠĠĠĠĠĠĠĠĠĠĠĠĠĠĠĠĠĠ":983,"Ġbetter":984,"Ġcome":985,"Ġbeautiful":986,"Ġtried":987,"Ġsky":988,"member":989,"Ġplayed":990,"ity":991,"Ġlove":992,"ause":993,"Ġlots":994,"ors":995,"Ġnod":996,"Ġcareful":997,"Ġpeople":998,"Ġlaughed":999,"bed":1000,"Ġend":1001,"Ġunder":1002,"Ġfamily":1003,"Ġfi":1004,"ised":1005,"ĠSue":1006,"urt":1007,");":1008,"Ġname":1009,"Ġjump":1010,"Ġbook":1011,"Ġclos":1012,"),":1013,"13":1014,"ĠFrom":1015,"gry":1016,"ane":1017,"ched":1018,"Ġboth":1019,"Ġfle":1020,"Ġunt":1021,"itter":1022,"sp":1023,"Ġchild":1024,"):":1025,"ĠAs":1026,"arden":1027,"ocab":1028,"Ġsn":1029,"Ġgarden":1030,"Ġwat":1031,"Ġuntil":1032,"Ġfast":1033,"Ġmach":1034,"ield":1035,"Ġanimals":1036,"15":1037,"aking":1038,"Ġsl":1039,"Ġhard":1040,"Ġbecause":1041,"00":1042,"wer":1043,"Ġte":1044,"Ġbra":1045,"orm":1046,"Ġself":1047,"Ġleft":1048,"th":1049,"ance":1050,"Ġmachine":1051,"\"]":1052,"ded":1053,"Ġshould":1054,"Ġsurpr":1055,"14":1056,"Ġcr":1057,"atas":1058,"ataset":1059,"16":1060,"ail":1061,"be":1062,"ied":1063,"Ġide":1064,"ished":1065,"ĠDad":1066,"Ġflowers":1067,"Ġopened":1068,"so":1069,"Ġcu":1070,"20":1071,"Ġfin":1072,"Ġway":1073,"Ġstill":1074,"Ġshiny":1075,"Ġac":1076,"âĶĢâĶĢâĶĢâĶĢ":1077,"Ġ//":1078,"Ġexplore":1079,"Ġwalked":1080,"ress":1081,"Ġcle":1082,"Ġloud":1083,"wn":1084,"Ġdel":1085,"It":1086,"kay":1087,"ope":1088,"75":1089,"No":1090,"fore":1091,"What":1092,"iv":1093,"ucy":1094,"ord":1095,"ĠJoh":1096,"Let":1097,"son":1098,"Ġsafe":1099,"ĠLucy":1100,"gs":1101,"path":1102,"ayout":1103,"Ġsto":1104,"Ġuse":1105,"Ġdoor":1106,"onf":1107,"Ġcalled":1108,"Ġsoon":1109,"Ġbrave":1110,"22":1111,"Ġfore":1112,"Ġits":1113,"âĤ¬â":1114,"Ġrock":1115,"Ġadvent":1116,"Ġnodded":1117,"35":1118,"ious":1119,"joy":1120,"Ġcry":1121,"Ġfly":1122,"irst":1123,"Ġgoing":1124,"That":1125,"gion":1126,"âŁ":1127,"Ł¨":1128,"ign":1129,"alph":1130,"Ġnoise":1131,"Ġkeep":1132,"ĠâŁ¨":1133,"âŁ©":1134,"Ġred":1135,"Ġbefore":1136,"Ġreal":1137,"Ġdoll":1138,"Ġcol":1139,"cur":1140,"igh":1141,"ummy":1142,"18":1143,"Ġ``":1144,"iss":1145,"Ġbed":1146,"iced":1147,"Ġshare":1148,"Ġlived":1149,"----------------":1150,"app":1151,"rue":1152,"sub":1153,"ndma":1154,"Ġcontin":1155,"Ġhurt":1156,"Ġstick":1157,"72":1158,"Ġpretty":1159,"Ġflew":1160,"79":1161,"pe":1162,"ĠAfter":1163,"Ġeveryone":1164,"Ġsweet":1165,"Ġwonder":1166,"Ġidea":1167,"Ġbre":1168,"ĠNone":1169,"Ġenjoy":1170,"thing":1171,"os":1172,"oon":1173,"Ħ¢":1174,"Ġwind":1175,"Ġbit":1176,"âĤ¬âĦ¢":1177,"36":1178,"Ġama":1179,"Ġbad":1180,"ert":1181,"aybe":1182,"Ġrepl":1183,"Ġnext":1184,"Ġprint":1185,"alpha":1186,"Ġamaz":1187,"30":1188,"80":1189,"region":1190,"Ġfr":1191,"Ġlooking":1192,"Ġsmile":1193,"Ġturn":1194,"ical":1195,"odel":1196,"99":1197,"tr":1198,"Ġgl":1199,"Ġthr":1200,"Ġey":1201,"key":1202,"Ġangry":1203,"Ġnoticed":1204,"Ġkept":1205,"bit":1206,"Ġgreat":1207,"Ġapples":1208,"Ġchildren":1209,"rel":1210,"Ġvo":1211,"Ġground":1212,"Ġwalking":1213,"Ġstopped":1214,"Ġadventure":1215,"74":1216,"Ġwar":1217,"Ġdis":1218,"Ġpiec":1219,"illy":1220,"Ġalso":1221,"rency":1222,"ĠO":1223,"Ġsound":1224,"Ġ14":1225,"26":1226,"ex":1227,"Ġfar":1228,"Ġclean":1229,"25":1230,"86":1231,"ble":1232,"Ġthink":1233,"currency":1234,"Ġ15":1235,"ize":1236,"Thank":1237,"34":1238,"ĠĠĠ":1239,"Ġel":1240,"Ġever":1241,"Ġ16":1242,"24":1243,"76":1244,"Ġgive":1245,"70":1246,"Raw":1247,"ms":1248,"Ġz":1249,"Ġhead":1250,"Ġcounted":1251,"Lily":1252,"Ġye":1253,"abbit":1254,"ĠâĢ":1255,"84":1256,"85":1257,"json":1258,"Ġrabbit":1259,"Ġbeen":1260,"arent":1261,"Ġgrab":1262,"19":1263,"ĠThat":1264,"ĠEveryone":1265,"Ġfeeling":1266,"Ġrelation":1267,"Look":1268,"Ġsu":1269,"ered":1270,"ĠâĢĶ":1271,"Ġset":1272,"Ġfish":1273,"ĠAmy":1274,"Ġnear":1275,"\"),":1276,"ĠJoe":1277,"Ġlisten":1278,"ĠJohn":1279,"Ġreplied":1280,"code":1281,"Ġfl":1282,"Ġdr":1283,"Ġwhile":1284,"ĠNow":1285,"ption":1286,"Ġhands":1287,"Ġeyes":1288,"Ġvoice":1289,"sitter":1290,"Ġremember":1291,"Ġshout":1292,"ange":1293,"Ġwork":1294,"ractor":1295,"Ġ)":1296,"Ġright":1297,"ated":1298,"rious":1299,"Ġafter":1300,"Ġnow":1301,"Ġboat":1302,"Ġimportant":1303,"ized":1304,"Ġtruck":1305,"Ġbuild":1306,"Ġbro":1307,"ĠSp":1308,"ict":1309,"ully":1310,"Ġtra":1311,"Ġblo":1312,"Ġfirst":1313,"Ġpu":1314,"eta":1315,"ush":1316,"Ġelse":1317,"co":1318,"cess":1319,"ting":1320,"Ġ*":1321,"Ġmag":1322,"Ġforest":1323,"__":1324,"Ġcand":1325,"Ġfo":1326,"Ġthree":1327,"Ġplace":1328,"ĠMommy":1329,"com":1330,"sc":1331,"Ġtal":1332,"alue":1333,"Ġkids":1334,"ĠJane":1335,"ownload":1336,"Ġgoodby":1337,"Ġquick":1338,"Ġshowed":1339,"ollow":1340,"Ġcloser":1341,"88":1342,"Can":1343,"Ġwait":1344,"Ġcurious":1345,"Ġgoodbye":1346,"90":1347,"Layout":1348,"ik":1349,"ĠTh":1350,"ateg":1351,"ĠPath":1352,"onfig":1353,"64":1354,"Ġnum":1355,"Ġokay":1356,"Ġonly":1357,"fully":1358,"sh":1359,"Ġflo":1360,"Ġfood":1361,"Ġmon":1362,"Ġclass":1363,"Ġwalk":1364,"Ġwarm":1365,"ves":1366,"Ġbag":1367,"Ġfav":1368,"Ġpath":1369,"Ġ\"\"\"":1370,"Ġprin":1371,"aught":1372,"Ġblue":1373,"33":1374,"ix":1375,"ning":1376,"ture":1377,"Ġstore":1378,"Ġbeing":1379,"de":1380,"tree":1381,"Ġfro":1382,"Ġhere":1383,"lease":1384,"Ġext":1385,"Ġworked":1386,"50":1387,"77":1388,"Ġtri":1389,"Ġcook":1390,"Ġmat":1391,"ĠĠĠĠĠĠĠĠĠ":1392,"Ġown":1393,"Ġrain":1394,"anger":1395,"gan":1396,"man":1397,"Ġyell":1398,"hy":1399,"Ġour":1400,"Ġam":1401,"Ġsing":1402,"Ġsub":1403,"Ġfollow":1404,"Ġdone":1405,"ash":1406,"ations":1407,"Ġpicture":1408,"Ġglad":1409,"Ġper":1410,"esc":1411,"ĠIn":1412,"ĠLet":1413,"Ġ12":1414,"Ġworld":1415,"94":1416,"Mom":1417,"Ġbow":1418,"Ġhigh":1419,"Ġmaking":1420,"ached":1421,"Ġdelic":1422,"RawLayout":1423,").":1424,"text":1425,"imes":1426,"Ġlost":1427,"Ġpol":1428,"Ġbooks":1429,"put":1430,"uff":1431,"eric":1432,"Ġpart":1433,"Ġstrong":1434,"Ġtrees":1435,"Ġgrabbed":1436,"\".":1437,"95":1438,"Ġfair":1439,"ĠThere":1440,"Ġgame":1441,"Ġbrother":1442,"Ġgreen":1443,"Ġopen":1444,"17":1445,"cle":1446,"ol":1447,"ĠV":1448,"ather":1449,"Ġstory":1450,"Ġ25":1451,"Ġ},":1452,"Ġbirds":1453,"Ġcarefully":1454,"ĠSpot":1455,"Ġquickly":1456,"38":1457,"Tom":1458,"We":1459,"lass":1460,"Ġbright":1461,"Ġcre":1462,"isy":1463,"Ġbutt":1464,"token":1465,"37":1466,"The":1467,"Ġhot":1468,"Ġpain":1469,"Ġpull":1470,"Ġseen":1471,"ĠSarah":1472,"'re":1473,"66":1474,"87":1475,"ward":1476,"Ġcake":1477,"Ġpick":1478,"ence":1479,"Ġint":1480,"unk":1481,"ategory":1482,"40":1483,"set":1484,"Ġtell":1485,"aring":1486,"orite":1487,"ĠSally":1488,"add":1489,"Ġ50":1490,"Ġgrass":1491,"Ġfavorite":1492,"vocab":1493,"ital":1494,"Ġprom":1495,"ely":1496,"Ġunderst":1497,"LT":1498,"[\"":1499,"Ġsign":1500,"itc":1501,"Ġless":1502,"idata":1503,"ott":1504,"Ġready":1505,"Ġsees":1506,"Ġcoming":1507,"Ġwatched":1508,"Ġblock":1509,"ikidata":1510,"gr":1511,"Ġdif":1512,"Ġhaving":1513,"ĠAt":1514,"ĠWhat":1515,"ages":1516,"Ġpond":1517,"Ġjumped":1518,"Ġshouted":1519,"Ġask":1520,"Ġ20":1521,"Ġclim":1522,"akes":1523,"82":1524,"ire":1525,"Ġsure":1526,"ĠTrue":1527,"ates":1528,"Ġreached":1529,"Ġvis":1530,"Ġbrought":1531,"Ġslide":1532,"65":1533,"ey":1534,"ike":1535,"lf":1536,"Ġface":1537,"ats":1538,"anc":1539,"ired":1540,"Ġyummy":1541,"Ġforg":1542,"Ġflower":1543,"92":1544,"Ġwhere":1545,"Ġparent":1546,"Ġdoing":1547,"Ġpro":1548,"izer":1549,"Ġanswer":1550,"day":1551,"rc":1552,"Ġswim":1553,"Ġthank":1554,"Ġcontinue":1555,"Ġthrough":1556,"31":1557,"Hell":1558,"model":1559,"ined":1560,"Ġmar":1561,"Ġsand":1562,"Ġbegan":1563,"Ġrest":1564,"Ġhappened":1565,"Ġmean":1566,"Ġcatch":1567,"Hello":1568,"TA":1569,"Ġtast":1570,"ows":1571,"Ġkitc":1572,"Ġjo":1573,"Ġboxes":1574,"Ġpretend":1575,"Ġfire":1576,"ownloader":1577,"Ġkitchen":1578,"ier":1579,"Ġlady":1580,"leep":1581,"Ġele":1582,"Ġhappily":1583,"randma":1584,"Ġsurprise":1585,"Ġwonderful":1586,"ault":1587,"not":1588,"rent":1589,"Ġcool":1590,"oup":1591,"Ġfield":1592,"ama":1593,"Ġwhy":1594,"ĠTommy":1595,"Ġwatch":1596,"Ġyears":1597,"ale":1598,"len":1599,"Ġtoken":1600,"Ġnight":1601,"riple":1602,"Ġate":1603,"Ġfunny":1604,"ĠCan":1605,"\"],":1606,"Ġrealized":1607,"zy":1608,"ĠĊ":1609,"Ġwaved":1610,"Ġdark":1611,"Ġbel":1612,"Ġdoes":1613,"Ġ40":1614,"Ġbecame":1615,"langu":1616,"Ġnumber":1617,"Ġvisit":1618,"..":1619,"cap":1620,"reed":1621,"Ġfull":1622,"Ġdict":1623,"Ġmother":1624,"Ġbeh":1625,"ained":1626,"Ġneeded":1627,"39":1628,"45":1629,"Triple":1630,"ient":1631,"src":1632,"Ġcut":1633,"ens":1634,"ila":1635,"Ġsoft":1636,"Ġleav":1637,"Ġused":1638,"ES":1639,"aisy":1640,"ner":1641,"Ġri":1642,"Ġmod":1643,"Ġgent":1644,"Ġthing":1645,"ster":1646,"Ġshell":1647,"Ġ11":1648,"urope":1649,"oper":1650,"Ġarri":1651,"ĠDo":1652,"Ġsurprised":1653,"Ben":1654,"where":1655,"Ġfell":1656,"Ġraw":1657,"unny":1658,"ĠJim":1659,"illed":1660,"Ġbreak":1661,"Ġenjoyed":1662,"Ġremembered":1663,"Ġdiffe":1664,"44":1665,"62":1666,"num":1667,"Ġ&":1668,"Ġdro":1669,"ames":1670,"ĠBenny":1671,"Ġkey":1672,"ĠGrandma":1673,"âĶĢâĶĢâĶĢâĶĢâĶĢâĶĢâĶĢâĶĢ":1674,"Ġfloor":1675,"Ġdelicious":1676,"Ġblocks":1677,"83":1678,"Wow":1679,"ps":1680,"sat":1681,"Ġtext":1682,"rip":1683,"Ġ13":1684,"Ġreally":1685,"estion":1686,"Ġword":1687,"Ġpieces":1688,"Ġbuttons":1689,"Ġlesson":1690,"Ġarrived":1691,"more":1692,"Ġ(\"":1693,"atter":1694,"Ġste":1695,"Ġ[\"":1696,"Ġstayed":1697,"Ġprincess":1698,"60":1699,"89":1700,"Ġwished":1701,"Ġlight":1702,"Ġbutter":1703,"Ġ30":1704,"Ġagreed":1705,"airs":1706,"Ġbuy":1707,"tring":1708,"Ġfarm":1709,"escri":1710,"))":1711,"data":1712,"ze":1713,"Ġtall":1714,"Ġwood":1715,"Ġdress":1716,"Ġ70":1717,"Ġ__":1718,"Ġlooks":1719,"Ġhole":1720,"Ġanymore":1721,"Ġmagical":1722,"?;":1723,"we":1724,"ĠU":1725,"Ġent":1726,"Ġwon":1727,"eddy":1728,"Ġtouch":1729,"Ġdir":1730,"Ġshop":1731,"Ġshared":1732,"Ġcomp":1733,"Ġamazing":1734,"Ġfrog":1735,"LTK":1736,"69":1737,"per":1738,"Ġbus":1739,"Ġduck":1740,"Ġdream":1741,"oney":1742,"Ġ60":1743,"Ġhimself":1744,"Ġswing":1745,"Ġclose":1746,"Ġrunning":1747,"Ġanything":1748,"Ġmove":1749,"Ġbroken":1750,"cover":1751,"Ġunderstand":1752,"Ġdifferent":1753,"81":1754,"OK":1755,"Ġice":1756,"Ġty":1757,"rew":1758,"Ġhop":1759,"asure":1760,"ĠJill":1761,"().":1762,"ross":1763,"ĠDaisy":1764,"Ġfix":1765,"Ġfinished":1766,"ĠThis":1767,"52":1768,"ger":1769,"Ġfn":1770,"Ġpub":1771,"ans":1772,"Ġ19":1773,"ask":1774,"Ġ54":1775,"Ġ//!":1776,"]]":1777,"ling":1778,"Ġadd":1779,"Ġsqu":1780,"Ġbar":1781,"read":1782,"ones":1783,"Ġob":1784,"Ġstop":1785,"Ġread":1786,"Ġfriendly":1787,"ĠRaw":1788,"Ġsnow":1789,"Ġparents":1790,"escription":1791,"word":1792,"Ġtired":1793,"Ġmess":1794,"Ġ\".":1795,"Ġ==":1796,"ĠLila":1797,"Ġsmell":1798,"Ġhelped":1799,"Ġcold":1800,"Ġhold":1801,"Ġhopped":1802,"Ġmonkey":1803,"languages":1804,"file":1805,"ian":1806,"kes":1807,"oons":1808,"Ġtop":1809,"Ġcorn":1810,"Ġbeach":1811,"Ġspl":1812,"Ġju":1813,"Ġcoins":1814,"Ġcars":1815,"Ġgrew":1816,"Ġlaugh":1817,"Ġcheered":1818,"Ġyellow":1819,"54":1820,"af":1821,"br":1822,"contin":1823,"ose":1824,"sult":1825,"ater":1826,"Ġhear":1827,"Ġheld":1828,"Ġyield":1829,"ĠBilly":1830,"Ġ80":1831,"phant":1832,"Ġ[]":1833,"Ġwrong":1834,"Ġfox":1835,"Ġelephant":1836,"'ll":1837,"Net":1838,"min":1839,"ror":1840,"Ġbike":1841,"Ġhat":1842,"Ġmum":1843,"atch":1844,"Ġem":1845,"rag":1846,"ĠDataset":1847,"ĠEm":1848,"Ġsometimes":1849,"aper":1850,"olly":1851,"capital":1852,"continent":1853,"29":1854,"Downloader":1855,"lt":1856,"red":1857,"ued":1858,"ĠĠĠĠĠĠ":1859,"ĠTo":1860,"Ġdin":1861,"Ġ\"+":1862,"ories":1863,"aces":1864,"ppy":1865,"aby":1866,"Ġvocab":1867,"This":1868,"subregion":1869,"Ġtrain":1870,"Ġcreat":1871,"Ġbehind":1872,"numeric":1873,"(&":1874,"old":1875,"ret":1876,"Ġfilled":1877,"Ġpump":1878,"Ġgone":1879,"Ġanother":1880,"calling":1881,"append":1882,"Ġfollowed":1883,"Ġleaves":1884,"Ġobject":1885,"Ġpumpk":1886,"55":1887,"78":1888,"Ext":1889,"Meta":1890,"que":1891,"tld":1892,"value":1893,"Ġsat":1894,"Ġdanger":1895,"icy":1896,"71":1897,"Ġhid":1898,"Ġlang":1899,"Ġdanc":1900,"Ġpur":1901,"Ġmorn":1902,"Ġ94":1903,"ĠWikidata":1904,"Ġworry":1905,"ape":1906,"Ġexplained":1907,"ĠDatasetMeta":1908,"Ġmorning":1909,"Anna":1910,"come":1911,"ho":1912,"par":1913,"pid":1914,"Ġid":1915,"Ġcried":1916,"Ġmouse":1917,"orp":1918,"amm":1919,"alse":1920,"ĠMama":1921,"Ġspoon":1922,"room":1923,"ĠĠĠĠĠĠĠĠĠĠĠĠĠĠĠĠĠĠĠĠĠĠĠĠ":1924,"Ġ100":1925,"Ġdrink":1926,"68":1927,"ER":1928,"li":1929,"}\")":1930,"Ġbott":1931,"Ġbunny":1932,"Ġherself":1933,"ĠAll":1934,"Ġliving":1935,"Ġlikes":1936,".\"\"\"":1937,"ples":1938,"ĠFin":1939,"Ġdownload":1940,"ĠSoon":1941,"ĠRawTriple":1942,"Extractor":1943,"!(":1944,"EN":1945,"Tim":1946,"count":1947,"Ġcont":1948,"Ġcream":1949,"Ġcategory":1950,"Ġhun":1951,"Ġ34":1952,"Ġ24":1953,"Ġ90":1954,"():":1955,"Ġsomeone":1956,"Ġgetting":1957,"Ġdeep":1958,"Ġcomes":1959,"Ġballoons":1960,"Ġgrandma":1961,"Ġfaster":1962,"bles":1963,"fly":1964,"ment":1965,"sm":1966,"Ġcon":1967,"Ġfall":1968,"Ġdescription":1969,"Ġpile":1970,"Ġplease":1971,"iles":1972,"ote":1973,"Ġyes":1974,"pper":1975,"())":1976,"();":1977,"Ġacorn":1978,"Ġtalk":1979,"Ġpromised":1980,"67":1981,"ETA":1982,"round":1983,"ĠK":1984,"Ġhill":1985,"llo":1986,"Ġstones":1987,"outh":1988,"Ġ39":1989,"ĠJen":1990,"Ġload":1991,"ction":1992,"Ġpaint":1993,"wards":1994,"operty":1995,"27":1996,"Don":1997,"ON":1998,"ches":1999,"iet":2000,"now":2001,"yard":2002,"Ġslow":2003,"Ġsleep":2004,"Ġmin":2005,"elcome":2006,"Ġmoment":2007,"ĠMaybe":2008,"ĠMETA":2009,"Ġ35":2010,"Ġ64":2011,"Ġbackyard":2012,"Ġlistened":2013,"Ġcookies":2014,"Ġsubject":2015,"Ġbowl":2016,"Ġpulled":2017,"63":2018,"93":2019,"cked":2020,"ead":2021,"ng":2022,"row":2023,"sy":2024,"Ġbuck":2025,"Ġbaby":2026,"Ġtower":2027,"iter":2028,"amp":2029,"Ġride":2030,"Ġlion":2031,"Ġbigger":2032,"Ġexcit":2033,"Ġfinally":2034,"Ġcolors":2035,"Ġamazed":2036,"Ġturned":2037,"Ġpiece":2038,"Ġshells":2039,"Pr":2040,"config":2041,"div":2042,"gy":2043,"Ġve":2044,"ern":2045,"Ġmus":2046,"Ġmight":2047,"Ġmiss":2048,"eter":2049,"Ġsho":2050,"ift":2051,"abel":2052,"(),":2053,"Ġstrange":2054,"\"\"\"":2055,"Ġwrote":2056,"Ġwindow":2057,"Ġpuppy":2058,"Ġcandy":2059,"Ġpumpkins":2060,"ĠFinally":2061,"23":2062,"61":2063,"Sam":2064,"String":2065,"ee":2066,"max":2067,"Ġair":2068,"Ġmor":2069,"args":2070,"oring":2071,"ayer":2072,"ugg":2073,"Ġquiet":2074,"ĠDaddy":2075,"Ġdolls":2076,"Ġcontinued":2077,"ltk":2078,"Ġdinner":2079,"Oh":2080,"ram":2081,"Ġbug":2082,"Ġcast":2083,"Ġhide":2084,"Ġdri":2085,"Ġpus":2086,"iled":2087,"irrel":2088,"uture":2089,"ĠMary":2090,"Ġ84":2091,"Ġjoy":2092,"Ġquestion":2093,"Ġ#[":2094,"--------------------------------":2095,"Ġstickers":2096,"Ġstepped":2097,"Ġsquirrel":2098,"Ġpurple":2099,"ear":2100,"form":2101,"po":2102,"Ġver":2103,"Ġsy":2104,"Ġtown":2105,"Ġpet":2106,"Ġmust":2107,"Ġgift":2108,"Ġhair":2109,"Ġlem":2110,"Ġeverything":2111,"Ġable":2112,"Ġextract":2113,"ĠInside":2114,"Ġbutterfly":2115,"Ġjuice":2116,"Ġdangerous":2117,"Ġbucket":2118,"Maybe":2119,"iver":2120,"me":2121,"up":2122,"Ġtable":2123,"Ġsec":2124,"its":2125,"Ġlen":2126,"arg":2127,"ench":2128,"Ġgi":2129,"cept":2130,"Ġ75":2131,"Ġleave":2132,"Ġ{}":2133,"Ġdefault":2134,"Ġtreasure":2135,"73":2136,"But":2137,"Europe":2138,"from":2139,"lic":2140,"uple":2141,"zz":2142,"Ġ'":2143,"Ġtag":2144,"Ġwet":2145,"Ġwall":2146,"Ġland":2147,"Ġpink":2148,"Ġ...":2149,"Ġ18":2150,"Ġresp":2151,"Ġ55":2152,"Ġalong":2153,"Ġcrying":2154,"Ġparty":2155,"Ġgentle":2156,"True":2157,"fg":2158,"fort":2159,"pro":2160,"Ġteddy":2161,"Ġtoday":2162,"Ġdataset":2163,"Ġmet":2164,"Ġmoney":2165,"ator":2166,"Ġwasn":2167,"ĠTheir":2168,"Ġgu":2169,"Ġinc":2170,"Ġrem":2171,"ĠAl":2172,"Ġsear":2173,"Ġ99":2174,"Ġgrow":2175,"Ġruns":2176,"ledge":2177,"Ġcolor":2178,"class":2179,"ever":2180,"med":2181,"uct":2182,"head":2183,"ĠĠĠĠĠĠĠ":2184,"Ġheal":2185,"ower":2186,"Ġstar":2187,"ich":2188,"Ġlife":2189,"Ġ49":2190,"arth":2191,"Ġscary":2192,"Ġcover":2193,"Ġbrown":2194,"Ġflying":2195,"ĠJimmy":2196,"Ġwoods":2197,"Ġhungry":2198,"Ġmusic":2199,"Okay":2200,"ci":2201,"tal":2202,"Ġ`":2203,"Ġser":2204,"Ġside":2205,"Ġwelcome":2206,"Ġmix":2207,"ĠSome":2208,"Ġnap":2209,"unch":2210,"Ġhappen":2211,"Ġ29":2212,"Ġ85":2213,"ieve":2214,"ĠVec":2215,"Ġclimb":2216,"Ġforgot":2217,"Ġdrove":2218,"21":2219,"Why":2220,"Ġtight":2221,"Ġwaited":2222,"Ġlon":2223,"Ġpaper":2224,"Ġmut":2225,"Ġheav":2226,"iser":2227,"ises":2228,"adow":2229,"lem":2230,"Ġsmo":2231,"asp":2232,"Ġ36":2233,"Ġexp":2234,"Ġ74":2235,"Ġspark":2236,"Ġalone":2237,"Ġothers":2238,"ucky":2239,"Ġcheck":2240,"Ġmoral":2241,"28":2242,"]:":2243,"Ġtotal":2244,"Ġcub":2245,"oun":2246,"Ġdrag":2247,"ese":2248,"Ġinst":2249,"Ġkiss":2250,"Ġwants":2251,"ased":2252,"Ġ95":2253,"Ġatt":2254,"cket":2255,"Ġclot":2256,"type":2257,"Ġacross":2258,"Ġ///":2259,"orpus":2260,"Property":2261,"ek":2262,"Ġids":2263,"Ġsong":2264,"Ġsilly":2265,"Ġwin":2266,"Ġcra":2267,"onical":2268,"ĠNLTK":2269,"Ġtwins":2270,"Ġsweets":2271,"Ġasks":2272,"Ġjoin":2273,"ĠWikidataProperty":2274,"Ġclothes":2275,"Hi":2276,"ere":2277,"for":2278,"future":2279,"tot":2280,"Ġx":2281,"Ġtiny":2282,"Ġtowards":2283,"orrow":2284,"Ġthough":2285,"Ġ+=":2286,"Ġra":2287,"Ġrace":2288,"Ġrequ":2289,"Ġannot":2290,"chool":2291,"Ġ96":2292,"Ġ45":2293,"Ġcoin":2294,"Ġballoon":2295,"Ġenough":2296,"Ġblank":2297,"Ġclosed":2298,"Mommy":2299,"Ġmarbles":2300,"Ġheavy":2301,"total":2302,"Ġannotations":2303,"AR":2304,"apped":2305,"base":2306,"dataset":2307,"tes":2308,"ule":2309,"wr":2310,"Ġ--":2311,"Ġhar":2312,"Ġpri":2313,"Ġmark":2314,"omain":2315,"Ġstorm":2316,"Ġrub":2317,"Ġresult":2318,"Ġsmart":2319,"umb":2320,"Ġ69":2321,"Ġjob":2322,"Ġhelping":2323,"ountain":2324,"Ġwolf":2325,"uffy":2326,"Ġclimbed":2327,"!(\"":2328,"bo":2329,"der":2330,"Ġsuddenly":2331,"reamed":2332,"Ġhig":2333,"Ġfree":2334,"Ġpack":2335,"Ġpass":2336,"ister":2337,"ident":2338,"Ġ=>":2339,"Ġsame":2340,"Ġinv":2341,"aced":2342,"Ġwithout":2343,"Ġ17":2344,"ĠAb":2345,"Ġ32":2346,"ument":2347,"Ġsmiles":2348,"Ġcheese":2349,"ĠBobo":2350,"Ġteac":2351,"Ġsounds":2352,"Ġthinks":2353,"comp":2354,"ĠAlice":2355,"Ġblanket":2356,"ming":2357,"piec":2358,"ud":2359,"Ġsoup":2360,"Ġschool":2361,"Ġbask":2362,"Ġbench":2363,"Ġfur":2364,"ery":2365,"Ġpar":2366,"ility":2367,"ots":2368,"Ġear":2369,"Ġsharing":2370,"Ġ44":2371,"reeS":2372,"Ġwouldn":2373,"ateful":2374,"Ġswings":2375,"Ġgrateful":2376,"Ġeverywhere":2377,"ĠRed":2378,"Ġpoint":2379,"Ġmost":2380,"Ġyear":2381,"Ġsupp":2382,"Ġbelieve":2383,"Ġbottle":2384,"Ġcastle":2385,"Ġbasket":2386,"Do":2387,"There":2388,"less":2389,"Ġband":2390,"Ġfight":2391,"Ġdist":2392,"Ġpen":2393,"Ġmakes":2394,"Ġow":2395,"acked":2396,"Ġround":2397,"Ġreach":2398,"ĠMolly":2399,"ĠWith":2400,"used":2401,"ĠEll":2402,"Ġcloud":2403,"venance":2404,"Ġtrying":2405,"Ġcrate":2406,"Ġdisapp":2407,"Ġcandid":2408,"Ġbags":2409,"Ġwords":2410,"Ġtype":2411,"Path":2412,"lue":2413,"mp":2414,"ser":2415,"tuple":2416,"with":2417,"Ġtaking":2418,"Ġwild":2419,"Ġbite":2420,"Ġcour":2421,"Ġlake":2422,"ony":2423,"Ġph":2424,"Ġpat":2425,"idge":2426,"irt":2427,"igram":2428,"Ġforget":2429,"Ġplane":2430,"ural":2431,"Ġwhite":2432,"Ġ57":2433,"Ġarg":2434,"thy":2435,"Ġadventures":2436,"Ġnearby":2437,"Ġpuzz":2438,"Ġsinging":2439,"Ġpolice":2440,"Ġprovenance":2441,"Ġadded":2442,"fr":2443,"ible":2444,"te":2445,"ually":2446,"uage":2447,"Ġtail":2448,"Ġbought":2449,"Ġcraw":2450,"Ġdry":2451,"Ġpig":2452,"anch":2453,"Ġthrew":2454,"igg":2455,"ĠBlue":2456,"Ġshook":2457,"Ġ26":2458,"Ġ72":2459,"nny":2460,"Ġdaddy":2461,"Ġapple":2462,"Ġmoved":2463,"ormal":2464,"Ġbread":2465,"ertility":2466,"Ġsuc":2467,"Ġhoped":2468,")?;":2469,"bow":2470,"bers":2471,"pairs":2472,"Ġconfig":2473,"Ġmouth":2474,"Ġru":2475,"pping":2476,"Ġplant":2477,"Ġkitt":2478,"Ġdoct":2479,"ĠJul":2480,"Ġrob":2481,"Ġvalue":2482,"ists":2483,"Ġnoises":2484,"Ġfew":2485,"Ġhuge":2486,"lower":2487,"ĠCome":2488,"Ġtreat":2489,"Ġwrite":2490,"Ġzoo":2491,"Ġbuilding":2492,"Ġacorns":2493,"Ġcourse":2494,"AG":2495,"Sue":2496,"ls":2497,"ney":2498,"Ġ>":2499,"Ġind":2500,"Ġsuch":2501,"Ġwings":2502,"Ġtou":2503,"Ġlast":2504,"Ġlayout":2505,"Ġmay":2506,"Ġhello":2507,"ored":2508,"Ġstand":2509,"ics":2510,"Ġlift":2511,"Ġ37":2512,"Ġ27":2513,"Ġspot":2514,"Ġlead":2515,"Ġargs":2516,"Ġfeels":2517,"ives":2518,"Ġfru":2519,"Ġbroke":2520,"shine":2521,"Ġperf":2522,"Ġdanced":2523,"Ġslowly":2524,"97":2525,"],":2526,"category":2527,"node":2528,"ping":2529,"rror":2530,"sia":2531,"ouble":2532,"Ġfile":2533,"ĠTw":2534,"Ġdraw":2535,"arget":2536,"Ġgames":2537,"Ġodd":2538,"icked":2539,"output":2540,"Ġshirt":2541,"Ġ92":2542,"Ġspid":2543,"Ġ65":2544,"());":2545,"Ġhugs":2546,"Ġbetwe":2547,"Ġcolour":2548,"score":2549,"tokens":2550,"ĠEmily":2551,"Ġpushed":2552,"Ġsecret":2553,"Ġgiant":2554,"Ġrespect":2555,"pieces":2556,"Ġbetween":2557,">,":2558,"St":2559,"Sure":2560,"band":2561,"ca":2562,"eared":2563,"know":2564,"net":2565,"new":2566,"parent":2567,"size":2568,"Ġign":2569,"Ġthese":2570,"ines":2571,"reet":2572,"Ġcaught":2573,"Ġlunch":2574,"Ġdata":2575,"Ġdance":2576,"Ġpiles":2577,"Ġnode":2578,"esult":2579,"imit":2580,"Ġplan":2581,"ung":2582,"ĠMum":2583,"Ġlive":2584,"Ġsea":2585,"Ġ98":2586,"Ġjar":2587,"ieved":2588,"Ġscore":2589,"ems":2590,"Ġcompl":2591,"Ġblack":2592,"Ġlonger":2593,"ĠJohnny":2594,"Ġowner":2595,"Ġrainbow":2596,"Ġpolite":2597,"Ġriver":2598,"Ġexciting":2599,"Asia":2600,"IN":2601,"cord":2602,"tag":2603,"Ġsour":2604,"Ġsister":2605,"Ġwise":2606,"Ġce":2607,"Ġdes":2608,"Ġwear":2609,"Ġupset":2610,"Ġneigh":2611,"Ġ56":2612,"Ġ79":2613,"Ġspent":2614,"Ġspicy":2615,"ards":2616,"Ġnose":2617,"Ġstruct":2618,"Ġcloth":2619,"ĠFalse":2620,"Ġpres":2621,"string":2622,"Ġwondered":2623,"Ġfront":2624,"Ġthrow":2625,"relation":2626,"ĠThank":2627,"aughter":2628,"def":2629,"Ġmatch":2630,"Ġcorner":2631,"Ġcreature":2632,"Ġshoes":2633,"Ġhigher":2634,"onyms":2635,"knowledge":2636,"49":2637,"Base":2638,"IM":2639,"Mia":2640,"OU":2641,"SE":2642,"after":2643,"ball":2644,"fertility":2645,"ipped":2646,"la":2647,"met":2648,"ned":2649,"ining":2650,"Ġcow":2651,"Ġpast":2652,"Ġpower":2653,"Ġmil":2654,"Ġmine":2655,"ĠSt":2656,"Ġstars":2657,"strip":2658,"ĠMr":2659,"itting":2660,"ifact":2661,"Ġ97":2662,"lph":2663,"Ġ{\"":2664,"Ġworried":2665,"Ġcoal":2666,"Ġimag":2667,"ĠFl":2668,"Ġgets":2669,"Ġpocket":2670,"Ġtrust":2671,"Ġmyster":2672,"extract":2673,"iece":2674,"Ġwrit":2675,"Ġforever":2676,"subject":2677,"Ġbelong":2678,"âĶĢâĶĢâĶĢâĶĢâĶĢâĶĢâĶĢâĶĢâĶĢâĶĢâĶĢâĶĢâĶĢâĶĢâĶĢâĶĢ":2679,"Ġbusy":2680,"covered":2681,"Ġsnowman":2682,"lib":2683,"Ġdragon":2684,"Ġneighb":2685,")]":2686,"AC":2687,"ln":2688,"oh":2689,"oint":2690,"Ġ!":2691,"Ġant":2692,"Ġsit":2693,"Ġbath":2694,"Ġbool":2695,"Ġbatter":2696,"Ġboun":2697,"Ġdaughter":2698,"Ġpot":2699,"Ġmodel":2700,"Ġmeta":2701,"Ġheart":2702,"Ġstories":2703,"Ġstreet":2704,"Ġrad":2705,"Ġ28":2706,"Ġleaf":2707,"ody":2708,"Ġimpress":2709,"Ġfeather":2710,"Ġletter":2711,"ocked":2712,"Ġcounting":2713,"Ġsmallest":2714,"ventually":2715,"Ġeating":2716,"Ġflea":2717,"Ġmagic":2718,"Ġpictures":2719,"Ġpromise":2720,"Ġmodern":2721,"Ġholding":2722,"Ġconst":2723,"fortable":2724,"Ġcolorful":2725,"Ġhealthy":2726,"ĠJulia":2727,"Ġperfect":2728,"Ġmilk":2729,"57":2730,"96":2731,"RE":2732,"Sara":2733,"aur":2734,"can":2735,"ces":2736,"fix":2737,"ness":2738,"rot":2739,"vest":2740,"wor":2741,"inary":2742,"Ġcur":2743,"Ġcap":2744,"Ġhanger":2745,"Ġfence":2746,"Ġsaf":2747,"start":2748,"Ġyoung":2749,"Ġ38":2750,"Ġspe":2751,"ĠĠĠĠĠĠĠĠĠĠĠĠĠĠĠĠĠĠĠĠĠĠĠĠĠĠĠĠ":2752,"epend":2753,"ement":2754,"Ġskip":2755,"ÅĵI":2756,"Three":2757,"Ġteam":2758,"Ġcup":2759,"comm":2760,"Ġmonster":2761,"Ġdirt":2762,"Ġdirty":2763,"write":2764,"Ġtouched":2765,"Error":2766,"My":2767,"Well":2768,"corpus":2769,"gged":2770,"io":2771,"oom":2772,"Ġtom":2773,"Ġhit":2774,"Ġfing":2775,"Ġpers":2776,"Ġgen":2777,"Ġrows":2778,"alu":2779,"Ġsold":2780,"Ġwell":2781,"Ġwearing":2782,"ounded":2783,"Ġneare":2784,"ĠIter":2785,"ular":2786,"Ġ22":2787,"Ġ53":2788,"Ġ83":2789,"Ġ42":2790,"Ġ47":2791,"Ġjour":2792,"Ġroad":2793,"Ġseemed":2794,"Ġcoll":2795,"Ġcarry":2796,"ĠRose":2797,"Ġtrouble":2798,"ulti":2799,"Ġtreats":2800,"special":2801,"Ġsnack":2802,"exists":2803,"Ġcute":2804,"Ġteacher":2805,"Ġrobot":2806,"Ġpresent":2807,"ĠFluffy":2808,"46":2809,"98":2810,"eb":2811,"fra":2812,"mb":2813,"mark":2814,"ray":2815,"vice":2816,"ĠOn":2817,"Ġact":2818,"Ġwide":2819,"Ġconf":2820,"Ġmaybe":2821,"atural":2822,"Ġnltk":2823,"Ġrope":2824,"stance":2825,"ĠBill":2826,"Ġdays":2827,"Ġ31":2828,"Ġ33":2829,"Ġ23":2830,"ugar":2831,"Ġ52":2832,"Ġ58":2833,"Ġ73":2834,"Ġ48":2835,"Ġ66":2836,"Ġje":2837,"Ġjson":2838,"Ġscreamed":2839,"Ġroll":2840,"Ġvill":2841,"ession":2842,"Ġclapped":2843,"Ġbridge":2844,"Ġbranch":2845,"Ġexploring":2846,"Ġrelieved":2847,"Ġuncle":2848,"ordNet":2849,"gramm":2850,"Ġpretended":2851,"Ġducks":2852,"answer":2853,"words":2854,"Ġlanguage":2855,"ĠJenny":2856,"Ġlonely":2857,"Ġprize":2858,"Ġsuccess":2859,"Ġdoctor":2860,"Ġnearest":2861,"Hey":2862,"OR":2863,"coll":2864,"jo":2865,"match":2866,"pre":2867,"sion":2868,"unt":2869,"Ġteet":2870,"Ġtarget":2871,"Ġcave":2872,"Ġhum":2873,"itch":2874,"Ġmail":2875,"Ġgigg":2876,"als":2877,"cean":2878,"Ġdolph":2879,"Ġgold":2880,"Ġ77":2881,"Ġsmiling":2882,"Ġ63":2883,"Ġcannot":2884,"Ġwhole":2885,"Ġpeace":2886,"Ġcheer":2887,"Ġunk":2888,"Ġprintln":2889,"Ġturns":2890,"Ġpathlib":2891,"Ġextractor":2892,"Ġtriples":2893,"Ġswimming":2894,"Ġtasty":2895,"Ġgently":2896,"Ġcreative":2897,"parse":2898,"Ġinstead":2899,"Ġharvest":2900,"Ġmayor":2901,"Ġspider":2902,"Ġteeth":2903,"\"{":2904,"\"}":2905,"48":2906,"59":2907,"NLTK":2908,"SI":2909,"Var":2910,"aid":2911,"gu":2912,"hip":2913,"mo":2914,"mul":2915,"meric":2916,"Ġsum":2917,"Ġsort":2918,"Ġsque":2919,"Ġsitting":2920,"Ġsugar":2921,"ready":2922,"Ġtok":2923,"Ġhor":2924,"error":2925,"Ġwaves":2926,"Ġlayer":2927,"Ġpour":2928,"Ġmer":2929,"Ġmad":2930,"Ġmountain":2931,"Ġnet":2932,"Ġnaught":2933,"iron":2934,"owed":2935,"Ġeg":2936,"Ġeag":2937,"ute":2938,"lder":2939,"oof":2940,"ĠLater":2941,"Ġfork":2942,"Ġshining":2943,"Ġexcept":2944,"Ġ82":2945,"Ġ43":2946,"Ġprot":2947,"Ġalready":2948,"ĠEven":2949,"ĠFr":2950,"pty":2951,"ĠResult":2952,"ĠClass":2953,"typ":2954,"Ġlaughing":2955,"arser":2956,"Ġsunshine":2957,"Ġtea":2958,"Ġcrates":2959,"Ġsticks":2960,"Ġtasted":2961,"Ġtokenizer":2962,"Ġlemon":2963,"Ġpacking":2964,"Ġowl":2965,"Ġpuzzle":2966,"Ġnaughty":2967,"Ġeager":2968,"(|":2969,"47":2970,"53":2971,"91":2972,"Be":2973,"IR":2974,"cident":2975,"download":2976,"eo":2977,"hile":2978,"list":2979,"land":2980,"push":2981,"ual":2982,"Ġav":2983,"resh":2984,"erp":2985,"ĠSus":2986,"Ġok":2987,"Ġstuck":2988,"oop":2989,"ĠLittle":2990,"ĠBase":2991,"eln":2992,"Ġshap":2993,"Ġwhich":2994,"ify":2995,"ĠJust":2996,"ume":2997,"Ġ59":2998,"Ġ68":2999,"Ġalto":3000,"Ġrose":3001,"ĠEurope":3002,"Ġworking":3003,"aps":3004,"Ġcarried":3005,"ected":3006,"ĠPlease":3007,"kenizer":3008,"extractor":3009,"Ġsunny":3010,"Ġlovely":3011,"Ġrocks":3012,"Ġdropped":3013,"Ġtyping":3014,"Ġsmelled":3015,"small":3016,"argument":3017,"Ġcovered":3018,"Ġfurry":3019,"ĠTweet":3020,"Ġmysterious":3021,"Ġwriteln":3022,"Ġbattery":3023,"ĠIterator":3024,"Ġjourney":3025,"ultiple":3026,"ĠSusie":3027,"Ġshapes":3028,"Ġaltogether":3029,"56":3030,"Amy":3031,"Max":3032,"Sp":3033,"To":3034,"bar":3035,"cont":3036,"gie":3037,"multiple":3038,"race":3039,"tri":3040,"Ġtakes":3041,"Ġafra":3042,"Ġcal":3043,"Ġfil":3044,"Ġwave":3045,"Ġlate":3046,"Ġpop":3047,"Ġmid":3048,"Ġmic":3049,"Ġmist":3050,"arp":3051,"encode":3052,"Ġgather":3053,"anny":3054,"esp":3055,"lebr":3056,"Ġstream":3057,"Ġyard":3058,"Ġrow":3059,"Ġroof":3060,"Ġshore":3061,"ĠJake":3062,"ĠĠĠĠĠĠĠĠĠĠĠĠĠ":3063,"illar":3064,"Ġ71":3065,"Ġspread":3066,"Ġ46":3067,"Ġ62":3068,"aggie":3069,"Ġscrew":3070,"Ġmem":3071,"Ġmeadow":3072,"Ġchar":3073,"\");":3074,"ĠRos":3075,"ĠRounded":3076,"Ġorange":3077,"Ġclock":3078,"Ġcaterp":3079,"ĠGrace":3080,"Ġjumping":3081,"Ġselfish":3082,"ĠOff":3083,"ĠOption":3084,"ground":3085,"Ġtaste":3086,"Ġvisitors":3087,"ĠEmma":3088,"ĠTogether":3089,"Ġbugs":3090,"Ġdriver":3091,"Ġsmooth":3092,"Ġresults":3093,"Ġclouds":3094,"Ġcelebr":3095,"default":3096,"ĠClassVar":3097,"Ġafraid":3098,"ĠRosie":3099,"Ġcaterpillar":3100,"42":3101,"cfg":3102,"fri":3103,"ience":3104,"ond":3105,"sa":3106,"trip":3107,"uf":3108,"Ġtid":3109,"Ġbat":3110,"Ġcou":3111,"Ġhope":3112,"itive":3113,"erv":3114,"Ġlay":3115,"Ġlucky":3116,"Ġgives":3117,"Ġsave":3118,"ĠHow":3119,"Ġur":3120,"vel":3121,"Ġasleep":3122,"Ġseed":3123,"Ġ78":3124,"Ġspo":3125,"Ġ86":3126,"Ġjung":3127,"ains":3128,"ures":3129,"ĠDave":3130,"Ġcozy":3131,"Ġboys":3132,"Ġswam":3133,"Ġbring":3134,"Ġcomput":3135,"ocol":3136,"Ġtrue":3137,"Ġcountry":3138,"Ġsnee":3139,"Ġslid":3140,"Ġcrown":3141,"sol":3142,"Ġaccident":3143,"Ġdelight":3144,"Ġzip":3145,"Ġzoom":3146,"Ġtalking":3147,"Ġfloat":3148,"attern":3149,"Ġdownloader":3150,"Ġquestions":3151,"Ġsearch":3152,"Ġkissed":3153,"reeSitter":3154,"Ġphone":3155,"AGES":3156,"Ġtomorrow":3157,"Ġvillage":3158,"smallest":3159,"Ġjungle":3160,"Come":3161,"Where":3162,"cl":3163,"mas":3164,"ne":3165,"nltk":3166,"ok":3167,"olo":3168,"pair":3169,"pos":3170,"tress":3171,"vie":3172,"ĨĴ":3173,"Ġtie":3174,"Ġsang":3175,"Ġwore":3176,"ina":3177,"instance":3178,"Ġblow":3179,"Ġcfg":3180,"Ġline":3181,"Ġdish":3182,"Ġpush":3183,"Ġgar":3184,"Ġnerv":3185,"Ġoven":3186,"lection":3187,"ĠIf":3188,"Ġshelf":3189,"Ġonto":3190,"Ġreg":3191,"eck":3192,"Ġanch":3193,"ceil":3194,"Ġass":3195,"ifest":3196,"tern":3197,"ions":3198,"Ġ76":3199,"Ġspott":3200,"Ġarms":3201,"Ġpray":3202,"ables":3203,"ĠDon":3204,"nnie":3205,"Ġyourself":3206,"ĠPeter":3207,"ĠRob":3208,"Ġpicn":3209,"umpy":3210,"Ġenc":3211,"pholo":3212,"Ġbedroom":3213,"Ġmattress":3214,"Ġfairy":3215,"Ġthankful":3216,"Ġwatching":3217,"Ġcrab":3218,"Ġlifted":3219,"work":3220,"types":3221,"Ġnervous":3222,"Ġanchor":3223,"Ġspotted":3224,"DIR":3225,"Good":3226,"Joh":3227,"ME":3228,"TR":3229,"].":3230,"bon":3231,"ced":3232,"core":3233,"gor":3234,"iable":3235,"md":3236,"of":3237,"port":3238,"Ġ]":3239,"Ġtent":3240,"Ġaw":3241,"Ġsick":3242,"Ġwhe":3243,"Ġbush":3244,"result":3245,"record":3246,"Ġcoo":3247,"Ġcart":3248,"Ġdest":3249,"Ġmax":3250,"Ġglo":3251,"Ġnest":3252,"Ġthin":3253,"lex":3254,"Ġeas":3255,"Ġeventually":3256,"Ġstir":3257,"ithm":3258,"Ġplaces":3259,"unigram":3260,"ĠMaggie":3261,"Ġshr":3262,"Ġnothing":3263,"index":3264,"Ġgoes":3265,"?\".":3266,"user":3267,"Ġvalu":3268,"Ġcoat":3269,"elly":3270,"Ġbirth":3271,"question":3272,"Ġoper":3273,"arsh":3274,"Ġbytes":3275,"Ġneeds":3276,"Ġwoke":3277,"Ġcalling":3278,"Ġgrand":3279,"ĠBobby":3280,"Ġteach":3281,"Ġideas":3282,"ression":3283,"ĠOk":3284,"Ġflag":3285,"Ġcookie":3286,"Ġdelicate":3287,"tokenizer":3288,"Ġcompet":3289,"Ġsplit":3290,"Ġpatient":3291,"Ġignore":3292,"ifacts":3293,"Ġfeathers":3294,"Ġhorse":3295,"frica":3296,"safe":3297,"Ġcomputer":3298,"Ġgarage":3299,"Ġpicnic":3300,"phology":3301,"gorithm":3302,"51":3303,"FI":3304,"Of":3305,"TI":3306,"den":3307,"domain":3308,"gth":3309,"mer":3310,"part":3311,"sam":3312,"sel":3313,"tier":3314,"wikidata":3315,"zed":3316,"Ġq":3317,"Ġiron":3318,"ĸģ":3319,"Ġtill":3320,"Ġtest":3321,"Ġax":3322,"Ġwra":3323,"Ġwish":3324,"Ġble":3325,"Ġcard":3326,"Ġhoney":3327,"Ġfig":3328,"Ġlit":3329,"Ġdeter":3330,"Ġpay":3331,"Ġpill":3332,"Ġmot":3333,"Ġmind":3334,"Ġmill":3335,"arl":3336,"ense":3337,"ency":3338,"ilt":3339,"Ġneck":3340,"Ġocean":3341,"ete":3342,"Ġsack":3343,"Ġstation":3344,"sting":3345,"ĠBe":3346,"Ġforward":3347,"une":3348,"Ġisland":3349,"Ġwhist":3350,"Ġ81":3351,"Ġ87":3352,"Ġ61":3353,"ĠWhy":3354,"ĠWordNet":3355,"Ġprob":3356,"Ġknocked":3357,"Ġroar":3358,"Ġchased":3359,"ĠNo":3360,"Ġfeed":3361,"Ġpoor":3362,"ĠCh":3363,"ĠâĨĴ":3364,"Ġcray":3365,"Ġwaiting":3366,"Ġmatter":3367,"Ġintere":3368,"Ġanswered":3369,"Ġsandw":3370,"Ġentity":3371,"Ġsplas":3372,"Ġsearched":3373,"Ġneighbor":3374,"Ġperson":3375,"Ġlemonade":3376,"Ġbirthday":3377,"UR":3378,"body":3379,"mat":3380,"py":3381,"the":3382,"test":3383,"wk":3384,"rect":3385,"Ġcir":3386,"Ġcity":3387,"Ġfis":3388,"Ġlater":3389,"Ġpand":3390,"att":3391,"orrect":3392,"anic":3393,"amb":3394,"Ġhawk":3395,"Ġstd":3396,"els":3397,"Ġmoms":3398,"Ġsharp":3399,"ĠAnnie":3400,"htt":3401,"ife":3402,"Ġ21":3403,"rain":3404,"Ġloves":3405,"Ġ93":3406,"Ġmeant":3407,"Ġputs":3408,"Ġswe":3409,"ĠPe":3410,"ĠCount":3411,"ocations":3412,"avid":3413,"Ġshowing":3414,"ival":3415,"Ġframe":3416,"Ġnumbers":3417,"Ġfrogs":3418,"Ġfairly":3419,"Ġunderstood":3420,"irect":3421,"ensive":3422,"redible":3423,"Ġcontent":3424,"Ġ{}\",":3425,"Ġserde":3426,"Ġexpensive":3427,"Ġpengu":3428,"Ġdisappoint":3429,"Ġrude":3430,"canonical":3431,"Ġprotect":3432,"Ġassert":3433,"Ġvaluable":3434,"Ġinteresting":3435,"'d":3436,"({":3437,"//":3438,"={":3439,"LA":3440,"Little":3441,"])":3442,"ait":3443,"fast":3444,"pass":3445,"rass":3446,"use":3447,"uist":3448,"Ġ--------------------------------":3449,"Ġtick":3450,"Ġcher":3451,"Ġcries":3452,"Ġcross":3453,"Ġhur":3454,"erc":3455,"Ġla":3456,"Ġdomain":3457,"Ġpool":3458,"arry":3459,"iling":3460,"ĠString":3461,"Ġnut":3462,"admin":3463,"uth":3464,"ache":3465,"Ġstone":3466,"Ġstuff":3467,"ighed":3468,"ĠBr":3469,"Ġref":3470,"ĠMummy":3471,"Ġshy":3472,"ĠAlex":3473,"urous":3474,"Ġash":3475,"Ġwhale":3476,"Ġlock":3477,"Ġ51":3478,"Ġ88":3479,"Ġ89":3480,"ĠWhile":3481,"Ġarm":3482,"estival":3483,"ief":3484,"play":3485,"ĠEach":3486,"Ġworm":3487,"Ġchange":3488,"(\"--":3489,"Ġbrush":3490,"ĠEverywhere":3491,"Ġhanded":3492,"Ġfamous":3493,"Ġadm":3494,"Ġrelax":3495,"issors":3496,"msi":3497,"Ġtalked":3498,"Ġtrip":3499,"Ġbutton":3500,"Ġdreams":3501,"Ġbarrel":3502,"Ġembar":3503,"Ġexcitement":3504,"Ġincredible":3505,"Ġsparkly":3506,"Ġrequest":3507,"Ġparrot":3508,"ĠEllie":3509,"Ġcandidate":3510,"Ġstanding":3511,"Ġfruit":3512,"Ġpowerful":3513,"ACK":3514,"collect":3515,"most":3516,"Ġcalm":3517,"Ġmistake":3518,"Ġpenguin":3519,"Ġdisappointed":3520,"rassed":3521,"Ġembarrassed":3522,"\"[":3523,")\\":3524,"43":3525,"58":3526,"ED":3527,"Map":3528,"South":3529,"aked":3530,"che":3531,"case":3532,"dm":3533,"downloader":3534,"gly":3535,"lay":3536,"layer":3537,"nset":3538,"qdm":3539,"tain":3540,"}:":3541,"hello":3542,"Ġtqdm":3543,"Ġsight":3544,"Ġwis":3545,"Ġcage":3546,"Ġfit":3547,"Ġfail":3548,"Ġfaces":3549,"items":3550,"erb":3551,"err":3552,"erial":3553,"Ġdepend":3554,"Ġple":3555,"Ġmain":3556,"oman":3557,"omic":3558,"ating":3559,"Ġhelic":3560,"iso":3561,"Ġnic":3562,"Ġnormal":3563,"Ġsaved":3564,"acci":3565,"Ġstu":3566,"Ġstep":3567,"ĠLeo":3568,"entity":3569,"unc":3570,"hern":3571,"ugged":3572,"opter":3573,"Ġspend":3574,"Ġart":3575,"Ġscream":3576,"Ġscissors":3577,"ĠDavid":3578,"ĠEx":3579,"ĠEnd":3580,"Ġcost":3581,"tok":3582,"astic":3583,"Ġgroup":3584,"Ġdecor":3585,"Ġord":3586,"Ġtrunk":3587,"Ġshows":3588,"insert":3589,"Ġusing":3590,"jects":3591,"Ġmole":3592,"Ġsurf":3593,"thon":3594,"Ġ``<":3595,"RawTriple":3596,"Ġdrop":3597,"Ġprince":3598,"Ġtells":3599,"group":3600,"Ġforgive":3601,"Ġtokens":3602,"linguist":3603,"Ġempty":3604,"Ġveget":3605,"Ġremind":3606,"aspace":3607,"Ġcrazy":3608,"board":3609,"Ġpointed":3610,"Ġsupport":3611,"Ġdistance":3612,"ĠElla":3613,"Ġcandidates":3614,"Ġimpressed":3615,"aurant":3616,"Ġdolphins":3617,"Ġsquee":3618,"ocolate":3619,"John":3620,"bonacci":3621,"Ġcompetitive":3622,"Ġproblem":3623,"Ġashamed":3624,"Ġhelicopter":3625,")\",":3626,"AU":3627,"AX":3628,"PACK":3629,"bb":3630,"bin":3631,"ipper":3632,"lane":3633,"ten":3634,"zip":3635,"Ġ:":3636,"Ġesc":3637,"Ġsession":3638,"Ġburn":3639,"Ġbitter":3640,"Ġborrow":3641,"Ġtor":3642,"ĠTOK":3643,"ĠTreeSitter":3644,"Ġlar":3645,"Ġlabel":3646,"Ġlicked":3647,"Ġlines":3648,"Ġdat":3649,"Ġdig":3650,"Ġpy":3651,"Ġpair":3652,"Ġpattern":3653,"Ġmap":3654,"Ġmummy":3655,"ative":3656,"Ġ\"<":3657,"ado":3658,"imi":3659,"amie":3660,"Ġears":3661,"Ġearth":3662,"Ġugly":3663,"Ġyaw":3664,"Ġrod":3665,"ppers":3666,"ĠLol":3667,"ention":3668,"ĠMimi":3669,"Ġshape":3670,"ĠAmeric":3671,"ific":3672,"ules":3673,"ĠJamie":3674,"Ġsell":3675,"Ġ41":3676,"ĠWho":3677,"log":3678,"odu":3679,"place":3680,"Ġseek":3681,"Ġmeet":3682,"Ġstarts":3683,"\")?;":3684,"Ġfeet":3685,"ours":3686,"ĠRex":3687,"Ġknowing":3688,"Ġbecome":3689,"Ġchest":3690,"Ġcounts":3691,"Ġappeared":3692,"::<":3693,"ipe":3694,"Ġreliable":3695,"Ġfibonacci":3696,"spital":3697,"Ġfinish":3698,"Ġaccept":3699,"Ġdiscover":3700,"ĠJoey":3701,"Ġextra":3702,"Ġyelled":3703,"Ġbreakfast":3704,"Ġfarmer":3705,"coverage":3706,"Ġfixed":3707,"Ġbarked":3708,"older":3709,"Ġhiding":3710,"Ġversion":3711,"prov":3712,"Ġhappening":3713,"Ġcube":3714,"Ġfighting":3715,"frame":3716,"Ġcrawled":3717,"Ġkitty":3718,"Ġkitten":3719,"Ġ!=":3720,"Ġbathroom":3721,"Ġconfused":3722,"Ġsuccessful":3723,"join":3724,"Ġhumble":3725,"Ġaccidentally":3726,"Ġfigure":3727,"ercised":3728,"linguistics":3729,"PACKAGES":3730,"ĠLola":3731,"41":3732,">/":3733,"Are":3734,"Buf":3735,"HA":3736,"SO":3737,"back":3738,"dis":3739,"dict":3740,"folder":3741,"lish":3742,"label":3743,"map":3744,"miss":3745,"no":3746,"pet":3747,"viv":3748,"was":3749,"year":3750,"ĠZ":3751,"Ġtig":3752,"Ġsize":3753,"ndian":3754,"ince":3755,"Ġcone":3756,"Ġcomet":3757,"Ġcase":3758,"Ġcale":3759,"Ġhay":3760,"Ġfact":3761,"Ġfool":3762,"Ġfather":3763,"only":3764,"Ġpal":3765,"Ġmiser":3766,"ately":3767,"isp":3768,"orcy":3769,"Ġthick":3770,"verb":3771,"Ġrules":3772,"ĠIs":3773,"aly":3774,"ĠBT":3775,"Ġres":3776,"!\".":3777,"ameNet":3778,"opy":3779,"ophy":3780,"Ġallowed":3781,"Ġcanonical":3782,"Ġhelpful":3783,"Ġalert":3784,"roc":3785,"Ġvia":3786,"andards":3787,"Ġnoisy":3788,"astern":3789,"Ġchocolate":3790,"Ġcarpet":3791,"ĠNatural":3792,"Ġexcitedly":3793,"izzy":3794,"Ġagainst":3795,"Ġpress":3796,"Ġproudly":3797,"Ġhospital":3798,"bytes":3799,"Ġcloset":3800,"ĠAsia":3801,"000":3802,"166":3803,"Ġadventurous":3804,"keys":3805,"Ġdrum":3806,"Ġbloom":3807,"Ġpicks":3808,"Ġkeys":3809,"Ġmessage":3810,"Ġmonkeys":3811,"Ġlanded":3812,"lemmas":3813,"OUT":3814,"Ġcaptain":3815,"Ġfinger":3816,"Ġgener":3817,"Ġgiggled":3818,"selves":3819,"Ġmotorcy":3820,"Ġpanda":3821,"layers":3822,"ĠAmerica":3823,"Ġcalend":3824,"Ġmiserable":3825,"+(":3826,"AL":3827,"CH":3828,"Endian":3829,"Is":3830,"Me":3831,"Piece":3832,"TS":3833,"Who":3834,"bf":3835,"bu":3836,"dom":3837,"dec":3838,"dump":3839,"ib":3840,"loo":3841,"lmet":3842,"meta":3843,"ove":3844,"su":3845,"Ġed":3846,"Ġtries":3847,"Ġtire":3848,"Ġtask":3849,"Ġaer":3850,"Ġsent":3851,"init":3852,"iness":3853,"Ġcell":3854,"Ġfestival":3855,"ĠTeddy":3856,"Ġdess":3857,"Ġpacked":3858,"omy":3859,"ature":3860,"Ġhelmet":3861,"orphology":3862,"ĠSh":3863,"ĠSomet":3864,"Ġsailed":3865,"ices":3866,"icense":3867,"Ġbell":3868,"Ġ110":3869,"Ġplaced":3870,"Ġweak":3871,"ech":3872,"ception":3873,"Ġisinstance":3874,"uring":3875,"ases":3876,"Ġexam":3877,"Ġexist":3878,"Ġbody":3879,"Ġboots":3880,"Ġspaces":3881,"Ġjam":3882,"Ġtools":3883,"Ġknife":3884,"roy":3885,"\"):":3886,"Ġwhenever":3887,"Ġyours":3888,"ource":3889,"Ġballs":3890,"Ġanyone":3891,"Ġkinds":3892,"Ġblouse":3893,"Ġbuilt":3894,"Ġuncom":3895,"ails":3896,"Ġrocket":3897,"Ġsounded":3898,"Ġdrank":3899,"length":3900,"Ġsplash":3901,"ĠTokenizer":3902,"Ġfalls":3903,"Ġsleepy":3904,"nglish":3905,"Ġlemma":3906,"Ġtightly":3907,"Ġsmoke":3908,"Ġmarket":3909,"box":3910,"Ġpige":3911,"starts":3912,"mbol":3913,"Ġpeaceful":3914,"Ġavoc":3915,"Ġgathered":3916,"Ġtidy":3917,"Ġdestroy":3918,"Ġdeterm":3919,"Ġpillow":3920,"LittleEndian":3921,"Ġlazy":3922,"erbNet":3923,"ĠException":3924,"Ġgenerous":3925,"Ġmotorcycle":3926,"Ġaerop":3927,"Ġdessert":3928,"Ġuncomfortable":3929,"04":3930,"AME":3931,"EF":3932,"Model":3933,"Now":3934,"Sh":3935,"SON":3936,"['":3937,"born":3938,"dge":3939,"fl":3940,"ique":3941,"limit":3942,"nown":3943,"rm":3944,"run":3945,"time":3946,"};":3947,"âĸģ":3948,"Ġsighed":3949,"Ġtherm":3950,"Ġban":3951,"Ġbub":3952,"Ġbase":3953,"requ":3954,"Ġhon":3955,"Ġhang":3956,"Ġfan":3957,"Ġfour":3958,"Ġwander":3959,"Ġlow":3960,"Ġlamp":3961,"Ġpin":3962,"Ġpairs":3963,"Ġmule":3964,"Ġmud":3965,"Ġos":3966,"etch":3967,"imary":3968,"Ġthirst":3969,"Ġthose":3970,"Ġitself":3971,"Ġstood":3972,"Ġstamp":3973,"oose":3974,"Ġrat":3975,"Ġring":3976,"Ġrode":3977,"Ġraced":3978,"stat":3979,"ĠBet":3980,"Ġweek":3981,"Ġplayground":3982,"---":3983,"raph":3984,"Ġseat":3985,"Ġlocked":3986,"Ġoutput":3987,"Ġ91":3988,"Ġ67":3989,"Ġjew":3990,"loss":3991,"oday":3992,"Ġscr":3993,"Ġchunk":3994,"Ġnewsp":3995,"\").":3996,"Ġclap":3997,"ustr":3998,"Ġtwirl":3999,"Ġreturned":4000,"Ġenorm":4001,"Ġkindness":4002,"raction":4003,"Ġdogs":4004,"ÅĵLet":4005,"Ġbyte":4006,"Ġmoving":4007,"ĠGo":4008,"ĠGive":4009,"ffn":4010,"Ġnods":4011,"Ġharder":4012,"Ġlouder":4013,"Ġdeliver":4014,"Ġstove":4015,"osm":4016,"Ġ**":4017,"scale":4018,"Ġsingle":4019,"clean":4020,"Ġrestaurant":4021,"Ġleaving":4022,"Ġrich":4023,"Ġhidden":4024,"Ġveil":4025,"Ġmixed":4026,"Ġsongs":4027,"umbled":4028,"reeSet":4029,"Ġargparse":4030,"ĠMrs":4031,"Ġsnacks":4032,"ORD":4033,"prefix":4034,"Ġpoured":4035,"triples":4036,"Ġblew":4037,"https":4038,"Ġticket":4039,"erialize":4040,"Ġlarge":4041,"Ġtiger":4042,"Ġfoolish":4043,"ĠBTreeSet":4044,"Ġcalendar":4045,"ĠSometimes":4046,"Ġavocado":4047,"Ġdetermined":4048,"Ġaeroplane":4049,"Ġbanan":4050,"Ġfancy":4051,"Ġthirsty":4052,"Ġnewspaper":4053,"Ġenormous":4054,">(":4055,"OP":4056,"Please":4057,"[:":4058,"cent":4059,"cient":4060,"da":4061,"dle":4062,"fil":4063,"has":4064,"ially":4065,"nam":4066,"off":4067,"pack":4068,"rop":4069,"sing":4070,"tmp":4071,"}\",":4072,"Ġter":4073,"Ġtem":4074,"Ġsince":4075,"Ġwing":4076,"edic":4077,"inal":4078,"Ġtow":4079,"Ġhous":4080,"Ġhorn":4081,"Ġhamm":4082,"Ġfalse":4083,"erg":4084,"Ġwagged":4085,"Ġlaw":4086,"Ġdough":4087,"Ġpaw":4088,"Ġmint":4089,"Ġmuff":4090,"Ġhears":4091,"Ġwash":4092,"ĠĠĠĠĠĠĠĠĠĠĠ":4093,"Ġgasp":4094,"anut":4095,"imed":4096,"Ġthief":4097,"amps":4098,"Ġstem":4099,"Ġstrip":4100,"Ġrac":4101,"ĠLA":4102,"Ġoften":4103,"alk":4104,"elp":4105,"Ġancient":4106,"cell":4107,"Ġplayful":4108,"ured":4109,"child":4110,"ĠJune":4111,"Ġthemselves":4112,"artifacts":4113,"Ġlean":4114,"Ġlegs":4115,"Ġalmost":4116,"ushed":4117,"usual":4118,"plit":4119,"Ġvase":4120,"Ġmeas":4121,"Ġ<=":4122,"Ġexcla":4123,"Ġchir":4124,"Ġchase":4125,"Ġotter":4126,"ĠSammy":4127,"Ġdecide":4128,"ĠPiece":4129,"ĠRe":4130,"object":4131,"Ġcomfortable":4132,"Ġpeanut":4133,"Ġtwig":4134,"Ġtwist":4135,"Ġknowledge":4136,"Ġoffice":4137,"Ġoffered":4138,"ÅĵYes":4139,"ÅĵWhat":4140,"ĠAndy":4141,"::{":4142,"Ġuniver":4143,"Ġunusual":4144,"Ġwindows":4145,"369":4146,"Ġdishes":4147,"Ġcleaning":4148,"Ġtrie":4149,"manifest":4150,"Ġstronger":4151,"Ġsigned":4152,"Ġproject":4153,"Ġelev":4154,"ensus":4155,"weight":4156,"ĠUser":4157,"wordnet":4158,"Ġminute":4159,"Ġdrive":4160,"Ġsys":4161,"Ġdatasets":4162,"Ġraise":4163,"derive":4164,"compression":4165,"Ġdisappeared":4166,"Ġindent":4167,"Ġfruits":4168,"Ġsource":4169,"Ġcollect":4170,"Ġjeep":4171,"grammars":4172,"Ġegg":4173,"Ġmiddle":4174,"solve":4175,"ĠBrown":4176,"Ġescape":4177,"Ġtorch":4178,"display":4179,"Ġfactory":4180,"Ġhouses":4181,"Ġgasped":4182,"Ġexclaimed":4183,"((":4184,")?":4185,"**":4186,"://":4187,"Africa":4188,"English":4189,"Help":4190,"bpe":4191,"cc":4192,"fraction":4193,"house":4194,"normal":4195,"og":4196,"ock":4197,"pad":4198,"sit":4199,"sis":4200,"ted":4201,"zer":4202,"zard":4203,"}\"":4204,"Ġing":4205,"Ġtun":4206,"Ġtap":4207,"Ġsugg":4208,"Ġwoman":4209,"Ġbak":4210,"Ġboring":4211,"Ġcorpus":4212,"Ġhunt":4213,"Ġhours":4214,"Ġfrag":4215,"Ġfountain":4216,"Ġlat":4217,"Ġlamb":4218,"Ġlicense":4219,"Ġmama":4220,"ĠĠĠĠĠĠĠĠĠĠ":4221,"Ġgun":4222,"ird":4223,"utes":4224,"rict":4225,"Ġstub":4226,"Ġstumbled":4227,"Ġstamps":4228,"Ġrough":4229,"Ġbeak":4230,"ĠLizzy":4231,"Ġsol":4232,"Ġsock":4233,"Ġonce":4234,"Ġ112":4235,"Ġformat":4236,"ĠMark":4237,"ĠMatt":4238,"itten":4239,"Ġlizard":4240,"Ġkite":4241,"Ġwhisp":4242,"chunk":4243,"Ġfright":4244,"ideo":4245,"rage":4246,"Ġjelly":4247,"Ġscatter":4248,"Ġmeasure":4249,"andy":4250,"Ġagree":4251,"Ġcho":4252,"Ġchick":4253,"Ġchair":4254,"Ġstring":4255,"Ġgramm":4256,"Ġbranc":4257,"ĠPat":4258,"Ġpee":4259,"Ġtrash":4260,"Ġlearning":4261,"Ġskipped":4262,"Ġquite":4263,"ffer":4264,"Ġunique":4265,"Ġsnake":4266,"Ġtele":4267,"Ġcups":4268,"Ġclever":4269,"Ġrealised":4270,"apping":4271,"Ġeye":4272,"Ġsuper":4273,"Ġsetup":4274,"Ġfolder":4275,"ategories":4276,"They":4277,"Ġpainter":4278,"Ġcooler":4279,"ients":4280,"Ġlights":4281,"Ġentry":4282,"Ġdreaming":4283,"Ġyields":4284,"redients":4285,"ONFI":4286,"Ġmissed":4287,"Ġguess":4288,"Ġincre":4289,"ĠAbout":4290,"compile":4291,"Ġleading":4292,"Ġdesk":4293,"BaseExtractor":4294,"Ġimagine":4295,"Ġrolled":4296,"Ġcheerful":4297,"reshold":4298,"ĠBaseExtractor":4299,"Ġpopular":4300,"Ġmicro":4301,"Ġurl":4302,"Ġencou":4303,"AULT":4304,"alysis":4305,"Ġspaceship":4306,"EFAULT":4307,"Ġbubbles":4308,"Ġelevator":4309,"Ġingredients":4310,"Ġsuggest":4311,"Ġstubborn":4312,"Ġbranches":4313,"ONFIG":4314,"!'":4315,"));":4316,":.":4317,"AT":4318,"Eur":4319,"Earth":4320,"EUR":4321,"Gb":4322,"ID":4323,"Nort":4324,"Read":4325,"Sorry":4326,"VER":4327,"Wes":4328,"aken":4329,"bie":4330,"cand":4331,"eg":4332,"gn":4333,"hod":4334,"ived":4335,"mk":4336,"ml":4337,"nel":4338,"ql":4339,"ses":4340,"ying":4341,"},":4342,"Ġesp":4343,"inked":4344,"Ġbake":4345,"ither":4346,"Ġwake":4347,"Ġdem":4348,"Ġdirect":4349,"Ġpow":4350,"Ġpun":4351,"enny":4352,"Ġglow":4353,"Ġgroc":4354,"ĠSnow":4355,"Ġnames":4356,"Ġnails":4357,"Ġoas":4358,"Ġitch":4359,"Ġinse":4360,"aml":4361,"Ġelder":4362,"rible":4363,"Ġrag":4364,"Ġbees":4365,"igail":4366,"algorithm":4367,"elet":4368,"Ġ116":4369,"Ġ120":4370,"ecause":4371,"ecially":4372,"ĠMy":4373,"Ġshut":4374,"Ġshade":4375,"Ġhappier":4376,"Ġasking":4377,"htub":4378,"ason":4379,"ĠJSON":4380,"Ġ200":4381,"Ġseal":4382,"oped":4383,"Ġspin":4384,"Ġatomic":4385,"Ġleg":4386,"aged":4387,"Ġpract":4388,"Ġknight":4389,"Ġvan":4390,"ĠDanny":4391,"Ġworms":4392,"Ġcopper":4393,"apa":4394,"ĠNem":4395,"Ġfear":4396,"Ġgrumpy":4397,"assion":4398,"Ġdeaf":4399,"Ġabove":4400,"ourite":4401,"Ġpeppers":4402,"Ġ102":4403,"ĠEverything":4404,"Ġskin":4405,"Ġenv":4406,"Ġchecked":4407,"Ġcheek":4408,"ollocations":4409,"Ġmovie":4410,"Ġadvice":4411,"prop":4412,"ĠGe":4413,"Ġsticker":4414,"Ġenjoying":4415,"Ġzipper":4416,"Ġbuildings":4417,"cogn":4418,"scope":4419,"Ġwalks":4420,"Ġfavourite":4421,"Ġpainting":4422,"Ġdiff":4423,"ires":4424,"Ġprov":4425,"Ġmarch":4426,"language":4427,"Ġcompassion":4428,"Ġpublic":4429,"]]]":4430,"Ġlaughs":4431,"param":4432,"Ġbottom":4433,"smGb":4434,"Ġminer":4435,"forms":4436,"Ġsymbol":4437,"Ġwalls":4438,"classid":4439,"Ġrequired":4440,"Ġinvit":4441,"ĠAbigail":4442,"Ġparity":4443,"Ġcolourful":4444,"Stop":4445,"Ġsafely":4446,"Ġspeed":4447,"Ġbathtub":4448,"Ġseeds":4449,"Ġsneezed":4450,"Ġdishwas":4451,"Ġcooking":4452,"Ġeasy":4453,"Ġoperand":4454,"Ġaxe":4455,"Ġwhistle":4456,"Ġfailures":4457,"Ġhonest":4458,"ÅĵLetÃ¢":4459,"Ġhammer":4460,"Ġlambda":4461,"Ġmicroscope":4462,"Ġsuggested":4463,"Euro":4464,"Western":4465,"Ġespecially":4466,"Ġdemand":4467,"Ġoasis":4468,"Ġelderly":4469,"ĠNemo":4470,"Ġdishwasher":4471,"\"^":4472,"${":4473,"Ar":4474,"Backed":4475,"Eastern":4476,"TOK":4477,"UT":4478,"cles":4479,"cream":4480,"eq":4481,"first":4482,"gel":4483,"gest":4484,"lat":4485,"lad":4486,"long":4487,"mut":4488,"norm":4489,"ped":4490,"split":4491,"ĠQ":4492,"ĠX":4493,"Ġig":4494,"ĠOnce":4495,"Ġque":4496,"Ġtied":4497,"Ġtables":4498,"Ġtaken":4499,"Ġsil":4500,"Ġbin":4501,"Ġbur":4502,"Ġbored":4503,"resolve":4504,"Ġhits":4505,"Ġfill":4506,"item":4507,"ities":4508,"ĠToday":4509,"Ġladd":4510,"Ġds":4511,"Ġdent":4512,"Ġpale":4513,"Ġpipe":4514,"Ġmech":4515,"Ġ\"\"":4516,"arnt":4517,"isa":4518,"ision":4519,"orge":4520,"Ġgate":4521,"ĠSP":4522,"Ġnature":4523,"Ġobed":4524,"etime":4525,"eturn":4526,"etches":4527,"Ġitems":4528,"ĠHarry":4529,"Ġintr":4530,"Ġhalf":4531,"Ġstate":4532,"vere":4533,"stem":4534,"Ġshel":4535,"iginal":4536,"alous":4537,"Ġones":4538,"Ġ118":4539,"Ġ130":4540,"Ġ187":4541,"Ġreward":4542,"Ġrepo":4543,"Ġrecogn":4544,"Ġangel":4545,"Ġshield":4546,"Ġshaking":4547,"ĠAny":4548,"herman":4549,"asing":4550,"ĠJan":4551,"Ġbiggest":4552,"Ġseats":4553,"Ġ975":4554,"ĠWould":4555,"Ġlearnt":4556,"agull":4557,"Ġknock":4558,"Ġhelps":4559,"reeze":4560,"Ġsaying":4561,"Ġvideo":4562,"Ġ};":4563,"Ġ});":4564,"Ġolder":4565,"Ġprevent":4566,"ĠWhenever":4567,"Ġpear":4568,"Ġtrophy":4569,"-----------":4570,"Ġ105":4571,"Ġtwink":4572,"Ġhopping":4573,"Ġuser":4574,"Ġsmaller":4575,"ĠcouldnÃ¢":4576,"urtle":4577,"Ġtears":4578,"Ġclear":4579,"âĤ¬âĢ":4580,"Ġbreath":4581,"Ġfrown":4582,"Ġfrustr":4583,"Ġdisc":4584,"Ġdiscovered":4585,"exp":4586,"Ġfluffy":4587,"Ġfoot":4588,"Ġpolish":4589,"Ġcreate":4590,"Ġmarry":4591,"Ġfireman":4592,"Ġdoesn":4593,"ensors":4594,"Ġribb":4595,"Ġlightning":4596,"ĠUn":4597,"Ġcompiled":4598,"Ġemerg":4599,"ENS":4600,"Ġminutes":4601,"-------------------------------------------":4602,"ĠNLTKRawLayout":4603,"datasets":4604,"Ġ---":4605,"Ġfreezer":4606,"Ġbasketball":4607,"parents":4608,"OUN":4609,"Ġbounce":4610,"Ġradio":4611,"commend":4612,"Ġfingers":4613,"Ġjealous":4614,"grammar":4615,"NLTKRawLayout":4616,"Ġeggs":4617,"ĠFrameNet":4618,"Token":4619,"Ġblowing":4620,"samples":4621,"Ġwrapped":4622,"Ġcrayon":4623,"Ġfisherman":4624,"Ġsweater":4625,"ĠCounter":4626,"useum":4627,"Ġ---------------------------------------------------------------------------":4628,"Ġpleased":4629,"Ġnicely":4630,"Ġstudy":4631,"Ġcostume":4632,"Ġordinary":4633,"Ġyawned":4634,"vivors":4635,"Ġpalace":4636,"build":4637,"decode":4638,"Ġedge":4639,"Ġterrible":4640,"Ġfragile":4641,"Ġwhispered":4642,"Ġfrightened":4643,"Ġpeeked":4644,"ĠSnowball":4645,"Ġinsect":4646,"ĠGeorge":4647,"BackedDownloader":4648,"Ġigloo":4649,"Ġladder":4650,"Ġdentist":4651,"Ġmechanic":4652,"Ġobedient":4653,"Ġribbons":4654,"Ġemergency":4655,")),":4656,"/{":4657,":{":4658,"Ab":4659,"ATA":4660,"BF":4661,"Fr":4662,"Here":4663,"Ind":4664,"Jim":4665,"NK":4666,"NAME":4667,"QL":4668,"RA":4669,"Un":4670,"ah":4671,"cre":4672,"census":4673,"fish":4674,"func":4675,"ges":4676,"hus":4677,"lace":4678,"mple":4679,"nc":4680,"next":4681,"parser":4682,"ring":4683,"source":4684,"Ġicy":4685,"Ġtape":4686,"Ġson":4687,"Ġsim":4688,"Ġsle":4689,"Ġsudden":4690,"Ġwip":4691,"Ġbreeze":4692,"reat":4693,"rees":4694,"rell":4695,"replace":4696,"Ġcri":4697,"Ġcurt":4698,"Ġhats":4699,"Ġfh":4700,"Ġfat":4701,"Ġfake":4702,"Ġfiles":4703,"Ġfresh":4704,"Ġled":4705,"Ġlower":4706,"Ġlying":4707,"Ġdump":4708,"Ġdreamed":4709,"Ġmelt":4710,"ato":4711,"enry":4712,"ename":4713,"ences":4714,"Ġgas":4715,"ets":4716,"lect":4717,"ĠHenry":4718,"Ġeither":4719,"acity":4720,"acelet":4721,"Ġstat":4722,"Ġstats":4723,"Ġstret":4724,"icult":4725,"Ġrare":4726,"keep":4727,"stream":4728,"Ġ||":4729,"Ġ132":4730,"Ġ113":4731,"Ġ135":4732,"Ġrece":4733,"Ġregion":4734,"Ġrecommend":4735,"selection":4736,"Ġshone":4737,"Ġshort":4738,"Ġisn":4739,"Ġlives":4740,"Ġhappiness":4741,"Ġkicked":4742,"Ġnotice":4743,"asc":4744,"iff":4745,"ified":4746,"ĠJess":4747,"umsy":4748,"Ġsequ":4749,"Ġseagull":4750,"Ġboss":4751,"open":4752,"Ġgoal":4753,"illi":4754,"odes":4755,"Ġfriendship":4756,"Ġstrugg":4757,"Ġclumsy":4758,"ĠNext":4759,"ĠFanny":4760,"Ġbracelet":4761,"ecialToken":4762,"Ġpicking":4763,"Ġprefix":4764,"ĠConfig":4765,"Ġthoughtful":4766,"Ġorgan":4767,"Ġoriginal":4768,"``.":4769,"Ġknows":4770,"Ġrunner":4771,"ankie":4772,"Ġusize":4773,"Ġcounter":4774,"Ġunit":4775,"Ġjumps":4776,"Ġteasp":4777,"Ġcrack":4778,"Ġfinal":4779,"Ġsweetie":4780,"osaur":4781,"trace":4782,"Ġheaded":4783,"Ġmatched":4784,"ashMap":4785,"Ġbrothers":4786,"ĠVocab":4787,"ĠVerbNet":4788,"Ġpulls":4789,"Ġjog":4790,"Ġfields":4791,"operand":4792,"Ġenthus":4793,"Ġdancing":4794,"Ġmissing":4795,"Ġpushes":4796,"Ġhairy":4797,"Ġsecond":4798,"Ġguard":4799,"Ġremained":4800,"heads":4801,"Ġserious":4802,"Ġexpected":4803,"ARQL":4804,"Ġharm":4805,"Ġpassed":4806,"Ġplants":4807,"Ġcomplet":4808,"Ġtrusted":4809,"âĶĢâĶĢâĶĢâĶĢâĶĢâĶĢâĶĢâĶĢâĶĢâĶĢâĶĢâĶĢâĶĢâĶĢâĶĢâĶĢâĶĢâĶĢâĶĢâĶĢâĶĢâĶĢâĶĢâĶĢâĶĢâĶĢâĶĢâĶĢâĶĢâĶĢâĶĢâĶĢ":4810,"Ġimpressive":4811,"REC":4812,"Ġsafet":4813,"Ġspeak":4814,"ebug":4815,"Ġsorts":4816,"ooped":4817,"Ġcelebrated":4818,"Ġspoiled":4819,"Ġsearching":4820,"clone":4821,"Ġregular":4822,"Ġsandwich":4823,"Ġcircles":4824,"Ġhurry":4825,"Ġrelaxed":4826,"Ġrequests":4827,"Ġvegetables":4828,"Ġreminded":4829,"Ġdatetime":4830,"dumps":4831,"Ġuniverse":4832,"Ġgrammar":4833,"mkdir":4834,"Ġdifficult":4835,"Ġcompassionate":4836,"Ġqueen":4837,"Ġdiscus":4838,"About":4839,"rella":4840,"Ġcricket":4841,"keeper":4842,"ecialTokens":4843,"Ġenthusi":4844,"![":4845,"$\"),":4846,")}":4847,"+?":4848,".+?":4849,">\".":4850,"??":4851,"AD":4852,"CONFIG":4853,"False":4854,"Lila":4855,"NG":4856,"None":4857,"Node":4858,"Ow":4859,"Re":4860,"STA":4861,"See":4862,"Wr":4863,"Yay":4864,"];":4865,"]);":4866,"cast":4867,"cmd":4868,"dig":4869,"files":4870,"ging":4871,"gust":4872,"iam":4873,"lid":4874,"noon":4875,"sur":4876,"ux":4877,"und":4878,"wh":4879,"xious":4880,"za":4881,"zen":4882,"Ġtub":4883,"Ġtank":4884,"Ġtaught":4885,"Ġtimes":4886,"Ġtuple":4887,"Ġapo":4888,"Ġahead":4889,"Ġapart":4890,"Ġsix":4891,"Ġbal":4892,"Ġbik":4893,"reen":4894,"rejects":4895,"Ġcows":4896,"Ġcards":4897,"Ġcorrect":4898,"Ġhut":4899,"Ġhoc":4900,"Ġfine":4901,"ĠTiny":4902,"Ġlid":4903,"onse":4904,"Ġdiam":4905,"Ġpie":4906,"Ġpaid":4907,"Ġmask":4908,"Ġmuseum":4909,"arch":4910,"ĠSelf":4911,"Ġnur":4912,"eserialize":4913,"llip":4914,"Ġthumb":4915,"verse":4916,"acy":4917,"ĠHere":4918,"Ġyet":4919,"iches":4920,"Ġrail":4921,"ĠLook":4922,"ĠLisa":4923,"std":4924,"igent":4925,"alid":4926,"Ġ115":4927,"Ġ122":4928,"Ġfort":4929,"Ġforth":4930,"Ġrecord":4931,"Ġreport":4932,"Ġweird":4933,"seq":4934,"Ġanxious":4935,"Ġshake":4936,"Ġshadow":4937,"Ġlibr":4938,"Ġdoc":4939,"choo":4940,"chars":4941,"Ġexercised":4942,"Ġlollip":4943,"Ġ522":4944,"Ġ519":4945,"Ġ577":4946,"Ġ900":4947,"Ġspear":4948,"Ġ820":4949,"Ġ875":4950,"Ġjolly":4951,"ueen":4952,"Ġleak":4953,"Ġprimary":4954,"abri":4955,"Ġknown":4956,"Ġknee":4957,"ometer":4958,"Ġscar":4959,"ĠDucky":4960,"anged":4961,"Ġstarting":4962,"elligent":4963,"Ġnosy":4964,"Ġchim":4965,"Ġchose":4966,"ational":4967,"ĠFred":4968,"Ġgray":4969,"Ġgrown":4970,"ection":4971,"ization":4972,"Ġdeer":4973,"Ġdear":4974,"ĠPete":4975,"Ġfinding":4976,"ĠRE":4977,"Ġcareless":4978,"Ġpole":4979,"Ġpoked":4980,"Ġprec":4981,"Ġprep":4982,"Ġcomfort":4983,"Ġornam":4984,"Ġpeek":4985,"Ġ103":4986,"Ġ104":4987,"Ġ(_":4988,"phone":4989,"Ġholid":4990,"byte":4991,"Ġoffic":4992,"Ġmoon":4993,"ips":4994,"Ġwritten":4995,"Ġsnugg":4996,"Ġslipped":4997,"paths":4998,"Ġhurts":4999,"Ġdisgust":5000,"ĠOK":5001,"Ġafternoon":5002,"ĠSpecialTokens":5003,"Ġpup":5004,"__(":5005,"Ġfold":5006,"scoped":5007,"Ġperform":5008,"lasses":5009,"Ġbrightly":5010,"Ġhotel":5011,"Ġintelligent":5012,"Ġsandbox":5013,"Ġmeans":5014,"Ġjoined":5015,"Ġbehave":5016,"Ġmessy":5017,"Ġsmelly":5018,"Ġdinosaur":5019,"Ġhung":5020,"Ġloaded":5021,"Ġpainted":5022,"Ġvec":5023,"Ġverify":5024,"Ġsynset":5025,"Ġpetals":5026,"Ġgiving":5027,"Ġremain":5028,"Ġgrowing":5029,"Ġinvited":5030,"Ġbenchmark":5031,"Ġpointing":5032,"Ġsupply":5033,"Ġ>=":5034,"Ġdrawer":5035,"Ġcomplain":5036,"Ġfrontier":5037,"BaseDownloader":5038,"Ġcarrying":5039,"Ġcharming":5040,"Ġcouch":5041,"Ġslides":5042,"Ġdelighted":5043,"ĠRobot":5044,"Ġawait":5045,"Ġgloomy":5046,"Ġsandwiches":5047,"Ġsplashed":5048,"uthor":5049,"Ġsqueeze":5050,"Ġ:=":5051,"HASE":5052,"Shared":5053,"Ġthermometer":5054,"ĠBetty":5055,"filter":5056,"Ġmuffin":5057,"ĠLAY":5058,"Ġtelephone":5059,"\"^[":5060,"ĠSPARQL":5061,"Ġfrustrated":5062,"Ġteaspoon":5063,".+?)\\":5064,"??$\"),":5065,"Writer":5066,"Ġapolog":5067,"Ġbikes":5068,"Ġhockey":5069,"Ġdiamond":5070,"Ġlollipop":5071,"Ġornament":5072,"Ġholiday":5073,"\"\\":5074,"']":5075,"01":5076,"06":5077,"=_":5078,">>":5079,">``":5080,"Because":5081,"Count":5082,"Dict":5083,"EL":5084,"Jack":5085,"PE":5086,"RT":5087,"Return":5088,"Sw":5089,"Sout":5090,"User":5091,"Vec":5092,"Vocab":5093,"Ww":5094,"bos":5095,"bench":5096,"con":5097,"cet":5098,"cated":5099,"doc":5100,"description":5101,"fa":5102,"fo":5103,"ium":5104,"line":5105,"mall":5106,"noun":5107,"pa":5108,"pct":5109,"rule":5110,"sal":5111,"sum":5112,"uel":5113,"uce":5114,"uation":5115,"ude":5116,"}`":5117,"Ġ%":5118,"Ġ@":5119,"hest":5120,"heart":5121,"Ġturtle":5122,"Ġwitch":5123,"edal":5124,"into":5125,"ination":5126,"Ġbark":5127,"Ġtoug":5128,"Ġtoast":5129,"Ġcons":5130,"Ġcamp":5131,"Ġcere":5132,"Ġcmd":5133,"Ġhook":5134,"Ġhoop":5135,"Ġharsh":5136,"Ġfetch":5137,"itesp":5138,"Ġport":5139,"Ġpages":5140,"Ġpitch":5141,"Ġwashed":5142,"arm":5143,"ora":5144,"Ġgain":5145,"Ġosm":5146,"eters":5147,"Ġsaving":5148,"Ġsalad":5149,"Ġins":5150,"Ġhero":5151,"ution":5152,"Ġstack":5153,"Ġumb":5154,"Ġyucky":5155,"Ġrushed":5156,"Ġbeep":5157,"stats":5158,"stairs":5159,"Ġsoar":5160,"Ġsofa":5161,"ĠBurt":5162,"Ġ114":5163,"Ġ174":5164,"Ġ176":5165,"Ġ117":5166,"Ġ137":5167,"Ġplate":5168,"Ġplastic":5169,"ĠMay":5170,"ĠMSI":5171,"ceed":5172,"Ġshocked":5173,"ĠAunt":5174,"Ġking":5175,"Ġkick":5176,"Ġwhip":5177,"ashed":5178,"asci":5179,"ulary":5180,"Ġ300":5181,"Ġ384":5182,"Ġ385":5183,"Ġ262":5184,"Ġboard":5185,"Ġloss":5186,"indy":5187,"opard":5188,"Ġgoat":5189,"Ġ713":5190,"Ġspun":5191,"Ġspray":5192,"Ġ824":5193,"Ġ472":5194,"Ġ624":5195,"Ġ684":5196,"Ġ619":5197,"ĠWhere":5198,"Ġleopard":5199,"Ġmanaged":5200,"Ġrole":5201,"ĠDEFAULT":5202,"ĠEarth":5203,"Ġsomewhere":5204,"Ġmeal":5205,"Ġcarrot":5206,"Ġputting":5207,"\"))":5208,"embed":5209,"Ġbrilli":5210,"ĠCom":5211,"Ġorder":5212,"Ġtreehouse":5213,"Ġanyway":5214,"Ġoffer":5215,"Ġblinked":5216,"Ġsne":5217,"Ġcrow":5218,"Ġloudly":5219,"Ġuseful":5220,"appy":5221,"Ġglass":5222,"Ġglitter":5223,"ĠOsmGb":5224,"Ġrelations":5225,"Ġlistening":5226,"Ġflat":5227,"shadow":5228,"Ġfrozen":5229,"Ġtrick":5230,"Ġtriang":5231,"Ġsinger":5232,"Ġpermiss":5233,"Ġpercent":5234,"953":5235,"Tommy":5236,"Ġforgave":5237,"EST":5238,"Ġmodest":5239,"Ġswinging":5240,"Ġbarber":5241,"afet":5242,"Ġ[])":5243,"mini":5244,"Ġcontract":5245,"ments":5246,"roundtrip":5247,"ONS":5248,"Ġsquirrels":5249,"format":5250,"Ġverb":5251,"Ġtreasures":5252,"Ġtags":5253,"medi":5254,"Ġsparkled":5255,"Ġattention":5256,"Ġraft":5257,"Ġrubbed":5258,"Ġinvest":5259,"Ġpoliceman":5260,"framed":5261,"Ġruined":5262,"Ġindepend":5263,"Ġcolours":5264,"imiters":5265,"Ġcomplete":5266,"Ġstructure":5267,"IME":5268,"IMI":5269,"Ġpastry":5270,"Ġimagined":5271,"Ġletters":5272,"Ġgenie":5273,"Ġmerge":5274,"ĠBaseDownloader":5275,"Tokenizer":5276,"content":5277,"Ġfilm":5278,"Ġcelebrate":5279,"defaults":5280,"Ġprayed":5281,"Ġwheel":5282,"Ġwheels":5283,"Ġshrugged":5284,"Ġgrandpa":5285,"sample":5286,"Ġnecklace":5287,"ĠBefore":5288,"Ġcrayons":5289,"Ġcircle":5290,"Ġnuts":5291,"Ġrefused":5292,"Ġdependable":5293,"Ġdecorate":5294,"ĠNaturalEarth":5295,"Ġpressed":5296,"+(.+?)\\":5297,"Ġpigeon":5298,"Ġscratch":5299,"Ġbananas":5300,"Ġleaned":5301,"Ġchickens":5302,"Northern":5303,"candid":5304,"Ġdirectory":5305,"Ġgrocery":5306,"Ġitchy":5307,"asoning":5308,"Ġenvious":5309,"Ġmineral":5310,"ĠQueen":5311,"Ġslept":5312,"Ġsafety":5313,"castle":5314,"Ġchimney":5315,"Ġdisgusting":5316,"Southern":5317,"Ġtough":5318,"Ġcereal":5319,"itespace":5320,"Ġumbrella":5321,"ascii":5322,"Ġbrilliant":5323,")\")":5324,"._":5325,"02":5326,"3166":5327,">\",":5328,"Americ":5329,"Dataset":5330,"EC":5331,"EO":5332,"Fetches":5333,"IC":5334,"If":5335,"In":5336,"Lang":5337,"LEN":5338,"Label":5339,"OT":5340,"Parser":5341,"PUT":5342,"PREC":5343,"PHASE":5344,"TY":5345,"Welcome":5346,"Wait":5347,"WORD":5348,"ZE":5349,"aul":5350,"bs":5351,"bre":5352,"bled":5353,"cing":5354,"copy":5355,"dim":5356,"done":5357,"go":5358,"hood":5359,"ius":5360,"ipping":5361,"light":5362,"mm":5363,"main":5364,"oad":5365,"oke":5366,"pub":5367,"rr":5368,"rance":5369,"rots":5370,"tt":5371,"tie":5372,"train":5373,"under":5374,"wra":5375,"zing":5376,"zor":5377,"zone":5378,"}/{":5379,"ĠY":5380,"Ġ\\":5381,"Ġ----":5382,"helf":5383,"Ġtummy":5384,"Ġap":5385,"Ġauthor":5386,"Ġtheory":5387,"edy":5388,"Ġbarn":5389,"Ġbicy":5390,"res":5391,"reci":5392,"Ġcent":5393,"Ġcab":5394,"Ġcodes":5395,"Ġfurn":5396,"Ġfuture":5397,"iture":5398,"erce":5399,"Ġwaff":5400,"Ġlick":5401,"Ġlimit":5402,"Ġdare":5403,"Ġpa":5404,"Ġpad":5405,"Ġpiz":5406,"Ġpudd":5407,"Ġpanic":5408,"Ġmarsh":5409,"Ġmedic":5410,"Ġhesit":5411,"Ġ\"âĸģ":5412,"ishing":5413,"ishes":5414,"orable":5415,"anish":5416,"ĠSun":5417,"imp":5418,"Ġsail":5419,"Ġsample":5420,"level":5421,"Ġitem":5422,"ĠHo":5423,"version":5424,"util":5425,"Ġstom":5426,"Ġyarn":5427,"Ġrange":5428,"Ġrhy":5429,"ĠID":5430,"Ġbelow":5431,"Ġbears":5432,"ĠLind":5433,"ĠLina":5434,"state":5435,"igate":5436,"Ġsoil":5437,"ĠBig":5438,"ĠBunny":5439,"ĠBaby":5440,"Ġ134":5441,"Ġ124":5442,"univer":5443,"ĠMIN":5444,"ĠMorphology":5445,"Ġshiver":5446,"Ġplayers":5447,"ĠAm":5448,"ĠAre":5449,"ĠAfrica":5450,"Ġissu":5451,"url":5452,"Ġlions":5453,"ends":5454,"Ġasy":5455,"Ġ322":5456,"ĠJon":5457,"ĠJames":5458,"Ġexact":5459,"Ġexper":5460,"Ġsew":5461,"Ġlose":5462,"indings":5463,"Ġ584":5464,"Ġ566":5465,"Ġ965":5466,"Ġ712":5467,"Ġ722":5468,"Ġ799":5469,"Ġ726":5470,"Ġ766":5471,"Ġspace":5472,"Ġ811":5473,"Ġ826":5474,"Ġ480":5475,"Ġ426":5476,"Ġ636":5477,"Ġ674":5478,"Ġjack":5479,"Ġleash":5480,"oding":5481,"Ġarch":5482,"Ġpride":5483,"Ġproperty":5484,"areto":5485,"Ġalgorithm":5486,"Ġalarm":5487,"âĤ¬.":5488,"Ġscare":5489,"Ġscale":5490,"users":5491,"Ġroared":5492,"Ġvest":5493,"Ġseeing":5494,"ĠEventually":5495,"Ġchance":5496,"Ġchoose":5497,"Ġimpro":5498,"Ġcaring":5499,"Ġcarrots":5500,"Ġbirdie":5501,"Ġstrings":5502,"ĠNe":5503,"Ġletting":5504,"Ġdead":5505,"ĠPR":5506,"ĠPer":5507,"ĠPapa":5508,"Ġfinds":5509,"ĠCollocations":5510,"Ġpepper":5511,"Ġtray":5512,"Ġtrack":5513,"Ġgreedy":5514,"rence":5515,"Ġopin":5516,"intr":5517,"Ġquery":5518,"Ġhandle":5519,"Ġrooms":5520,"Ġsunf":5521,"ÅĵYou":5522,"ÅĵIt":5523,"ÅĵThat":5524,"Ġappreci":5525,"Ġadorable":5526,"Ġcalls":5527,"ĠGod":5528,"ffic":5529,"ĠdonÃ¢":5530,"Ġunderground":5531,"Ġfierce":5532,"ailable":5533,"Ġways":5534,"352":5535,"applic":5536,"subfolder":5537,"Ġreplace":5538,"Ġprinted":5539,"Ġamazement":5540,"Ġfridge":5541,"relations":5542,"2581":5543,"Ġ153":5544,"708":5545,"Ġsuffer":5546,"Ġflav":5547,"Ġflash":5548,"Ġshouts":5549,"Ġtrucks":5550,"509":5551,"Ġtriple":5552,"Ġmatches":5553,"Ġsubfolder":5554,"ĠLetÃ¢":5555,"Ġbookshelf":5556,"Ġopens":5557,"grad":5558,"Ġsandcastle":5559,"capacity":5560,"Ġsoftly":5561,"Ġprincesses":5562,"Ġwooden":5563,"Ġentrance":5564,"Ġstops":5565,"ĠRawLayout":5566,"Ġ[],":5567,"Ġpumpkin":5568,"Ġdancer":5569,"host":5570,"orpora":5571,"ERS":5572,"ENT":5573,"Ġsleeping":5574,"syms":5575,"Ġmighty":5576,"Ġshoot":5577,"Ġ758":5578,"Ġtagged":5579,"Ġresponse":5580,"ĠSomeone":5581,"Ġrazor":5582,"umbent":5583,"!(\"{":5584,"Ġpackage":5585,"Ġteaching":5586,"compiled":5587,"Ġearly":5588,"mport":5589,"Ġcrawl":5590,"Ġcrawling":5591,"Ġsucceed":5592,"ĠTwo":5593,"SETS":5594,"extracted":5595,"extractors":5596,"ACT":5597,"Ġcurrent":5598,"command":5599,"Ġdolphin":5600,"Ġgolden":5601,"Ġunknown":5602,"\"})":5603,"Ġnetwork":5604,"ĠFrankie":5605,"Ġeagerly":5606,"Spot":5607,"Ġmemories":5608,"Ġcourage":5609,"Ġcooked":5610,"Ġshrimp":5611,"questions":5612,"arlie":5613,"Ġsplashing":5614,"Ġcherries":5615,"check":5616,"Ġwishes":5617,"Ġburned":5618,"Ġpython":5619,"Ġmeeting":5620,"ĠIsabel":5621,"Ġblooming":5622,"status":5623,"Ġjewel":5624,"Ġhunter":5625,"parameters":5626,"Ġintrodu":5627,"Ġfrowned":5628,"ATASETS":5629,"Ġwiped":5630,"Ġcurtains":5631,"Ġstatue":5632,"Ġbossy":5633,"START":5634,"survivors":5635,"Ġlibrary":5636,"Ġpermission":5637,"afetensors":5638,"Ġinvestigate":5639,"candidates":5640,"Americas":5641,"Language":5642,"Ġbicycle":5643,"Ġcabin":5644,"Ġfurniture":5645,"Ġpizza":5646,"Ġmarshmall":5647,"ĠSunshine":5648,"ĠLinda":5649,"Ġissues":5650,"application":5651,"!\",":5652,"(`":5653,",}":5654,"/\",":5655,"08":5656,"299":5657,">()":5658,"BY":5659,"Ch":5660,"Id":5661,"Mama":5662,"OS":5663,"OW":5664,"Run":5665,"SER":5666,"US":5667,"Value":5668,"][":5669,"cd":5670,"cult":5671,"corn":5672,"do":5673,"eos":5674,"glasses":5675,"hi":5676,"how":5677,"ler":5678,"mt":5679,"mod":5680,"mand":5681,"ns":5682,"none":5683,"pk":5684,"pins":5685,"sure":5686,"safetensors":5687,"top":5688,"trees":5689,"uppy":5690,"ucked":5691,"valid":5692,"ye":5693,"yle":5694,"yal":5695,"yster":5696,"ython":5697,"Ġ?":5698,"Ġerror":5699,"heme":5700,"Ġtugged":5701,"Ġach":5702,"Ġsink":5703,"Ġwel":5704,"inated":5705,"Ġba":5706,"Ġbent":5707,"Ġbone":5708,"Ġbinary":5709,"rest":5710,"Ġtoes":5711,"Ġcam":5712,"Ġcush":5713,"Ġcategories":5714,"Ġfive":5715,"Ġfau":5716,"ition":5717,"era":5718,"erry":5719,"ergy":5720,"Ġlect":5721,"Ġlux":5722,"Ġder":5723,"Ġdust":5724,"Ġdesc":5725,"Ġpap":5726,"Ġpins":5727,"Ġpedal":5728,"Ġmis":5729,"Ġhedge":5730,"Ġ\"\\":5731,"Ġ\"--":5732,"Ġ\"\").":5733,"ison":5734,"ene":5735,"env":5736,"enet":5737,"iding":5738,"ides":5739,"idence":5740,"ĠSunny":5741,"ĠSandy":5742,"adows":5743,"Ġoyster":5744,"etle":5745,"Ġsailing":5746,"Ġthunder":5747,"leary":5748,"lement":5749,"ĠHF":5750,"ira":5751,"oto":5752,"Ġevent":5753,"ĠHelp":5754,"Ġstage":5755,"Ġrot":5756,"ĠISO":5757,"Ġbeans":5758,"Ġbegged":5759,"Ġbeetle":5760,"stal":5761,"sters":5762,"ignt":5763,"iggy":5764,"ntax":5765,"Ġsoap":5766,"Ġsocc":5767,"ĠBlo":5768,"eline":5769,"Ġ179":5770,"Ġ136":5771,"Ġ126":5772,"Ġ170":5773,"alley":5774,"ents":5775,"Ġrepe":5776,"ĠMeg":5777,"Ġshine":5778,"Ġshadows":5779,"Ġnoteb":5780,"Ġasht":5781,"ters":5782,"Ġ386":5783,"ĠJerry":5784,"Ġ299":5785,"Ġ226":5786,"Ġ286":5787,"Ġ294":5788,"rab":5789,"Ġsepar":5790,"Ġ500":5791,"Ġ570":5792,"Ġ564":5793,"Ġ538":5794,"Ġ984":5795,"Ġ971":5796,"Ġ715":5797,"Ġ744":5798,"Ġ752":5799,"Ġspr":5800,"Ġ880":5801,"Ġ884":5802,"Ġ852":5803,"Ġ829":5804,"Ġ499":5805,"Ġ474":5806,"Ġ417":5807,"Ġkne":5808,"Ġknob":5809,"Ġali":5810,"Ġscold":5811,"()``":5812,"Ġmanifest":5813,"Ġvalley":5814,"isted":5815,"Ġage":5816,"Ġchanged":5817,"quake":5818,"query":5819,"\")]":5820,"ĠYour":5821,"Ġclapping":5822,"ĠNot":5823,"Ġgrace":5824,"empty":5825,"izes":5826,"anti":5827,"antic":5828,"ĠPuppy":5829,"mail":5830,"ĠRalph":5831,"uckily":5832,"ĠCody":5833,"ĠCindy":5834,"Ġtrade":5835,"Ġtrans":5836,"Ġ106":5837,"Ġ107":5838,"Ġbecom":5839,"Ġencode":5840,"Ġenergy":5841,"Ġquit":5842,"Ġexplored":5843,"Ġsunglasses":5844,"Ġappro":5845,"ipeline":5846,"Ġlongest":5847,"members":5848,"Ġunpack":5849,"Ġclosely":5850,"Ġslapped":5851,"thm":5852,"threshold":5853,"\"])":5854,"209":5855,"Ġdelimiters":5856,"754":5857,"756":5858,"356":5859,"Ġdollar":5860,"curated":5861,"792":5862,"people":5863,"Ġsweetheart":5864,"Ġbreat":5865,"Ġbadly":5866,"308":5867,"Ġglue":5868,"ĠOut":5869,"Ġ144":5870,"exercised":5871,"250":5872,"707":5873,"Ġgrabs":5874,"Ġsuit":5875,"Ġnowhere":5876,"Ġtrained":5877,"Ġcandle":5878,"Ġparts":5879,"tokeniser":5880,"Ġtelling":5881,"Ġvisited":5882,"Ġmarble":5883,"453":5884,"Ġsteal":5885,"ĠUSER":5886,"Ġbushes":5887,"Ġ542":5888,"Ġsquare":5889,"brown":5890,"Ġvocabulary":5891,"Ġdrinks":5892,"ĠKim":5893,"Ġloader":5894,"ctions":5895,"synset":5896,"Ġmissile":5897,"Ġcastles":5898,"point":5899,"Ġ{}).":5900,"Ġmetaspace":5901,"lemma":5902,"Ġattract":5903,"Ġrubber":5904,"Ġhighest":5905,"Ġbandage":5906,"Ġdistant":5907,"Ġpuzzles":5908,"Ġdoctors":5909,"AGENT":5910,"Ġrespectful":5911,"Ġplanes":5912,"tagged":5913,"metaspace":5914,"ĠStandards":5915,"Ġbelongs":5916,"Ġbounced":5917,"Ġcurated":5918,"Ġsorted":5919,"results":5920,"Ġthinking":5921,"TIONS":5922,"ĠPeep":5923,"ĠCountries":5924,"({\"":5925,"Ġcherry":5926,"ĠAlexa":5927,"errors":5928,"Ġartifacts":5929,"Ġvegetable":5930,"Ġsqueezed":5931,"Ġearthquake":5932,"Ġshapefile":5933,"ification":5934,"OPER":5935,"Ġracing":5936,"Ġmeasured":5937,"Ġchirped":5938,"Ġtunnel":5939,"Ġbaker":5940,"Ġjellyfish":5941,"Ġchoices":5942,"Reader":5943,"Ġpunish":5944,"Ġinvitation":5945,"vereignt":5946,"Ġshelter":5947,"ĠJanie":5948,"âĤ¬âĢľ":5949,"Jimmy":5950,"create":5951,"Ġstretched":5952,"ĠConfigDict":5953,"Ġenthusiastic":5954,"Ġtube":5955,"Ġreports":5956,"Ġscarf":5957,"Ġsnuggled":5958,"Ġtriangle":5959,"mediately":5960,"Ġindependent":5961,"break":5962,"Ġwaffle":5963,"Ġmedicine":5964,"ĠHopper":5965,"Ġrhythm":5966,"universal":5967,"ĠAmber":5968,"ĠNeil":5969,"mportError":5970,"treesitter":5971,"Ġwelcom":5972,"Ġcamera":5973,"Ġcushion":5974,"Ġfaucet":5975,"Ġlecture":5976,"Ġpapers":5977,"Ġsoccer":5978,"ĠBloom":5979,"Ġnotebook":5980,"Ġashtray":5981,"vereignty":5982,"(())":5983,"380":5984,"<()":5985,"?:":5986,"AN":5987,"And":5988,"CLA":5989,"Did":5990,"File":5991,"Grandma":5992,"HashMap":5993,"IG":5994,"IS":5995,"IES":5996,"Jill":5997,"LL":5998,"MAX":5999,"Mmm":6000,"Names":6001,"NOUN":6002,"Ok":6003,"QU":6004,"RO":6005,"Result":6006,"SS":6007,"TP":6008,"TES":6009,"TIME":6010,"TTP":6011,"Will":6012,"WordNet":6013,"Yuck":6014,"_(":6015,"ae":6016,"ai":6017,"bing":6018,"but":6019,"best":6020,"binary":6021,"coon":6022,"corpora":6023,"ef":6024,"eed":6025,"fn":6026,"fs":6027,"gment":6028,"hol":6029,"ipp":6030,"kind":6031,"layout":6032,"over":6033,"pace":6034,"rough":6035,"suff":6036,"target":6037,"upe":6038,"uages":6039,"ww":6040,"xible":6041,"ype":6042,"yaml":6043,"})":6044,"}.":6045,"}]":6046,"Ġ);":6047,"Ġ${":6048,"Ġtmp":6049,"Ġsigh":6050,"inc":6051,"Ġbound":6052,"Ġbump":6053,"Ġbaked":6054,"Ġfoc":6055,"Ġfash":6056,"Ġfuel":6057,"ĠTara":6058,"Ġdaisy":6059,"Ġpil":6060,"Ġpine":6061,"Ġpars":6062,"Ġpatch":6063,"Ġparser":6064,"Ġmath":6065,"atient":6066,"atches":6067,"arian":6068,"isk":6069,"ising":6070,"isations":6071,"oral":6072,"ilies":6073,"Ġgap":6074,"Ġgear":6075,"Ġgoose":6076,"Ġsalt":6077,"Ġthread":6078,"Ġinter":6079,"Ġinstr":6080,"Ġinsp":6081,"verify":6082,"utf":6083,"utch":6084,"utter":6085,"rie":6086,"Ġstrict":6087,"Ġstyle":6088,"ica":6089,"ooper":6090,"Ġbeamed":6091,"ĠList":6092,"ĠLilly":6093,"ĠBoth":6094,"Ġ111":6095,"Ġ175":6096,"Ġ125":6097,"Ġ138":6098,"allen":6099,"allback":6100,"Ġresc":6101,"Ġreverse":6102,"Ġweap":6103,"seed":6104,"unwra":6105,"ĠMike":6106,"Ġshark":6107,"Ġshakes":6108,"Ġplays":6109,"Ġplayroom":6110,"ĠAS":6111,"ĠAn":6112,"ury":6113,"Ġtimeout":6114,"Ġ313":6115,"Ġ390":6116,"Ġ365":6117,"Ġ329":6118,"Ġ222":6119,"Ġ295":6120,"Ġ260":6121,"Ġselection":6122,"Ġselect":6123,"Ġloop":6124,"Ġ555":6125,"ĠĠĠĠĠĠĠĠĠĠĠĠĠĠ":6126,"ills":6127,"Ġoutf":6128,"Ġ910":6129,"Ġ925":6130,"Ġ945":6131,"Ġ954":6132,"Ġ772":6133,"Ġ774":6134,"Ġspec":6135,"Ġspell":6136,"Ġspilled":6137,"Ġ800":6138,"Ġ885":6139,"Ġ850":6140,"Ġ877":6141,"Ġ894":6142,"Ġ837":6143,"Ġ839":6144,"Ġ863":6145,"Ġ470":6146,"Ġ494":6147,"Ġ462":6148,"Ġ469":6149,"Ġ616":6150,"Ġ622":6151,"Ġ699":6152,"Ġ637":6153,"Ġ663":6154,"Ġjet":6155,"Ġallow":6156,"Ġhelpers":6157,"Ġhelpless":6158,"iew":6159,"Ġalive":6160,"Ġfunction":6161,"Ġscooped":6162,"role":6163,"root":6164,"ĠĠĠĠĠĠĠĠĠĠĠĠĠĠĠĠĠĠĠĠĠĠĠĠĠĠĠĠĠĠĠĠ":6165,"Ġview":6166,"ĠDeserialize":6167,"Ġcoco":6168,"Ġimmediately":6169,"Ġnobody":6170,"Ġimpatient":6171,"Ġcared":6172,"\")):":6173,"icky":6174,"Ġstranger":6175,"Ġswan":6176,"Ġclown":6177,"Ġcliff":6178,"ĠNode":6179,"Ġgrin":6180,"empt":6181,"ĠPoint":6182,"ĠPenny":6183,"ĠPython":6184,"ĠRache":6185,"Ġpos":6186,"ontier":6187,"ĠCla":6188,"ĠCarl":6189,"ĠCleary":6190,"ĠCooper":6191,"Ġcomb":6192,"Ġcomm":6193,"berries":6194,"Ġpeach":6195,"``,":6196,"extend":6197,"ĠJojo":6198,"ĠEveryday":6199,"ĠdidnÃ¢":6200,"Ġskull":6201,"Ġskipping":6202,"aky":6203,"Ġquiz":6204,"Ġchess":6205,"insics":6206,"Ġuses":6207,"ÅĵNo":6208,"ÅĵWhy":6209,"326":6210,"aud":6211,"Ġfamilies":6212,"struct":6213,"121":6214,"126":6215,"Ġflexible":6216,"Ġmachines":6217,"158":6218,"Ġhardly":6219,"\"]),":6220,"dedupe":6221,"Ġcrash":6222,"225":6223,"353":6224,"189":6225,"Ġbits":6226,"305":6227,"307":6228,"Ġturning":6229,"trim":6230,"truck":6231,"Ġwarned":6232,"Ġ149":6233,"exit":6234,"Ġ155":6235,"341":6236,"Ġelif":6237,"761":6238,"Ġzer":6239,"Ġsett":6240,"Ġflute":6241,"Ġflutter":6242,"Ġtrains":6243,"Ġtraffic":6244,"909":6245,"shp":6246,"Ġmonsters":6247,"Ġtripped":6248,"Ġours":6249,"olit":6250,"setdefault":6251,"Ġ501":6252,"Ġpretending":6253,"Ġfiretruck":6254,"Ġtokeniser":6255,"Ġvisiting":6256,"../":6257,"Ġbreaks":6258,"Ġkeywords":6259,"607":6260,"Ġ705":6261,"ĠUN":6262,"iana":6263,"Ġjuicy":6264,"branch":6265,"ĠToken":6266,"Ġobjects":6267,"Ġlanguages":6268,"END":6269,"Timmy":6270,"Ġ343":6271,"Ġ901":6272,"ĠKelly":6273,"Ġ391":6274,"Ġverified":6275,"process":6276,"profile":6277,"cience":6278,"Ġexpect":6279,"Ġcubs":6280,"Ġattic":6281,"Ġattach":6282,"Ġrubs":6283,"identity":6284,"Ġinvite":6285,"ĠAbbie":6286,"Ġargued":6287,"frontier":6288,"Ġindex":6289,"Ġspiders":6290,"Ġdesert":6291,"Ġcreatures":6292,"method":6293,"Ġpasta":6294,"Ġbelonged":6295,"Ġneighbour":6296,"ohash":6297,"Ġbouncing":6298,"Ġradishes":6299,"Ġcapital":6300,"common":6301,"Ġpersist":6302,"alues":6303,"Ġgiggle":6304,"SION":6305,"Ġsummer":6306,"ĠTweetie":6307,"Spanish":6308,"Ġpopcorn":6309,"Ġmembers":6310,"ĠOptional":6311,"Ġspoke":6312,"Ġsneeze":6313,"Ġzooming":6314,"Ġencoding":6315,"Ġstirred":6316,"Ġstirring":6317,"Ġoperation":6318,"ĠNoa":6319,"ĠCharlie":6320,"ĠPeople":6321,"Ġ------------------------------------------------":6322,"Ġhurried":6323,"Ġadmired":6324,"Ġwisdom":6325,"Ġstupid":6326,"Ġsurface":6327,"Ġdrops":6328,"ĠTOKENS":6329,"Ġcanonicalize":6330,"Ġpigeons":6331,"flies":6332,"requires":6333,"raphy":6334,"Ġjewels":6335,"Ġchunks":6336,"Ġtwirled":6337,"Ġtowers":6338,"Ġmeasuring":6339,"ĠRemy":6340,"Ġscattered":6341,"Ġpowers":6342,"Ġpracticed":6343,"Arg":6344,"TOKEN":6345,"expected":6346,"Ġreceived":6347,"ĠJessie":6348,"Ġharmless":6349,"Ġnurse":6350,"Countries":6351,"Ġpuddle":6352,"Ġstomach":6353,"Ġasync":6354,"ĠPercy":6355,"Ġopinion":6356,"Ġsunflower":6357,"BYTES":6358,"culture":6359,"module":6360,"Ġbald":6361,"Ġseparate":6362,"Ġsprink":6363,"antiate":6364,"Ġattractive":6365,"Ġwelcomed":6366,"<()>":6367,"CLASS":6368,"Namespace":6369,"QUEST":6370,"TIMEOUT":6371,"suffix":6372,"Ġfashion":6373,"Ġweapon":6374,"unwrap":6375,"Ġcocoa":6376,"ĠRachel":6377,"ĠClaire":6378,"'ve":6379,"']:":6380,"07":6381,"514":6382,"980":6383,"AB":6384,"Bob":6385,"Com":6386,"Config":6387,"CAL":6388,"Debug":6389,"EX":6390,"FN":6391,"He":6392,"How":6393,"ISO":6394,"Mum":6395,"MAR":6396,"PO":6397,"Save":6398,"Session":6399,"TreeSitter":6400,"UAGES":6401,"UNK":6402,"ULL":6403,"Wikidata":6404,"aa":6405,"bid":6406,"buff":6407,"cil":6408,"conf":6409,"categories":6410,"down":6411,"dro":6412,"date":6413,"dep":6414,"full":6415,"fram":6416,"gine":6417,"hase":6418,"ja":6419,"jam":6420,"like":6421,"lier":6422,"lines":6423,"lcan":6424,"mble":6425,"nis":6426,"nie":6427,"nah":6428,"oe":6429,"oot":6430,"pen":6431,"pret":6432,"pbf":6433,"qa":6434,"ran":6435,"tiny":6436,"tls":6437,"uing":6438,"urious":6439,"values":6440,"well":6441,"what":6442,"Ġ~":6443,"ĠâĶĢâĶĢ":6444,"Ġ):":6445,"ĠâĶĢâĶĢâĶĢâĶĢâĶĢâĶĢâĶĢâĶĢâĶĢâĶĢâĶĢâĶĢâĶĢâĶĢâĶĢâĶĢâĶĢâĶĢâĶĢâĶĢâĶĢâĶĢâĶĢâĶĢâĶĢâĶĢâĶĢâĶĢâĶĢâĶĢâĶĢâĶĢ":6446,"Ġtide":6447,"Ġtier":6448,"Ġaut":6449,"Ġaud":6450,"Ġsrc":6451,"Ġsection":6452,"Ġsizes":6453,"Ġwort":6454,"Ġwob":6455,"incl":6456,"Ġbare":6457,"Ġbaking":6458,"Ġbatch":6459,"repo":6460,"Ġtore":6461,"Ġcable":6462,"Ġcopy":6463,"Ġhive":6464,"Ġhated":6465,"oubled":6466,"Ġfasc":6467,"itle":6468,"itory":6469,"Ġwag":6470,"Ġwaving":6471,"Ġwags":6472,"ĠTilly":6473,"Ġlab":6474,"Ġlaid":6475,"Ġdug":6476,"Ġdull":6477,"Ġdrain":6478,"Ġduring":6479,"Ġpist":6480,"Ġmice":6481,"Ġ\"__":6482,"arql":6483,"isine":6484,"isalpha":6485,"org":6486,"orch":6487,"ority":6488,"ilo":6489,"Ġge":6490,"Ġgust":6491,"analysis":6492,"annah":6493,"ĠSund":6494,"Ġoct":6495,"Ġthreshold":6496,"ĠitÃ¢":6497,"ĠHal":6498,"ĠHolly":6499,"ĠHannah":6500,"Ġinput":6501,"iring":6502,"aches":6503,"ĠHelen":6504,"Ġhal":6505,"Ġstri":6506,"Ġstro":6507,"Ġstraw":6508,"Ġrust":6509,"veal":6510,"Ġbee":6511,"Ġbeat":6512,"ĠLou":6513,"ĠLia":6514,"ĠLuckily":6515,"stract":6516,"stead":6517,"strict":6518,"ĠBri":6519,"ĠBell":6520,"ĠBong":6521,"ĠBib":6522,"Ġ180":6523,"Ġ194":6524,"Ġform":6525,"Ġhist":6526,"entry":6527,"Ġplates":6528,"Ġresol":6529,"Ġrejects":6530,"Ġreveal":6531,"Ġweight":6532,"sequ":6533,"ĠMon":6534,"ĠMae":6535,"Ġlie":6536,"hter":6537,"Ġdove":6538,"Ġdoors":6539,"ĠIts":6540,"chant":6541,"Ġ326":6542,"Ġ3166":6543,"ĠJones":6544,"Ġ214":6545,"Ġ275":6546,"Ġ234":6547,"Ġ270":6548,"Ġ282":6549,"Ġbigram":6550,"rand":6551,"rained":6552,"opus":6553,"Ġ516":6554,"Ġ525":6555,"Ġ593":6556,"Ġ922":6557,"Ġ934":6558,"Ġ950":6559,"Ġ977":6560,"Ġ940":6561,"Ġ982":6562,"Ġ927":6563,"Ġ993":6564,"Ġ711":6565,"Ġ720":6566,"Ġ736":6567,"Ġ777":6568,"Ġ781":6569,"Ġ768":6570,"Ġ832":6571,"Ġ813":6572,"Ġ816":6573,"Ġ818":6574,"Ġ838":6575,"Ġ821":6576,"Ġ415":6577,"Ġ400":6578,"Ġ495":6579,"Ġ466":6580,"Ġ483":6581,"Ġ687":6582,"Ġ655":6583,"Ġarea":6584,"ĠWh":6585,"lob":6586,"Ġleather":6587,"Ġproper":6588,"Ġpredic":6589,"reek":6590,"Your":6591,"Ġscreen":6592,"Ġscoot":6593,"uses":6594,"usize":6595,"Ġroaring":6596,"ĠDATASETS":6597,"ĠEile":6598,"Ġmeowed":6599,"Ġimpl":6600,"Ġchore":6601,"Ġranking":6602,"\")),":6603,"Ġmakeup":6604,"Ġhomework":6605,"ĠSamina":6606,"Ġsword":6607,"ĠFro":6608,"ĠFile":6609,"ĠFFN":6610,"izing":6611,"Ġdecode":6612,"Ġdevice":6613,"Ġdownstairs":6614,"ants":6615,"antly":6616,"ĠPr":6617,"Ġsadly":6618,"Ġpoke":6619,"Ġpost":6620,"Ġpoison":6621,"Ġ_,":6622,"ssible":6623,"Ġ101":6624,"Ġ109":6625,"Ġâĸģ":6626,"rench":6627,"ĠJosh":6628,"ava":6629,"ctors":6630,"Ġlaughter":6631,"inta":6632,"Ġengine":6633,"100":6634,"101":6635,"1000":6636,"Ġexplain":6637,"Ġholes":6638,"Ġsunset":6639,"ÅĵCan":6640,"ÅĵMy":6641,"Ġburied":6642,"Ġappl":6643,"print":6644,"geog":6645,"ĠGB":6646,"loads":6647,"Ġbeauty":6648,"ĠBobbie":6649,"137":6650,"spec":6651,"sport":6652,"Ġslot":6653,"\"].":6654,"Ġshouldn":6655,"Ġshoulder":6656,"Ġaccom":6657,"Ġbravely":6658,"Ġkeeper":6659,"Ġkeeping":6660,"796":6661,"Ġbites":6662,"Ġthrows":6663,"Ġvolcan":6664,"Ġwarning":6665,"Ġwardro":6666,"Ġ145":6667,"Ġcleaned":6668,"255":6669,"Ġ157":6670,"Thanks":6671,"Ġ169":6672,"193":6673,"Ġflood":6674,"Ġtrapped":6675,"Ġpupp":6676,"coli":6677,"__\":":6678,"Ġfog":6679,"iki":6680,"ĠPathBuf":6681,"Ġwarmth":6682,"Ġprinter":6683,"device":6684,"ganisations":6685,"Ġyelling":6686,"ĠInstead":6687,"173":6688,"tokenize":6689,"373":6690,"These":6691,"Ġpulling":6692,"660":6693,"404":6694,"otten":6695,"Ġforgotten":6696,"Ġswims":6697,"Ġrestored":6698,"Ġjogged":6699,"...":6700,"Ġcutting":6701,"444":6702,"Ġbutterflies":6703,"Ġ307":6704,"))?;":6705,"Ġtaller":6706,"Ġ704":6707,"Ġcompression":6708,"Ġhoping":6709,"Ġ198":6710,"Ġsquash":6711,"Ġsmells":6712,"Ġholds":6713,"Ġjudge":6714,"Ġelephants":6715,"ĠWikidataRawLayout":6716,"}\");":6717,"countries":6718,"Ġcontro":6719,"Ġfalling":6720,"Ġfallen":6721,"Ġfallback":6722,"ĠKe":6723,"ĠJennie":6724,"syntax":6725,"Ġmorphology":6726,"Ġquietly":6727,"post":6728,"Ġgifts":6729,"project":6730,"Ġmetal":6731,"Ġmethod":6732,"Ġincl":6733,"headers":6734,"Ġserved":6735,"Ġmixer":6736,"Ġ853":6737,"Ġclimbing":6738,"Ġsparkles":6739,"Ġcubes":6740,"Ġinstance":6741,"Ġinstantiate":6742,"Ġattached":6743,"ĠNLTKBackedDownloader":6744,"forbid":6745,"writer":6746,"Ġmarker":6747,"Ġfreeze":6748,"ĠAbby":6749,"Ġearlier":6750,"Ġsuppl":6751,"Ġdistur":6752,"Ġpencil":6753,"Ġphoto":6754,"Ġpatience":6755,"Ġpigs":6756,"Ġshirts":6757,"Stories":6758,"Standards":6759,"Ġlively":6760,"tagset":6761,"Ġceiling":6762,"Ġdesign":6763,"Ġimagination":6764,"Ġmystery":6765,"Ġsituation":6766,"Ġpotato":6767,"Ġradish":6768,"Ġradius":6769,"RELA":6770,"world":6771,"ÅĵIÃ¢":6772,"Ġactiv":6773,"ceania":6774,"\"},":6775,"NLTKBackedDownloader":6776,"Ġsumm":6777,"Ġmountains":6778,"ĠTweety":6779,"context":6780,"contains":6781,"Ġcharac":6782,"Ġzoomed":6783,"ternal":6784,"TRACT":6785,"Ġeasily":6786,"Ġpatiently":6787,"TIES":6788,"Ġwrap":6789,"Ġwhistling":6790,"ĠChicky":6791,"matches":6792,"//!":6793,"Ġcrossed":6794,"Ġrefres":6795,"Ġnicer":6796,"Ġscreaming":6797,"Ġordered":6798,"Ġreminder":6799,"AXES":6800,"ĠTreeSitterRawLayout":6801,"ĠTreeSitterLanguage":6802,"Ġyawn":6803,"Ġselling":6804,"ĠZiggy":6805,"verbnet":6806,"ĠIsla":6807,"Ġresume":6808,"ĠShake":6809,"Ġexamined":6810,"Ġhanging":6811,"Ġbanana":6812,"rops":6813,"Ġtemp":6814,"Ġtowel":6815,"children":6816,"Ġtwigs":6817,"Ġbakery":6818,"Ġincreasing":6819,"Ġpowder":6820,"Ġspinning":6821,"Ġvanished":6822,"Ġdemanded":6823,"Ġsilver":6824,"Ġrecognized":6825,"Ġtwinkle":6826,"ĠUncle":6827,"RAW":6828,"United":6829,"Ġstruggling":6830,"Ġorganized":6831,"Ġdiscussing":6832,"NGUAGES":6833,"digit":6834,"abrik":6835,"Ġofficer":6836,"Ġsynsets":6837,"Ġapologized":6838,"}`);":6839,"ĠMaya":6840,"ĠCommand":6841,"ĠOsmGbRawLayout":6842,"ĠNaturalEarthRawLayout":6843,"Ġlicks":6844,"ĠIDs":6845,"Ġexperience":6846,"ĠPROPER":6847,"ÅĵItÃ¢":6848,"Ġappreciate":6849,"Ġflavor":6850,"Ġflashlight":6851,"Ġintroduce":6852,"pkg":6853,"Ġluxury":6854,"Ġderiv":6855,"gmentation":6856,"holonyms":6857,"Ġrescue":6858,"Ġoutfit":6859,"Ġzero":6860,"olitics":6861,"Ġpersistent":6862,"CALAR":6863,"EXTRACT":6864,"framenet":6865,"jamas":6866,"niscience":6867,"Ġaudience":6868,"Ġworth":6869,"Ġpistol":6870,"ĠSunday":6871,"Ġoctopus":6872,"ĠBella":6873,"ĠBongo":6874,"ĠBibi":6875,"Ġpredicates":6876,"ĠEileen":6877,"geography":6878,"Ġaccompl":6879,"Ġvolcano":6880,"Ġwardrobe":6881,"RELATIONS":6882,"EXTRACTED":6883,"'.":6884,"'=":6885,"(_":6886,"++":6887,"->":6888,"288":6889,"300":6890,"526":6891,"517":6892,"832":6893,":?":6894,":,}":6895,">`":6896,"At":6897,"ASE":6898,"Arab":6899,"Br":6900,"Cl":6901,"Che":6902,"French":6903,"GB":6904,"Ger":6905,"Give":6906,"Hand":6907,"Load":6908,"Mummy":6909,"MIN":6910,"NE":6911,"NS":6912,"Name":6913,"Natural":6914,"Oceania":6915,"SM":6916,"She":6917,"STR":6918,"TH":6919,"UN":6920,"VerbNet":6921,"Yum":6922,"`.":6923,"az":6924,"bug":6925,"brand":6926,"cp":6927,"cher":6928,"crow":6929,"ccoli":6930,"du":6931,"del":6932,"dns":6933,"eastern":6934,"fre":6935,"fun":6936,"find":6937,"five":6938,"fact":6939,"field":6940,"fire":6941,"fallback":6942,"gb":6943,"gap":6944,"gaps":6945,"glob":6946,"ha":6947,"hone":6948,"have":6949,"happy":6950,"iest":6951,"iren":6952,"lings":6953,"mother":6954,"null":6955,"natural":6956,"ole":6957,"pon":6958,"pri":6959,"politics":6960,"rs":6961,"rt":6962,"ride":6963,"rise":6964,"ronyms":6965,"sor":6966,"save":6967,"ts":6968,"wb":6969,"walk":6970,"xim":6971,"xml":6972,"you":6973,"zA":6974,"}%":6975,"hett":6976,"Ġtug":6977,"Ġtip":6978,"Ġsir":6979,"Ġsip":6980,"Ġsiren":6981,"Ġwn":6982,"Ġwigg":6983,"ndry":6984,"inct":6985,"input":6986,"Ġbill":6987,"Ġbother":6988,"Ġbunch":6989,"Ġbene":6990,"reasoning":6991,"Ġtoe":6992,"Ġcop":6993,"Ġcact":6994,"Ġcudd":6995,"Ġcache":6996,"Ġhors":6997,"Ġhipp":6998,"Ġfought":6999,"Ġfurt":7000,"Ġfertility":7001,"itar":7002,"itain":7003,"itative":7004,"Ġwand":7005,"ĠTam":7006,"Ġlr":7007,"Ġlau":7008,"Ġlimes":7009,"onomy":7010,"Ġdelt":7011,"Ġdep":7012,"Ġdried":7013,"Ġdied":7014,"Ġdire":7015,"Ġdrew":7016,"Ġpes":7017,"Ġpage":7018,"Ġpanc":7019,"Ġmention":7020,"omed":7021,"atic":7022,"atie":7023,"aters":7024,"attr":7025,"Ġ\"\")":7026,"ari":7027,"arol":7028,"isation":7029,"orld":7030,"organisations":7031,"Ġgaps":7032,"Ġghost":7033,"any":7034,"ĠSn":7035,"ĠSy":7036,"ĠSque":7037,"ĠSophy":7038,"Ġnon":7039,"aded":7040,"adium":7041,"Ġol":7042,"imy":7043,"leaf":7044,"ĠHTTP":7045,"Ġinvent":7046,"irit":7047,"ircle":7048,"Ġeos":7049,"Ġherbs":7050,"utc":7051,"aclass":7052,"Ġstared":7053,"Ġstud":7054,"Ġstitch":7055,"Ġuv":7056,"icing":7057,"Ġrise":7058,"Ġrule":7059,"Ġriding":7060,"ĠImportError":7061,"ĠLarry":7062,"stri":7063,"stder":7064,"Ġwithin":7065,"ĠBear":7066,"ĠBuf":7067,"Ġonwards":7068,"Ġhadn":7069,"Ġ133":7070,"Ġ177":7071,"Ġ182":7072,"Ġ189":7073,"Ġforce":7074,"Ġweather":7075,"Ġanalysis":7076,"ĠMe":7077,"ĠMAX":7078,"ĠMilo":7079,"ĠMinta":7080,"Ġship":7081,"ĠAD":7082,"ĠAd":7083,"ĠAr":7084,"itty":7085,"Ġkay":7086,"Ġasse":7087,"Ġneat":7088,"html":7089,"asper":7090,"cho":7091,"char":7092,"Ġ375":7093,"Ġ333":7094,"Ġ387":7095,"Ġ382":7096,"ĠJumpy":7097,"ĠJasper":7098,"Ġ211":7099,"Ġ272":7100,"Ġ236":7101,"Ġ274":7102,"Ġ224":7103,"Ġ288":7104,"Ġ290":7105,"Ġ277":7106,"umes":7107,"Ġseals":7108,"Ġbos":7109,"Ġloyal":7110,"Ġ526":7111,"Ġ534":7112,"Ġ585":7113,"Ġ565":7114,"Ġgobb":7115,"illa":7116,"Ġ912":7117,"Ġ915":7118,"Ġ935":7119,"Ġ972":7120,"Ġ979":7121,"Ġ714":7122,"Ġ776":7123,"Ġ763":7124,"Ġ723":7125,"Ġspag":7126,"Ġspoons":7127,"Ġspirit":7128,"Ġ814":7129,"Ġ835":7130,"Ġ874":7131,"Ġ886":7132,"Ġ834":7133,"Ġ876":7134,"Ġ888":7135,"Ġ840":7136,"Ġ855":7137,"Ġ412":7138,"Ġ414":7139,"Ġ420":7140,"Ġ424":7141,"Ġ485":7142,"Ġ438":7143,"Ġ471":7144,"Ġ493":7145,"Ġ632":7146,"Ġ618":7147,"Ġ676":7148,"Ġ633":7149,"Ġ640":7150,"Ġ692":7151,"Ġ645":7152,"Ġ652":7153,"Ġ678":7154,"Ġ661":7155,"Ġjunk":7156,"artifact":7157,"ĠBennet":7158,"ĠWr":7159,"oded":7160,"Ġproc":7161,"Ġhelper":7162,"ometry":7163,"Ġfunc":7164,"plane":7165,"Ġvet":7166,"ĠDebug":7167,"ĠDutch":7168,"ĠDiana":7169,"angled":7170,"Ġseem":7171,"ĠEn":7172,"ĠError":7173,"ĠEvie":7174,"Ġcoach":7175,"Ġcoats":7176,"Ġmeat":7177,"Ġstartled":7178,"aster":7179,"Ġchill":7180,"Ġchallen":7181,"Ġimplement":7182,"Ġswans":7183,"Ġswamp":7184,"Ġimportance":7185,"ĠNE":7186,"ĠField":7187,"ĠFirst":7188,"Ġgrill":7189,"Ġgrant":7190,"Ġgetattr":7191,"izers":7192,"Ġlets":7193,"ĠPhase":7194,"ĠRust":7195,"Ġposit":7196,"oby":7197,"aws":7198,"Ġprev":7199,"ĠCarol":7200,"isha":7201,"Ġtruth":7202,"Ġtroubled":7203,"Ġmyself":7204,"Ġ108":7205,"Ġ1000":7206,"Ġlookup":7207,"extra":7208,"Ġfeelings":7209,"Ġ({":7210,"Ġskills":7211,"Ġenum":7212,"Ġoverjoy":7213,"104":7214,"Ġshower":7215,"Ġchew":7216,"Ġusers":7217,"118":7218,"Ġsunrise":7219,"ÅĵDon":7220,"Ġbuzz":7221,"Ġbuffer":7222,"jective":7223,"Ġmoves":7224,"Ġwond":7225,"Ġeaten":7226,"Ġadult":7227,"gex":7228,"ĠGraph":7229,"ĠGEO":7230,"Ġsurround":7231,"Ġunite":7232,"Ġunhappy":7233,"Ġended":7234,"Ġbookcase":7235,"Ġfastest":7236,"150":7237,"151":7238,"Ġslap":7239,"Ġslipper":7240,"Ġslimy":7241,"Ġtear":7242,"Ġbrand":7243,"Ġbravery":7244,"141":7245,"Ġcrumb":7246,"Ġcrashed":7247,"223":7248,"351":7249,"Ġcrystal":7250,"curacy":7251,"Ġbeds":7252,"Ġsticky":7253,"729":7254,"799":7255,"Ġwondering":7256,"osed":7257,"osity":7258,"ertain":7259,"993":7260,"trans":7261,"related":7262,"ĠOr":7263,"ĠOSM":7264,"Ġ142":7265,"Ġ146":7266,"259":7267,"868":7268,"343":7269,"345":7270,"Ġ161":7271,"Ġ163":7272,"Ġ167":7273,"Ġ168":7274,"247":7275,"Ġheads":7276,"198":7277,"Ġsetting":7278,"Ġflour":7279,"Ġshouting":7280,"Ġworker":7281,"Ġboats":7282,"Ġbroccoli":7283,"Ġtrap":7284,"Ġmagaz":7285,"scape":7286,"Ġtalent":7287,"642":7288,"771":7289,"Ġ123":7290,"Ġ128":7291,"Ġbowed":7292,"Ġ256":7293,"Ġbrighter":7294,"Ġ204":7295,"Ġwherever":7296,"Ġprofile":7297,"Ġthanks":7298,"Ġrestless":7299,"Ġfirefly":7300,"Ġ403":7301,"Ġ408":7302,"Ġ409":7303,"Ġdifference":7304,"Ġ&[":7305,"Ġwordnet":7306,"Ġbuyer":7307,"web":7308,"Ġshopkeeper":7309,"Ġfixing":7310,"reader":7311,"readable":7312,"Ġ948":7313,"hoe":7314,"}\")]":7315,"Ġbottles":7316,"ĠFinn":7317,"Ġdownloaders":7318,"Ġcontain":7319,"Ġ349":7320,"Ġconstruct":7321,"ĠKate":7322,"ĠKatie":7323,"ĠKitty":7324,"rowave":7325,"Ġairplane":7326,"Ġpushing":7327,"Ġgifted":7328,"Ġextractors":7329,"Ġ751":7330,"Ġlandscape":7331,"Ġ559":7332,"Ġguitar":7333,"Ġhealth":7334,"Ġ`âĸģ":7335,"Ġmixing":7336,"Ġ291":7337,"iserChe":7338,"Ġsparkle":7339,"Ġdragonf":7340,"force":7341,"Ġ458":7342,"ARTI":7343,"Ġprice":7344,"!(\"\\":7345,"Ġpassport":7346,"umentParser":7347,"Ġargue":7348,"Ġarguing":7349,"Ġmouths":7350,"ĠJulie":7351,"Ġrobots":7352,"Ġtouches":7353,"ING":7354,"tags":7355,"BaseModel":7356,"IMAR":7357,"ĠStar":7358,"Ġants":7359,"Ġtomato":7360,"Ġcollaps":7361,"marker":7362,"Ġmailman":7363,"Ġmerma":7364,"Ġmerchant":7365,"(||":7366,"Spec":7367,"trie":7368,"Ġmicrop":7369,"Ġmicrowave":7370,"Ġspreading":7371,"Ġmember":7372,"ĠHowever":7373,"Ġurge":7374,"Ġbringing":7375,"Ġblows":7376,"Ġregret":7377,"TRIES":7378,"Ġglove":7379,"Ġgloves":7380,"meronyms":7381,"Ġdetermin":7382,"Ġneighborhood":7383,"URL":7384,"Ġfishing":7385,"http":7386,"Ġsweaters":7387,"Ġstuffed":7388,"Ġadmire":7389,"collections":7390,"checked":7391,"Ġsights":7392,"Ġdependency":7393,"isoformat":7394,"Ġcostumes":7395,"Ġdecorations":7396,"Ġburning":7397,"Ġpatterns":7398,"BufReader":7399,"vivor":7400,"Ġsentence":7401,"Ġdestroyed":7402,"timezone":7403,"Ġthermos":7404,"ĠBettie":7405,"prefixed":7406,"Ġlaws":7407,"Ġmints":7408,"Ġchirping":7409,"normalized":7410,"Ġsolution":7411,"Ġincrease":7412,"Ġencourage":7413,"Reads":7414,"VERB":7415,"Ġfearful":7416,"expect":7417,"OUNTRIES":7418,"FrameNet":7419,"Index":7420,"Ġsequence":7421,"Ġsequences":7422,"whitespace":7423,"Ġbalance":7424,"Ġbalanc":7425,"ĠTinyModel":7426,"ĠTinyStories":7427,"Ġprecious":7428,"Ġprecision":7429,"ĠLAYOUT":7430,"ĠLAYERS":7431,"Ġconsole":7432,"Ġcampfire":7433,"Ġsneaked":7434,"IMIZE":7435,"+(.+?)\\??$\"),":7436,"utils":7437,"Ġsewing":7438,"Ġjacket":7439,"Ġscarecrow":7440,"Ġimprove":7441,"intrinsics":7442,">()?":7443,"Ġscolded":7444,"Ġgraceful":7445,"Ġbecoming":7446,"Ġapproached":7447,"Ġbreathe":7448,"IGN":7449,"ROOT":7450,"incumbent":7451,"Ġbumped":7452,"Ġfocused":7453,"Ġparsed":7454,"ĠAST":7455,"ĠTokeniserChe":7456,"ArgumentParser":7457,"confidence":7458,"ĠâĶĢâĶĢâĶĢâĶĢâĶĢâĶĢâĶĢâĶĢâĶĢâĶĢâĶĢâĶĢâĶĢâĶĢâĶĢâĶĢâĶĢâĶĢâĶĢâĶĢâĶĢâĶĢâĶĢâĶĢâĶĢâĶĢâĶĢâĶĢâĶĢâĶĢâĶĢâĶĢâĶĢâĶĢâĶĢâĶĢâĶĢâĶĢâĶĢâĶĢâĶĢâĶĢâĶĢâĶĢâĶĢâĶĢâĶĢâĶĢ":7459,"Ġautom":7460,"itlecase":7461,"ĠBrian":7462,"Ġhistory":7463,"ĠMonster":7464,"Ġchores":7465,"ĠFrog":7466,"Ġcontrol":7467,"Ġdisturbed":7468,"Ġtempfile":7469,"'='":7470,"Arabic":7471,"German":7472,"freq":7473,"function":7474,"hetti":7475,"Ġbeneath":7476,"Ġhorses":7477,"Ġhippo":7478,"ĠTammy":7479,"Ġlaundry":7480,"Ġpeso":7481,"ĠSqueak":7482,"stderr":7483,"Ġgobbled":7484,"Ġspaghetti":7485,"ĠBennett":7486,"ĠCaroline":7487,"Ġoverjoyed":7488,"Ġslippery":7489,"Ġcrumbs":7490,"Ġmagazine":7491,"ARTIF":7492,"Ġmicrophone":7493,"ĠTokeniserCheck":7494,"!/":7495,"#!/":7496,"(\",":7497,"(__":7498,")\"":7499,")``":7500,").\"\"\"":7501,"/${":7502,"170":7503,"210":7504,"212":7505,"220":7506,"379":7507,"414":7508,"420":7509,"418":7510,"431":7511,"427":7512,"500":7513,"710":7514,"785":7515,"813":7516,"879":7517,"826":7518,"824":7519,":`":7520,"</":7521,">)":7522,">>,":7523,"?'":7524,"BG":7525,"CO":7526,"CU":7527,"Class":7528,"Collocations":7529,"Dad":7530,"Dump":7531,"DEFAULT":7532,"En":7533,"Every":7534,"EIGN":7535,"GE":7536,"Go":7537,"IK":7538,"MI":7539,"Morphology":7540,"OD":7541,"Or":7542,"Our":7543,"PR":7544,"Per":7545,"Rust":7546,"SH":7547,"TW":7548,"Tree":7549,"TOP":7550,"VE":7551,"[]":7552,"bi":7553,"bad":7554,"blen":7555,"bigram":7556,"bindings":7557,"batches":7558,"clo":7559,"cation":7560,"cip":7561,"city":7562,"correct":7563,"db":7564,"des":7565,"dbf":7566,"earth":7567,"fh":7568,"fam":7569,"flow":7570,"fail":7571,"flection":7572,"fmt":7573,"gate":7574,"ggy":7575,"hard":7576,"iers":7577,"ixt":7578,"known":7579,"lu":7580,"lon":7581,"let":7582,"mes":7583,"night":7584,"nies":7585,"national":7586,"pend":7587,"ponyms":7588,"pattern":7589,"qid":7590,"ru":7591,"ras":7592,"sed":7593,"session":7594,"table":7595,"true":7596,"uv":7597,"uous":7598,"while":7599,"yan":7600,"Ġten":7601,"Ġtucked":7602,"Ġapr":7603,"Ġaction":7604,"Ġsou":7605,"Ġsons":7606,"Ġsides":7607,"Ġwd":7608,"Ġwg":7609,"Ġwound":7610,"Ġwins":7611,"inter":7612,"inking":7613,"info":7614,"Ġbang":7615,"Ġbail":7616,"Ġbully":7617,"Ġbumpy":7618,"Ġbindings":7619,"ref":7620,"Ġtoil":7621,"Ġcust":7622,"Ġcode":7623,"Ġcaut":7624,"Ġcaul":7625,"Ġfabri":7626,"itel":7627,"ering":7628,"eries":7629,"ĠTed":7630,"ĠTina":7631,"ĠType":7632,"ĠToby":7633,"Ġlas":7634,"Ġdam":7635,"Ġdie":7636,"Ġdiv":7637,"Ġdigg":7638,"Ġdouble":7639,"Ġpid":7640,"Ġpir":7641,"Ġpants":7642,"Ġmen":7643,"Ġmoo":7644,"Ġmug":7645,"Ġmister":7646,"Ġmblen":7647,"Ġmixt":7648,"omers":7649,"omniscience":7650,"Ġheat":7651,"Ġ\",":7652,"Ġ\"-":7653,"arie":7654,"arrel":7655,"isdigit":7656,"ilar":7657,"ĠSub":7658,"ĠSail":7659,"ĠSerialize":7660,"ĠSTOP":7661,"Ġnone":7662,"Ġoil":7663,"Ġopt":7664,"Ġobe":7665,"Ġoption":7666,"Ġostri":7667,"imum":7668,"image":7669,"Ġsale":7670,"Ġsauce":7671,"ĠHave":7672,"ĠHashMap":7673,"vert":7674,"acht":7675,"acation":7676,"rib":7677,"riosity":7678,"Ġsting":7679,"Ġstren":7680,"Ġstairs":7681,"Ġstadium":7682,"Ġyacht":7683,"Ġrake":7684,"Ġrather":7685,"ĠIÃ¢":7686,"ĠLacy":7687,"states":7688,"Ġshed":7689,"iguous":7690,"ntil":7691,"Ġsovereignty":7692,"ĠBy":7693,"ĠBug":7694,"Ġ185":7695,"Ġ190":7696,"Ġ195":7697,"Ġ181":7698,"Ġforms":7699,"entence":7700,"Ġrepair":7701,"Ġreasoning":7702,"ĠthatÃ¢":7703,"Ġweal":7704,"Ġweighed":7705,"see":7706,"separ":7707,"unately":7708,"ecode":7709,"ecca":7710,"ĠMart":7711,"ĠMouse":7712,"ĠMarsh":7713,"ĠMoral":7714,"Ġshined":7715,"ĠAja":7716,"itted":7717,"Ġlips":7718,"Ġhappens":7719,"Ġkid":7720,"Ġwhitespace":7721,"Ġwhitel":7722,"ĠItÃ¢":7723,"iflower":7724,"Ġ332":7725,"Ġ315":7726,"Ġ318":7727,"Ġ379":7728,"Ġ336":7729,"Ġ330":7730,"Ġ324":7731,"Ġ350":7732,"Ġ340":7733,"Ġ392":7734,"Ġ389":7735,"Ġ369":7736,"Ġ367":7737,"Ġ213":7738,"Ġ215":7739,"Ġ220":7740,"Ġ230":7741,"Ġ219":7742,"Ġ266":7743,"Ġ292":7744,"Ġ221":7745,"Ġ228":7746,"raged":7747,"Ġextr":7748,"Ġexempt":7749,"Ġexternal":7750,"umn":7751,"Ġlog":7752,"oph":7753,"Ġ515":7754,"Ġ575":7755,"Ġ586":7756,"Ġ524":7757,"Ġ594":7758,"Ġ587":7759,"Ġ540":7760,"Ġ589":7761,"Ġ569":7762,"Ġ578":7763,"Ġ571":7764,"Ġgoals":7765,"illie":7766,"Ġ932":7767,"Ġ913":7768,"Ġ920":7769,"Ġ936":7770,"Ġ980":7771,"Ġ974":7772,"Ġ926":7773,"Ġ988":7774,"Ġ990":7775,"Ġ964":7776,"Ġ938":7777,"Ġ937":7778,"Ġ992":7779,"Ġ983":7780,"Ġ989":7781,"Ġ981":7782,"Ġ929":7783,"Ġ967":7784,"Ġ716":7785,"Ġ735":7786,"Ġ718":7787,"Ġ786":7788,"Ġ734":7789,"Ġ719":7790,"Ġ750":7791,"Ġ795":7792,"Ġ765":7793,"Ġ745":7794,"Ġ762":7795,"Ġ783":7796,"Ġ789":7797,"Ġ754":7798,"Ġ755":7799,"Ġ771":7800,"Ġ728":7801,"Ġ810":7802,"Ġ864":7803,"Ġ833":7804,"Ġ865":7805,"Ġ845":7806,"Ġ862":7807,"Ġ891":7808,"Ġ422":7809,"Ġ418":7810,"Ġ436":7811,"Ġ430":7812,"Ġ476":7813,"Ġ484":7814,"Ġ433":7815,"Ġ440":7816,"Ġ482":7817,"Ġ439":7818,"Ġ444":7819,"Ġ473":7820,"Ġ600":7821,"Ġ680":7822,"Ġ625":7823,"Ġ670":7824,"Ġ694":7825,"Ġ682":7826,"Ġ689":7827,"Ġ667":7828,"Ġ621":7829,"Ġjug":7830,"Ġjail":7831,"ĠWill":7832,"ĠWorld":7833,"locked":7834,"located":7835,"Ġlex":7836,"Ġarr":7837,"Ġprop":7838,"Ġprayer":7839,"Ġprune":7840,"absor":7841,"Ġalright":7842,"Ġscur":7843,"()).":7844,"()))?;":7845,"roid":7846,"usr":7847,"Ġroles":7848,"Ġroses":7849,"Ġvn":7850,"Ġvict":7851,"Ġvroom":7852,"Ġvacation":7853,"ĠDolly":7854,"Ġseems":7855,"ĠExt":7856,"Ġworse":7857,"api":7858,"Ġnoses":7859,"Ġ<<":7860,"Ġchars":7861,"athan":7862,"Ġnews":7863,"ationally":7864,"Ġswung":7865,"Ġclub":7866,"ĠNULL":7867,"ĠFI":7868,"ĠFollow":7869,"emem":7870,"Ġdecl":7871,"Ġwhose":7872,"Ġdeal":7873,"Ġdownstream":7874,"ĠPBF":7875,"ĠPaul":7876,"ĠPipeline":7877,"ĠPhoe":7878,"mapped":7879,"ĠRead":7880,"ĠReb":7881,"ĠCover":7882,"asey":7883,"Ġtrunc":7884,"uddy":7885,"``.\"\"\"":7886,"extras":7887,"ĠMaxwell":7888,"Ġcatcher":7889,"Ġdefinit":7890,"Ġquack":7891,"Ġquarrel":7892,"Ġcheap":7893,"Ġcheating":7894,"Ġhandler":7895,"Ġanywhere":7896,"Ġkindly":7897,"Ġwatered":7898,"ÅĵHello":7899,"ÅĵThis":7900,"ÅĵHi":7901,"Ġblood":7902,"Ġneedle":7903,"Ġappear":7904,"adybug":7905,"primary":7906,"123":7907,"Ġrelated":7908,"Ġunigram":7909,"Ġends":7910,"Ġending":7911,"130":7912,"131":7913,"space":7914,"sparql":7915,"Ġsnap":7916,"Ġslips":7917,"009":7918,"this":7919,"though":7920,"\"]:":7921,"Ġsurprises":7922,"168":7923,"208":7924,"Ġdelay":7925,"750":7926,"ords":7927,"Ġ``(":7928,"substance":7929,"721":7930,"724":7931,"725":7932,"Ġbadge":7933,"Ġreplaced":7934,"Ġprints":7935,"304":7936,"Ġthrilled":7937,"keyword":7938,"Ġvoid":7939,"749":7940,"Ġdisco":7941,"Ġ140":7942,"Ġ147":7943,"258":7944,"Ġ151":7945,"Ġ154":7946,"izeResult":7947,"Ġ165":7948,"760":7949,"767":7950,"769":7951,"Ġzeb":7952,"Ġheaders":7953,"847":7954,"Ġflame":7955,"Ġflies":7956,"Ġworks":7957,"ĠSpike":7958,"Ġtravel":7959,"__).":7960,"science":7961,"scheme":7962,"882":7963,"648":7964,"649":7965,"sharp":7966,"Ġfloated":7967,"Ġclassroom":7968,"Ġclassification":7969,"Ġpaths":7970,"338":7971,"501":7972,"Ġsubnational":7973,"Ġ127":7974,"945":7975,").__":7976,"Ġpolishing":7977,"Ġpartic":7978,"Ġ251":7979,"Ġ252":7980,"Ġ254":7981,"Ġcrept":7982,"Ġ505":7983,"Ġ201":7984,"Ġforgi":7985,"929":7986,"Ġjoke":7987,"Ġtokenizers":7988,"Ġ401":7989,"...\"":7990,"Ġbehav":7991,"397":7992,"449":7993,"numel":7994,"Ġ&&":7995,"Ġ306":7996,"Ġdressed":7997,"Ġdresses":7998,"Ġ708":7999}