<pad>
<unk>
<s>
</s>
<0x00>
<0x01>
<0x02>
<0x03>
<0x04>
<0x05>
<0x06>
<0x07>
<0x08>
<0x09>
<0x0A>
<0x0B>
<0x0C>
<0x0D>
<0x0E>
<0x0F>
<0x10>
<0x11>
<0x12>
<0x13>
<0x14>
<0x15>
<0x16>
<0x17>
<0x18>
<0x19>
<0x1A>
<0x1B>
<0x1C>
<0x1D>
<0x1E>
<0x1F>
<0x20>
<0x21>
<0x22>
<0x23>
<0x24>
<0x25>
<0x26>
<0x27>
<0x28>
<0x29>
<0x2A>
<0x2B>
<0x2C>
<0x2D>
<0x2E>
<0x2F>
<0x30>
<0x31>
<0x32>
<0x33>
<0x34>
<0x35>
<0x36>
<0x37>
<0x38>
<0x39>
<0x3A>
<0x3B>
<0x3C>
<0x3D>
<0x3E>
<0x3F>
<0x40>
<0x41>
<0x42>
<0x43>
<0x44>
<0x45>
<0x46>
<0x47>
<0x48>
<0x49>
<0x4A>
<0x4B>
<0x4C>
<0x4D>
<0x4E>
<0x4F>
<0x50>
<0x51>
<0x52>
<0x53>
<0x54>
<0x55>
<0x56>
<0x57>
<0x58>
<0x59>
<0x5A>
<0x5B>
<0x5C>
<0x5D>
<0x5E>
<0x5F>
<0x60>
<0x61>
<0x62>
<0x63>
<0x64>
<0x65>
<0x66>
<0x67>
<0x68>
<0x69>
<0x6A>
<0x6B>
<0x6C>
<0x6D>
<0x6E>
<0x6F>
<0x70>
<0x71>
<0x72>
<0x73>
<0x74>
<0x75>
<0x76>
<0x77>
<0x78>
<0x79>
<0x7A>
<0x7B>
<0x7C>
<0x7D>
<0x7E>
<0x7F>
<0x80>
<0x81>
<0x82>
<0x83>
<0x84>
<0x85>
<0x86>
<0x87>
<0x88>
<0x89>
<0x8A>
<0x8B>
<0x8C>
<0x8D>
<0x8E>
<0x8F>
<0x90>
<0x91>
<0x92>
<0x93>
<0x94>
<0x95>
<0x96>
<0x97>
<0x98>
<0x99>
<0x9A>
<0x9B>
<0x9C>
<0x9D>
<0x9E>
<0x9F>
<0xA0>
<0xA1>
<0xA2>
<0xA3>
<0xA4>
<0xA5>
<0xA6>
<0xA7>
<0xA8>
<0xA9>
<0xAA>
<0xAB>
<0xAC>
<0xAD>
<0xAE>
<0xAF>
<0xB0>
<0xB1>
<0xB2>
<0xB3>
<0xB4>
<0xB5>
<0xB6>
<0xB7>
<0xB8>
<0xB9>
<0xBA>
<0xBB>
<0xBC>
<0xBD>
<0xBE>
<0xBF>
<0xC0>
<0xC1>
<0xC2>
<0xC3>
<0xC4>
<0xC5>
<0xC6>
<0xC7>
<0xC8>
<0xC9>
<0xCA>
<0xCB>
<0xCC>
<0xCD>
<0xCE>
<0xCF>
<0xD0>
<0xD1>
<0xD2>
<0xD3>
<0xD4>
<0xD5>
<0xD6>
<0xD7>
<0xD8>
<0xD9>
<0xDA>
<0xDB>
<0xDC>
<0xDD>
<0xDE>
<0xDF>
<0xE0>
<0xE1>
<0xE2>
<0xE3>
<0xE4>
<0xE5>
<0xE6>
<0xE7>
<0xE8>
<0xE9>
<0xEA>
<0xEB>
<0xEC>
<0xED>
<0xEE>
<0xEF>
<0xF0>
<0xF1>
<0xF2>
<0xF3>
<0xF4>
<0xF5>
<0xF6>
<0xF7>
<0xF8>
<0xF9>
<0xFA>
<0xFB>
<0xFC>
<0xFD>
<0xFE>
<0xFF>
a
▁a
b
▁b
c
▁c
d
▁d
e
▁e
f
▁f
g
▁g
h
▁h
i
▁i
j
▁j
k
▁k
l
▁l
m
▁m
n
▁n
o
▁o
p
▁p
q
▁q
r
▁r
s
▁s
t
▁t
u
▁u
v
▁v
w
▁w
x
▁x
y
▁y
z
▁z
.
,
!
?
;
:
'
"
-
(
)
[
]
{
}
/
<
>
@
#
$
%
^
&
*
+
=
|
~
`
\
A
▁A
B
▁B
C
▁C
D
▁D
E
▁E
F
▁F
G
▁G
H
▁H
I
▁I
J
▁J
K
▁K
L
▁L
M
▁M
N
▁N
O
▁O
P
▁P
Q
▁Q
R
▁R
S
▁S
T
▁T
U
▁U
V
▁V
W
▁W
X
▁X
Y
▁Y
Z
▁Z
==
!=
<=
>=
->
=>
::
..
...
&&
||
<<
>>
+=
-=
*=
/=
**
++
--
:=
===
!==
?.
??
|>
<-
|=
&=
^=
%=
<>
~=
€
£
¥
¢
0
1
2
3
4
5
6
7
8
9
α
▁α
β
▁β
γ
▁γ
δ
▁δ
ε
▁ε
ζ
▁ζ
η
▁η
θ
▁θ
ι
▁ι
κ
▁κ
λ
▁λ
μ
▁μ
ν
▁ν
ξ
▁ξ
π
▁π
ρ
▁ρ
σ
▁σ
τ
▁τ
υ
▁υ
φ
▁φ
χ
▁χ
ψ
▁ψ
ω
▁ω
Α
▁Α
Β
▁Β
Γ
▁Γ
Δ
▁Δ
Ε
▁Ε
Ζ
▁Ζ
Η
▁Η
Θ
▁Θ
Ι
▁Ι
Κ
▁Κ
Λ
▁Λ
Μ
▁Μ
Ν
▁Ν
Ξ
▁Ξ
Π
▁Π
Ρ
▁Ρ
Σ
▁Σ
Τ
▁Τ
Υ
▁Υ
Φ
▁Φ
Χ
▁Χ
Ψ
▁Ψ
Ω
▁Ω
§
¶
©
®
™
→
←
↑
↓
↔
↕
⇐
⇒
⇑
⇓
⇔
⇕
↦
↤
↧
↥
⇋
⇌
⇀
⇁
↼
↽
↚
↛
⟶
⟵
⟷
⟹
⟸
⟺
⤖
⤕
⟿
↯
½
¼
¾
⅓
⅔
⅕
⅖
⅗
⅘
⅙
⅚
⅛
⅜
⅝
⅞
⅐
⅑
⅒
⅟
∧
∨
¬
⊕
⊻
⊼
⊽
∴
∵
⊢
⊣
⊨
⊭
⊤
⊥
⟂
‖
∑
∏
∐
∫
∬
∭
∮
∯
∰
∂
∇
√
∛
∜
∞
∝
∅
∀
∃
∄
±
∓
∗
∘
∙
⋅
×
÷
⨯
⨁
⨂
⊖
⊗
⊘
⊙
⊚
⊛
∔
∸
≈
≃
≅
≡
≠
≤
≥
≪
≫
≺
≻
≼
≽
⊂
⊃
⊄
⊅
⊆
⊇
⊊
⊋
∈
∉
∋
∌
≟
≝
≜
≐
∼
∽
⊏
⊐
⊑
⊒
≲
≳
⋖
⋗
⪯
⪰
∪
∩
∖
⊎
⨄
⨆
⨅
⨈
⨉
ℕ
▁ℕ
ℤ
▁ℤ
ℚ
▁ℚ
ℝ
▁ℝ
ℂ
▁ℂ
ℍ
▁ℍ
ℙ
▁ℙ
𝔽
▁𝔽
▁
²
³
⁴
the
▁the
an
▁an
of
▁of
to
▁to
in
▁in
on
▁on
at
▁at
by
▁by
for
▁for
with
▁with
from
▁from
as
▁as
is
▁is
was
▁was
are
▁are
were
▁were
be
▁be
been
▁been
being
▁being
have
▁have
has
▁has
had
▁had
do
▁do
does
▁does
did
▁did
will
▁will
would
▁would
can
▁can
could
▁could
should
▁should
may
▁may
might
▁might
must
▁must
shall
▁shall
upon
▁upon
into
▁into
onto
▁onto
over
▁over
under
▁under
above
▁above
below
▁below
between
▁between
through
▁through
during
▁during
before
▁before
after
▁after
since
▁since
until
▁until
while
▁while
because
▁because
although
▁although
though
▁though
if
▁if
unless
▁unless
whether
▁whether
when
▁when
where
▁where
why
▁why
how
▁how
what
▁what
which
▁which
who
▁who
whom
▁whom
whose
▁whose
that
▁that
this
▁this
these
▁these
those
▁those
and
▁and
or
▁or
but
▁but
nor
▁nor
so
▁so
yet
▁yet
also
▁also
not
▁not
no
▁no
very
▁very
just
▁just
only
▁only
even
▁even
more
▁more
most
▁most
some
▁some
any
▁any
all
▁all
each
▁each
every
▁every
both
▁both
few
▁few
many
▁many
much
▁much
other
▁other
another
▁another
same
▁same
such
▁such
he
▁he
she
▁she
it
▁it
we
▁we
they
▁they
you
▁you
me
▁me
him
▁him
her
▁her
us
▁us
them
▁them
my
▁my
your
▁your
his
▁his
its
▁its
our
▁our
their
▁their
mine
▁mine
yours
▁yours
hers
▁hers
ours
▁ours
theirs
▁theirs
un
▁un
im
▁im
ir
▁ir
il
▁il
dis
▁dis
non
▁non
mis
▁mis
de
▁de
pre
▁pre
post
▁post
anti
▁anti
auto
▁auto
bi
▁bi
co
▁co
counter
▁counter
en
▁en
ex
▁ex
extra
▁extra
fore
▁fore
inter
▁inter
intra
▁intra
mid
▁mid
out
▁out
re
▁re
semi
▁semi
sub
▁sub
super
▁super
trans
▁trans
tri
▁tri
ultra
▁ultra
up
▁up
photo
▁photo
bio
▁bio
geo
▁geo
hydro
▁hydro
electro
▁electro
micro
▁micro
macro
▁macro
mono
▁mono
multi
▁multi
neo
▁neo
para
▁para
poly
▁poly
proto
▁proto
pseudo
▁pseudo
quasi
▁quasi
retro
▁retro
tele
▁tele
thermo
▁thermo
neuro
▁neuro
cardio
▁cardio
paleo
▁paleo
archaeo
▁archaeo
astro
▁astro
chrono
▁chrono
crypto
▁crypto
infra
▁infra
tion
▁tion
sion
▁sion
ment
▁ment
ness
▁ness
ity
▁ity
ence
▁ence
ance
▁ance
ism
▁ism
ist
▁ist
er
▁er
ar
▁ar
able
▁able
ible
▁ible
ful
▁ful
less
▁less
ous
▁ous
ive
▁ive
al
▁al
ial
▁ial
ic
▁ic
ical
▁ical
ish
▁ish
like
▁like
ly
▁ly
ify
▁ify
ise
▁ise
ize
▁ize
ate
▁ate
ology
▁ology
graph
▁graph
graphy
▁graphy
scope
▁scope
meter
▁meter
metry
▁metry
lysis
▁lysis
synthesis
▁synthesis
phyte
▁phyte
cyte
▁cyte
genic
▁genic
ing
▁ing
ed
▁ed
es
▁es
est
▁est
BEGIN
▁BEGIN
END
▁END
FALSE
▁FALSE
False
▁False
NULL
▁NULL
None
▁None
Protocol
▁Protocol
TRUE
▁TRUE
True
▁True
Type
▁Type
_
_Generic
__based
__declspec
__except
__extension__
__finally
__future__
__leave
__try
_abstract_declarator
_additive_operator
_arg
_argument
_arrow_operator
_as
_attribute_argument
_await_operator
_binary_star_star
_block
_call_operator
_call_signature
_class_declaration
_class_name
_collection_elements
_comparison_operator
_compound_statement
_condition
_constrained_type
_declarator
_directive_elseif
_directive_if
_dot
_element_value
_else_options
_equal_sign
_equality_operator
_expression
_expressions
_f_expression
_field_declarator
_field_identifier
_find_pattern_body
_fold_operator
_for_header
_for_range_loop_body
_for_statement_body
_formal_parameter
_from_clause
_hash_pattern_body
_hash_symbol
_immediate_quest
_import_identifier
_import_list
_indent
_initializer
_int_or_float
_is_operator
_jsx_attribute_value
_jsx_element_name
_jsx_identifier
_key_path_component
_lambda_capture
_left_hand_side
_let_chain
_lhs
_lhs_expression
_line_doc_content
_literal
_literal_pattern
_local_statement
_macro_head
_match_block
_method_declarator
_method_name
_method_rest
_mlhs
_module
_module_export_name
_name
_newline
_nonlocal_variable
_package_identifier
_parameter_name
_path
_pattern
_pattern_constant
_pattern_expr
_pattern_expr_basic
_pattern_primitive
_pow
_preproc_expression
_primary
_property_name
_quest
_range_operator
_right_hand_side
_semi
_semicolon
_short_interpolation
_simple_numeric
_simple_pattern
_simple_statement
_simple_type
_simple_user_type
_statement
_statements
_string
_suite
_terminator
_ternary_qmark
_three_dot_operator
_top_level_statement
_tuple_pattern_item
_tuple_type_member
_type
_type_declarator
_type_identifier
_type_switch_header
_unannotated_type
_unary_minus_num
_use_clause
_variable
abstract
▁abstract
abstract_type
▁abstract_type
access_specifier
▁access_specifier
accessor
▁accessor
actor
▁actor
additive_expression
▁additive_expression
alias
▁alias
alias_declaration
▁alias_declaration
aliased_import
▁aliased_import
alignas
▁alignas
alignas_qualifier
▁alignas_qualifier
alignof
▁alignof
alignof_expression
▁alignof_expression
alternative_pattern
▁alternative_pattern
ambient_declaration
▁ambient_declaration
and_eq
▁and_eq
annotated_type
▁annotated_type
annotation
▁annotation
annotation_type_body
▁annotation_type_body
arch
▁arch
argument_list
▁argument_list
arguments
▁arguments
array
▁array
array_access
▁array_access
array_declarator
▁array_declarator
array_expression
▁array_expression
array_initializer
▁array_initializer
array_literal
▁array_literal
array_pattern
▁array_pattern
array_type
▁array_type
arrow_function
▁arrow_function
as_expression
▁as_expression
as_operator
▁as_operator
as_pattern
▁as_pattern
as_pattern_target
▁as_pattern_target
asm
▁asm
assert
▁assert
assert_statement
▁assert_statement
asserts
▁asserts
asserts_annotation
▁asserts_annotation
assignment
▁assignment
assignment_pattern
▁assignment_pattern
assignment_statement
▁assignment_statement
associated_type
▁associated_type
associatedtype
▁associatedtype
asterisk
▁asterisk
async
▁async
async_block
▁async_block
attribute
▁attribute
attribute_item
▁attribute_item
attribute_specifier
▁attribute_specifier
attributed_statement
▁attributed_statement
augmented_assignment
▁augmented_assignment
available
▁available
await
▁await
await_expression
▁await_expression
bang
▁bang
bare_string
▁bare_string
bare_symbol
▁bare_symbol
base_class_clause
▁base_class_clause
begin
▁begin
begin_block
▁begin_block
bin_literal
▁bin_literal
binary
▁binary
binary_expression
▁binary_expression
binary_operator
▁binary_operator
bitand
▁bitand
bitfield_clause
▁bitfield_clause
bitor
▁bitor
bitwise_operation
▁bitwise_operation
blank_identifier
▁blank_identifier
block
▁block
block_argument
▁block_argument
block_body
▁block_body
block_parameter
▁block_parameter
block_parameters
▁block_parameters
body_statement
▁body_statement
bool
▁bool
boolean
▁boolean
boolean_literal
▁boolean_literal
boolean_operator
▁boolean_operator
boolean_type
▁boolean_type
bounded_type
▁bounded_type
bracketed_type
▁bracketed_type
break
▁break
break_command
▁break_command
break_expression
▁break_expression
break_statement
▁break_statement
byte
▁byte
call
▁call
call_expression
▁call_expression
call_signature
▁call_signature
call_suffix
▁call_suffix
canImport
▁canImport
capture_list
▁capture_list
capture_list_item
▁capture_list_item
captured_pattern
▁captured_pattern
case
▁case
case_clause
▁case_clause
case_match
▁case_match
case_pattern
▁case_pattern
case_statement
▁case_statement
cast_expression
▁cast_expression
catch
▁catch
catch_block
▁catch_block
catch_clause
▁catch_clause
catch_keyword
▁catch_keyword
catch_type
▁catch_type
chained_string
▁chained_string
chan
▁chan
channel_type
▁channel_type
char
▁char
char_literal
▁char_literal
character
▁character
character_literal
▁character_literal
check_expression
▁check_expression
chevron
▁chevron
class
▁class
class_body
▁class_body
class_declaration
▁class_declaration
class_definition
▁class_definition
class_heritage
▁class_heritage
class_literal
▁class_literal
class_pattern
▁class_pattern
class_specifier
▁class_specifier
class_static_block
▁class_static_block
class_variable
▁class_variable
closure_expression
▁closure_expression
closure_parameters
▁closure_parameters
co_await
▁co_await
co_await_expression
▁co_await_expression
co_return_statement
▁co_return_statement
co_yield
▁co_yield
co_yield_statement
▁co_yield_statement
colorLiteral
▁colorLiteral
column
▁column
comma_expression
▁comma_expression
command_binary
▁command_binary
command_unary
▁command_unary
communication_case
▁communication_case
comparison_operator
▁comparison_operator
compiler
▁compiler
compl
▁compl
complex
▁complex
complex_pattern
▁complex_pattern
composite_literal
▁composite_literal
compound_requirement
▁compound_requirement
compound_statement
▁compound_statement
computed_getter
▁computed_getter
computed_modify
▁computed_modify
computed_property
▁computed_property
computed_setter
▁computed_setter
concatenated_string
▁concatenated_string
concept
▁concept
concept_definition
▁concept_definition
condition_clause
▁condition_clause
conditional
▁conditional
conditional_type
▁conditional_type
const
▁const
const_block
▁const_block
const_declaration
▁const_declaration
const_item
▁const_item
const_parameter
▁const_parameter
const_spec
▁const_spec
constant
▁constant
constant_declaration
▁constant_declaration
consteval
▁consteval
constexpr
▁constexpr
constinit
▁constinit
constrained_type
▁constrained_type
constraint
▁constraint
construct_signature
▁construct_signature
constructor_body
▁constructor_body
constructor_suffix
▁constructor_suffix
constructor_type
▁constructor_type
continue
▁continue
continue_expression
▁continue_expression
continue_statement
▁continue_statement
convenience
▁convenience
crate
▁crate
custom_operator
▁custom_operator
debugger
▁debugger
debugger_statement
▁debugger_statement
dec_statement
▁dec_statement
declaration
▁declaration
declaration_list
▁declaration_list
declare
▁declare
decltype
▁decltype
decltype_auto
▁decltype_auto
decorated_definition
▁decorated_definition
decorator
▁decorator
def
▁def
default
▁default
default_case
▁default_case
default_keyword
▁default_keyword
default_parameter
▁default_parameter
default_type
▁default_type
defer
▁defer
defer_statement
▁defer_statement
defined
▁defined
deinit
▁deinit
deinit_declaration
▁deinit_declaration
del
▁del
delegate
▁delegate
delete
▁delete
delete_expression
▁delete_expression
delete_method_clause
▁delete_method_clause
delete_statement
▁delete_statement
delim_token_tree
▁delim_token_tree
delimited_symbol
▁delimited_symbol
dependent_identifier
▁dependent_identifier
dependent_name
▁dependent_name
dependent_type
▁dependent_type
destructor_name
▁destructor_name
diagnostic
▁diagnostic
dict_pattern
▁dict_pattern
dictionary
▁dictionary
dictionary_literal
▁dictionary_literal
dictionary_splat
▁dictionary_splat
dictionary_type
▁dictionary_type
didSet
▁didSet
didset_clause
▁didset_clause
dimensions
▁dimensions
dimensions_expr
▁dimensions_expr
directive
▁directive
distributed
▁distributed
do_block
▁do_block
do_statement
▁do_statement
doc_comment
▁doc_comment
dot
▁dot
dotted_name
▁dotted_name
double
▁double
dsohandle
▁dsohandle
dyn
▁dyn
dynamic
▁dynamic
dynamic_type
▁dynamic_type
element_reference
▁element_reference
element_value_pair
▁element_value_pair
elif
▁elif
elif_clause
▁elif_clause
ellipsis
▁ellipsis
else
▁else
else_clause
▁else_clause
elsif
▁elsif
empty_statement
▁empty_statement
encoding
▁encoding
end
▁end
end_block
▁end_block
ensure
▁ensure
enum
▁enum
enum_assignment
▁enum_assignment
enum_body
▁enum_body
enum_class_body
▁enum_class_body
enum_constant
▁enum_constant
enum_declaration
▁enum_declaration
enum_entry
▁enum_entry
enum_item
▁enum_item
enum_specifier
▁enum_specifier
enum_type_parameters
▁enum_type_parameters
enum_variant
▁enum_variant
enum_variant_list
▁enum_variant_list
enumerator
▁enumerator
enumerator_list
▁enumerator_list
equality_constraint
▁equality_constraint
equality_expression
▁equality_expression
escape_interpolation
▁escape_interpolation
escape_sequence
▁escape_sequence
except
▁except
except_clause
▁except_clause
exception_variable
▁exception_variable
exceptions
▁exceptions
exec
▁exec
exec_statement
▁exec_statement
existential_type
▁existential_type
expansion_statement
▁expansion_statement
explicit
▁explicit
export
▁export
export_clause
▁export_clause
export_declaration
▁export_declaration
export_specifier
▁export_specifier
export_statement
▁export_statement
exports
▁exports
expr
▁expr
expression
▁expression
expression_case
▁expression_case
expression_list
▁expression_list
expression_statement
▁expression_statement
extends
▁extends
extends_clause
▁extends_clause
extends_interfaces
▁extends_interfaces
extends_type_clause
▁extends_type_clause
extension
▁extension
extension_expression
▁extension_expression
extern
▁extern
extern_modifier
▁extern_modifier
externalMacro
▁externalMacro
fallthrough
▁fallthrough
false
▁false
field_access
▁field_access
field_declaration
▁field_declaration
field_definition
▁field_definition
field_designator
▁field_designator
field_expression
▁field_expression
field_identifier
▁field_identifier
field_initializer
▁field_initializer
field_pattern
▁field_pattern
file
▁file
fileID
▁fileID
fileLiteral
▁fileLiteral
filePath
▁filePath
fileprivate
▁fileprivate
final
▁final
finally
▁finally
finally_clause
▁finally_clause
find_pattern
▁find_pattern
float
▁float
float_literal
▁float_literal
floating_point_type
▁floating_point_type
flow_maybe_type
▁flow_maybe_type
fn
▁fn
fold_expression
▁fold_expression
for_clause
▁for_clause
for_expression
▁for_expression
for_in_clause
▁for_in_clause
for_in_statement
▁for_in_statement
for_lifetimes
▁for_lifetimes
for_range_loop
▁for_range_loop
for_statement
▁for_statement
foreign_mod_item
▁foreign_mod_item
formal_parameter
▁formal_parameter
formal_parameters
▁formal_parameters
format_expression
▁format_expression
format_specifier
▁format_specifier
forward_argument
▁forward_argument
forward_parameter
▁forward_parameter
fragment_specifier
▁fragment_specifier
friend
▁friend
friend_declaration
▁friend_declaration
fully_open_range
▁fully_open_range
func
▁func
func_literal
▁func_literal
function
▁function
function_body
▁function_body
function_declaration
▁function_declaration
function_declarator
▁function_declarator
function_definition
▁function_definition
function_expression
▁function_expression
function_item
▁function_item
function_modifier
▁function_modifier
function_modifiers
▁function_modifiers
function_signature
▁function_signature
function_type
▁function_type
gen
▁gen
gen_block
▁gen_block
generator_expression
▁generator_expression
generator_function
▁generator_function
generic_expression
▁generic_expression
generic_function
▁generic_function
generic_pattern
▁generic_pattern
generic_type
▁generic_type
get
▁get
getter_specifier
▁getter_specifier
global
▁global
global_statement
▁global_statement
global_variable
▁global_variable
gnu_asm_clobber_list
▁gnu_asm_clobber_list
gnu_asm_expression
▁gnu_asm_expression
gnu_asm_goto_list
▁gnu_asm_goto_list
gnu_asm_qualifier
▁gnu_asm_qualifier
go
▁go
go_statement
▁go_statement
goto
▁goto
goto_statement
▁goto_statement
guard
▁guard
guard_statement
▁guard_statement
hash
▁hash
hash_bang_line
▁hash_bang_line
hash_key_symbol
▁hash_key_symbol
hash_pattern
▁hash_pattern
hash_splat_argument
▁hash_splat_argument
hash_splat_nil
▁hash_splat_nil
hash_splat_parameter
▁hash_splat_parameter
heredoc_beginning
▁heredoc_beginning
heredoc_body
▁heredoc_body
heredoc_content
▁heredoc_content
heredoc_end
▁heredoc_end
hex_integer_literal
▁hex_integer_literal
hex_literal
▁hex_literal
ident
▁ident
identifier
▁identifier
if_clause
▁if_clause
if_expression
▁if_expression
if_guard
▁if_guard
if_modifier
▁if_modifier
if_statement
▁if_statement
imageLiteral
▁imageLiteral
imaginary_literal
▁imaginary_literal
impl
▁impl
impl_item
▁impl_item
implements
▁implements
implements_clause
▁implements_clause
import
▁import
import_alias
▁import_alias
import_attribute
▁import_attribute
import_clause
▁import_clause
import_declaration
▁import_declaration
import_prefix
▁import_prefix
import_spec
▁import_spec
import_spec_list
▁import_spec_list
import_specifier
▁import_specifier
import_statement
▁import_statement
in_clause
▁in_clause
inc_statement
▁inc_statement
index_expression
▁index_expression
index_signature
▁index_signature
index_type_query
▁index_type_query
indirect
▁indirect
infer
▁infer
infer_type
▁infer_type
inferred_parameters
▁inferred_parameters
infix
▁infix
infix_expression
▁infix_expression
inheritance_modifier
▁inheritance_modifier
init
▁init
init_declaration
▁init_declaration
init_declarator
▁init_declarator
init_statement
▁init_statement
initializer_list
▁initializer_list
initializer_pair
▁initializer_pair
inline
▁inline
inner_attribute_item
▁inner_attribute_item
inout
▁inout
instance_variable
▁instance_variable
instanceof
▁instanceof
int
▁int
int_literal
▁int_literal
integer
▁integer
integer_literal
▁integer_literal
integral_type
▁integral_type
interface
▁interface
interface_body
▁interface_body
interface_type
▁interface_type
internal
▁internal
internal_module
▁internal_module
interpolation
▁interpolation
intersection_type
▁intersection_type
iota
▁iota
isize
▁isize
item
▁item
jsx_attribute
▁jsx_attribute
jsx_closing_element
▁jsx_closing_element
jsx_element
▁jsx_element
jsx_expression
▁jsx_expression
jsx_namespace_name
▁jsx_namespace_name
jsx_opening_element
▁jsx_opening_element
jsx_text
▁jsx_text
keyPath
▁keyPath
key_path_expression
▁key_path_expression
keyed_element
▁keyed_element
keyof
▁keyof
keyword_argument
▁keyword_argument
keyword_identifier
▁keyword_identifier
keyword_parameter
▁keyword_parameter
keyword_pattern
▁keyword_pattern
keyword_separator
▁keyword_separator
label
▁label
label_name
▁label_name
labeled_statement
▁labeled_statement
lambda
▁lambda
lambda_declarator
▁lambda_declarator
lambda_expression
▁lambda_expression
lambda_function_type
▁lambda_function_type
lambda_literal
▁lambda_literal
lambda_parameter
▁lambda_parameter
lambda_parameters
▁lambda_parameters
lambda_specifier
▁lambda_specifier
lazy
▁lazy
left_assignment_list
▁left_assignment_list
let
▁let
let_chain
▁let_chain
let_condition
▁let_condition
let_declaration
▁let_declaration
lexical_declaration
▁lexical_declaration
lifetime
▁lifetime
lifetime_parameter
▁lifetime_parameter
line
▁line
line_str_text
▁line_str_text
line_string_literal
▁line_string_literal
list
▁list
list_comprehension
▁list_comprehension
list_pattern
▁list_pattern
list_splat
▁list_splat
list_splat_pattern
▁list_splat_pattern
literal
▁literal
literal_element
▁literal_element
literal_suffix
▁literal_suffix
literal_type
▁literal_type
literal_value
▁literal_value
long
▁long
lookup_type
▁lookup_type
loop
▁loop
loop_expression
▁loop_expression
macro_declaration
▁macro_declaration
macro_definition
▁macro_definition
macro_invocation
▁macro_invocation
macro_rule
▁macro_rule
macro_type_specifier
▁macro_type_specifier
make
▁make
map
▁map
map_type
▁map_type
mapped_type_clause
▁mapped_type_clause
marker_annotation
▁marker_annotation
match
▁match
match_arm
▁match_arm
match_block
▁match_block
match_expression
▁match_expression
match_pattern
▁match_pattern
match_statement
▁match_statement
member_expression
▁member_expression
member_modifier
▁member_modifier
member_type
▁member_type
meta
▁meta
meta_property
▁meta_property
metatype
▁metatype
metavariable
▁metavariable
method
▁method
method_declaration
▁method_declaration
method_definition
▁method_definition
method_elem
▁method_elem
method_invocation
▁method_invocation
method_parameters
▁method_parameters
method_reference
▁method_reference
method_signature
▁method_signature
mod
▁mod
mod_item
▁mod_item
modifiers
▁modifiers
modify_specifier
▁modify_specifier
module
▁module
module_body
▁module_body
module_declaration
▁module_declaration
module_directive
▁module_directive
module_name
▁module_name
module_partition
▁module_partition
move
▁move
ms_based_modifier
▁ms_based_modifier
ms_call_modifier
▁ms_call_modifier
ms_declspec_modifier
▁ms_declspec_modifier
ms_pointer_modifier
▁ms_pointer_modifier
ms_restrict_modifier
▁ms_restrict_modifier
multi_line_str_text
▁multi_line_str_text
multiline_comment
▁multiline_comment
mut
▁mut
mut_pattern
▁mut_pattern
mutable
▁mutable
mutable_specifier
▁mutable_specifier
mutating
▁mutating
mutation_modifier
▁mutation_modifier
named_expression
▁named_expression
named_imports
▁named_imports
namespace
▁namespace
namespace_definition
▁namespace_definition
namespace_export
▁namespace_export
namespace_identifier
▁namespace_identifier
namespace_import
▁namespace_import
native
▁native
navigation_suffix
▁navigation_suffix
negated_type
▁negated_type
negative_literal
▁negative_literal
nested_identifier
▁nested_identifier
never
▁never
never_type
▁never_type
new
▁new
new_declarator
▁new_declarator
new_expression
▁new_expression
next
▁next
next_command
▁next_command
nil
▁nil
noexcept
▁noexcept
non_null_expression
▁non_null_expression
none
▁none
nonisolated
▁nonisolated
nonlocal
▁nonlocal
nonlocal_statement
▁nonlocal_statement
nonmutating
▁nonmutating
noreturn
▁noreturn
not_eq
▁not_eq
not_operator
▁not_operator
null
▁null
null_literal
▁null_literal
nullptr
▁nullptr
number
▁number
number_literal
▁number_literal
object
▁object
object_pattern
▁object_pattern
object_type
▁object_type
oct_literal
▁oct_literal
offsetof
▁offsetof
offsetof_expression
▁offsetof_expression
opaque_type
▁opaque_type
open
▁open
opens
▁opens
operator
▁operator
operator_assignment
▁operator_assignment
operator_cast
▁operator_cast
operator_declaration
▁operator_declaration
operator_name
▁operator_name
optional
▁optional
optional_chain
▁optional_chain
optional_parameter
▁optional_parameter
optional_type
▁optional_type
or_eq
▁or_eq
or_pattern
▁or_pattern
os
▁os
override
▁override
override_modifier
▁override_modifier
ownership_modifier
▁ownership_modifier
package
▁package
package_clause
▁package_clause
package_declaration
▁package_declaration
package_identifier
▁package_identifier
pair
▁pair
pair_pattern
▁pair_pattern
param
▁param
parameter
▁parameter
parameter_list
▁parameter_list
parameter_modifier
▁parameter_modifier
parameter_modifiers
▁parameter_modifiers
parameters
▁parameters
parenthesized_type
▁parenthesized_type
parenthesized_unary
▁parenthesized_unary
pass
▁pass
pass_statement
▁pass_statement
pat
▁pat
path
▁path
pattern
▁pattern
pattern_list
▁pattern_list
permits
▁permits
playground_literal
▁playground_literal
pointer_declarator
▁pointer_declarator
pointer_expression
▁pointer_expression
pointer_type
▁pointer_type
positional_separator
▁positional_separator
postfix
▁postfix
postfix_expression
▁postfix_expression
precedencegroup
▁precedencegroup
predefined_type
▁predefined_type
prefix
▁prefix
prefix_expression
▁prefix_expression
preproc_arg
▁preproc_arg
preproc_call
▁preproc_call
preproc_def
▁preproc_def
preproc_defined
▁preproc_defined
preproc_directive
▁preproc_directive
preproc_elif
▁preproc_elif
preproc_elifdef
▁preproc_elifdef
preproc_else
▁preproc_else
preproc_function_def
▁preproc_function_def
preproc_if
▁preproc_if
preproc_ifdef
▁preproc_ifdef
preproc_include
▁preproc_include
preproc_params
▁preproc_params
primary_expression
▁primary_expression
primary_type
▁primary_type
primitive_type
▁primitive_type
print
▁print
print_statement
▁print_statement
private
▁private
program
▁program
property
▁property
property_declaration
▁property_declaration
property_identifier
▁property_identifier
property_modifier
▁property_modifier
property_signature
▁property_signature
protected
▁protected
protocol
▁protocol
protocol_body
▁protocol_body
protocol_declaration
▁protocol_declaration
provides
▁provides
pub
▁pub
public
▁public
pure_virtual_clause
▁pure_virtual_clause
qualified_identifier
▁qualified_identifier
qualified_type
▁qualified_type
raise
▁raise
raise_statement
▁raise_statement
range
▁range
range_clause
▁range_clause
range_expression
▁range_expression
range_pattern
▁range_pattern
rational
▁rational
raw
▁raw
raw_str_end_part
▁raw_str_end_part
raw_str_part
▁raw_str_part
raw_string_content
▁raw_string_content
raw_string_delimiter
▁raw_string_delimiter
raw_string_literal
▁raw_string_literal
readonly
▁readonly
readonly_type
▁readonly_type
real_literal
▁real_literal
receive_statement
▁receive_statement
receiver
▁receiver
receiver_parameter
▁receiver_parameter
record
▁record
record_declaration
▁record_declaration
record_pattern
▁record_pattern
record_pattern_body
▁record_pattern_body
redo
▁redo
ref
▁ref
ref_pattern
▁ref_pattern
ref_qualifier
▁ref_qualifier
reference_declarator
▁reference_declarator
reference_expression
▁reference_expression
reference_pattern
▁reference_pattern
reference_type
▁reference_type
reflect_expression
▁reflect_expression
regex
▁regex
regex_flags
▁regex_flags
regex_literal
▁regex_literal
regex_pattern
▁regex_pattern
register
▁register
relative_import
▁relative_import
removed_trait_bound
▁removed_trait_bound
repeat
▁repeat
require
▁require
required
▁required
required_parameter
▁required_parameter
requirement_seq
▁requirement_seq
requires
▁requires
requires_clause
▁requires_clause
requires_expression
▁requires_expression
requires_modifier
▁requires_modifier
rescue
▁rescue
rescue_modifier
▁rescue_modifier
rescue_modifier_arg
▁rescue_modifier_arg
resource
▁resource
rest_assignment
▁rest_assignment
rest_pattern
▁rest_pattern
rest_type
▁rest_type
restrict
▁restrict
retry
▁retry
return
▁return
return_command
▁return_command
return_expression
▁return_expression
return_statement
▁return_statement
ri
▁ri
rune_literal
▁rune_literal
satisfies
▁satisfies
satisfies_expression
▁satisfies_expression
scope_resolution
▁scope_resolution
scoped_identifier
▁scoped_identifier
scoped_use_list
▁scoped_use_list
sealed
▁sealed
seh_except_clause
▁seh_except_clause
seh_finally_clause
▁seh_finally_clause
seh_leave_statement
▁seh_leave_statement
seh_try_statement
▁seh_try_statement
select
▁select
select_statement
▁select_statement
selector
▁selector
selector_expression
▁selector_expression
self
▁self
self_expression
▁self_expression
self_parameter
▁self_parameter
send_statement
▁send_statement
sequence_expression
▁sequence_expression
set
▁set
set_comprehension
▁set_comprehension
setparam
▁setparam
setter
▁setter
setter_specifier
▁setter_specifier
shebang
▁shebang
shebang_line
▁shebang_line
short
▁short
signed
▁signed
simple_identifier
▁simple_identifier
simple_requirement
▁simple_requirement
simple_symbol
▁simple_symbol
singleton_class
▁singleton_class
singleton_method
▁singleton_method
sized_type_specifier
▁sized_type_specifier
sizeof
▁sizeof
sizeof_expression
▁sizeof_expression
slice
▁slice
slice_expression
▁slice_expression
slice_pattern
▁slice_pattern
slice_type
▁slice_type
source_file
▁source_file
special_literal
▁special_literal
splat_argument
▁splat_argument
splat_parameter
▁splat_parameter
splat_pattern
▁splat_pattern
splat_type
▁splat_type
splice_expression
▁splice_expression
splice_specifier
▁splice_specifier
spread_element
▁spread_element
spread_parameter
▁spread_parameter
statement
▁statement
statement_block
▁statement_block
statement_identifier
▁statement_identifier
statement_label
▁statement_label
statement_list
▁statement_list
statements
▁statements
static
▁static
static_assert
▁static_assert
static_initializer
▁static_initializer
static_item
▁static_item
stmt
▁stmt
str
▁str
str_escaped_char
▁str_escaped_char
strictfp
▁strictfp
string
▁string
string_array
▁string_array
string_content
▁string_content
string_end
▁string_end
string_fragment
▁string_fragment
string_interpolation
▁string_interpolation
string_literal
▁string_literal
string_start
▁string_start
struct
▁struct
struct_expression
▁struct_expression
struct_item
▁struct_item
struct_pattern
▁struct_pattern
struct_specifier
▁struct_specifier
struct_type
▁struct_type
subscript
▁subscript
subscript_designator
▁subscript_designator
subscript_expression
▁subscript_expression
subshell
▁subshell
super_expression
▁super_expression
super_interfaces
▁super_interfaces
superclass
▁superclass
swift
▁swift
switch
▁switch
switch_block
▁switch_block
switch_body
▁switch_body
switch_case
▁switch_case
switch_default
▁switch_default
switch_entry
▁switch_entry
switch_expression
▁switch_expression
switch_label
▁switch_label
switch_pattern
▁switch_pattern
switch_rule
▁switch_rule
switch_statement
▁switch_statement
symbol
▁symbol
symbol_array
▁symbol_array
synchronized
▁synchronized
system_lib_string
▁system_lib_string
target
▁target
targetEnvironment
▁targetEnvironment
template
▁template
template_declaration
▁template_declaration
template_expression
▁template_expression
template_function
▁template_function
template_method
▁template_method
template_string
▁template_string
template_type
▁template_type
ternary_expression
▁ternary_expression
test_pattern
▁test_pattern
then
▁then
this_type
▁this_type
throw
▁throw
throw_keyword
▁throw_keyword
throw_specifier
▁throw_specifier
throw_statement
▁throw_statement
throws
▁throws
token_repetition
▁token_repetition
token_tree
▁token_tree
token_tree_pattern
▁token_tree_pattern
trailing_return_type
▁trailing_return_type
trait
▁trait
trait_bounds
▁trait_bounds
trait_item
▁trait_item
transient
▁transient
transitive
▁transitive
translation_unit
▁translation_unit
true
▁true
try
▁try
try_block
▁try_block
try_expression
▁try_expression
try_operator
▁try_operator
try_statement
▁try_statement
tt
▁tt
tuple
▁tuple
tuple_expression
▁tuple_expression
tuple_pattern
▁tuple_pattern
tuple_struct_pattern
▁tuple_struct_pattern
tuple_type
▁tuple_type
tuple_type_item
▁tuple_type_item
ty
▁ty
type
▁type
type_alias
▁type_alias
type_alias_statement
▁type_alias_statement
type_annotation
▁type_annotation
type_arguments
▁type_arguments
type_assertion
▁type_assertion
type_binding
▁type_binding
type_bound
▁type_bound
type_case
▁type_case
type_cast_expression
▁type_cast_expression
type_constraint
▁type_constraint
type_constraints
▁type_constraints
type_conversion
▁type_conversion
type_declaration
▁type_declaration
type_definition
▁type_definition
type_descriptor
▁type_descriptor
type_elem
▁type_elem
type_identifier
▁type_identifier
type_item
▁type_item
type_list
▁type_list
type_modifiers
▁type_modifiers
type_pack_expansion
▁type_pack_expansion
type_parameter
▁type_parameter
type_parameter_list
▁type_parameter_list
type_parameter_pack
▁type_parameter_pack
type_parameters
▁type_parameters
type_pattern
▁type_pattern
type_predicate
▁type_predicate
type_qualifier
▁type_qualifier
type_query
▁type_query
type_requirement
▁type_requirement
type_spec
▁type_spec
type_specifier
▁type_specifier
typealias
▁typealias
typed_parameter
▁typed_parameter
typedef
▁typedef
typename
▁typename
typeof
▁typeof
unary
▁unary
unary_expression
▁unary_expression
unary_operator
▁unary_operator
unavailable
▁unavailable
undef
▁undef
undefined
▁undefined
underscore_pattern
▁underscore_pattern
uninterpreted
▁uninterpreted
union
▁union
union_item
▁union_item
union_pattern
▁union_pattern
union_specifier
▁union_specifier
union_type
▁union_type
unique
▁unique
unit_expression
▁unit_expression
unit_type
▁unit_type
unknown
▁unknown
unless_guard
▁unless_guard
unless_modifier
▁unless_modifier
unowned
▁unowned
unsafe
▁unsafe
unsafe_block
▁unsafe_block
unsigned
▁unsigned
until_modifier
▁until_modifier
update_expression
▁update_expression
use
▁use
use_as_clause
▁use_as_clause
use_bounds
▁use_bounds
use_declaration
▁use_declaration
use_list
▁use_list
use_site_target
▁use_site_target
use_wildcard
▁use_wildcard
user_defined_literal
▁user_defined_literal
user_type
▁user_type
uses
▁uses
using
▁using
using_declaration
▁using_declaration
usize
▁usize
value_argument
▁value_argument
value_argument_label
▁value_argument_label
value_arguments
▁value_arguments
value_pack_expansion
▁value_pack_expansion
value_parameter_pack
▁value_parameter_pack
var
▁var
var_declaration
▁var_declaration
var_spec
▁var_spec
var_spec_list
▁var_spec_list
variable_declaration
▁variable_declaration
variable_declarator
▁variable_declarator
variadic_argument
▁variadic_argument
variadic_declarator
▁variadic_declarator
variadic_parameter
▁variadic_parameter
virtual
▁virtual
virtual_specifier
▁virtual_specifier
vis
▁vis
visibility_modifier
▁visibility_modifier
void
▁void
void_type
▁void_type
volatile
▁volatile
weak
▁weak
where_clause
▁where_clause
where_keyword
▁where_keyword
where_predicate
▁where_predicate
while_expression
▁while_expression
while_modifier
▁while_modifier
while_statement
▁while_statement
wildcard
▁wildcard
wildcard_import
▁wildcard_import
wildcard_pattern
▁wildcard_pattern
willSet
▁willSet
willset_clause
▁willset_clause
willset_didset_block
▁willset_didset_block
with_clause
▁with_clause
with_item
▁with_item
with_statement
▁with_statement
xor
▁xor
xor_eq
▁xor_eq
yield
▁yield
yield_command
▁yield_command
yield_expression
▁yield_expression
yield_statement
▁yield_statement
size_t
▁size_t
ptrdiff_t
▁ptrdiff_t
int8_t
▁int8_t
int16_t
▁int16_t
int32_t
▁int32_t
int64_t
▁int64_t
uint8_t
▁uint8_t
uint16_t
▁uint16_t
uint32_t
▁uint32_t
uint64_t
▁uint64_t
malloc
▁malloc
free
▁free
calloc
▁calloc
realloc
▁realloc
memcpy
▁memcpy
memset
▁memset
printf
▁printf
fprintf
▁fprintf
sprintf
▁sprintf
scanf
▁scanf
fopen
▁fopen
fclose
▁fclose
fread
▁fread
fwrite
▁fwrite
wchar_t
▁wchar_t
int8
▁int8
int16
▁int16
int32
▁int32
int64
▁int64
uint
▁uint
uint8
▁uint8
uint16
▁uint16
uint32
▁uint32
uint64
▁uint64
uintptr
▁uintptr
rune
▁rune
float32
▁float32
float64
▁float64
complex64
▁complex64
complex128
▁complex128
error
▁error
len
▁len
cap
▁cap
append
▁append
copy
▁copy
panic
▁panic
recover
▁recover
fmt
▁fmt
Println
▁Println
Printf
▁Printf
Object
▁Object
String
▁String
Integer
▁Integer
Long
▁Long
Boolean
▁Boolean
Double
▁Double
Float
▁Float
Byte
▁Byte
Short
▁Short
Character
▁Character
System
▁System
ArrayList
▁ArrayList
HashMap
▁HashMap
LinkedList
▁LinkedList
Iterator
▁Iterator
Override
▁Override
dict
▁dict
bytes
▁bytes
cls
▁cls
proc
▁proc
attr_accessor
▁attr_accessor
attr_reader
▁attr_reader
attr_writer
▁attr_writer
include
▁include
extend
▁extend
to_s
▁to_s
i8
▁i8
i16
▁i16
i32
▁i32
i64
▁i64
i128
▁i128
u8
▁u8
u16
▁u16
u32
▁u32
u64
▁u64
u128
▁u128
f32
▁f32
f64
▁f64
Vec
▁Vec
Option
▁Option
Result
▁Result
Some
▁Some
Ok
▁Ok
Err
▁Err
Box
▁Box
Rc
▁Rc
Arc
▁Arc
BTreeMap
▁BTreeMap
Self
▁Self
Int
▁Int
Bool
▁Bool
Array
▁Array
Dictionary
▁Dictionary
Optional
▁Optional
Any
▁Any
AnyObject
▁AnyObject
Void
▁Void
rethrows
▁rethrows
Promise
▁Promise
Map
▁Map
Set
▁Set
Symbol
▁Symbol
RegExp
▁RegExp
ACTION
▁ACTION
ADJUST
▁ADJUST
ADVANCING
▁ADVANCING
AFTER
▁AFTER
ALL
▁ALL
ALPHABETIC
▁ALPHABETIC
ALPHABETIC_LOWER
▁ALPHABETIC_LOWER
ALPHABETIC_UPPER
▁ALPHABETIC_UPPER
ALPHANUMERIC
▁ALPHANUMERIC
ALPHANUMERIC_EDITED
▁ALPHANUMERIC_EDITED
ALSO
▁ALSO
AND
▁AND
AND_EQ
▁AND_EQ
AND_GE
▁AND_GE
AND_GT
▁AND_GT
AND_LE
▁AND_LE
AND_LT
▁AND_LT
AND_NE
▁AND_NE
ANY
▁ANY
ASCENDING
▁ASCENDING
ASSUME
▁ASSUME
ASSUMPTION
▁ASSUMPTION
ATTLIST
▁ATTLIST
AUTOMATIC
▁AUTOMATIC
AXIOM
▁AXIOM
AttDef
▁AttDef
AttValue
▁AttValue
AttlistDecl
▁AttlistDecl
Attribute
▁Attribute
BACKGROUND_COLOR
▁BACKGROUND_COLOR
BEFORE
▁BEFORE
BELL
▁BELL
BINARY_CHAR
▁BINARY_CHAR
BINARY_C_LONG
▁BINARY_C_LONG
BINARY_DOUBLE
▁BINARY_DOUBLE
BINARY_LONG
▁BINARY_LONG
BINARY_SHORT
▁BINARY_SHORT
BLANK_LINE
▁BLANK_LINE
BLANK_SCREEN
▁BLANK_SCREEN
BLINK
▁BLINK
BOOL
▁BOOL
BOOLEAN
▁BOOLEAN
BUILD
▁BUILD
BY
▁BY
CACHE
▁CACHE
CASE
▁CASE
CDATA
▁CDATA
CDSect
▁CDSect
CDStart
▁CDStart
CData
▁CData
CHARACTERS
▁CHARACTERS
CHOOSE
▁CHOOSE
CLASS_NAME
▁CLASS_NAME
CONCATENATE_FUNC
▁CONCATENATE_FUNC
CONSTANT
▁CONSTANT
CONSTANTS
▁CONSTANTS
COROLLARY
▁COROLLARY
CORRESPONDING
▁CORRESPONDING
CRT
▁CRT
CURRENT_DATE_FUNC
▁CURRENT_DATE_FUNC
CYCLE
▁CYCLE
Cdecl
▁Cdecl
CharData
▁CharData
CharRef
▁CharRef
Class
▁Class
Comment
▁Comment
DEF
▁DEF
DEFINE
▁DEFINE
DEFS
▁DEFS
DESCENDING
▁DESCENDING
DOCTYPE
▁DOCTYPE
DOMAIN
▁DOMAIN
DOWN
▁DOWN
DYNAMIC
▁DYNAMIC
DefaultDecl
▁DefaultDecl
ELEMENT
▁ELEMENT
ELSE
▁ELSE
EMPTY
▁EMPTY
ENABLED
▁ENABLED
END_ACCEPT
▁END_ACCEPT
END_ADD
▁END_ADD
END_CALL
▁END_CALL
END_COMPUTE
▁END_COMPUTE
END_DELETE
▁END_DELETE
END_DISPLAY
▁END_DISPLAY
END_DIVIDE
▁END_DIVIDE
END_EVALUATE
▁END_EVALUATE
END_IF
▁END_IF
END_MULTIPLY
▁END_MULTIPLY
END_PERFORM
▁END_PERFORM
END_READ
▁END_READ
END_RETURN
▁END_RETURN
END_REWRITE
▁END_REWRITE
END_SEARCH
▁END_SEARCH
END_START
▁END_START
END_STRING
▁END_STRING
END_SUBTRACT
▁END_SUBTRACT
END_UNSTRING
▁END_UNSTRING
END_WRITE
▁END_WRITE
ENTITIES
▁ENTITIES
ENTITY
▁ENTITY
ENUM
▁ENUM
ENV
▁ENV
EOL
▁EOL
EOS
▁EOS
ERASE
▁ERASE
ESCAPE
▁ESCAPE
ETag
▁ETag
EXCEPT
▁EXCEPT
EXCLUSIVE
▁EXCLUSIVE
EXTENDS
▁EXTENDS
EXTERNAL
▁EXTERNAL
EmptyElemTag
▁EmptyElemTag
EncName
▁EncName
EntityRef
▁EntityRef
EntityValue
▁EntityValue
Enumeration
▁Enumeration
ExternalID
▁ExternalID
FALLBACK
▁FALLBACK
FD
▁FD
FIELD
▁FIELD
FOREGROUND_COLOR
▁FOREGROUND_COLOR
FOREVER
▁FOREVER
Fastcall
▁Fastcall
Function
▁Function
GEDecl
▁GEDecl
GLOBAL
▁GLOBAL
HAVE
▁HAVE
HIDE
▁HIDE
HIGHLIGHT
▁HIGHLIGHT
HIGH_VALUE
▁HIGH_VALUE
IBInspectable
▁IBInspectable
IBOutlet
▁IBOutlet
ID
▁ID
IDREF
▁IDREF
IDREFS
▁IDREFS
IF
▁IF
IGNORE
▁IGNORE
IMP
▁IMP
IN
▁IN
INDEXED
▁INDEXED
INSTANCE
▁INSTANCE
INTERFACE
▁INTERFACE
Inf
▁Inf
KEY
▁KEY
LAMBDA
▁LAMBDA
LEMMA
▁LEMMA
LENGTH
▁LENGTH
LET
▁LET
LF
▁LF
LINE
▁LINE
LINES
▁LINES
LITERAL
▁LITERAL
LOCAL
▁LOCAL
LOCALE_DT_FUNC
▁LOCALE_DT_FUNC
LOCK
▁LOCK
LOWER_CASE_FUNC
▁LOWER_CASE_FUNC
LOWLIGHT
▁LOWLIGHT
LOW_VALUE
▁LOW_VALUE
MANUAL
▁MANUAL
MNEMONIC_NAME
▁MNEMONIC_NAME
MODULE
▁MODULE
MUTATION
▁MUTATION
Mixed
▁Mixed
NA
▁NA
NATIONAL
▁NATIONAL
NATIONAL_EDITED
▁NATIONAL_EDITED
NDATA
▁NDATA
NDataDecl
▁NDataDecl
NEGATIVE
▁NEGATIVE
NEW
▁NEW
NMTOKEN
▁NMTOKEN
NMTOKENS
▁NMTOKENS
NO
▁NO
NONE
▁NONE
NOT
▁NOT
NOTATION
▁NOTATION
NOT_ALPHABETIC
▁NOT_ALPHABETIC
NOT_ALPHABETIC_LOWER
▁NOT_ALPHABETIC_LOWER
NOT_ALPHABETIC_UPPER
▁NOT_ALPHABETIC_UPPER
NOT_CLASS_NAME
▁NOT_CLASS_NAME
NOT_NEGATIVE
▁NOT_NEGATIVE
NOT_NUMERIC
▁NOT_NUMERIC
NOT_OMITTED
▁NOT_OMITTED
NOT_POSITIVE
▁NOT_POSITIVE
NOT_ZERO
▁NOT_ZERO
NUMERIC
▁NUMERIC
NUMERIC_EDITED
▁NUMERIC_EDITED
NUMVALC_FUNC
▁NUMVALC_FUNC
NaN
▁NaN
Name
▁Name
Nat
▁Nat
Newline
▁Newline
Nmtoken
▁Nmtoken
NotationDecl
▁NotationDecl
NotationType
▁NotationType
OBJECT
▁OBJECT
OBVIOUS
▁OBVIOUS
OMITTED
▁OMITTED
ONLY
▁ONLY
OR
▁OR
OR_EQ
▁OR_EQ
OR_GE
▁OR_GE
OR_GT
▁OR_GT
OR_LE
▁OR_LE
OR_LT
▁OR_LT
OR_NE
▁OR_NE
OTHER
▁OTHER
OVERLINE
▁OVERLINE
PARAGRAPH
▁PARAGRAPH
PEDecl
▁PEDecl
PERFORM
▁PERFORM
PEReference
▁PEReference
PI
▁PI
PICK
▁PICK
PITarget
▁PITarget
POSITION
▁POSITION
POSITIVE
▁POSITIVE
PRINTER
▁PRINTER
PROCEDURE
▁PROCEDURE
PROCEED
▁PROCEED
PROGRAM
▁PROGRAM
PROOF
▁PROOF
PROPOSITION
▁PROPOSITION
PROVE
▁PROVE
PSL_Actual_Parameter
▁PSL_Actual_Parameter
PSL_Any_Type
▁PSL_Any_Type
PSL_Assert_Directive
▁PSL_Assert_Directive
PSL_Assume_Directive
▁PSL_Assume_Directive
PSL_Boolean
▁PSL_Boolean
PSL_Braced_SERE
▁PSL_Braced_SERE
PSL_Clocked_SERE
▁PSL_Clocked_SERE
PSL_Compound_SERE
▁PSL_Compound_SERE
PSL_Count
▁PSL_Count
PSL_Cover_Directive
▁PSL_Cover_Directive
PSL_Expression
▁PSL_Expression
PSL_Formal_Parameter
▁PSL_Formal_Parameter
PSL_HDL_Type
▁PSL_HDL_Type
PSL_Identifier
▁PSL_Identifier
PSL_Index_Range
▁PSL_Index_Range
PSL_Inherit_Spec
▁PSL_Inherit_Spec
PSL_Number
▁PSL_Number
PSL_Repeated_SERE
▁PSL_Repeated_SERE
PSL_Simple_SERE
▁PSL_Simple_SERE
PSL_Type_Class
▁PSL_Type_Class
PSL_Union_Expression
▁PSL_Union_Expression
PSL_VMode
▁PSL_VMode
PSL_VProp
▁PSL_VProp
PSL_VUnit
▁PSL_VUnit
PSL_Value_Set
▁PSL_Value_Set
PUBLIC
▁PUBLIC
PseudoAtt
▁PseudoAtt
PseudoAttValue
▁PseudoAttValue
PubidLiteral
▁PubidLiteral
PublicID
▁PublicID
QED
▁QED
QUERY
▁QUERY
QUOTE
▁QUOTE
RANDOM
▁RANDOM
READ
▁READ
RECORD
▁RECORD
RECURSIVE
▁RECURSIVE
REEL
▁REEL
RELATIVE
▁RELATIVE
REMOVAL
▁REMOVAL
REVERSE_FUNC
▁REVERSE_FUNC
REVERSE_VIDEO
▁REVERSE_VIDEO
REWIND
▁REWIND
RIGHT
▁RIGHT
ROUNDED
▁ROUNDED
Real
▁Real
SCALAR
▁SCALAR
SCHEMA
▁SCHEMA
SCROLL
▁SCROLL
SD
▁SD
SECTION
▁SECTION
SEL
▁SEL
SEQUENTIAL
▁SEQUENTIAL
SF_
▁SF_
SIGNED
▁SIGNED
SIZE
▁SIZE
SOURCE
▁SOURCE
SPACE
▁SPACE
STANDARD
▁STANDARD
STATE
▁STATE
STRING
▁STRING
STag
▁STag
SUBSCRIPTION
▁SUBSCRIPTION
SUBSET
▁SUBSET
SUBSTITUTE_CASE_FUNC
▁SUBSTITUTE_CASE_FUNC
SUBSTITUTE_FUNC
▁SUBSTITUTE_FUNC
SUFFICES
▁SUFFICES
SYSTEM
▁SYSTEM
Stdcall
▁Stdcall
StringType
▁StringType
StyleSheetPI
▁StyleSheetPI
SystemLiteral
▁SystemLiteral
TAKE
▁TAKE
TEMPORAL
▁TEMPORAL
THEN
▁THEN
THEOREM
▁THEOREM
THRU
▁THRU
TO
▁TO
TOK_NULL
▁TOK_NULL
TRIM_FUNCTION
▁TRIM_FUNCTION
Thiscall
▁Thiscall
TokenizedType
▁TokenizedType
UL
▁UL
UNCHANGED
▁UNCHANGED
UNDERLINE
▁UNDERLINE
UNION
▁UNION
UNIT
▁UNIT
UNSIGNED
▁UNSIGNED
UP
▁UP
UPON
▁UPON
UPPER_CASE_FUNC
▁UPPER_CASE_FUNC
URI
▁URI
USE
▁USE
VARIABLE
▁VARIABLE
VARIABLES
▁VARIABLES
VARYING
▁VARYING
VersionNum
▁VersionNum
WF_
▁WF_
WHEN_COMPILED_FUNC
▁WHEN_COMPILED_FUNC
WITH
▁WITH
WITNESS
▁WITNESS
WORD
▁WORD
WORDS
▁WORDS
XMLDecl
▁XMLDecl
XmlModelPI
▁XmlModelPI
ZERO
▁ZERO
ZEROS
▁ZEROS
_2nd_expansion
_ACCEPT
_ADD
_AFTER
_ALPHABET
_ALTERNATE
_ANY
_AS
_AT
_AUTHOR
_Atomic
_AttType
_BEFORE
_BY
_CALL
_CHARACTERS
_CLASS
_CLOSE_NOFEED
_COMMON
_CONFIGURATION
_CONSTANT
_CONTROL
_CONVERTING
_CORE_INDEX
_CRT
_DATA
_DATE_COMPILED
_DATE_WRITTEN
_DEBUGGING
_DECLARATIVES
_DELETE
_DELIMITER
_DISPLAY
_DIVIDE
_DIVISION
_DeclSep
_ELSE
_END
_END_FUNCTION
_END_PROGRAM
_ENTRY
_ENVIRONMENT
_ERROR
_EntityDecl
_EnumeratedType
_Eq
_FILE
_FILE_CONTROL
_FOR
_FORMS_OVERLAY
_FROM
_FUNCTION_ID
_GIVING
_GLOB_STAR
_HASH_PERCENT
_IDENTIFICATION
_IF
_IGNORING
_INITIAL
_INPUT
_INPUT_OUTPUT
_INSTALLATION
_INTO
_INVALID
_IS
_I_O_CONTROL
_KW_FOR
_KW_USE
_LABEL
_LENGTH
_LINKAGE
_LITERAL
_LOCALE
_LOCAL_STORAGE
_LOCK
_MEMORY
_MERGE
_MODE
_MOVE
_MULTIPLY
_NEXT
_NO
_NONASSOC
_NOT
_OBJECT_COMPUTER
_OCCURS
_OF
_ON
_OUTPUT
_PERFORM
_PERLY_BRACE_OPEN
_PERLY_COMMA
_PERLY_HEREDOC
_PERLY_SEMICOLON
_PHASE_NAME
_POINTER
_PROCEDURE
_PROGRAM_ID
_PSL_Boolean
_PSL_Compound_SERE
_PSL_FL_Property
_PSL_Identifier
_PSL_Property
_PSL_Range
_PSL_SERE
_PSL_Sequence
_PSL_Value_Range
_QQSTRING
_READ
_RECORD
_REDEFINES
_RELEASE
_REMAINDER
_RENAMES
_REPORTING
_REPOSITORY
_RETURN
_RETURNING
_REWRITE
_RUN
_Reference
_S
_SCREEN
_SECTION
_SECURITY
_SENTENCE
_SIZE
_SORT
_SOURCE_COMPUTER
_SPECIAL_NAMES
_START
_STATUS
_STOP
_SUBTRACT
_SUB_AMPER
_THRU
_TIMES
_TO
_TRACKS
_UNSIGNED
_UNSTRING
_UNTIL
_UPON_COMMAND_LINE
_VALUE
_VersionInfo
_WHEN
_WITH
_WORD
_WORKING_STORAGE
_WRITE
__asm
__launch_bounds__
__makeref
__reftype
__refvalue
_abstract_literal
_abstract_type
_ac_value_list
_accept_body
_actual_argument
_actual_part
_add_body
_add_op
_after
_alnum_or_id
_alphabet_lits
_annotated_type
_anonymous_dot
_any_argument
_any_prefix_bang
_any_prefix_dot
_any_prefix_tilde
_any_tight_dot
_apostrophe
_argument_item
_argument_type
_arity_value
_array
_array_base_type
_array_pattern_key
_arrow
_arrow_then_type
_as_operator
_aspect_definition
_aspect_mark
_assign_value
_assignment_operator
_association_element
_asy_environment_end
_atom
_att_name_list
_autocmd
_autocmd_pattern
_await_end_tag
_await_start_tag
_b_acr_bgn
_b_als_bgn
_b_blk_seq_spc
_b_flw_map_bgn
_b_flw_seq_bgn
_b_generator_op
_b_sgl_flw_val_blk
_b_sgl_prp
_bang_filter_bangs
_bang_filter_command
_bar
_bare_list_lit
_bare_type
_barestmt
_bareword
_base_method_def
_basic_expression
_basic_value
_begin_proof_step
_bgn_imp_doc
_bin_identifier
_bind_instantiation
_bind_matches
_binding_pattern
_bindpatterns
_bit_expr
_bit_type
_bitshift_operator
_blank
_blank_line
_blk_imp_itm_tal
_block_close
_block_comment_end
_block_comment_start
_block_form
_block_identifier
_block_string_end
_block_string_start
_botright
_br_acr_bgn
_br_als_bgn
_br_blk_map
_br_blk_seq
_br_flw_jsl_ann_par
_br_flw_jsl_val
_br_flw_map_bgn
_br_flw_njl_ann_par
_br_flw_njl_val_flw
_br_flw_seq_bgn
_br_prp
_br_sgl_flw_val_blk
_br_sgl_prp
_brace_end_zw
_bracket_close
_bracket_form
_bracket_open
_browse
_bullet
_c_expression
_c_struct_expression
_c_word
_call_argument_list
_call_arguments
_call_or_atom
_callable_expression
_capture_expression
_carrow
_case_of
_case_pattern
_catch_pat
_catch_tag
_choice
_class_const_element
_class_constructor
_class_definition
_class_expression
_class_field
_class_modifiers
_class_type
_class_type_body
_class_type_name
_class_typed
_close_block
_close_parenthesis
_cmd_brace_close
_cmd_brace_open
_cmd_layout_start_if
_cmd_separator
_cmd_texp_end
_cmd_texp_start
_colon2
_comma
_comp_op
_comparator
_component_name
_con
_concat
_concat_list
_concatable
_concept_parameter
_cond_assoc_tyinst
_cond_context
_cond_data_infix
_cond_dotdot
_cond_infix
_cond_minus
_cond_prefix_at
_cond_prefix_bang
_cond_prefix_dot
_cond_prefix_percent
_cond_prefix_tilde
_cond_qual_dot
_cond_qualified_op
_cond_quote_start
_cond_tight_at
_cond_tight_bang
_cond_tight_dot
_cond_tight_tilde
_conditional_body
_conditionals
_conop
_cons
_const_element
_const_tag
_constant
_constant_segment
_constructor
_constructor_name
_container_members
_context_inline
_cr_clause_or_macro
_cr_clauses
_cross_item
_curly_close
_current_state
_data
_datafam
_debug_tag
_declClass
_dedent
_deferred
_definition
_delcommand
_deprecated_details
_desc
_descendant_operator
_directive
_discrete_range
_display_body
_divide_body
_do
_do_keyword
_do_stmt
_doctype
_dollar_ident_zw
_dot_generic_head
_drs_doc
_each_end_tag
_each_start_tag
_echohl
_effect_pattern
_element
_element_association
_element_constraint
_ellipsis_operator
_else_if_tag
_else_tag
_elseif
_end_ident
_end_of_statement
_end_tag_name
_enum_block
_enum_statement
_enumeration_literal
_env_key
_erroneous_end_name
_eval
_exp
_exp_doc
_exp_list
_exp_tuple_elems
_expansion_body
_expansion_word
_export
_exportable
_expr
_expr_calc
_expr_max
_expr_op
_expr_simple
_expr_term
_expression_block
_expression_list
_expression_or_range
_exprs
_exprs_in_parens
_extent_specifier
_external
_external_and_static
_external_pathname
_factor
_field_name
_field_sep
_field_type
_filename_marker
_filetype_immediate
_final_var_or_type
_float_literal
_flw_map_tal
_flw_seq_tal
_for_body
_for_loop_parts
_for_prefix
_for_step_assignment
_forall_body
_foreach_value
_form
_formal_part
_format_token
_full_enum_def
_fullstmt
_fun_arrow
_fun_arrow_prec
_func_call
_func_type
_function_body
_function_call_start
_function_expansion
_function_head
_function_name
_function_type_tails
_generator_op
_genericName
_generic_call_suffix
_genvar_expression
_get
_given_conditional
_glsl_begin
_glsl_end
_group_constituent
_group_template
_guard
_guarded_pattern
_guards
_hash_key
_here_string_body
_heredoc_delimiter
_hl_attr_list
_hl_term_list
_html_block_1_end
_html_tag
_id_or_lit
_id_or_lit_or_func
_ident
_identifier
_identifier_list
_identifier_or_new
_identifier_or_op
_ie_entity
_if
_if_body
_if_branch
_if_condition
_if_end_tag
_if_null_expression
_if_prefix
_if_start_tag
_immediate_brace
_immediate_bracket
_immediate_encoding
_immediate_paren
_imp_doc
_implements
_import
_import_clause
_import_declaration
_import_dot
_import_name
_importable
_in_of
_in_operator
_include_detail
_infix_expression
_infix_operator
_infix_operator_0
_infix_operator_1
_infix_operator_10l
_infix_operator_10r
_infix_operator_2
_infix_operator_3
_infix_operator_4
_infix_operator_5
_infix_operator_6
_infix_operator_7
_infix_operator_8
_infix_operator_9
_infix_type_choice
_inline_pair
_inline_value
_inner_declaration
_inner_string
_inst_adt
_inst_newtype
_instruction
_interp_arrow
_inv
_iterator_type
_join_body
_join_header
_juxt_argument_list
_juxtable_expression
_key
_key_end_tag
_key_start_tag
_keycode_in
_keyword
_kind_annotation
_ktype
_ktype_param
_kwd_marker
_label
_label_arg
_label_name
_lambda_parameter
_larrow
_late_builtin
_layout_end
_layout_terminator
_lazy_and_operator
_lazy_or_operator
_lc_expr
_let_operator
_lexical_identifier
_lib_statement
_line_ending_or_eof
_linear_fun_arrow
_list_item_content
_list_notation_items
_list_op
_listexpr
_literalInt
_locale_dt_args
_logical_and_pattern
_loop_body
_loops
_macro_delimiter_end
_macro_name
_macro_signature
_macro_start
_map_expr_base
_map_field_op
_map_grep
_map_lhs
_map_pattern_entry
_map_rhs
_mapping_key
_markupdecl
_mat_prefix
_match_cases
_matches
_member_defns
_member_name
_members
_membership_choice
_method_call_root
_method_prototype
_modid
_modifier_if_keyword
_modport_tf_port
_module_body
_module_elem
_module_expression
_module_identifier
_module_name
_module_type
_module_type_name
_module_typed
_move_body
_mult_op
_multiply_body
_name_list
_nameless_parameter
_native
_net_type_identifier
_new_builtin
_new_line
_new_variable
_newline_not_aligned
_newtype
_nl
_no
_no_space
_node
_non_case_statement
_nullable_base_type
_number
_number_set
_numvalc_args
_object_definition
_op
_op_or_expr
_open_parenthesis
_operatorName
_operator_minus
_option_name
_optional_semi
_ordering
_outdent
_outer_pattern
_pair_operator
_param_list
_param_type
_parameter
_parameter_list
_parameter_type
_paren_close
_paren_open
_part_select_range
_partial_pathname
_pat
_pat_apply_arg
_pat_texp
_pat_tuple_elems
_pattern_branch
_pattern_concat
_pattern_field
_pattern_marker
_pcal_c_stmt
_pcal_p_stmt
_pcal_p_stmts
_pcal_with_vars
_pi_content
_pipe_left_operator
_pipe_right_operator
_pipe_table_start
_plus_cmd_arg
_plus_plus_opt_bad
_pointer_base_type
_pointer_star
_polymorphic_type
_polymorphic_typed
_power_operator
_prefix_at
_prefix_expression
_prefix_op
_prefix_operator
_prefix_percent
_primary_expression
_primary_pattern
_primitive_value_set
_print_args
_printable
_proc_type
_procedure_binding
_proof
_proper_body
_property_actual_arg
_qconid
_qconsym
_qsym
_qtyconid
_qualified_arrow
_qualifying_module
_query
_query_body
_quoted_string
_quotelike_begin
_quotelike_end
_qvarid
_qvarsym
_r_acr_bgn
_r_acr_ctn
_r_als_bgn
_r_als_ctn
_r_dir_tag_hdl
_r_dir_tag_pfx
_r_dir_yml_ver
_r_flw_jsl_ann_par
_r_flw_jsl_val
_r_flw_map_bgn
_r_flw_njl_ann_par
_r_flw_njl_val_flw
_r_flw_sep_bgn
_r_flw_seq_bgn
_r_prp
_r_sgl_dqt_str
_r_sgl_flw_col_itm
_r_sgl_flw_jsl_val
_r_sgl_flw_map
_r_sgl_flw_seq
_r_sgl_flw_val_blk
_r_sgl_pln_blk
_r_sgl_pln_flw
_r_sgl_prp
_r_sgl_sqt_str
_range
_range_designator
_rational_operator
_raw_string
_raw_string_start
_real_expression
_real_string
_record_expr_base
_record_fields
_record_tuple
_records
_ref
_refinement
_regex_no_slash
_regex_no_space
_regular_if_keyword
_relational_pattern
_remote_dot
_render_tag
_rule
_rule_marker
_s_dir_tag_bgn
_s_dir_yml_bgn
_s_doc_end
_scoped_base_type
_selector
_semi_statement_list
_separator
_separator_first
_seq_input_list
_sequence_actual_arg
_sequence_expression
_sequence_identifier
_sequence_match_item
_set
_sgl_flw_map_tal
_sgl_flw_seq_tal
_sigil_operator
_sign_name
_signal_name
_signature_item
_signature_scalar
_signature_varname
_signed_constant
_simple_all_value
_simple_class_type
_simple_expression
_simple_name
_simple_value
_simple_variable
_snippet_end_tag
_snippet_start_tag
_soft_line_break
_sort_body
_spec_def
_spec_fun
_specification_parts
_splattable_type
_splice_dollars
_splice_exp
_start_of_symbol
_start_of_tuple_type
_start_tag_name
_statement_separated
_static
_static_parameter
_stop_at_comment
_stop_at_endbrace
_stop_at_endparen
_str
_string_content
_string_like
_string_literal
_structure_item
_subs_ref
_subscript_expr
_substitute
_subtract_body
_switch_case_exp
_symbol
_syn_hl_pattern
_syn_pattern_offset
_tab
_tag_spec
_tag_value
_target
_target_x
_target_x_list
_term
_then
_then_expression
_then_tag
_throw
_tight_at
_tight_dot
_times_operator
_tokCompareOp
_tokIdentVariable
_tokMathHigh
_tokMathLow
_tokUpdateOp
_topleft
_transfer_items
_tricky_list
_trigger_error
_trim_args
_trivia_raw_env_asy
_try
_try_catch
_tuple_label
_tuple_type_rhs
_tyconid
_tyconids
_tyconops
_tycons
_tyfam
_tyops
_type_annotation
_type_apply_arg
_type_constrained
_type_constructor
_type_def
_type_definition
_type_defn_body
_type_head
_type_infix
_type_instance
_type_instance_head
_type_name
_type_not_function
_type_not_void
_type_not_void_list
_type_param
_type_parameter
_type_tuple_elems
_typed
_typedef
_typeof_expression
_typeref
_types
_udp_body
_udp_identifier
_unary_double_star
_unary_expression
_unary_star
_unboxed_bar
_unboxed_close
_unboxed_open
_union_expression
_union_expressions
_unit
_val_property_defn
_value
_value_name
_value_pattern
_var
_var_data_type
_var_indirob
_var_or_type
_vararg_parameter
_variable_declarator
_variable_definition
_variable_identifier
_variable_marker
_variable_port_type
_variable_reference
_varsym
_vec_prefix
_version
_vertical
_virtual_end_decl
_virtual_end_section
_when_clause
_while
_while_prefix
_whitespace
_with_body
_x
_yul_expression
_yul_literal
abort
▁abort
abort_statement
▁abort_statement
aboveleft_statement
▁aboveleft_statement
abs
▁abs
absolute_pathname
▁absolute_pathname
abstract_definition
▁abstract_definition
abstract_family
▁abstract_family
abstract_method_def
▁abstract_method_def
abstract_modifier
▁abstract_modifier
abstract_specifier
▁abstract_specifier
accent_quoted
▁accent_quoted
accept_alternative
▁accept_alternative
accept_statement
▁accept_statement
access_call
▁access_call
access_definition
▁access_definition
access_mode
▁access_mode
access_mode_clause
▁access_mode_clause
access_modifier
▁access_modifier
access_op
▁access_op
access_qualifier
▁access_qualifier
accessor_declaration
▁accessor_declaration
accessor_list
▁accessor_list
accumulation_clause
▁accumulation_clause
accumulation_verb
▁accumulation_verb
acronym_definition
▁acronym_definition
acronym_reference
▁acronym_reference
across
▁across
action_block
▁action_block
active_pattern
▁active_pattern
actual
▁actual
add
▁add
add_exp
▁add_exp
add_instruction
▁add_instruction
add_operator
▁add_operator
add_statement
▁add_statement
additive_operator
▁additive_operator
addmod
▁addmod
address
▁address
address_space
▁address_space
addrspace
▁addrspace
adjoint_expression
▁adjoint_expression
after_block
▁after_block
aggregate
▁aggregate
alarm
▁alarm
algorithm
▁algorithm
alias_name
▁alias_name
alias_pattern
▁alias_pattern
alias_qualified_name
▁alias_qualified_name
aliased_type
▁aliased_type
align
▁align
all_map_to
▁all_map_to
all_names
▁all_names
allocate_statement
▁allocate_statement
allocator
▁allocator
allowzero
▁allowzero
alphabet_literal
▁alphabet_literal
alter_option
▁alter_option
alter_statement
▁alter_statement
alternation
▁alternation
alternative
▁alternative
alternatives
▁alternatives
always
▁always
always_construct
▁always_construct
always_keyword
▁always_keyword
ambiguous_name
▁ambiguous_name
amp
▁amp
ampamp
▁ampamp
anchor
▁anchor
anchor_name
▁anchor_name
and_operator
▁and_operator
and_pattern
▁and_pattern
andalso
▁andalso
ann_type
▁ann_type
ann_var
▁ann_var
annotated
▁annotated
annotated_lambda
▁annotated_lambda
annotation_def
▁annotation_def
annotations
▁annotations
anon_fn_lit
▁anon_fn_lit
anon_record_type
▁anon_record_type
anon_type_defn
▁anon_type_defn
anonymous
▁anonymous
anonymous_class
▁anonymous_class
anonymous_fun
▁anonymous_fun
anonymous_function
▁anonymous_function
anonymous_program
▁anonymous_program
ansi
▁ansi
ansi_c_string
▁ansi_c_string
any_character
▁any_character
any_length_clause
▁any_length_clause
any_pragma_token
▁any_pragma_token
any_source_type
▁any_source_type
anyclass
▁anyclass
anyerror
▁anyerror
anyframe
▁anyframe
anyframe_type
▁anyframe_type
anyopaque
▁anyopaque
anything_pattern
▁anything_pattern
anytype
▁anytype
apply
▁apply
apply_clause
▁apply_clause
apply_expression
▁apply_expression
approx
▁approx
architecture_body
▁architecture_body
archive
▁archive
arg_instruction
▁arg_instruction
arg_list
▁arg_list
arg_list_separator
▁arg_list_separator
argc
▁argc
arglist
▁arglist
args
▁args
argument
▁argument
argument_braces
▁argument_braces
argument_expression
▁argument_expression
argument_name_spec
▁argument_name_spec
argument_paren
▁argument_paren
argument_part
▁argument_part
argument_patterns
▁argument_patterns
argument_placeholder
▁argument_placeholder
argument_spec
▁argument_spec
argument_text_braces
▁argument_text_braces
argument_text_paren
▁argument_text_paren
arguments_braces
▁arguments_braces
arguments_definition
▁arguments_definition
arguments_paren
▁arguments_paren
arguments_spec
▁arguments_spec
arithmetic_expansion
▁arithmetic_expansion
arithmetic_sequence
▁arithmetic_sequence
arithmetic_x
▁arithmetic_x
arity
▁arity
arrInitializer
▁arrInitializer
array_constraint
▁array_constraint
array_construction
▁array_construction
array_dimension
▁array_dimension
array_get_expression
▁array_get_expression
array_like
▁array_like
array_method_name
▁array_method_name
array_rank_specifier
▁array_rank_specifier
array_ref
▁array_ref
array_type_name
▁array_type_name
array_type_specifier
▁array_type_specifier
arraypatterns
▁arraypatterns
arrow
▁arrow
as_clause
▁as_clause
as_literal
▁as_literal
ascending_range
▁ascending_range
asmBody
▁asmBody
asm_clobbers
▁asm_clobbers
asm_expression
▁asm_expression
asm_input
▁asm_input
asm_input_item
▁asm_input_item
asm_operand
▁asm_operand
asm_operands
▁asm_operands
asm_options
▁asm_options
asm_output
▁asm_output
asm_output_item
▁asm_output_item
aspect_association
▁aspect_association
aspect_mark_list
▁aspect_mark_list
aspect_specification
▁aspect_specification
asr
▁asr
assembly
▁assembly
assembly_flags
▁assembly_flags
assembly_statement
▁assembly_statement
assert_builtin
▁assert_builtin
assert_expression
▁assert_expression
assertion
▁assertion
assertion_arguments
▁assertion_arguments
assertion_statement
▁assertion_statement
assign
▁assign
assign_call
▁assign_call
assign_operator
▁assign_operator
assign_statement
▁assign_statement
assignement_operator
▁assignement_operator
assignment_exp
▁assignment_exp
assignment_operator
▁assignment_operator
associate_statement
▁associate_statement
association
▁association
association_list
▁association_list
assume
▁assume
assume_prove
▁assume_prove
assumed_rank
▁assumed_rank
assumed_shape
▁assumed_shape
assumed_size
▁assumed_size
assumption
▁assumption
asy_environment
▁asy_environment
asydef_environment
▁asydef_environment
asymp
▁asymp
async_abort
▁async_abort
async_expression
▁async_expression
asynchronous_select
▁asynchronous_select
at_clause
▁at_clause
at_end
▁at_end
at_expression
▁at_expression
at_keyword
▁at_keyword
at_line_column
▁at_line_column
at_rule
▁at_rule
atdef_field
▁atdef_field
atom
▁atom
atomic_declaration
▁atomic_declaration
atomic_type
▁atomic_type
attr_name
▁attr_name
attr_spec
▁attr_spec
attr_splat
▁attr_splat
attribute_argument
▁attribute_argument
attribute_arguments
▁attribute_arguments
attribute_designator
▁attribute_designator
attribute_group
▁attribute_group
attribute_id
▁attribute_id
attribute_instance
▁attribute_instance
attribute_list
▁attribute_list
attribute_name
▁attribute_name
attribute_pattern
▁attribute_pattern
attribute_payload
▁attribute_payload
attribute_selector
▁attribute_selector
attribute_value
▁attribute_value
attributes
▁attributes
attrpath
▁attrpath
attrset_expression
▁attrset_expression
atx_h1_marker
▁atx_h1_marker
atx_h2_marker
▁atx_h2_marker
atx_h3_marker
▁atx_h3_marker
atx_h4_marker
▁atx_h4_marker
atx_h5_marker
▁atx_h5_marker
atx_h6_marker
▁atx_h6_marker
atx_heading
▁atx_heading
au_event
▁au_event
au_event_list
▁au_event_list
au_nested
▁au_nested
au_once
▁au_once
augroup
▁augroup
augroup_name
▁augroup_name
augroup_statement
▁augroup_statement
author
▁author
author_declaration
▁author_declaration
author_section
▁author_section
auto_res_mark
▁auto_res_mark
autocmd_statement
▁autocmd_statement
automatic
▁automatic
automatic_variable
▁automatic_variable
availability
▁availability
available_expression
▁available_expression
await_end
▁await_end
await_start
▁await_start
await_statement
▁await_statement
b_generator
▁b_generator
background
▁background
backreference_escape
▁backreference_escape
backslash
▁backslash
backslash_escape
▁backslash_escape
backspace
▁backspace
bad
▁bad
balance
▁balance
bangs
▁bangs
bare_key
▁bare_key
baremodule
▁baremodule
bareword
▁bareword
base
▁base
base_clause
▁base_clause
base_list
▁base_list
base_type_specifier
▁base_type_specifier
based_clause
▁based_clause
based_integer
▁based_integer
based_real
▁based_real
basefee
▁basefee
begin_end_expression
▁begin_end_expression
begin_keywords
▁begin_keywords
begin_statement
▁begin_statement
behave
▁behave
behavior
▁behavior
behaviour
▁behaviour
behaviour_attribute
▁behaviour_attribute
bel
▁bel
belowright_statement
▁belowright_statement
bg
▁bg
biblatex_include
▁biblatex_include
bibstyle_include
▁bibstyle_include
bibtex_include
▁bibtex_include
bigcirc
▁bigcirc
bignum
▁bignum
bin
▁bin
bin_element
▁bin_element
bin_op_expr
▁bin_op_expr
binary_ampersand
▁binary_ampersand
binary_comprehension
▁binary_comprehension
binary_exp
▁binary_exp
binary_number
▁binary_number
binary_op
▁binary_op
binary_op_expr
▁binary_op_expr
binary_operation
▁binary_operation
binary_query
▁binary_query
bind
▁bind
bind_directive
▁bind_directive
bind_statement
▁bind_statement
bind_target_instance
▁bind_target_instance
bind_target_scope
▁bind_target_scope
binding
▁binding
binding_indication
▁binding_indication
binding_list
▁binding_list
binding_name
▁binding_name
binding_pattern_kind
▁binding_pattern_kind
binding_set
▁binding_set
bindings
▁bindings
bins
▁bins
bins_expression
▁bins_expression
bins_keyword
▁bins_keyword
bins_or_empty
▁bins_or_empty
bins_or_options
▁bins_or_options
bins_selection
▁bins_selection
binsof
▁binsof
bit
▁bit
bit_select1
▁bit_select1
bit_size_expr
▁bit_size_expr
bit_string_literal
▁bit_string_literal
bit_type_list
▁bit_type_list
bit_type_unit
▁bit_type_unit
bitcast
▁bitcast
bitcast_expression
▁bitcast_expression
bitstring
▁bitstring
bitwise_expression
▁bitwise_expression
bitwise_operator
▁bitwise_operator
blank_clause
▁blank_clause
blend
▁blend
blobbasefee
▁blobbasefee
blobfee
▁blobfee
blobhash
▁blobhash
blockTr
▁blockTr
block_command
▁block_command
block_comment
▁block_comment
block_comment_text
▁block_comment_text
block_configuration
▁block_configuration
block_construct
▁block_construct
block_continuation
▁block_continuation
block_data
▁block_data
block_data_statement
▁block_data_statement
block_def
▁block_def
block_end
▁block_end
block_end_tag
▁block_end_tag
block_expr
▁block_expr
block_expression
▁block_expression
block_header
▁block_header
block_label
▁block_label
block_lit
▁block_lit
block_literal
▁block_literal
block_mapping
▁block_mapping
block_mapping_pair
▁block_mapping_pair
block_name
▁block_name
block_node
▁block_node
block_param
▁block_param
block_param_list
▁block_param_list
block_quote
▁block_quote
block_quote_marker
▁block_quote_marker
block_scalar
▁block_scalar
block_sequence
▁block_sequence
block_sequence_item
▁block_sequence_item
block_specification
▁block_specification
block_start
▁block_start
block_start_tag
▁block_start_tag
block_statement
▁block_statement
block_tag
▁block_tag
blockhash
▁blockhash
blocking_assignment
▁blocking_assignment
bnf_rule
▁bnf_rule
body
▁body
body_stub
▁body_stub
bold
▁bold
bool_lit
▁bool_lit
bool_literal
▁bool_literal
boolean_scalar
▁boolean_scalar
boolean_set
▁boolean_set
boolean_value
▁boolean_value
botright_statement
▁botright_statement
bottom_type
▁bottom_type
bound_infix_op
▁bound_infix_op
bound_nonfix_op
▁bound_nonfix_op
bound_op
▁bound_op
bound_postfix_op
▁bound_postfix_op
bound_prefix_op
▁bound_prefix_op
boundary_assertion
▁boundary_assertion
box
▁box
brace_expansion
▁brace_expansion
brace_expression
▁brace_expression
braced_expression
▁braced_expression
braced_variable
▁braced_variable
brack_group
▁brack_group
brack_group_argc
▁brack_group_argc
brack_group_text
▁brack_group_text
brack_group_word
▁brack_group_word
bracket_argument
▁bracket_argument
bracket_comment
▁bracket_comment
bracket_comment_open
▁bracket_comment_open
bracket_expression
▁bracket_expression
break_builtin
▁break_builtin
break_if_statement
▁break_if_statement
break_label
▁break_label
buf
▁buf
buffer
▁buffer
buffers
▁buffers
builtin
▁builtin
builtin_function
▁builtin_function
builtin_identifier
▁builtin_identifier
builtin_type
▁builtin_type
builtintype
▁builtintype
bullet
▁bullet
bullet_conj
▁bullet_conj
bullet_disj
▁bullet_disj
by_content
▁by_content
by_ref
▁by_ref
by_reference
▁by_reference
by_value
▁by_value
bycopy
▁bycopy
byref
▁byref
byte_alignment
▁byte_alignment
byte_string
▁byte_string
byte_vector
▁byte_vector
bytearray
▁bytearray
c_identifier
▁c_identifier
c_method_parameter
▁c_method_parameter
c_struct_def
▁c_struct_def
c_struct_fields
▁c_struct_fields
cache_var
▁cache_var
call_argument
▁call_argument
call_arguments
▁call_arguments
call_param_arg
▁call_param_arg
call_param_omitted
▁call_param_omitted
call_statement
▁call_statement
call_struct_argument
▁call_struct_argument
callableDataEXT
▁callableDataEXT
callableDataInEXT
▁callableDataInEXT
callableDataInNV
▁callableDataInNV
callableDataNV
▁callableDataNV
callable_reference
▁callable_reference
callback
▁callback
callcode
▁callcode
callconv
▁callconv
calldata
▁calldata
calldatacopy
▁calldatacopy
calldataload
▁calldataload
calldatasize
▁calldatasize
caller
▁caller
calling_convention
▁calling_convention
callvalue
▁callvalue
cancel_statement
▁cancel_statement
capi
▁capi
caption
▁caption
capture_pattern
▁capture_pattern
cascade_section
▁cascade_section
cascade_selector
▁cascade_selector
caseCase
▁caseCase
caseLabel
▁caseLabel
case_arm
▁case_arm
case_arrow
▁case_arrow
case_block
▁case_block
case_box
▁case_box
case_builtin
▁case_builtin
case_class_pattern
▁case_class_pattern
case_expr
▁case_expr
case_expression
▁case_expression
case_generate_item
▁case_generate_item
case_inside_item
▁case_inside_item
case_item
▁case_item
case_item_expression
▁case_item_expression
case_keyword
▁case_keyword
case_of_branch
▁case_of_branch
case_of_expr
▁case_of_expr
case_pattern_item
▁case_pattern_item
case_proof_step
▁case_proof_step
case_selectors
▁case_selectors
cases
▁cases
casex
▁casex
casez
▁casez
cast
▁cast
cast_pattern
▁cast_pattern
cast_type
▁cast_type
casting_type
▁casting_type
catch_clauses
▁catch_clauses
catch_declaration
▁catch_declaration
catch_expr
▁catch_expr
catch_expression
▁catch_expression
catch_filter_clause
▁catch_filter_clause
catch_parameters
▁catch_parameters
catch_start
▁catch_start
catch_statement
▁catch_statement
catch_type_list
▁catch_type_list
cbuffer
▁cbuffer
cbuffer_specifier
▁cbuffer_specifier
ccall
▁ccall
cchar
▁cchar
cdot
▁cdot
ce_expression
▁ce_expression
cell
▁cell
cell_clause
▁cell_clause
centroid
▁centroid
chainid
▁chainid
chandle
▁chandle
changes_replaced
▁changes_replaced
chapter
▁chapter
char_constant_expr
▁char_constant_expr
char_content
▁char_content
char_escape_sequence
▁char_escape_sequence
char_lit
▁char_lit
character_class
▁character_class
character_content
▁character_content
character_escape_seq
▁character_escape_seq
character_length
▁character_length
charge_strength
▁charge_strength
charlist
▁charlist
charset_statement
▁charset_statement
checked
▁checked
checked_expression
▁checked_expression
checked_statement
▁checked_statement
checker
▁checker
checker_declaration
▁checker_declaration
checker_identifier
▁checker_identifier
checker_port_item
▁checker_port_item
checker_port_list
▁checker_port_list
checksum
▁checksum
child_id
▁child_id
child_selector
▁child_selector
children
▁children
chinese
▁chinese
choices
▁choices
choose
▁choose
chunk
▁chunk
chunk_specification
▁chunk_specification
circ
▁circ
citation
▁citation
cl
▁cl
class_application
▁class_application
class_as_reference
▁class_as_reference
class_attribute
▁class_attribute
class_binding
▁class_binding
class_body_type
▁class_body_type
class_character
▁class_character
class_decl
▁class_decl
class_declarations
▁class_declarations
class_def
▁class_def
class_function
▁class_function
class_function_type
▁class_function_type
class_identifier
▁class_identifier
class_implementation
▁class_implementation
class_include
▁class_include
class_inherits_decl
▁class_inherits_decl
class_initializer
▁class_initializer
class_interface
▁class_interface
class_item
▁class_item
class_item_qualifier
▁class_item_qualifier
class_method
▁class_method
class_modifier
▁class_modifier
class_name
▁class_name
class_new
▁class_new
class_parameter
▁class_parameter
class_parameters
▁class_parameters
class_path
▁class_path
class_property
▁class_property
class_qualifier
▁class_qualifier
class_range
▁class_range
class_scope
▁class_scope
class_selector
▁class_selector
class_statement
▁class_statement
class_type
▁class_type
class_type_binding
▁class_type_binding
class_type_name
▁class_type_name
class_type_path
▁class_type_path
class_var
▁class_var
clause_body
▁clause_body
clause_term
▁clause_term
clocking
▁clocking
clocking_decl_assign
▁clocking_decl_assign
clocking_declaration
▁clocking_declaration
clocking_direction
▁clocking_direction
clocking_drive
▁clocking_drive
clocking_event
▁clocking_event
clocking_identifier
▁clocking_identifier
clocking_item
▁clocking_item
clocking_skew
▁clocking_skew
clockvar
▁clockvar
clockvar_expression
▁clockvar_expression
clone_expression
▁clone_expression
close
▁close
close_arg
▁close_arg
close_char
▁close_char
close_curly
▁close_curly
close_list
▁close_list
close_option
▁close_option
close_quote
▁close_quote
close_statement
▁close_statement
closure
▁closure
cluster
▁cluster
cmap
▁cmap
cmd_instruction
▁cmd_instruction
cmos
▁cmos
cmos_switch_instance
▁cmos_switch_instance
cmos_switchtype
▁cmos_switchtype
cmp
▁cmp
cnext_statement
▁cnext_statement
cnoremap
▁cnoremap
coarray_allocation
▁coarray_allocation
coarray_declarator
▁coarray_declarator
coarray_expression
▁coarray_expression
coarray_index
▁coarray_index
coarray_size
▁coarray_size
coarray_statement
▁coarray_statement
code
▁code
code_block
▁code_block
code_block_language
▁code_block_language
code_block_line
▁code_block_line
code_fence_content
▁code_fence_content
code_set_clause
▁code_set_clause
coherent
▁coherent
coinbase
▁coinbase
collection_literal
▁collection_literal
collection_value
▁collection_value
colon
▁colon
colon_argument
▁colon_argument
colon_block
▁colon_block
colon_expression
▁colon_expression
color
▁color
color_definition
▁color_definition
color_reference
▁color_reference
color_set_definition
▁color_set_definition
color_value
▁color_value
column_number
▁column_number
combinational_body
▁combinational_body
combinational_entry
▁combinational_entry
combinator
▁combinator
comclear_statement
▁comclear_statement
comma
▁comma
command
▁command
command_argument
▁command_argument
command_attribute
▁command_attribute
command_literal
▁command_literal
command_name
▁command_name
command_name_expr
▁command_name_expr
command_parameter
▁command_parameter
command_statement
▁command_statement
command_string
▁command_string
command_substitution
▁command_substitution
commands
▁commands
comment
▁comment
comment_content
▁comment_content
comment_directive
▁comment_directive
comment_environment
▁comment_environment
common_block
▁common_block
common_statement
▁common_statement
companion
▁companion
companion_object
▁companion_object
comparison
▁comparison
compilation
▁compilation
compilation_unit
▁compilation_unit
compile
▁compile
complex_literal
▁complex_literal
complex_num_lit
▁complex_num_lit
component
▁component
component_clause
▁component_clause
component_definition
▁component_definition
component_header
▁component_header
component_list
▁component_list
component_map_aspect
▁component_map_aspect
compose
▁compose
compound_type
▁compound_type
comptime
▁comptime
comptime_declaration
▁comptime_declaration
comptime_expression
▁comptime_expression
comptime_statement
▁comptime_statement
concat_operator
▁concat_operator
concatables
▁concatables
concatenating_space
▁concatenating_space
concatenation
▁concatenation
conceal
▁conceal
concealends
▁concealends
concept_declaration
▁concept_declaration
concurrent_control
▁concurrent_control
concurrent_header
▁concurrent_header
concurrent_locality
▁concurrent_locality
concurrent_mask
▁concurrent_mask
concurrent_statement
▁concurrent_statement
cond_match_expr
▁cond_match_expr
cond_pattern
▁cond_pattern
cond_predicate
▁cond_predicate
condition
▁condition
config
▁config
config_declaration
▁config_declaration
config_file
▁config_file
config_identifier
▁config_identifier
configurable_uri
▁configurable_uri
configuration_uri
▁configuration_uri
cong
▁cong
conj_item
▁conj_item
conj_list
▁conj_list
conjunct_pattern
▁conjunct_pattern
cons_expression
▁cons_expression
cons_pattern
▁cons_pattern
const_assign
▁const_assign
const_builtin
▁const_builtin
const_element
▁const_element
const_expression
▁const_expression
const_identifier
▁const_identifier
const_literal
▁const_literal
const_section
▁const_section
const_statement
▁const_statement
const_tag
▁const_tag
constant_bit_select1
▁constant_bit_select1
constant_entry
▁constant_entry
constant_expression
▁constant_expression
constant_pattern
▁constant_pattern
constant_primary
▁constant_primary
constant_range
▁constant_range
constant_select1
▁constant_select1
constarray
▁constarray
constobject
▁constobject
constobjectkeyval
▁constobjectkeyval
constrain_module
▁constrain_module
constrain_type
▁constrain_type
constraint_block
▁constraint_block
constraint_primary
▁constraint_primary
constraint_prototype
▁constraint_prototype
constraint_set
▁constraint_set
constraints
▁constraints
constructed_type
▁constructed_type
constructor
▁constructor
constructor_name
▁constructor_name
constructor_operator
▁constructor_operator
constructor_param
▁constructor_param
constructor_path
▁constructor_path
constructor_pattern
▁constructor_pattern
constructor_synonym
▁constructor_synonym
constructor_synonyms
▁constructor_synonyms
constructor_tearoff
▁constructor_tearoff
constterm
▁constterm
contained
▁contained
containedin
▁containedin
container_field
▁container_field
container_variable
▁container_variable
contains
▁contains
contains_statement
▁contains_statement
content
▁content
contentspec
▁contentspec
context
▁context
context_bound
▁context_bound
context_clause
▁context_clause
context_declaration
▁context_declaration
context_list
▁context_list
context_reference
▁context_reference
continuing
▁continuing
continuing_statement
▁continuing_statement
continuous_assign
▁continuous_assign
contract
▁contract
contract_body
▁contract_body
contract_declaration
▁contract_declaration
control_escape
▁control_escape
copy_instruction
▁copy_instruction
copy_statement
▁copy_statement
count_quantifier
▁count_quantifier
counter_addition
▁counter_addition
counter_declaration
▁counter_declaration
counter_definition
▁counter_definition
counter_increment
▁counter_increment
counter_typesetting
▁counter_typesetting
counter_value
▁counter_value
cover
▁cover
cover_cross
▁cover_cross
cover_point
▁cover_point
coverage_event
▁coverage_event
coverage_option
▁coverage_option
covergroup
▁covergroup
coverpoint
▁coverpoint
cprevious_statement
▁cprevious_statement
cr_clause
▁cr_clause
cray_pointer_pair
▁cray_pointer_pair
create
▁create
cross
▁cross
cross_body
▁cross_body
cross_body_item
▁cross_body_item
cross_identifier
▁cross_identifier
crossinline
▁crossinline
crt_status_clause
▁crt_status_clause
cterm
▁cterm
ctermbg
▁ctermbg
ctermfg
▁ctermfg
culhl
▁culhl
cup
▁cup
curly_braces_name
▁curly_braces_name
curly_construction
▁curly_construction
curly_expression
▁curly_expression
curly_group
▁curly_group
curly_group_impl
▁curly_group_impl
curly_group_label
▁curly_group_label
curly_group_path
▁curly_group_path
curly_group_spec
▁curly_group_spec
curly_group_text
▁curly_group_text
curly_group_uri
▁curly_group_uri
curly_group_value
▁curly_group_value
curly_group_word
▁curly_group_word
currency_sign_clause
▁currency_sign_clause
current_line
▁current_line
curried_spec
▁curried_spec
cursor_clause
▁cursor_clause
custom
▁custom
customlist
▁customlist
cycle_delay
▁cycle_delay
cycle_delay_range
▁cycle_delay_range
data
▁data
data_command
▁data_command
data_commands_list
▁data_commands_list
data_constructor
▁data_constructor
data_constructors
▁data_constructors
data_declaration
▁data_declaration
data_declarator
▁data_declarator
data_description
▁data_description
data_division
▁data_division
data_event
▁data_event
data_family
▁data_family
data_instance
▁data_instance
data_name
▁data_name
data_records_clause
▁data_records_clause
data_set
▁data_set
data_statement
▁data_statement
data_type
▁data_type
data_type_or_void
▁data_type_or_void
data_value
▁data_value
date_written_section
▁date_written_section
days
▁days
deallocate_statement
▁deallocate_statement
deassign
▁deassign
debug
▁debug
debug_tag
▁debug_tag
decimal
▁decimal
decimal_digits
▁decimal_digits
decimal_escape
▁decimal_escape
decimal_lit
▁decimal_lit
decimal_number
▁decimal_number
decl
▁decl
declArg
▁declArg
declArgs
▁declArgs
declArray
▁declArray
declClass
▁declClass
declConst
▁declConst
declConsts
▁declConsts
declEnum
▁declEnum
declEnumValue
▁declEnumValue
declExport
▁declExport
declExports
▁declExports
declField
▁declField
declFile
▁declFile
declHelper
▁declHelper
declIntf
▁declIntf
declLabel
▁declLabel
declLabels
▁declLabels
declMetaClass
▁declMetaClass
declProc
▁declProc
declProcRef
▁declProcRef
declProp
▁declProp
declPropArgs
▁declPropArgs
declSection
▁declSection
declSet
▁declSet
declString
▁declString
declType
▁declType
declTypes
▁declTypes
declUses
▁declUses
declVar
▁declVar
declVariant
▁declVariant
declVariantClause
▁declVariantClause
declVariantField
▁declVariantField
declVars
▁declVars
decl_inst_adt
▁decl_inst_adt
decl_inst_newtype
▁decl_inst_newtype
declaration_command
▁declaration_command
declaration_pattern
▁declaration_pattern
declarations
▁declarations
declarative_part
▁declarative_part
declare_directive
▁declare_directive
declare_expression
▁declare_expression
declare_statement
▁declare_statement
declared_type
▁declared_type
decrement_statement
▁decrement_statement
defProc
▁defProc
def_eq
▁def_eq
defaultValue
▁defaultValue
default_clause
▁default_clause
default_expression
▁default_expression
default_option
▁default_option
default_signature
▁default_signature
default_skew
▁default_skew
default_statement
▁default_statement
default_text
▁default_text
default_types
▁default_types
default_value
▁default_value
defgeneric
▁defgeneric
define
▁define
define_directive
▁define_directive
defined_io_procedure
▁defined_io_procedure
definition
▁definition
defmacro
▁defmacro
defmethod
▁defmethod
defparam
▁defparam
defparam_assignment
▁defparam_assignment
defun
▁defun
defun_header
▁defun_header
defun_keyword
▁defun_keyword
delay2
▁delay2
delay3
▁delay3
delay_alternative
▁delay_alternative
delay_control
▁delay_control
delay_mechanism
▁delay_mechanism
delay_value
▁delay_value
delayed_data
▁delayed_data
delayed_reference
▁delayed_reference
delcommand_statement
▁delcommand_statement
delegate_declaration
▁delegate_declaration
delegate_signature
▁delegate_signature
delegate_type_defn
▁delegate_type_defn
delegatecall
▁delegatecall
delegation_specifier
▁delegation_specifier
delimiter
▁delimiter
delta_constraint
▁delta_constraint
deprecated
▁deprecated
deprecated_attribute
▁deprecated_attribute
deprecated_fa
▁deprecated_fa
deprecated_fas
▁deprecated_fas
deprecated_module
▁deprecated_module
deprecated_wildcard
▁deprecated_wildcard
deprecation_desc
▁deprecation_desc
derefing_lit
▁derefing_lit
derived_type
▁derived_type
derives
▁derives
derives_clause
▁derives_clause
deriving
▁deriving
deriving_instance
▁deriving_instance
deriving_strategy
▁deriving_strategy
descendant_selector
▁descendant_selector
descending_range
▁descending_range
description
▁description
design
▁design
design_file
▁design_file
design_statement
▁design_statement
design_unit
▁design_unit
detect
▁detect
dictionary_pair
▁dictionary_pair
dictionnary
▁dictionnary
dictionnary_entry
▁dictionnary_entry
difficulty
▁difficulty
digits_constraint
▁digits_constraint
dimension
▁dimension
dir
▁dir
direction
▁direction
directive_argument
▁directive_argument
directive_attribute
▁directive_attribute
directive_definition
▁directive_definition
directive_head
▁directive_head
directive_location
▁directive_location
directive_locations
▁directive_locations
directive_modifier
▁directive_modifier
directive_modifiers
▁directive_modifiers
directive_name
▁directive_name
directive_parameter
▁directive_parameter
directive_term
▁directive_term
directives
▁directives
directories
▁directories
dis_expr
▁dis_expr
disable
▁disable
disable_statement
▁disable_statement
discard
▁discard
discard_statement
▁discard_statement
discrete_choice
▁discrete_choice
discrete_choice_list
▁discrete_choice_list
disj_item
▁disj_item
disj_list
▁disj_list
disjunct_pattern
▁disjunct_pattern
disp_attr
▁disp_attr
display
▁display
display_statement
▁display_statement
displayed_equation
▁displayed_equation
dist
▁dist
dist_item
▁dist_item
dist_list
▁dist_list
dist_weight
▁dist_weight
distinct_type
▁distinct_type
div
▁div
div_exp
▁div_exp
do_clause
▁do_clause
do_end_block
▁do_end_block
do_expression
▁do_expression
do_group
▁do_group
do_label_virtual
▁do_label_virtual
do_loop
▁do_loop
do_module
▁do_module
do_while_expression
▁do_while_expression
do_while_loop
▁do_while_loop
do_while_statement
▁do_while_statement
doctype
▁doctype
doctypedecl
▁doctypedecl
document
▁document
dol
▁dol
doldol
▁doldol
dollar_escape
▁dollar_escape
domain
▁domain
done
▁done
dos
▁dos
dot_dot_i
▁dot_dot_i
dot_expression
▁dot_expression
dot_generic_call
▁dot_generic_call
dot_index_expression
▁dot_index_expression
dot_shorthand
▁dot_shorthand
dotdotdot
▁dotdotdot
doteq
▁doteq
dots
▁dots
dots_2
▁dots_2
dots_3
▁dots_3
dotted_identifier
▁dotted_identifier
dotted_key
▁dotted_key
double_dot
▁double_dot
double_line
▁double_line
double_quote_scalar
▁double_quote_scalar
double_quote_string
▁double_quote_string
double_quoted_string
▁double_quoted_string
double_splat
▁double_splat
double_splat_param
▁double_splat_param
double_splat_type
▁double_splat_type
downcast
▁downcast
downfrom
▁downfrom
downto
▁downto
dpi_function_proto
▁dpi_function_proto
dpi_import_export
▁dpi_import_export
dpi_spec_string
▁dpi_spec_string
dpi_task_proto
▁dpi_task_proto
drive_strength
▁drive_strength
drop
▁drop
dynamic_array_new
▁dynamic_array_new
dynamically
▁dynamically
dynamicparam
▁dynamicparam
each_end
▁each_end
each_start
▁each_start
each_statement
▁each_statement
echo_statement
▁echo_statement
echoerr_statement
▁echoerr_statement
echohl_statement
▁echohl_statement
echomsg_statement
▁echomsg_statement
echon_statement
▁echon_statement
edge
▁edge
edge_descriptor
▁edge_descriptor
edge_identifier
▁edge_identifier
edge_indicator
▁edge_indicator
edge_input_list
▁edge_input_list
edge_symbol
▁edge_symbol
edit
▁edit
edit_descriptor
▁edit_descriptor
edit_statement
▁edit_statement
effect
▁effect
effect_pattern
▁effect_pattern
either
▁either
element
▁element
element_access
▁element_access
element_declaration
▁element_declaration
elementdecl
▁elementdecl
elif_branch
▁elif_branch
elif_expression
▁elif_expression
ellipses
▁ellipses
else_block
▁else_block
else_branch
▁else_branch
else_command
▁else_command
else_generate
▁else_generate
else_if_block
▁else_if_block
else_if_clause
▁else_if_clause
else_if_start
▁else_if_start
else_start
▁else_start
else_statement
▁else_statement
elseif
▁elseif
elseif_clause
▁elseif_clause
elseif_clauses
▁elseif_clauses
elseif_command
▁elseif_command
elseif_statement
▁elseif_statement
elsewhere_clause
▁elsewhere_clause
elsif_generate
▁elsif_generate
elsif_statement_item
▁elsif_statement_item
elvis_expression
▁elvis_expression
emit
▁emit
emit_statement
▁emit_statement
empty_curly_brackets
▁empty_curly_brackets
empty_list
▁empty_list
enable
▁enable
enable_directive
▁enable_directive
enable_gate_instance
▁enable_gate_instance
enable_gatetype
▁enable_gatetype
enable_terminal
▁enable_terminal
enabled
▁enabled
enc
▁enc
encapsed_string
▁encapsed_string
encode_expression
▁encode_expression
end_assertion
▁end_assertion
end_edge_offset
▁end_edge_offset
end_enum_statement
▁end_enum_statement
end_forall_statement
▁end_forall_statement
end_function
▁end_function
end_if_statement
▁end_if_statement
end_module_statement
▁end_module_statement
end_program
▁end_program
end_select_statement
▁end_select_statement
end_tag
▁end_tag
end_type_statement
▁end_type_statement
end_where_statement
▁end_where_statement
endblock
▁endblock
endblock_command
▁endblock_command
endcase
▁endcase
endchecker
▁endchecker
endclass
▁endclass
endclocking
▁endclocking
endconfig
▁endconfig
endef
▁endef
endfor
▁endfor
endforeach
▁endforeach
endforeach_command
▁endforeach_command
endfunction
▁endfunction
endfunction_command
▁endfunction_command
endgenerate
▁endgenerate
endgroup
▁endgroup
endif
▁endif
endif_command
▁endif_command
endinterface
▁endinterface
endmacro
▁endmacro
endmacro_command
▁endmacro_command
endmarker
▁endmarker
endmodule
▁endmodule
endpackage
▁endpackage
endprimitive
▁endprimitive
endprogram
▁endprogram
endproperty
▁endproperty
endsequence
▁endsequence
endspecify
▁endspecify
endtable
▁endtable
endtask
▁endtask
endwhile
▁endwhile
endwhile_command
▁endwhile_command
enew_statement
▁enew_statement
entity
▁entity
entity_class
▁entity_class
entity_class_entry
▁entity_class_entry
entity_declaration
▁entity_declaration
entity_designator
▁entity_designator
entity_header
▁entity_header
entity_instantiation
▁entity_instantiation
entity_name_list
▁entity_name_list
entity_reference
▁entity_reference
entity_specification
▁entity_specification
entry_barrier
▁entry_barrier
entry_body
▁entry_body
entry_declaration
▁entry_declaration
entry_name
▁entry_name
entry_statement
▁entry_statement
enum_base_type
▁enum_base_type
enum_case
▁enum_case
enum_def
▁enum_def
enum_definition
▁enum_definition
enum_field
▁enum_field
enum_identifier
▁enum_identifier
enum_member
▁enum_member
enum_name
▁enum_name
enum_statement
▁enum_statement
enum_type
▁enum_type
enum_type_case
▁enum_type_case
enum_type_cases
▁enum_type_cases
enum_type_definition
▁enum_type_definition
enum_type_defn
▁enum_type_defn
enum_type_extension
▁enum_type_extension
enum_value
▁enum_value
enum_value_option
▁enum_value_option
enumeration_type
▁enumeration_type
enumerator_statement
▁enumerator_statement
enumerators
▁enumerators
env_instruction
▁env_instruction
env_pair
▁env_pair
env_var
▁env_var
env_variable
▁env_variable
environment
▁environment
environment_division
▁environment_division
eq
▁eq
eqr
▁eqr
equ
▁equ
equal_expression
▁equal_expression
equality
▁equality
equality_operator
▁equality_operator
equals
▁equals
equation
▁equation
equations
▁equations
equiv
▁equiv
equivalence_set
▁equivalence_set
errdefer
▁errdefer
errdefer_statement
▁errdefer_statement
erroneous_end_tag
▁erroneous_end_tag
error_declaration
▁error_declaration
error_limit_value
▁error_limit_value
error_parameter
▁error_parameter
error_type
▁error_type
error_union_type
▁error_union_type
esac
▁esac
esc
▁esc
escape
▁escape
escape_char
▁escape_char
escaped_identifier
▁escaped_identifier
ether
▁ether
eval
▁eval
eval_expression
▁eval_expression
eval_statement
▁eval_statement
evaling_lit
▁evaling_lit
evaluate_header
▁evaluate_header
evaluate_subject
▁evaluate_subject
event
▁event
event_based_flag
▁event_based_flag
event_control
▁event_control
event_declaration
▁event_declaration
event_definition
▁event_definition
event_expression
▁event_expression
event_parameter
▁event_parameter
event_status
▁event_status
event_trigger
▁event_trigger
eventually
▁eventually
ex_statement
▁ex_statement
except_branch
▁except_branch
except_update
▁except_update
exception
▁exception
exceptionElse
▁exceptionElse
exceptionHandler
▁exceptionHandler
exception_choice
▁exception_choice
exception_definition
▁exception_definition
exception_handler
▁exception_handler
exception_pattern
▁exception_pattern
excl
▁excl
excludenl
▁excludenl
execute_statement
▁execute_statement
exhaustive_case
▁exhaustive_case
exists
▁exists
exit
▁exit
exit_statement
▁exit_statement
exp
▁exp
exp_list
▁exp_list
expansion
▁expansion
expect
▁expect
explicit_delegation
▁explicit_delegation
explicit_type
▁explicit_type
exponentiation
▁exponentiation
export_attribute
▁export_attribute
export_directive
▁export_directive
exported_symbol
▁exported_symbol
expose_instruction
▁expose_instruction
expose_port
▁expose_port
exposed_operator
▁exposed_operator
exposed_type
▁exposed_type
exposed_value
▁exposed_value
exposing
▁exposing
exposing_list
▁exposing_list
exprArgs
▁exprArgs
exprBinary
▁exprBinary
exprBrackets
▁exprBrackets
exprCall
▁exprCall
exprDot
▁exprDot
exprParens
▁exprParens
exprSubscript
▁exprSubscript
exprTpl
▁exprTpl
exprUnary
▁exprUnary
expr_args
▁expr_args
expression_item
▁expression_item
expression_or_dist
▁expression_or_dist
expression_tag
▁expression_tag
expressions
▁expressions
extcodecopy
▁extcodecopy
extcodehash
▁extcodehash
extcodesize
▁extcodesize
extended
▁extended
extended_identifier
▁extended_identifier
extended_module_path
▁extended_module_path
extended_simple_name
▁extended_simple_name
extension_aggregate
▁extension_aggregate
extension_behavior
▁extension_behavior
extension_body
▁extension_body
extension_definition
▁extension_definition
extent_specifier
▁extent_specifier
external
▁external
external_clause
▁external_clause
external_declaration
▁external_declaration
external_fun
▁external_fun
external_signal_name
▁external_signal_name
extglob_pattern
▁extglob_pattern
extract_operator
▁extract_operator
extramodular_text
▁extramodular_text
fa
▁fa
factor
▁factor
factor_abs
▁factor_abs
factor_not
▁factor_not
factor_power
▁factor_power
fair
▁fair
fairness
▁fairness
fallback
▁fallback
family
▁family
fancy_literal
▁fancy_literal
feature
▁feature
feature_attribute
▁feature_attribute
feature_name
▁feature_name
feature_query
▁feature_query
fenced_code_block
▁fenced_code_block
ff
▁ff
fg
▁fg
fi
▁fi
field
▁field
field_access_expr
▁field_access_expr
field_expr
▁field_expr
field_get_expression
▁field_get_expression
field_initializers
▁field_initializers
field_name
▁field_name
field_names
▁field_names
field_number
▁field_number
field_option
▁field_option
field_options
▁field_options
field_path
▁field_path
field_ref
▁field_ref
field_type
▁field_type
field_update
▁field_update
fields
▁fields
fields_definition
▁fields_definition
file_annotation
▁file_annotation
file_attribute
▁file_attribute
file_declaration
▁file_declaration
file_description
▁file_description
file_descriptor
▁file_descriptor
file_format
▁file_format
file_in_path
▁file_in_path
file_open_kind
▁file_open_kind
file_redirect
▁file_redirect
file_section
▁file_section
file_type
▁file_type
file_type_definition
▁file_type_definition
fileformat
▁fileformat
filename
▁filename
filename_immd
▁filename_immd
filenames
▁filenames
filetype
▁filetype
filetype_statement
▁filetype_statement
filetypes
▁filetypes
filter
▁filter
filter_command
▁filter_command
final_builtin
▁final_builtin
final_construct
▁final_construct
final_modifier
▁final_modifier
final_statement
▁final_statement
finalization
▁finalization
finally_block
▁finally_block
finally_branch
▁finally_branch
finally_statement
▁finally_statement
find_statement
▁find_statement
finish_number
▁finish_number
finite_set_literal
▁finite_set_literal
finney
▁finney
first_line
▁first_line
first_match
▁first_match
fixed
▁fixed
fixed_point_number
▁fixed_point_number
fixed_statement
▁fixed_statement
fixity
▁fixity
flags
▁flags
flat
▁flat
flexible_type
▁flexible_type
float_expression
▁float_expression
float_lit
▁float_lit
float_number
▁float_number
float_scalar
▁float_scalar
float_value
▁float_value
floating_attribute
▁floating_attribute
flow_mapping
▁flow_mapping
flow_node
▁flow_node
flow_pair
▁flow_pair
flow_sequence
▁flow_sequence
fold
▁fold
font
▁font
for_binding
▁for_binding
for_clause_word
▁for_clause_word
for_cond
▁for_cond
for_condition
▁for_condition
for_element
▁for_element
for_expr
▁for_expr
for_generic_clause
▁for_generic_clause
for_header
▁for_header
for_in_loop
▁for_in_loop
for_initialization
▁for_initialization
for_initializer
▁for_initializer
for_intro
▁for_intro
for_iterator
▁for_iterator
for_loop
▁for_loop
for_loop_parts
▁for_loop_parts
for_numeric_clause
▁for_numeric_clause
for_object_expr
▁for_object_expr
for_parameters
▁for_parameters
for_step
▁for_step
for_tuple_expr
▁for_tuple_expr
forall
▁forall
forall_required
▁forall_required
forall_statement
▁forall_statement
force
▁force
force_mode
▁force_mode
foreach
▁foreach
foreach_command
▁foreach_command
foreach_loop
▁foreach_loop
foreach_parameter
▁foreach_parameter
foreach_statement
▁foreach_statement
foreground
▁foreground
foreign
▁foreign
foreign_export
▁foreign_export
foreign_import
▁foreign_import
forever
▁forever
fork
▁fork
forkjoin
▁forkjoin
formal
▁formal
formal_argument
▁formal_argument
formal_part
▁formal_part
formals
▁formals
format
▁format
format_identifier
▁format_identifier
format_modifiers
▁format_modifiers
format_operator
▁format_operator
format_statement
▁format_statement
format_string
▁format_string
format_string_eval
▁format_string_eval
formfeed
▁formfeed
fragment
▁fragment
fragment_definition
▁fragment_definition
fragment_name
▁fragment_name
fragment_spread
▁fragment_spread
from_clause
▁from_clause
from_instruction
▁from_instruction
fs
▁fs
fsi_directive_decl
▁fsi_directive_decl
full_enum_case
▁full_enum_case
full_ident
▁full_ident
full_splat
▁full_splat
fun
▁fun
fun_clause
▁fun_clause
fun_decl
▁fun_decl
fun_def
▁fun_def
fun_expression
▁fun_expression
fun_param
▁fun_param
fun_type
▁fun_type
fun_type_sig
▁fun_type_sig
func_args
▁func_args
func_call
▁func_call
func_declaration
▁func_declaration
func_def
▁func_def
func_expression
▁func_expression
func_refmod
▁func_refmod
funcdef
▁funcdef
funcdefargs
▁funcdefargs
funcname
▁funcname
function_
▁function_
function_arguments
▁function_arguments
function_call
▁function_call
function_call_expr
▁function_call_expr
function_clause
▁function_clause
function_command
▁function_command
function_def
▁function_def
function_division
▁function_division
function_evaluation
▁function_evaluation
function_expansion
▁function_expansion
function_head_parens
▁function_head_parens
function_identifier
▁function_identifier
function_literal
▁function_literal
function_name
▁function_name
function_prototype
▁function_prototype
function_result
▁function_result
function_statement
▁function_statement
functional_notation
▁functional_notation
functor
▁functor
functor_type
▁functor_type
fundep
▁fundep
fundeps
▁fundeps
gadt_constructor
▁gadt_constructor
gadt_constructors
▁gadt_constructors
gas
▁gas
gaslimit
▁gaslimit
gasprice
▁gasprice
gate_instantiation
▁gate_instantiation
gb
▁gb
ge
▁ge
generalized_string
▁generalized_string
generate
▁generate
generate_block
▁generate_block
generate_region
▁generate_region
generator
▁generator
genericArg
▁genericArg
genericArgs
▁genericArgs
genericDot
▁genericDot
genericTpl
▁genericTpl
generic_arguments
▁generic_arguments
generic_clause
▁generic_clause
generic_command
▁generic_command
generic_environment
▁generic_environment
generic_formal_part
▁generic_formal_part
generic_map_aspect
▁generic_map_aspect
generic_name
▁generic_name
generic_param
▁generic_param
generic_parameters
▁generic_parameters
generic_specifier
▁generic_specifier
generic_statement
▁generic_statement
generic_token
▁generic_token
generic_type_name
▁generic_type_name
generics
▁generics
genvar
▁genvar
genvar_declaration
▁genvar_declaration
genvar_identifier
▁genvar_identifier
genvar_iteration
▁genvar_iteration
geq
▁geq
get_attr
▁get_attr
getline
▁getline
getline_file
▁getline_file
getline_input
▁getline_input
gets
▁gets
getter
▁getter
getter_signature
▁getter_signature
gg
▁gg
given
▁given
given_conditional
▁given_conditional
given_definition
▁given_definition
given_pattern
▁given_pattern
glob
▁glob
glob_pattern
▁glob_pattern
global_attribute
▁global_attribute
global_clause
▁global_clause
global_declaration
▁global_declaration
global_mode
▁global_mode
global_var
▁global_var
globallycoherent
▁globallycoherent
glsl_code_expr
▁glsl_code_expr
glsl_content
▁glsl_content
gnatprep_identifier
▁gnatprep_identifier
goto_expression
▁goto_expression
goto_repetition
▁goto_repetition
graphics_include
▁graphics_include
graphql_directive
▁graphql_directive
grid_value
▁grid_value
groovy_doc
▁groovy_doc
groovy_doc_at_text
▁groovy_doc_at_text
groovy_doc_param
▁groovy_doc_param
groovy_doc_tag
▁groovy_doc_tag
groovy_doc_throws
▁groovy_doc_throws
groovy_import
▁groovy_import
groovy_package
▁groovy_package
group
▁group
group_clause
▁group_clause
group_declaration
▁group_declaration
group_name
▁group_name
grouping
▁grouping
groupshared
▁groupshared
gt
▁gt
guard_clause
▁guard_clause
guards
▁guards
gui
▁gui
guibg
▁guibg
guid
▁guid
guifg
▁guifg
guisp
▁guisp
gwei
▁gwei
h_string
▁h_string
has_attr_expression
▁has_attr_expression
hash_entry
▁hash_entry
hash_expression
▁hash_expression
hash_like
▁hash_like
hash_literal_body
▁hash_literal_body
hash_operator
▁hash_operator
hash_type
▁hash_type
hashhash
▁hashhash
haskell
▁haskell
have_proof_step
▁have_proof_step
header
▁header
header_line
▁header_line
help
▁help
here_string
▁here_string
heredoc
▁heredoc
heredoc_block
▁heredoc_block
heredoc_identifier
▁heredoc_identifier
heredoc_line
▁heredoc_line
heredoc_marker
▁heredoc_marker
heredoc_redirect
▁heredoc_redirect
heredoc_start
▁heredoc_start
heredoc_template
▁heredoc_template
herestring_redirect
▁herestring_redirect
hex
▁hex
hex_lit
▁hex_lit
hex_number
▁hex_number
hex_string_literal
▁hex_string_literal
hidden
▁hidden
hide
▁hide
hiding
▁hiding
highlight
▁highlight
highlight_statement
▁highlight_statement
highp
▁highp
highz0
▁highz0
highz1
▁highz1
history
▁history
hitAttributeEXT
▁hitAttributeEXT
hitAttributeNV
▁hitAttributeNV
hl_attribute
▁hl_attribute
hl_group
▁hl_group
hl_groups
▁hl_groups
hlsl_attribute
▁hlsl_attribute
hollerith_constant
▁hollerith_constant
home_dir_expansion
▁home_dir_expansion
host
▁host
hours
▁hours
hpath_expression
▁hpath_expression
hs
▁hs
html
▁html
html_block
▁html_block
html_tag
▁html_tag
hyperlink
▁hyperlink
i_o_control
▁i_o_control
i_o_control_clause
▁i_o_control_clause
i_o_control_header
▁i_o_control_header
icon
▁icon
id
▁id
id_directive
▁id_directive
id_name
▁id_name
id_selector
▁id_selector
identifier_list
▁identifier_list
identifier_pattern
▁identifier_pattern
identifier_ref
▁identifier_ref
identifiers
▁identifiers
identity_escape
▁identity_escape
ieee32
▁ieee32
ieee64
▁ieee64
ifElse
▁ifElse
if_command
▁if_command
if_condition
▁if_condition
if_element
▁if_element
if_else_expr
▁if_else_expr
if_end
▁if_end
if_expr
▁if_expr
if_generate
▁if_generate
if_null_expression
▁if_null_expression
if_start
▁if_start
if_then_else
▁if_then_else
if_type_expression
▁if_type_expression
ifdef
▁ifdef
ifeq
▁ifeq
iff
▁iff
ifndef
▁ifndef
ifneq
▁ifneq
ifnone
▁ifnone
image_alias
▁image_alias
image_digest
▁image_digest
image_name
▁image_name
image_spec
▁image_spec
image_tag
▁image_tag
imap
▁imap
immutable
▁immutable
implementation
▁implementation
implicit
▁implicit
implicit_data_type1
▁implicit_data_type1
implicit_object_call
▁implicit_object_call
implicit_parameter
▁implicit_parameter
implicit_range
▁implicit_range
implicit_statement
▁implicit_statement
implicit_type
▁implicit_type
implicit_variable
▁implicit_variable
implies
▁implies
import_
▁import_
import_decl
▁import_decl
import_directive
▁import_directive
import_export
▁import_export
import_header
▁import_header
import_include
▁import_include
import_list
▁import_list
import_name
▁import_name
import_or_export
▁import_or_export
import_package
▁import_package
import_path
▁import_path
import_specification
▁import_specification
important
▁important
important_value
▁important_value
imports
▁imports
impure
▁impure
inc_or_dec_operator
▁inc_or_dec_operator
include_directive
▁include_directive
include_expression
▁include_expression
include_module
▁include_module
include_module_type
▁include_module_type
include_reader_macro
▁include_reader_macro
include_statement
▁include_statement
included_items
▁included_items
increment_op
▁increment_op
increment_operator
▁increment_operator
increment_statement
▁increment_statement
indent
▁indent
indented_block
▁indented_block
indented_cases
▁indented_cases
indented_code_block
▁indented_code_block
index
▁index
index_call
▁index_call
index_constraint
▁index_constraint
index_selector
▁index_selector
indexed
▁indexed
indexed_range
▁indexed_range
indexer_declaration
▁indexer_declaration
indexing_expression
▁indexing_expression
indexing_operator
▁indexing_operator
indexing_suffix
▁indexing_suffix
indirect_func_call
▁indirect_func_call
indirect_object
▁indirect_object
inertial
▁inertial
inertial_expression
▁inertial_expression
inf
▁inf
inferred
▁inferred
inferred_type
▁inferred_type
infix_declaration
▁infix_declaration
infix_id
▁infix_id
infix_modifier
▁infix_modifier
infix_op
▁infix_op
infix_op_symbol
▁infix_op_symbol
infix_pattern
▁infix_pattern
infix_type
▁infix_type
infixl
▁infixl
infixr
▁infixr
info_string
▁info_string
inherit
▁inherit
inherit_from
▁inherit_from
inherited
▁inherited
inherited_attrs
▁inherited_attrs
init_val
▁init_val
initial
▁initial
initial_construct
▁initial_construct
initialization
▁initialization
initializer
▁initializer
initializers
▁initializers
initially
▁initially
inkscape_include
▁inkscape_include
inline_flags_group
▁inline_flags_group
inline_formula
▁inline_formula
inline_fragment
▁inline_fragment
inline_modifier
▁inline_modifier
inline_table
▁inline_table
inline_tag
▁inline_tag
inlinescript
▁inlinescript
inner
▁inner
inner_assume_prove
▁inner_assume_prove
inoremap
▁inoremap
inout_declaration
▁inout_declaration
inout_terminal
▁inout_terminal
input
▁input
input_declaration
▁input_declaration
input_identifier
▁input_identifier
input_item_list
▁input_item_list
input_output_section
▁input_output_section
input_terminal
▁input_terminal
inquire_statement
▁inquire_statement
inside
▁inside
inside_expression
▁inside_expression
inspect_converting
▁inspect_converting
inspect_region
▁inspect_region
inspect_replacing
▁inspect_replacing
inspect_statement
▁inspect_statement
inspect_tallying
▁inspect_tallying
inst_clause
▁inst_clause
inst_name
▁inst_name
installation_section
▁installation_section
instance
▁instance
instance_alignof
▁instance_alignof
instance_decl
▁instance_decl
instance_expression
▁instance_expression
instance_identifier
▁instance_identifier
instance_sizeof
▁instance_sizeof
instance_var
▁instance_var
instance_variables
▁instance_variables
instantiated_class
▁instantiated_class
instantiation_list
▁instantiation_list
int_lit
▁int_lit
int_number_set
▁int_number_set
int_value
▁int_value
integer_atom_type
▁integer_atom_type
integer_decimal
▁integer_decimal
integer_expression
▁integer_expression
integer_scalar
▁integer_scalar
integer_value
▁integer_value
integer_vector_type
▁integer_vector_type
integral_number
▁integral_number
interconnect
▁interconnect
interface_class_item
▁interface_class_item
interface_class_type
▁interface_class_type
interface_identifier
▁interface_identifier
interface_item
▁interface_item
interface_spec
▁interface_spec
interface_statement
▁interface_statement
interface_type_defn
▁interface_type_defn
interfaces
▁interfaces
internal_fun
▁internal_fun
internal_procedures
▁internal_procedures
interpolated_string
▁interpolated_string
interpolation_brace
▁interpolation_brace
interpolation_quote
▁interpolation_quote
interpolation_start
▁interpolation_start
interruptible
▁interruptible
intersect
▁intersect
into_modifier
▁into_modifier
intrinsic_type
▁intrinsic_type
inv_option
▁inv_option
invalid
▁invalid
invariant
▁invariant
inverse
▁inverse
invisible
▁invisible
ios
▁ios
irrefutable
▁irrefutable
is_class
▁is_class
is_common
▁is_common
is_expression
▁is_expression
is_initial
▁is_initial
is_not_class
▁is_not_class
is_operator
▁is_operator
isa
▁isa
isnot
▁isnot
iso
▁iso
iszero
▁iszero
italic
▁italic
item_attribute
▁item_attribute
item_extension
▁item_extension
iteration_scheme
▁iteration_scheme
iterator_declaration
▁iterator_declaration
iterator_expression
▁iterator_expression
iterator_filter
▁iterator_filter
iterator_type
▁iterator_type
japan
▁japan
javascript
▁javascript
join
▁join
join_clause
▁join_clause
join_into_clause
▁join_into_clause
join_keyword
▁join_keyword
json_string
▁json_string
json_string_array
▁json_string_array
jump
▁jump
jump_expression
▁jump_expression
jump_statement
▁jump_statement
justified_clause
▁justified_clause
juxt_function_call
▁juxt_function_call
kAbsolute
▁kAbsolute
kAbstract
▁kAbstract
kAdd
▁kAdd
kAlias
▁kAlias
kAnd
▁kAnd
kArray
▁kArray
kAs
▁kAs
kAsm
▁kAsm
kAssembler
▁kAssembler
kAssign
▁kAssign
kAssignAdd
▁kAssignAdd
kAssignDiv
▁kAssignDiv
kAssignMul
▁kAssignMul
kAssignSub
▁kAssignSub
kAt
▁kAt
kBegin
▁kBegin
kCase
▁kCase
kCdecl
▁kCdecl
kClass
▁kClass
kConst
▁kConst
kConstref
▁kConstref
kConstructor
▁kConstructor
kCppdecl
▁kCppdecl
kCvar
▁kCvar
kDefault
▁kDefault
kDelayed
▁kDelayed
kDeprecated
▁kDeprecated
kDestructor
▁kDestructor
kDispId
▁kDispId
kDispInterface
▁kDispInterface
kDiv
▁kDiv
kDo
▁kDo
kDot
▁kDot
kDownto
▁kDownto
kDynamic
▁kDynamic
kElse
▁kElse
kEnd
▁kEnd
kEndDot
▁kEndDot
kEq
▁kEq
kExcept
▁kExcept
kExperimental
▁kExperimental
kExport
▁kExport
kExports
▁kExports
kExternal
▁kExternal
kFalse
▁kFalse
kFar
▁kFar
kFdiv
▁kFdiv
kFile
▁kFile
kFinalization
▁kFinalization
kFinally
▁kFinally
kFor
▁kFor
kForward
▁kForward
kFunction
▁kFunction
kGeneric
▁kGeneric
kGoto
▁kGoto
kGt
▁kGt
kGte
▁kGte
kHardfloat
▁kHardfloat
kHat
▁kHat
kHelper
▁kHelper
kIf
▁kIf
kImplementation
▁kImplementation
kImplements
▁kImplements
kIn
▁kIn
kIndex
▁kIndex
kInherited
▁kInherited
kInitialization
▁kInitialization
kInline
▁kInline
kInterface
▁kInterface
kInterrupt
▁kInterrupt
kIocheck
▁kIocheck
kIs
▁kIs
kLabel
▁kLabel
kLibrary
▁kLibrary
kLocal
▁kLocal
kLt
▁kLt
kLte
▁kLte
kMessage
▁kMessage
kMod
▁kMod
kMs_abi_cdecl
▁kMs_abi_cdecl
kMs_abi_default
▁kMs_abi_default
kMul
▁kMul
kMwpascal
▁kMwpascal
kName
▁kName
kNear
▁kNear
kNeq
▁kNeq
kNil
▁kNil
kNodefault
▁kNodefault
kNoreturn
▁kNoreturn
kNostackframe
▁kNostackframe
kNot
▁kNot
kObjccategory
▁kObjccategory
kObjcclass
▁kObjcclass
kObjcprotocol
▁kObjcprotocol
kObject
▁kObject
kOf
▁kOf
kOn
▁kOn
kOperator
▁kOperator
kOptional
▁kOptional
kOr
▁kOr
kOut
▁kOut
kOverload
▁kOverload
kOverride
▁kOverride
kPacked
▁kPacked
kPascal
▁kPascal
kPlatform
▁kPlatform
kPrivate
▁kPrivate
kProcedure
▁kProcedure
kProgram
▁kProgram
kProperty
▁kProperty
kProtected
▁kProtected
kPublic
▁kPublic
kPublished
▁kPublished
kRaise
▁kRaise
kRead
▁kRead
kRecord
▁kRecord
kReference
▁kReference
kRegister
▁kRegister
kReintroduce
▁kReintroduce
kRepeat
▁kRepeat
kRequired
▁kRequired
kResourcestring
▁kResourcestring
kSafecall
▁kSafecall
kSaveregisters
▁kSaveregisters
kSealed
▁kSealed
kSet
▁kSet
kShl
▁kShl
kShr
▁kShr
kSoftfloat
▁kSoftfloat
kSpecialize
▁kSpecialize
kStatic
▁kStatic
kStdcall
▁kStdcall
kStored
▁kStored
kStrict
▁kStrict
kString
▁kString
kSub
▁kSub
kSysv_abi_cdecl
▁kSysv_abi_cdecl
kSysv_abi_default
▁kSysv_abi_default
kThen
▁kThen
kThreadvar
▁kThreadvar
kTo
▁kTo
kTrue
▁kTrue
kTry
▁kTry
kType
▁kType
kUnimplemented
▁kUnimplemented
kUnit
▁kUnit
kUntil
▁kUntil
kUses
▁kUses
kVar
▁kVar
kVarargs
▁kVarargs
kVectorcall
▁kVectorcall
kVirtual
▁kVirtual
kWhile
▁kWhile
kWinapi
▁kWinapi
kWith
▁kWith
kWrite
▁kWrite
kXor
▁kXor
kb
▁kb
keep
▁keep
keepend
▁keepend
kernel_call_syntax
▁kernel_call_syntax
key
▁key
key_end
▁key_end
key_expression
▁key_expression
key_start
▁key_start
key_statement
▁key_statement
key_type
▁key_type
key_value_pair
▁key_value_pair
keycode
▁keycode
keyframe_block
▁keyframe_block
keyframe_block_list
▁keyframe_block_list
keyframes_name
▁keyframes_name
keyframes_statement
▁keyframes_statement
keyword
▁keyword
keyword_declarator
▁keyword_declarator
keyword_query
▁keyword_query
keyword_selector
▁keyword_selector
keyword_statement
▁keyword_statement
keywords
▁keywords
kind
▁kind
kind_application
▁kind_application
kind_signature
▁kind_signature
korea
▁korea
kwd_lit
▁kwd_lit
kwd_name
▁kwd_name
kwd_ns
▁kwd_ns
kwd_symbol
▁kwd_symbol
label_as
▁label_as
label_definition
▁label_definition
label_expression
▁label_expression
label_instruction
▁label_instruction
label_number
▁label_number
label_pair
▁label_pair
label_records_clause
▁label_records_clause
label_reference
▁label_reference
label_statement
▁label_statement
labeled_argument
▁labeled_argument
lambda_case
▁lambda_case
lambda_cases
▁lambda_cases
land
▁land
lang_name
▁lang_name
langle_bracket
▁langle_bracket
language
▁language
language_binding
▁language_binding
large
▁large
last_line
▁last_line
lateinit
▁lateinit
latex_include
▁latex_include
launch_bounds
▁launch_bounds
layout
▁layout
layout_qualifiers
▁layout_qualifiers
layout_specification
▁layout_specification
layout_specifier
▁layout_specifier
lazy_binding_pattern
▁lazy_binding_pattern
lazy_expression
▁lazy_expression
lazy_field
▁lazy_field
lazy_parameter_type
▁lazy_parameter_type
lazy_pattern
▁lazy_pattern
lc
▁lc
lc_exprs
▁lc_exprs
lc_or_zc_expr
▁lc_or_zc_expr
ld_ttile
▁ld_ttile
le
▁le
leads_to
▁leads_to
leave
▁leave
left
▁left
left_section
▁left_section
legacyFormat
▁legacyFormat
legacy_index
▁legacy_index
leq
▁leq
let_actual_arg
▁let_actual_arg
let_and_operator
▁let_and_operator
let_binding
▁let_binding
let_class_expression
▁let_class_expression
let_clause
▁let_clause
let_expression
▁let_expression
let_formal_type1
▁let_formal_type1
let_identifier
▁let_identifier
let_in
▁let_in
let_in_expr
▁let_in_expr
let_open_class_type
▁let_open_class_type
let_operator
▁let_operator
let_port_item
▁let_port_item
let_port_list
▁let_port_list
let_section
▁let_section
let_statement
▁let_statement
letter
▁letter
level
▁level
level_input_list
▁level_input_list
level_number
▁level_number
level_symbol
▁level_symbol
lf
▁lf
lhs_expression
▁lhs_expression
lhs_splat
▁lhs_splat
lib
▁lib
lib_def
▁lib_def
liblist
▁liblist
liblist_clause
▁liblist_clause
library
▁library
library_clause
▁library_clause
library_declaration
▁library_declaration
library_export
▁library_export
library_identifier
▁library_identifier
library_import
▁library_import
library_name
▁library_name
limit_value
▁limit_value
limited
▁limited
linage_bottom
▁linage_bottom
linage_clause
▁linage_clause
linage_counter
▁linage_counter
linage_footing
▁linage_footing
linage_lines
▁linage_lines
linage_top
▁linage_top
line_comment
▁line_comment
line_continuation
▁line_continuation
line_number
▁line_number
line_or_lines
▁line_or_lines
lineadj
▁lineadj
linear
▁linear
linear_function
▁linear_function
linebreaks
▁linebreaks
linefeed
▁linefeed
linehl
▁linehl
lines
▁lines
link
▁link
link_destination
▁link_destination
link_label
▁link_label
link_section
▁link_section
link_title
▁link_title
linkage_section
▁linkage_section
linksection
▁linksection
list_assignment
▁list_assignment
list_binding_pattern
▁list_binding_pattern
list_element_access
▁list_element_access
list_expr
▁list_expr
list_expression
▁list_expression
list_item
▁list_item
list_lit
▁list_lit
list_literal
▁list_literal
list_marker_dot
▁list_marker_dot
list_marker_minus
▁list_marker_minus
list_marker_plus
▁list_marker_plus
list_marker_star
▁list_marker_star
list_notation
▁list_notation
list_of_arguments
▁list_of_arguments
list_of_cross_items
▁list_of_cross_items
list_of_path_inputs
▁list_of_path_inputs
list_of_path_outputs
▁list_of_path_outputs
list_of_ports
▁list_of_ports
list_type
▁list_type
list_value
▁list_value
listing_environment
▁listing_environment
literalChar
▁literalChar
literalNumber
▁literalNumber
literalString
▁literalString
literal_content
▁literal_content
literal_dictionary
▁literal_dictionary
literal_expression
▁literal_expression
literal_key
▁literal_key
ll
▁ll
lmap
▁lmap
lnoremap
▁lnoremap
lnot
▁lnot
loaded_buffers
▁loaded_buffers
local
▁local
local_binds
▁local_binds
local_date
▁local_date
local_date_time
▁local_date_time
local_definition
▁local_definition
local_name
▁local_name
local_open_pattern
▁local_open_pattern
local_open_type
▁local_open_type
local_statement
▁local_statement
local_time
▁local_time
locale_clause
▁locale_clause
localparam
▁localparam
lock
▁lock
lock_mode
▁lock_mode
lock_mode_clause
▁lock_mode_clause
lock_statement
▁lock_statement
logic
▁logic
logical_and_operator
▁logical_and_operator
logical_expression
▁logical_expression
logical_name_list
▁logical_name_list
logical_or_operator
▁logical_or_operator
long_identifier
▁long_identifier
long_literal
▁long_literal
long_string_literal
▁long_string_literal
longint
▁longint
lookaround_assertion
▁lookaround_assertion
loop_clause
▁loop_clause
loop_label
▁loop_label
loop_macro
▁loop_macro
loop_statement
▁loop_statement
loop_variables1
▁loop_variables1
lor
▁lor
lower_bound
▁lower_bound
lower_pattern
▁lower_pattern
lower_type_name
▁lower_type_name
lowp
▁lowp
ls
▁ls
ls_ttile
▁ls_ttile
lsl
▁lsl
lsr
▁lsr
lt
▁lt
lua
▁lua
lua_statement
▁lua_statement
luacode_environment
▁luacode_environment
lvalue_expression
▁lvalue_expression
lxor
▁lxor
mac
▁mac
macos
▁macos
macosx
▁macosx
macro_argument_list
▁macro_argument_list
macro_begin
▁macro_begin
macro_body
▁macro_body
macro_call_args
▁macro_call_args
macro_call_expr
▁macro_call_expr
macro_command
▁macro_command
macro_content
▁macro_content
macro_def
▁macro_def
macro_else
▁macro_else
macro_elsif
▁macro_elsif
macro_expr
▁macro_expr
macro_expression
▁macro_expression
macro_for
▁macro_for
macro_identifier
▁macro_identifier
macro_if
▁macro_if
macro_lhs
▁macro_lhs
macro_statement
▁macro_statement
macro_string
▁macro_string
macro_unless
▁macro_unless
macro_var
▁macro_var
macro_verbatim
▁macro_verbatim
macrocall_expression
▁macrocall_expression
macroman
▁macroman
macromodule
▁macromodule
makefile
▁makefile
makeref_expression
▁makeref_expression
managed
▁managed
map_comprehension
▁map_comprehension
map_content
▁map_content
map_expr
▁map_expr
map_expr_update
▁map_expr_update
map_field
▁map_field
map_from
▁map_from
map_generator
▁map_generator
map_item
▁map_item
map_lit
▁map_lit
map_pattern
▁map_pattern
map_side
▁map_side
map_statement
▁map_statement
map_to
▁map_to
mapclear
▁mapclear
mapping
▁mapping
maps_to
▁maps_to
mark
▁mark
marker_definition
▁marker_definition
match_case
▁match_case
match_condition_list
▁match_condition_list
match_expr
▁match_expr
match_operator
▁match_operator
match_regexp
▁match_regexp
match_type
▁match_type
matches
▁matches
matchgroup
▁matchgroup
math_delimiter
▁math_delimiter
math_environment
▁math_environment
math_expression
▁math_expression
matrix_expression
▁matrix_expression
matrix_row
▁matrix_row
max
▁max
maybe
▁maybe
maybe_expr
▁maybe_expr
mb
▁mb
mcopy
▁mcopy
mdo
▁mdo
media_statement
▁media_statement
medium
▁medium
mediump
▁mediump
member
▁member
member_access
▁member_access
member_defn
▁member_defn
member_identifier
▁member_identifier
member_name
▁member_name
member_signature
▁member_signature
memory
▁memory
menu
▁menu
message
▁message
message_body
▁message_body
message_expression
▁message_expression
message_name
▁message_name
message_or_enum_type
▁message_or_enum_type
messages
▁messages
meta_lit
▁meta_lit
meta_type_expression
▁meta_type_expression
method_call
▁method_call
method_call_body
▁method_call_body
method_def
▁method_def
method_expression
▁method_expression
method_identifier
▁method_identifier
method_name
▁method_name
method_or_prop_defn
▁method_or_prop_defn
method_parameter
▁method_parameter
method_proc
▁method_proc
method_qualifier
▁method_qualifier
method_specification
▁method_specification
method_type
▁method_type
minted_environment
▁minted_environment
mintypmax_expression
▁mintypmax_expression
minus
▁minus
minus_metadata
▁minus_metadata
minus_operator
▁minus_operator
minusminus
▁minusminus
minutes
▁minutes
mixin
▁mixin
mixin_application
▁mixin_application
mixin_declaration
▁mixin_declaration
mixin_statement
▁mixin_statement
mixins
▁mixins
mload
▁mload
mnemonic_name_clause
▁mnemonic_name_clause
mod_clause
▁mod_clause
mode
▁mode
modifier
▁modifier
modifier_definition
▁modifier_definition
modifier_ensure
▁modifier_ensure
modifier_if
▁modifier_if
modifier_invocation
▁modifier_invocation
modifier_rescue
▁modifier_rescue
modifier_unless
▁modifier_unless
modmod
▁modmod
modport
▁modport
modport_declaration
▁modport_declaration
modport_identifier
▁modport_identifier
modport_item
▁modport_item
modport_simple_port
▁modport_simple_port
moduleName
▁moduleName
module_abbrev
▁module_abbrev
module_ansi_header
▁module_ansi_header
module_application
▁module_application
module_attribute
▁module_attribute
module_binding
▁module_binding
module_def
▁module_def
module_definition
▁module_definition
module_defn
▁module_defn
module_export
▁module_export
module_header
▁module_header
module_id
▁module_id
module_import
▁module_import
module_instantiation
▁module_instantiation
module_keyword
▁module_keyword
module_parameter
▁module_parameter
module_path
▁module_path
module_path_primary
▁module_path_primary
module_procedure
▁module_procedure
module_ref
▁module_ref
module_statement
▁module_statement
module_type_name
▁module_type_name
module_type_of
▁module_type_of
module_type_path
▁module_type_path
moduleheader
▁moduleheader
mos_switch_instance
▁mos_switch_instance
mos_switchtype
▁mos_switchtype
mount
▁mount
mount_param
▁mount_param
mount_param_param
▁mount_param_param
ms
▁ms
ms_asm_block
▁ms_asm_block
msize
▁msize
mstore
▁mstore
mul
▁mul
mul_exp
▁mul_exp
mulmod
▁mulmod
mulmul
▁mulmul
mult_operator
▁mult_operator
multi_string
▁multi_string
multi_way_if
▁multi_way_if
multiline_string
▁multiline_string
multiple_file
▁multiple_file
multiple_subscript
▁multiple_subscript
multiplying_operator
▁multiplying_operator
mutate_expression
▁mutate_expression
mutation
▁mutation
n_input_gatetype
▁n_input_gatetype
n_output_gatetype
▁n_output_gatetype
n_string
▁n_string
na
▁na
name
▁name
name_and_type
▁name_and_type
name_of_instance
▁name_of_instance
named_argument
▁named_argument
named_block
▁named_block
named_block_list
▁named_block_list
named_expr
▁named_expr
named_field
▁named_field
named_field_pattern
▁named_field_pattern
named_module
▁named_module
named_pattern
▁named_pattern
named_tuple
▁named_tuple
named_tuple_pattern
▁named_tuple_pattern
named_tuple_type
▁named_tuple_type
named_type
▁named_type
namelist_statement
▁namelist_statement
namespace_name
▁namespace_name
namespace_operator
▁namespace_operator
namespace_selector
▁namespace_selector
namespace_selectors
▁namespace_selectors
namespace_statement
▁namespace_statement
namespace_use_clause
▁namespace_use_clause
namespace_use_group
▁namespace_use_group
namespace_wildcard
▁namespace_wildcard
nan
▁nan
nand
▁nand
nat_number
▁nat_number
nat_number_set
▁nat_number_set
nativeint
▁nativeint
ncontrol_terminal
▁ncontrol_terminal
ne
▁ne
negate_expr
▁negate_expr
negated_command
▁negated_command
negated_pattern
▁negated_pattern
negated_statement
▁negated_statement
negation
▁negation
negation_operator
▁negation_operator
negative
▁negative
negative_exp
▁negative_exp
negedge
▁negedge
nel
▁nel
neq
▁neq
nesting_selector
▁nesting_selector
net_alias
▁net_alias
net_assignment
▁net_assignment
net_decl_assignment
▁net_decl_assignment
net_declaration
▁net_declaration
net_lvalue
▁net_lvalue
net_port_header1
▁net_port_header1
net_port_type1
▁net_port_type1
net_type
▁net_type
net_type_declaration
▁net_type_declaration
nettype
▁nettype
new_index
▁new_index
newline
▁newline
newtype
▁newtype
newtype_constructor
▁newtype_constructor
next_a
▁next_a
next_e
▁next_e
next_event
▁next_event
next_event_a
▁next_event_a
next_event_e
▁next_event_e
next_line
▁next_line
next_state
▁next_state
next_statement
▁next_statement
nextfile
▁nextfile
nextfile_statement
▁nextfile_statement
nextgroup
▁nextgroup
nexttime
▁nexttime
nil_lit
▁nil_lit
nil_literal
▁nil_literal
nilable_constant
▁nilable_constant
nilable_type
▁nilable_type
nint
▁nint
nmap
▁nmap
nmos
▁nmos
nnoremap
▁nnoremap
no_option
▁no_option
noalias
▁noalias
nobin
▁nobin
nobinary
▁nobinary
nocombine
▁nocombine
noinline
▁noinline
nointerpolation
▁nointerpolation
nominal
▁nominal
nominal_key_clause
▁nominal_key_clause
non_capturing_group
▁non_capturing_group
non_empty_mode
▁non_empty_mode
non_integer_type
▁non_integer_type
non_null_type
▁non_null_type
non_terminal_proof
▁non_terminal_proof
nonrec
▁nonrec
noperspective
▁noperspective
noremap
▁noremap
normal_command
▁normal_command
normal_statement
▁normal_statement
normal_var
▁normal_var
noshowcancelled
▁noshowcancelled
nosuspend
▁nosuspend
nosuspend_expression
▁nosuspend_expression
nosuspend_statement
▁nosuspend_statement
not_nullable_type
▁not_nullable_type
nothrow
▁nothrow
notifier
▁notifier
notin
▁notin
notnull
▁notnull
nowdoc
▁nowdoc
nowdoc_body
▁nowdoc_body
nowdoc_string
▁nowdoc_string
ns
▁ns
ns_map_lit
▁ns_map_lit
ns_qualified_name
▁ns_qualified_name
nuint
▁nuint
nul
▁nul
null_array_aggregate
▁null_array_aggregate
null_assert_pattern
▁null_assert_pattern
null_check_pattern
▁null_check_pattern
null_exclusion
▁null_exclusion
null_lit
▁null_lit
null_scalar
▁null_scalar
null_statement
▁null_statement
null_value
▁null_value
nullable
▁nullable
nullable_selector
▁nullable_selector
nullable_type
▁nullable_type
nullify_statement
▁nullify_statement
num_lit
▁num_lit
number_constant_expr
▁number_constant_expr
number_declaration
▁number_declaration
number_unit
▁number_unit
numeric_lit
▁numeric_lit
numeric_literal
▁numeric_literal
numhl
▁numhl
objc_bridge
▁objc_bridge
objc_bridge_related
▁objc_bridge_related
object_declaration
▁object_declaration
object_definition
▁object_definition
object_elem
▁object_elem
object_end
▁object_end
object_expression
▁object_expression
object_field
▁object_field
object_literal
▁object_literal
object_start
▁object_start
object_value
▁object_value
objectkey
▁objectkey
objectkeyval
▁objectkeyval
objectkeyvals
▁objectkeyvals
objectpattern
▁objectpattern
objectpatterns
▁objectpatterns
objectval
▁objectval
ocamlyacc_value
▁ocamlyacc_value
occurs_clause
▁occurs_clause
occurs_indexed
▁occurs_indexed
occurs_key
▁occurs_key
occurs_key_spec
▁occurs_key_spec
octal_lit
▁octal_lit
octal_number
▁octal_number
odd
▁odd
odot
▁odot
of_branch
▁of_branch
off
▁off
offset_date_time
▁offset_date_time
old_meta_lit
▁old_meta_lit
omap
▁omap
ominus
▁ominus
onbuild_instruction
▁onbuild_instruction
one_or_more
▁one_or_more
oneline
▁oneline
oneof
▁oneof
oneof_field
▁oneof_field
oneway
▁oneway
onoremap
▁onoremap
op_assign
▁op_assign
op_identifier
▁op_identifier
opaque
▁opaque
opaque_declaration
▁opaque_declaration
opaque_modifier
▁opaque_modifier
open_arg
▁open_arg
open_char
▁open_char
open_ct
▁open_ct
open_curly
▁open_curly
open_list
▁open_list
open_modifier
▁open_modifier
open_module
▁open_module
open_quote
▁open_quote
open_range_list
▁open_range_list
open_statement
▁open_statement
open_tuple
▁open_tuple
open_value_range
▁open_value_range
operation
▁operation
operation_definition
▁operation_definition
operation_type
▁operation_type
operatorName
▁operatorName
operator_args
▁operator_args
operator_definition
▁operator_definition
operator_identifier
▁operator_identifier
operator_notation
▁operator_notation
operator_signature
▁operator_signature
operator_symbol
▁operator_symbol
oplus
▁oplus
option
▁option
option_name
▁option_name
optional_identifier
▁optional_identifier
optional_pattern
▁optional_pattern
options_statement
▁options_statement
or_operator
▁or_operator
order_by_clause
▁order_by_clause
order_prerequisites
▁order_prerequisites
orderby
▁orderby
ordinary_rule
▁ordinary_rule
orelse
▁orelse
organization_clause
▁organization_clause
origin
▁origin
oslash
▁oslash
other_arm
▁other_arm
others
▁others
otimes
▁otimes
out_type
▁out_type
outer
▁outer
output
▁output
output_declaration
▁output_declaration
output_directive
▁output_directive
output_item_list
▁output_item_list
output_symbol
▁output_symbol
output_terminal
▁output_terminal
overload_declaration
▁overload_declaration
overload_operator
▁overload_operator
override_directive
▁override_directive
override_specifier
▁override_specifier
overriding_indicator
▁overriding_indicator
packadd
▁packadd
package_body
▁package_body
package_body_stub
▁package_body_stub
package_expression
▁package_expression
package_header
▁package_header
package_import_item
▁package_import_item
package_include
▁package_include
package_lit
▁package_lit
package_map_aspect
▁package_map_aspect
package_object
▁package_object
package_pathname
▁package_pathname
package_pattern
▁package_pattern
package_scope
▁package_scope
package_statement
▁package_statement
package_type
▁package_type
packed
▁packed
packed_dimension
▁packed_dimension
packed_module
▁packed_module
page
▁page
par_block
▁par_block
paragraph
▁paragraph
parallel
▁parallel
parallel_statement
▁parallel_statement
param_assignment
▁param_assignment
param_block
▁param_block
param_expression
▁param_expression
param_list
▁param_list
parameter_assignment
▁parameter_assignment
parameter_identifier
▁parameter_identifier
parameter_override
▁parameter_override
parameter_port_list
▁parameter_port_list
parameter_statement
▁parameter_statement
parameter_type_list
▁parameter_type_list
parameter_types
▁parameter_types
params
▁params
paren_expr
▁paren_expr
paren_expression
▁paren_expression
paren_pattern
▁paren_pattern
paren_type
▁paren_type
parens
▁parens
parentheses
▁parentheses
parenthesized
▁parenthesized
parenthesized_expr
▁parenthesized_expr
parenthesized_query
▁parenthesized_query
parenthesized_value
▁parenthesized_value
part
▁part
part_directive
▁part_directive
part_of_builtin
▁part_of_builtin
part_of_directive
▁part_of_directive
partial
▁partial
pass_en_switchtype
▁pass_en_switchtype
pass_switch_instance
▁pass_switch_instance
pass_switchtype
▁pass_switchtype
patch
▁patch
path_delay_value
▁path_delay_value
path_expression
▁path_expression
path_fragment
▁path_fragment
path_lit
▁path_lit
path_with_heredoc
▁path_with_heredoc
pathname_element
▁pathname_element
pattern_assignment
▁pattern_assignment
pattern_character
▁pattern_character
pattern_guard
▁pattern_guard
pattern_immd
▁pattern_immd
pattern_multi
▁pattern_multi
pattern_offset
▁pattern_offset
pattern_rule
▁pattern_rule
pattern_specific
▁pattern_specific
pattern_synonym
▁pattern_synonym
patterns
▁patterns
payable
▁payable
payload
▁payload
pb
▁pb
pcal_algorithm
▁pcal_algorithm
pcal_algorithm_body
▁pcal_algorithm_body
pcal_algorithm_start
▁pcal_algorithm_start
pcal_assert
▁pcal_assert
pcal_assign
▁pcal_assign
pcal_await
▁pcal_await
pcal_c_definitions
▁pcal_c_definitions
pcal_c_either
▁pcal_c_either
pcal_c_if
▁pcal_c_if
pcal_c_process
▁pcal_c_process
pcal_c_while
▁pcal_c_while
pcal_c_with
▁pcal_c_with
pcal_definitions
▁pcal_definitions
pcal_either
▁pcal_either
pcal_end_either
▁pcal_end_either
pcal_end_if
▁pcal_end_if
pcal_end_while
▁pcal_end_while
pcal_end_with
▁pcal_end_with
pcal_goto
▁pcal_goto
pcal_if
▁pcal_if
pcal_lhs
▁pcal_lhs
pcal_macro
▁pcal_macro
pcal_macro_call
▁pcal_macro_call
pcal_macro_decl
▁pcal_macro_decl
pcal_p_definitions
▁pcal_p_definitions
pcal_p_either
▁pcal_p_either
pcal_p_if
▁pcal_p_if
pcal_p_macro
▁pcal_p_macro
pcal_p_procedure
▁pcal_p_procedure
pcal_p_process
▁pcal_p_process
pcal_p_while
▁pcal_p_while
pcal_p_with
▁pcal_p_with
pcal_print
▁pcal_print
pcal_proc_call
▁pcal_proc_call
pcal_proc_decl
▁pcal_proc_decl
pcal_proc_var_decl
▁pcal_proc_var_decl
pcal_proc_var_decls
▁pcal_proc_var_decls
pcal_procedure
▁pcal_procedure
pcal_process
▁pcal_process
pcal_return
▁pcal_return
pcal_skip
▁pcal_skip
pcal_var_decl
▁pcal_var_decl
pcal_var_decls
▁pcal_var_decls
pcal_while
▁pcal_while
pcal_with
▁pcal_with
pcontrol_terminal
▁pcontrol_terminal
perform_option
▁perform_option
perform_procedure
▁perform_procedure
perform_test
▁perform_test
perform_varying
▁perform_varying
perl_statement
▁perl_statement
phantom
▁phantom
php_end_tag
▁php_end_tag
php_tag
▁php_tag
physical_literal
▁physical_literal
pick_proof_step
▁pick_proof_step
picture_9
▁picture_9
picture_a
▁picture_a
picture_clause
▁picture_clause
picture_edit
▁picture_edit
picture_n
▁picture_n
picture_x
▁picture_x
pipe
▁pipe
pipe_table
▁pipe_table
pipe_table_cell
▁pipe_table_cell
pipe_table_header
▁pipe_table_header
pipe_table_row
▁pipe_table_row
piped_io_exp
▁piped_io_exp
piped_io_statement
▁piped_io_statement
pipeline
▁pipeline
place
▁place
placeholder
▁placeholder
plain_scalar
▁plain_scalar
plain_value
▁plain_value
platform
▁platform
platform_modifier
▁platform_modifier
plugin
▁plugin
plus
▁plus
plus_arrow
▁plus_arrow
plus_cmd
▁plus_cmd
plus_metadata
▁plus_metadata
plus_plus_opt
▁plus_plus_opt
plusplus
▁plusplus
pmos
▁pmos
point
▁point
pointer_parameter
▁pointer_parameter
pointerof
▁pointerof
polarity_operator
▁polarity_operator
polymorphic_type
▁polymorphic_type
pop
▁pop
port
▁port
port_annotation
▁port_annotation
port_clause
▁port_clause
port_declaration
▁port_declaration
port_direction
▁port_direction
port_identifier
▁port_identifier
port_map_aspect
▁port_map_aspect
port_reference
▁port_reference
posedge
▁posedge
positive_exp
▁positive_exp
posix_class_name
▁posix_class_name
postcss_statement
▁postcss_statement
postfix_op_symbol
▁postfix_op_symbol
postfix_operator
▁postfix_operator
postfix_type
▁postfix_type
pow
▁pow
pow_exp
▁pow_exp
pow_operator
▁pow_operator
powerset
▁powerset
powpow
▁powpow
pp
▁pp
pp_define
▁pp_define
pp_elif
▁pp_elif
pp_else
▁pp_else
pp_endif
▁pp_endif
pp_if
▁pp_if
pp_ifdef
▁pp_ifdef
pp_ifndef
▁pp_ifndef
pp_include
▁pp_include
pp_include_lib
▁pp_include_lib
pp_undef
▁pp_undef
pragma
▁pragma
pragma_directive
▁pragma_directive
pragma_expression
▁pragma_expression
pragma_g
▁pragma_g
pragma_list
▁pragma_list
pragma_statement
▁pragma_statement
pragma_value
▁pragma_value
prc
▁prc
prec
▁prec
preceq
▁preceq
precise
▁precise
precision
▁precision
prefix_id
▁prefix_id
prefix_list
▁prefix_list
prefix_op
▁prefix_op
prefix_op_symbol
▁prefix_op_symbol
prefix_operator
▁prefix_operator
prefix_tuple
▁prefix_tuple
prefix_unboxed_sum
▁prefix_unboxed_sum
prefix_unboxed_tuple
▁prefix_unboxed_tuple
prefixed_expression
▁prefixed_expression
prefixed_op
▁prefixed_op
preproc_define
▁preproc_define
preproc_error
▁preproc_error
preproc_extension
▁preproc_extension
preproc_line
▁preproc_line
preproc_linemarker
▁preproc_linemarker
preproc_nullable
▁preproc_nullable
preproc_pragma
▁preproc_pragma
preproc_undef
▁preproc_undef
preproc_warning
▁preproc_warning
prerequisites
▁prerequisites
prev_func_val
▁prev_func_val
previous_pattern
▁previous_pattern
prevrandao
▁prevrandao
prexif_operator
▁prexif_operator
prim
▁prim
primary
▁primary
primary_constr_args
▁primary_constr_args
primary_constructor
▁primary_constructor
primary_literal
▁primary_literal
primary_null
▁primary_null
prime
▁prime
primitive
▁primitive
primitive_definition
▁primitive_definition
print_intrinsic
▁print_intrinsic
printf_statement
▁printf_statement
priority
▁priority
private_statement
▁private_statement
procAttribute
▁procAttribute
procExternal
▁procExternal
proc_declaration
▁proc_declaration
proc_expression
▁proc_expression
proc_type
▁proc_type
procedural_iterator
▁procedural_iterator
procedure
▁procedure
procedure_attribute
▁procedure_attribute
procedure_attributes
▁procedure_attributes
procedure_body
▁procedure_body
procedure_division
▁procedure_division
procedure_interface
▁procedure_interface
procedure_kind
▁procedure_kind
procedure_qualifier
▁procedure_qualifier
procedure_statement
▁procedure_statement
process
▁process
process_statement
▁process_statement
process_substitution
▁process_substitution
program_ansi_header
▁program_ansi_header
program_declaration
▁program_declaration
program_identifier
▁program_identifier
program_name
▁program_name
program_statement
▁program_statement
programbody
▁programbody
projected_type
▁projected_type
projection
▁projection
projection_selector
▁projection_selector
prolog
▁prolog
promoted
▁promoted
proof_step
▁proof_step
proof_step_id
▁proof_step_id
proof_step_ref
▁proof_step_ref
property_accessor
▁property_accessor
property_attribute
▁property_attribute
property_case_item
▁property_case_item
property_delegate
▁property_delegate
property_element
▁property_element
property_expr
▁property_expr
property_hook
▁property_hook
property_hook_list
▁property_hook_list
property_name
▁property_name
property_or_ident
▁property_or_ident
property_port_item
▁property_port_item
property_spec
▁property_spec
propto
▁propto
protected_body
▁protected_body
protected_body_stub
▁protected_body_stub
protected_definition
▁protected_definition
protected_type_body
▁protected_type_body
protocol_qualifier
▁protocol_qualifier
ps
▁ps
ps_identifier
▁ps_identifier
ps_type_identifier
▁ps_type_identifier
pseudo_call
▁pseudo_call
pseudo_constant
▁pseudo_constant
ptr
▁ptr
public_statement
▁public_statement
pull_gate_instance
▁pull_gate_instance
pulldown
▁pulldown
pulldown_strength
▁pulldown_strength
pullup
▁pullup
pullup_strength
▁pullup_strength
pure
▁pure
pycode_environment
▁pycode_environment
python_statement
▁python_statement
qed_step
▁qed_step
qq
▁qq
qr
▁qr
qualified
▁qualified
qualified_expression
▁qualified_expression
qualified_name
▁qualified_name
qualified_word
▁qualified_word
qualifier
▁qualifier
qualifiers
▁qualifiers
quantified_type
▁quantified_type
quantified_variables
▁quantified_variables
quantifier
▁quantifier
quantifier_bound
▁quantifier_bound
quasiquote
▁quasiquote
quasiquote_body
▁quasiquote_body
quasisyntax
▁quasisyntax
query
▁query
query_expression
▁query_expression
quest
▁quest
queue_dimension
▁queue_dimension
quickfix
▁quickfix
quote
▁quote
quote_expression
▁quote_expression
quote_statement
▁quote_statement
quoted_argument
▁quoted_argument
quoted_atom
▁quoted_atom
quoted_content
▁quoted_content
quoted_decls
▁quoted_decls
quoted_element
▁quoted_element
quoted_expression
▁quoted_expression
quoted_extension
▁quoted_extension
quoted_identifier
▁quoted_identifier
quoted_key
▁quoted_key
quoted_keyword
▁quoted_keyword
quoted_pattern
▁quoted_pattern
quoted_regexp
▁quoted_regexp
quoted_string
▁quoted_string
quoted_template
▁quoted_template
quoted_template_end
▁quoted_template_end
quoted_type
▁quoted_type
quoted_word_list
▁quoted_word_list
quoter
▁quoter
quoting_lit
▁quoting_lit
qw
▁qw
qx
▁qx
raise_expression
▁raise_expression
rand
▁rand
randc
▁randc
randcase
▁randcase
randcase_item
▁randcase_item
randcase_statement
▁randcase_statement
random_qualifier
▁random_qualifier
randomize
▁randomize
randomize_call
▁randomize_call
range_constraint
▁range_constraint
range_g
▁range_g
range_statement
▁range_statement
range_test
▁range_test
range_type
▁range_type
ranges
▁ranges
rangle_bracket
▁rangle_bracket
rangle_bracket_sub
▁rangle_bracket_sub
rank_statement
▁rank_statement
raw_string
▁raw_string
raw_string_end
▁raw_string_end
raw_string_start
▁raw_string_start
raw_text
▁raw_text
rayPayloadEXT
▁rayPayloadEXT
rayPayloadInEXT
▁rayPayloadInEXT
rayPayloadInNV
▁rayPayloadInNV
rayPayloadNV
▁rayPayloadNV
rcmos
▁rcmos
rd_ttile
▁rd_ttile
read
▁read
read_cond_lit
▁read_cond_lit
read_statement
▁read_statement
readonly_modifier
▁readonly_modifier
real
▁real
real_decimal
▁real_decimal
real_number
▁real_number
real_number_set
▁real_number_set
realtime
▁realtime
rec
▁rec
recInitializer
▁recInitializer
recInitializerField
▁recInitializerField
receive
▁receive
receive_after
▁receive_after
receive_expr
▁receive_expr
receiver_type
▁receiver_type
recipe
▁recipe
recipe_context
▁recipe_context
recipeprefix
▁recipeprefix
record_aggregate
▁record_aggregate
record_clause
▁record_clause
record_constraint
▁record_constraint
record_decl
▁record_decl
record_definition
▁record_definition
record_expr
▁record_expr
record_expression
▁record_expression
record_field
▁record_field
record_field_expr
▁record_field_expr
record_field_name
▁record_field_name
record_fields
▁record_fields
record_index_expr
▁record_index_expr
record_literal
▁record_literal
record_name
▁record_name
record_resolution
▁record_resolution
record_type
▁record_type
record_type_defn
▁record_type_defn
record_type_field
▁record_type_field
record_update_expr
▁record_update_expr
record_value
▁record_value
recurse
▁recurse
recursive_pattern
▁recursive_pattern
redefines_clause
▁redefines_clause
redirect_statement
▁redirect_statement
redirected_file_name
▁redirected_file_name
redirected_statement
▁redirected_statement
redirection
▁redirection
redirections
▁redirections
reduce
▁reduce
reduction
▁reduction
ref_declaration
▁ref_declaration
ref_expression
▁ref_expression
ref_parameter
▁ref_parameter
ref_type
▁ref_type
reference_event
▁reference_event
reference_modifier
▁reference_modifier
refinement
▁refinement
refinement_list
▁refinement_list
refmod
▁refmod
reftype_expression
▁reftype_expression
refutation_case
▁refutation_case
refvalue_expression
▁refvalue_expression
reg
▁reg
regex_constant
▁regex_constant
regex_lit
▁regex_lit
regex_modifier
▁regex_modifier
region
▁region
register_statement
▁register_statement
regular_string_part
▁regular_string_part
reification_modifier
▁reification_modifier
reified
▁reified
reject_limit_value
▁reject_limit_value
rel_operator
▁rel_operator
relation
▁relation
relation_membership
▁relation_membership
relational_operator
▁relational_operator
relational_pattern
▁relational_pattern
relative_name
▁relative_name
relative_pathname
▁relative_pathname
relative_scope
▁relative_scope
release
▁release
rem
▁rem
remain_active_flag
▁remain_active_flag
remote
▁remote
remote_module
▁remote_module
remove
▁remove
renames_clause
▁renames_clause
render
▁render
render_tag
▁render_tag
repeat_clause
▁repeat_clause
repeat_pattern
▁repeat_pattern
repeat_range
▁repeat_range
repeat_statement
▁repeat_statement
repeatable
▁repeatable
repeated
▁repeated
replacement_guard_or
▁replacement_guard_or
replacement_parens
▁replacement_parens
replacing_clause
▁replacing_clause
replacing_item
▁replacing_item
report_clase
▁report_clase
report_section
▁report_section
report_statement
▁report_statement
repository_paragraph
▁repository_paragraph
representational
▁representational
requeue_statement
▁requeue_statement
require_expression
▁require_expression
rescue_block
▁rescue_block
reserved
▁reserved
reserved_directive
▁reserved_directive
resolution_function
▁resolution_function
restore
▁restore
result_profile
▁result_profile
resume
▁resume
resume_expression
▁resume_expression
rethrow
▁rethrow
rethrow_builtin
▁rethrow_builtin
rethrow_expression
▁rethrow_expression
return_parameter
▁return_parameter
returndatacopy
▁returndatacopy
returndatasize
▁returndatasize
returns
▁returns
reverse
▁reverse
revert
▁revert
revert_arguments
▁revert_arguments
revert_statement
▁revert_statement
right
▁right
right_section
▁right_section
rnmos
▁rnmos
rol
▁rol
role
▁role
role_annotation
▁role_annotation
role_statement
▁role_statement
root
▁root
ror
▁ror
rpc
▁rpc
rpc_name
▁rpc_name
rpmos
▁rpmos
rs
▁rs
rs_ttile
▁rs_ttile
rtran
▁rtran
rttiAttributes
▁rttiAttributes
rubout
▁rubout
ruby_statement
▁ruby_statement
rule
▁rule
rule_set
▁rule_set
rules
▁rules
run_instruction
▁run_instruction
runtime_statement
▁runtime_statement
s_always
▁s_always
s_eventually
▁s_eventually
s_nexttime
▁s_nexttime
safe
▁safe
safety
▁safety
same_clause
▁same_clause
sample
▁sample
sampler
▁sampler
sar
▁sar
save_statement
▁save_statement
sbyte
▁sbyte
scalar
▁scalar
scalar_constant
▁scalar_constant
scalared
▁scalared
schema
▁schema
schema_definition
▁schema_definition
schema_extension
▁schema_extension
scope_dict
▁scope_dict
scope_statement
▁scope_statement
scoped
▁scoped
scoped_type
▁scoped_type
screen_section
▁screen_section
script
▁script
script_block
▁script_block
script_block_body
▁script_block_body
script_element
▁script_element
script_file
▁script_file
script_parameter
▁script_parameter
script_tag
▁script_tag
scroll_lines
▁scroll_lines
sdiv
▁sdiv
seconds
▁seconds
section
▁section
security_section
▁security_section
select1
▁select1
select_alternative
▁select_alternative
select_clause
▁select_clause
select_condition
▁select_condition
select_expression
▁select_expression
selected_component
▁selected_component
selected_expressions
▁selected_expressions
selected_import
▁selected_import
selected_name
▁selected_name
selected_waveforms
▁selected_waveforms
selection
▁selection
selection_set
▁selection_set
selective_accept
▁selective_accept
selector_query
▁selector_query
selectors
▁selectors
self_closing_tag
▁self_closing_tag
self_type
▁self_type
selfbalance
▁selfbalance
selfdestruct
▁selfdestruct
semantics
▁semantics
semicolon
▁semicolon
sensitivity_list
▁sensitivity_list
seq_block
▁seq_block
sequence
▁sequence
sequence_declaration
▁sequence_declaration
sequence_expr
▁sequence_expr
sequence_instance
▁sequence_instance
sequence_port_item
▁sequence_port_item
sequence_statement
▁sequence_statement
sequential_body
▁sequential_body
service
▁service
service_name
▁service_name
set_expression
▁set_expression
set_filter
▁set_filter
set_in
▁set_in
set_item
▁set_item
set_lit
▁set_lit
set_map
▁set_map
set_of_functions
▁set_of_functions
set_of_records
▁set_of_records
set_or_map_literal
▁set_or_map_literal
set_statement
▁set_statement
set_value
▁set_value
setext_h1_underline
▁setext_h1_underline
setext_h2_underline
▁setext_h2_underline
setext_heading
▁setext_heading
setlocal_statement
▁setlocal_statement
setminus
▁setminus
setter_signature
▁setter_signature
severity_expression
▁severity_expression
sexp_comment
▁sexp_comment
sgt
▁sgt
shaderRecordEXT
▁shaderRecordEXT
shaderRecordNV
▁shaderRecordNV
shared
▁shared
shebang_directive
▁shebang_directive
shell_code
▁shell_code
shell_command
▁shell_command
shell_fragment
▁shell_fragment
shell_instruction
▁shell_instruction
shellcmd
▁shellcmd
shift_expression
▁shift_expression
shift_operator
▁shift_operator
shl
▁shl
shortint
▁shortint
shortreal
▁shortreal
show
▁show
showcancelled
▁showcancelled
shr
▁shr
sibling_selector
▁sibling_selector
sig
▁sig
sigil
▁sigil
sigil_modifiers
▁sigil_modifiers
sigil_name
▁sigil_name
sign
▁sign
sign_argument
▁sign_argument
sign_clause
▁sign_clause
sign_expression
▁sign_expression
sign_operator
▁sign_operator
sign_statement
▁sign_statement
signal_declaration
▁signal_declaration
signal_kind
▁signal_kind
signal_list
▁signal_list
signature
▁signature
signed_number
▁signed_number
signextend
▁signextend
silent_statement
▁silent_statement
sim
▁sim
simeq
▁simeq
simple_enum_case
▁simple_enum_case
simple_expansion
▁simple_expansion
simple_expression
▁simple_expression
simple_heredoc_body
▁simple_heredoc_body
simple_name
▁simple_name
simple_parameter
▁simple_parameter
simple_type
▁simple_type
sinclude
▁sinclude
single_line
▁single_line
single_quote_scalar
▁single_quote_scalar
single_quote_string
▁single_quote_string
single_quoted_string
▁single_quoted_string
singleton_type
▁singleton_type
size
▁size
size_is
▁size_is
size_is_auto
▁size_is_auto
size_is_default
▁size_is_default
sized_allocation
▁sized_allocation
sized_declarator
▁sized_declarator
sjis
▁sjis
skip
▁skip
sla
▁sla
slash
▁slash
slashslash
▁slashslash
slice_access
▁slice_access
slice_name
▁slice_name
slice_range
▁slice_range
slice_ranges
▁slice_ranges
sll
▁sll
sload
▁sload
slt
▁slt
small
▁small
smap
▁smap
smod
▁smod
smooth
▁smooth
snippet
▁snippet
snippet_end
▁snippet_end
snippet_name
▁snippet_name
snippet_start
▁snippet_start
snippet_statement
▁snippet_statement
snoremap
▁snoremap
snorm
▁snorm
soft
▁soft
solidity_version
▁solidity_version
solve
▁solve
solve_before_list
▁solve_before_list
sort
▁sort
sort_expression
▁sort_expression
source
▁source
source_code
▁source_code
source_statement
▁source_statement
space
▁space
spath_expression
▁spath_expression
spec
▁spec
special
▁special
special_variable
▁special_variable
specifier_qualifier
▁specifier_qualifier
specify
▁specify
specify_block
▁specify_block
specparam
▁specparam
specparam_assignment
▁specparam_assignment
specparam_identifier
▁specparam_identifier
splat
▁splat
splat_expression
▁splat_expression
splat_param
▁splat_param
splice
▁splice
split
▁split
spread
▁spread
spread_expression
▁spread_expression
sqcap
▁sqcap
sqcup
▁sqcup
sqsubset
▁sqsubset
sqsubseteq
▁sqsubseteq
sqsupset
▁sqsupset
sqsupseteq
▁sqsupseteq
sra
▁sra
srl
▁srl
ssr
▁ssr
ssr_definition
▁ssr_definition
ssr_replacement
▁ssr_replacement
ssr_when
▁ssr_when
sstore
▁sstore
stab_clause
▁stab_clause
stable_identifier
▁stable_identifier
stackalloc
▁stackalloc
standalone
▁standalone
standout
▁standout
star
▁star
start
▁start
start_assertion
▁start_assertion
start_edge_offset
▁start_edge_offset
start_tag
▁start_tag
state
▁state
state_location
▁state_location
state_mutability
▁state_mutability
statement_level
▁statement_level
statement_or_null
▁statement_or_null
static_array_type
▁static_array_type
static_modifier
▁static_modifier
static_parameter
▁static_parameter
static_pattern_rule
▁static_pattern_rule
static_statement
▁static_statement
static_type
▁static_type
staticcall
▁staticcall
std
▁std
stdcall
▁stdcall
step_expr_no_stutter
▁step_expr_no_stutter
step_expr_or_stutter
▁step_expr_or_stutter
stock
▁stock
stop
▁stop
stop_statement
▁stop_statement
stopinsert_statement
▁stopinsert_statement
storage
▁storage
str_lit
▁str_lit
stream
▁stream
stream_concatenation
▁stream_concatenation
stream_expression
▁stream_expression
stream_operator
▁stream_operator
stream_redirect
▁stream_redirect
strength0
▁strength0
strength1
▁strength1
strict
▁strict
strict_field
▁strict_field
strikethrough
▁strikethrough
string_concat
▁string_concat
string_constant_expr
▁string_constant_expr
string_escape
▁string_escape
string_expression
▁string_expression
string_interp
▁string_interp
string_lit
▁string_lit
string_scalar
▁string_scalar
string_set
▁string_set
string_value
▁string_value
strip_marker
▁strip_marker
strong
▁strong
struct_body
▁struct_body
struct_declaration
▁struct_declaration
struct_declarator
▁struct_declarator
struct_def
▁struct_def
struct_definition
▁struct_definition
struct_initializer
▁struct_initializer
struct_member
▁struct_member
struct_union
▁struct_union
struct_union_member
▁struct_union_member
structural_type
▁structural_type
structure
▁structure
style_element
▁style_element
stylesheet
▁stylesheet
sub_exp
▁sub_exp
sub_expression
▁sub_expression
subexpr_component
▁subexpr_component
subexpr_prefix
▁subexpr_prefix
subexpr_tree_nav
▁subexpr_tree_nav
subexpression
▁subexpression
submodule
▁submodule
submodule_statement
▁submodule_statement
subparagraph
▁subparagraph
subpattern
▁subpattern
subprogram_body
▁subprogram_body
subprogram_body_stub
▁subprogram_body_stub
subprogram_default
▁subprogram_default
subprogram_header
▁subprogram_header
subref
▁subref
subroutine
▁subroutine
subroutine_call
▁subroutine_call
subroutine_statement
▁subroutine_statement
subscripted
▁subscripted
subscription
▁subscription
subsection
▁subsection
subset
▁subset
subset2
▁subset2
subset2_arguments
▁subset2_arguments
subset_arguments
▁subset_arguments
subseteq
▁subseteq
substitute_statement
▁substitute_statement
substitution
▁substitution
substitution_regexp
▁substitution_regexp
subsubsection
▁subsubsection
subtype_declaration
▁subtype_declaration
subtype_indication
▁subtype_indication
subunit
▁subunit
succ
▁succ
succeq
▁succeq
suffices_proof_step
▁suffices_proof_step
suffix
▁suffix
sup_hash
▁sup_hash
sup_plus
▁sup_plus
superscript
▁superscript
supports_statement
▁supports_statement
supset
▁supset
supseteq
▁supseteq
suspend
▁suspend
suspend_statement
▁suspend_statement
svelte_raw_text
▁svelte_raw_text
svelte_raw_text_each
▁svelte_raw_text_each
svg_include
▁svg_include
switch_clause
▁switch_clause
switch_clauses
▁switch_clauses
switch_condition
▁switch_condition
switch_filename
▁switch_filename
switch_parameter
▁switch_parameter
switch_parameters
▁switch_parameters
switch_section
▁switch_section
sym_lit
▁sym_lit
sym_name
▁sym_name
sym_ns
▁sym_ns
sym_val_lit
▁sym_val_lit
symbol_declaration
▁symbol_declaration
symbol_literal
▁symbol_literal
syn_quoting_lit
▁syn_quoting_lit
sync_abort
▁sync_abort
synchronized_clause
▁synchronized_clause
syntax
▁syntax
syntax_argument
▁syntax_argument
syntax_statement
▁syntax_statement
syntime
▁syntime
system_tf_call
▁system_tf_call
szabo
▁szabo
t_
▁t_
tab
▁tab
tab_statement
▁tab_statement
table
▁table
table_array_element
▁table_array_element
table_constructor
▁table_constructor
tabs
▁tabs
tag
▁tag
tag_directive
▁tag_directive
tag_handle
▁tag_handle
tag_listfiles
▁tag_listfiles
tag_name
▁tag_name
tag_pattern
▁tag_pattern
tag_prefix
▁tag_prefix
tag_specification
▁tag_specification
tagged
▁tagged
tagged_or_ctor_lit
▁tagged_or_ctor_lit
tailrec
▁tailrec
taiwan
▁taiwan
take_proof_step
▁take_proof_step
target_name
▁target_name
target_specific
▁target_specific
targets
▁targets
task
▁task
task_body
▁task_body
task_body_stub
▁task_body_stub
task_declaration
▁task_declaration
task_definition
▁task_definition
task_identifier
▁task_identifier
task_prototype
▁task_prototype
tb
▁tb
template_body
▁template_body
template_directive
▁template_directive
template_element
▁template_element
template_else_intro
▁template_else_intro
template_expr
▁template_expr
template_for
▁template_for
template_for_end
▁template_for_end
template_for_start
▁template_for_start
template_if
▁template_if
template_if_end
▁template_if_end
template_if_intro
▁template_if_intro
template_literal
▁template_literal
temporal_exists
▁temporal_exists
temporal_forall
▁temporal_forall
term
▁term
terminal_identifier
▁terminal_identifier
terminal_proof
▁terminal_proof
termination_clause
▁termination_clause
ternary_exp
▁ternary_exp
ternary_op
▁ternary_op
test
▁test
test_command
▁test_command
test_declaration
▁test_declaration
test_operator
▁test_operator
texel_format
▁texel_format
text
▁text
text_interpolation
▁text_interpolation
text_macro_usage
▁text_macro_usage
text_mode
▁text_mode
texthl
▁texthl
texture_1d
▁texture_1d
texture_2d
▁texture_2d
texture_2d_array
▁texture_2d_array
texture_3d
▁texture_3d
texture_cube
▁texture_cube
texture_cube_array
▁texture_cube_array
texture_storage_1d
▁texture_storage_1d
texture_storage_2d
▁texture_storage_2d
texture_storage_3d
▁texture_storage_3d
tf_identifier
▁tf_identifier
tf_item_declaration
▁tf_item_declaration
tf_port_declaration
▁tf_port_declaration
tf_port_direction
▁tf_port_direction
tf_port_item1
▁tf_port_item1
tf_port_list
▁tf_port_list
th_quoted_name
▁th_quoted_name
thematic_break
▁thematic_break
then_block
▁then_block
then_clause
▁then_clause
then_start
▁then_start
theorem
▁theorem
theorem_definition
▁theorem_definition
thereis
▁thereis
this_expression
▁this_expression
threadlocal
▁threadlocal
threshold
▁threshold
throughout
▁throughout
throw_expression
▁throw_expression
tick
▁tick
ticks
▁ticks
tikz_library_import
▁tikz_library_import
tilde_operator
▁tilde_operator
time
▁time
time_expression
▁time_expression
time_literal
▁time_literal
time_unit
▁time_unit
timecheck_condition
▁timecheck_condition
timed_entry_call
▁timed_entry_call
timeprecision
▁timeprecision
times
▁times
timestamp
▁timestamp
timestamp_condition
▁timestamp_condition
timestamp_scalar
▁timestamp_scalar
timeunit
▁timeunit
timing_check_event
▁timing_check_event
timing_check_limit
▁timing_check_limit
title_declaration
▁title_declaration
tload
▁tload
tmap
▁tmap
tnoremap
▁tnoremap
todo
▁todo
todo_command_name
▁todo_command_name
top_level_fun_def
▁top_level_fun_def
top_splice
▁top_splice
topleft_statement
▁topleft_statement
toplevel_directive
▁toplevel_directive
tr
▁tr
tracked
▁tracked
tracked_modifier
▁tracked_modifier
trait_declaration
▁trait_declaration
trait_definition
▁trait_definition
tran
▁tran
trans_item
▁trans_item
trans_list
▁trans_list
trans_range_list
▁trans_range_list
trans_set
▁trans_set
transfer_items
▁transfer_items
transform
▁transform
translated_string
▁translated_string
transparent
▁transparent
transparent_modifier
▁transparent_modifier
transport
▁transport
trap
▁trap
trap_statement
▁trap_statement
triand
▁triand
triangle
▁triangle
triangleadj
▁triangleadj
trim
▁trim
trior
▁trior
triple_quoted_string
▁triple_quoted_string
triplet_spec
▁triplet_spec
trireg
▁trireg
try_after
▁try_after
try_class
▁try_class
try_expr
▁try_expr
try_stack
▁try_stack
tstore
▁tstore
tuple_construction
▁tuple_construction
tuple_element
▁tuple_element
tuple_end
▁tuple_end
tuple_expr
▁tuple_expr
tuple_literal
▁tuple_literal
tuple_of_identifiers
▁tuple_of_identifiers
tuple_start
▁tuple_start
tvos
▁tvos
type_abbrev_defn
▁type_abbrev_defn
type_application
▁type_application
type_argument
▁type_argument
type_argument_defn
▁type_argument_defn
type_argument_list
▁type_argument_list
type_assignment
▁type_assignment
type_attribute
▁type_attribute
type_attributes
▁type_attributes
type_binder
▁type_binder
type_case_clause
▁type_case_clause
type_cast
▁type_cast
type_check_pattern
▁type_check_pattern
type_condition
▁type_condition
type_constructor
▁type_constructor
type_def
▁type_def
type_expression
▁type_expression
type_extension
▁type_extension
type_family
▁type_family
type_family_result
▁type_family_result
type_guards
▁type_guards
type_head
▁type_head
type_instance
▁type_instance
type_lambda
▁type_lambda
type_literal
▁type_literal
type_mark
▁type_mark
type_member
▁type_member
type_name
▁type_name
type_option
▁type_option
type_param
▁type_param
type_params
▁type_params
type_patterns
▁type_patterns
type_projection
▁type_projection
type_ref
▁type_ref
type_reference
▁type_reference
type_role
▁type_role
type_section
▁type_section
type_sig
▁type_sig
type_statement
▁type_statement
type_synomym
▁type_synomym
type_test
▁type_test
type_test_expression
▁type_test_expression
type_variable
▁type_variable
type_with_generics
▁type_with_generics
typecast_expression
▁typecast_expression
typed_expression
▁typed_expression
typed_identifier
▁typed_identifier
typed_pattern
▁typed_pattern
typed_quote
▁typed_quote
typedefed_identifier
▁typedefed_identifier
typedefed_specifier
▁typedefed_specifier
typeof_expression
▁typeof_expression
typeof_specifier
▁typeof_specifier
typeref
▁typeref
typerefArgs
▁typerefArgs
typerefDot
▁typerefDot
typerefPtr
▁typerefPtr
typerefTpl
▁typerefTpl
types
▁types
typeset
▁typeset
typevar
▁typevar
uL
▁uL
udp_ansi_declaration
▁udp_ansi_declaration
udp_declaration
▁udp_declaration
udp_instance
▁udp_instance
udp_instantiation
▁udp_instantiation
udp_port_declaration
▁udp_port_declaration
udp_port_list
▁udp_port_list
udp_reg_declaration
▁udp_reg_declaration
ul
▁ul
ulong
▁ulong
unaffected
▁unaffected
unary_exp
▁unary_exp
unary_op
▁unary_op
unary_op_expr
▁unary_op_expr
unary_op_expression
▁unary_op_expression
unary_operation
▁unary_operation
unary_query
▁unary_query
unativeint
▁unativeint
unboxed_sum
▁unboxed_sum
unboxed_tuple
▁unboxed_tuple
unboxed_unit
▁unboxed_unit
unchanged
▁unchanged
unchecked
▁unchecked
unconnected_drive
▁unconnected_drive
undef_expression
▁undef_expression
undefine
▁undefine
undefine_directive
▁undefine_directive
undercurl
▁undercurl
underdashed
▁underdashed
underdotted
▁underdotted
underdouble
▁underdouble
underline
▁underline
underscore
▁underscore
unexport
▁unexport
unexport_directive
▁unexport_directive
unicode
▁unicode
unicode_property
▁unicode_property
uniform
▁uniform
uninitialized
▁uninitialized
uninitialized_var
▁uninitialized_var
union_declaration
▁union_declaration
union_def
▁union_def
union_fields
▁union_fields
union_member_types
▁union_member_types
union_type_case
▁union_type_case
union_type_cases
▁union_type_cases
union_type_defn
▁union_type_defn
union_type_extension
▁union_type_extension
union_type_field
▁union_type_field
union_type_fields
▁union_type_fields
union_variant
▁union_variant
unique_priority
▁unique_priority
unit
▁unit
unit_expr
▁unit_expr
unit_identifier
▁unit_identifier
universal_selector
▁universal_selector
unix
▁unix
unknown_command_name
▁unknown_command_name
unlet_statement
▁unlet_statement
unmanaged
▁unmanaged
unorm
▁unorm
unpacked_dimension
▁unpacked_dimension
unplace
▁unplace
unquote
▁unquote
unquote_splicing
▁unquote_splicing
unquote_splicing_lit
▁unquote_splicing_lit
unquoted_argument
▁unquoted_argument
unquoted_string
▁unquoted_string
unquoting_lit
▁unquoting_lit
unreachable
▁unreachable
unsafe_statement
▁unsafe_statement
unset
▁unset
unset_command
▁unset_command
unset_statement
▁unset_statement
unsetenv
▁unsetenv
unsigned_literal
▁unsigned_literal
unsigned_number
▁unsigned_number
unsigned_size_is
▁unsigned_size_is
unsized_dimension
▁unsized_dimension
unsyntax
▁unsyntax
unsyntax_splicing
▁unsyntax_splicing
untyped
▁untyped
upcast
▁upcast
update_exp
▁update_exp
upfrom
▁upfrom
uplus
▁uplus
upper_bound
▁upper_bound
upper_case_qid
▁upper_case_qid
upto
▁upto
uri
▁uri
uri_expression
▁uri_expression
uri_test
▁uri_test
usage_clause
▁usage_clause
use_alias
▁use_alias
use_body
▁use_body
use_body_def
▁use_body_def
use_body_expr
▁use_body_expr
use_clause
▁use_clause
use_or_hide
▁use_or_hide
use_statement
▁use_statement
user
▁user
user_command
▁user_command
user_defined_type
▁user_defined_type
user_instruction
▁user_instruction
ushort
▁ushort
using_alias
▁using_alias
using_directive
▁using_directive
using_directive_key
▁using_directive_key
using_section
▁using_section
using_statement
▁using_statement
usingnamespace
▁usingnamespace
uwire
▁uwire
uy
▁uy
va_arg
▁va_arg
va_arg_expression
▁va_arg_expression
val
▁val
val_declaration
▁val_declaration
val_definition
▁val_definition
value
▁value
value_clause
▁value_clause
value_declaration
▁value_declaration
value_definition
▁value_definition
value_expr
▁value_expr
value_literal
▁value_literal
value_name
▁value_name
value_of_clause
▁value_of_clause
value_path
▁value_path
value_pattern
▁value_pattern
value_qid
▁value_qid
value_range
▁value_range
value_sequence
▁value_sequence
value_specification
▁value_specification
varAssignDef
▁varAssignDef
varDef
▁varDef
var_args
▁var_args
var_definition
▁var_definition
var_modifier
▁var_modifier
var_parameter
▁var_parameter
var_pattern
▁var_pattern
var_quoting_lit
▁var_quoting_lit
var_section
▁var_section
var_type
▁var_type
vararg
▁vararg
vararg_expression
▁vararg_expression
variable
▁variable
variable_assignment
▁variable_assignment
variable_assignments
▁variable_assignments
variable_attributes
▁variable_attributes
variable_definition
▁variable_definition
variable_definitions
▁variable_definitions
variable_expansion
▁variable_expansion
variable_expr
▁variable_expr
variable_expression
▁variable_expression
variable_group
▁variable_group
variable_list
▁variable_list
variable_lvalue
▁variable_lvalue
variable_name
▁variable_name
variable_pattern
▁variable_pattern
variable_port_header
▁variable_port_header
variable_qualifier
▁variable_qualifier
variable_ref
▁variable_ref
variable_reference
▁variable_reference
variable_statement
▁variable_statement
variable_term
▁variable_term
variables
▁variables
variadic_placeholder
▁variadic_placeholder
variadic_unpacking
▁variadic_unpacking
variance_modifier
▁variance_modifier
variant
▁variant
variant_declaration
▁variant_declaration
variant_list
▁variant_list
variant_part
▁variant_part
varname
▁varname
varref_braces
▁varref_braces
varref_parent
▁varref_parent
varying
▁varying
vec_lit
▁vec_lit
vector
▁vector
vector_expression
▁vector_expression
vectored
▁vectored
verbatim
▁verbatim
verbatim_bytearray
▁verbatim_bytearray
verbatim_environment
▁verbatim_environment
verbatim_include
▁verbatim_include
verbatim_string
▁verbatim_string
version
▁version
version_number
▁version_number
vert
▁vert
vertical_statement
▁vertical_statement
vertvert
▁vertvert
vi
▁vi
via
▁via
view
▁view
view_bound
▁view_bound
view_pattern
▁view_pattern
view_statement
▁view_statement
vim
▁vim
visibility
▁visibility
visual_statement
▁visual_statement
vmap
▁vmap
vnoremap
▁vnoremap
volume_instruction
▁volume_instruction
vpath
▁vpath
vpath_directive
▁vpath_directive
vt
▁vt
vtab
▁vtab
wait
▁wait
wait_order
▁wait_order
wait_statement
▁wait_statement
wand
▁wand
warn
▁warn
warning
▁warning
warnings
▁warnings
watchos
▁watchos
waveform_element
▁waveform_element
waveforms
▁waveforms
weeks
▁weeks
wei
▁wei
when_clause
▁when_clause
when_condition
▁when_condition
when_entry
▁when_entry
when_expression
▁when_expression
when_subject
▁when_subject
where_expression
▁where_expression
where_statement
▁where_statement
while_clause
▁while_clause
while_command
▁while_command
while_condition
▁while_condition
while_loop
▁while_loop
wild_attribute
▁wild_attribute
wincmd_statement
▁wincmd_statement
windows
▁windows
wire
▁wire
with_accp_attr
▁with_accp_attr
with_debugging_mode
▁with_debugging_mode
with_expression
▁with_expression
with_initializer
▁with_initializer
with_template_body
▁with_template_body
within
▁within
witness_proof_step
▁witness_proof_step
wor
▁wor
word
▁word
workdir_instruction
▁workdir_instruction
workflow
▁workflow
workgroup
▁workgroup
wr
▁wr
write
▁write
write_statement
▁write_statement
writeonly
▁writeonly
x_string
▁x_string
xint
▁xint
xmap
▁xmap
xml
▁xml
xnor
▁xnor
xnoremap
▁xnoremap
xyz
▁xyz
yaml_directive
▁yaml_directive
yaml_version
▁yaml_version
years
▁years
yield_each_statement
▁yield_each_statement
yul_assignment
▁yul_assignment
yul_block
▁yul_block
yul_boolean
▁yul_boolean
yul_break
▁yul_break
yul_continue
▁yul_continue
yul_decimal_number
▁yul_decimal_number
yul_evm_builtin
▁yul_evm_builtin
yul_for_statement
▁yul_for_statement
yul_function_call
▁yul_function_call
yul_hex_number
▁yul_hex_number
yul_identifier
▁yul_identifier
yul_if_statement
▁yul_if_statement
yul_label
▁yul_label
yul_leave
▁yul_leave
yul_path
▁yul_path
yul_string_literal
▁yul_string_literal
yul_switch_statement
▁yul_switch_statement
zero_directive
▁zero_directive
zero_or_more
▁zero_or_more
JSON
▁JSON
XML
▁XML
HTML
▁HTML
CSS
▁CSS
HTTP
▁HTTP
HTTPS
▁HTTPS
SQL
▁SQL
API
▁API
URL
▁URL
TCP
▁TCP
UDP
▁UDP
DNS
▁DNS
SSH
▁SSH
SSL
▁SSL
TLS
▁TLS
JWT
▁JWT
REST
▁REST
CORS
▁CORS
WASM
▁WASM
GPU
▁GPU
CPU
▁CPU
RAM
▁RAM
PDF
▁PDF
CSV
▁CSV
YAML
▁YAML
TOML
▁TOML
CLI
▁CLI
SDK
▁SDK
IDE
▁IDE
UTF
▁UTF
ASCII
▁ASCII
RGB
▁RGB
HSL
▁HSL
PNG
▁PNG
JPG
▁JPG
SVG
▁SVG
MP3
▁MP3
MP4
▁MP4
ZIP
▁ZIP
TAR
▁TAR
FTP
▁FTP
SMTP
▁SMTP
IMAP
▁IMAP
LDAP
▁LDAP
OAuth
▁OAuth
Are
▁Are
Have
▁Have
Not
▁Not
But
▁But
All
▁All
one
▁one
One
▁One
Can
▁Can
Will
▁Will
Just
▁Just
Like
▁Like
about
▁about
About
▁About
Out
▁Out
More
▁More
Who
▁Who
there
▁there
There
▁There
Time
▁Time
Get
▁Get
New
▁New
people
▁people
People
▁People
Also
▁Also
now
▁now
Now
▁Now
Other
▁Other
good
▁good
Good
▁Good
Only
▁Only
After
▁After
first
▁first
First
▁First
know
▁know
Know
▁Know
see
▁see
See
▁See
two
▁two
Two
▁Two
Make
▁Make
Over
▁Over
think
▁think
Think
▁Think
Then
▁Then
back
▁back
Back
▁Back
want
▁want
Want
▁Want
well
▁well
Well
▁Well
said
▁said
Said
▁Said
way
▁way
Way
▁Way
Most
▁Most
Much
▁Much
Very
▁Very
Even
▁Even
May
▁May
here
▁here
Here
▁Here
need
▁need
Need
▁Need
really
▁really
Really
▁Really
Right
▁Right
work
▁work
Work
▁Work
year
▁year
Year
▁Year
Years
▁Years
Being
▁Being
day
▁day
Day
▁Day
too
▁too
Too
▁Too
going
▁going
Going
▁Going
Before
▁Before
Off
▁Off
Why
▁Why
made
▁made
Made
▁Made
still
▁still
Still
▁Still
take
▁take
Take
▁Take
Many
▁Many
Never
▁Never
life
▁life
Life
▁Life
say
▁say
Say
▁Say
world
▁world
World
▁World
down
▁down
Down
▁Down
great
▁great
Great
▁Great
Through
▁Through
last
▁last
Last
▁Last
While
▁While
best
▁best
Best
▁Best
Such
▁Such
love
▁love
Love
▁Love
man
▁man
Man
▁Man
home
▁home
Home
▁Home
look
▁look
Look
▁Look
Use
▁Use
Same
▁Same
used
▁used
Used
▁Used
Both
▁Both
Every
▁Every
come
▁come
Come
▁Come
Part
▁Part
State
▁State
three
▁three
Three
▁Three
around
▁around
Around
▁Around
Between
▁Between
Always
▁Always
better
▁better
Better
▁Better
find
▁find
Find
▁Find
Help
▁Help
high
▁high
High
▁High
little
▁little
Little
▁Little
old
▁old
Old
▁Old
Another
▁Another
own
▁own
Own
▁Own
things
▁things
Things
▁Things
Under
▁Under
game
▁game
Game
▁Game
thing
▁thing
Thing
▁Thing
give
▁give
Give
▁Give
house
▁house
House
▁House
Place
▁Place
school
▁school
School
▁School
again
▁again
Again
▁Again
Next
▁Next
Each
▁Each
End
▁End
found
▁found
Found
▁Found
Must
▁Must
Show
▁Show
big
▁big
Big
▁Big
feel
▁feel
Feel
▁Feel
sure
▁sure
Sure
▁Sure
team
▁team
Team
▁Team
ever
▁ever
Ever
▁Ever
Family
▁Family
Keep
▁Keep
Might
▁Might
please
▁please
Please
▁Please
put
▁put
Put
▁Put
money
▁money
Money
▁Money
Free
▁Free
second
▁second
Second
▁Second
someone
▁someone
Someone
▁Someone
away
▁away
Away
▁Away
Left
▁Left
Number
▁Number
city
▁city
City
▁City
Days
▁Days
lot
▁lot
Lot
▁Lot
night
▁night
Night
▁Night
play
▁play
Play
▁Play
company
▁company
Company
▁Company
Few
▁Few
Let
▁Let
different
▁different
Different
▁Different
thought
▁thought
Thought
▁Thought
Done
▁Done
however
▁however
However
▁However
getting
▁getting
Getting
▁Getting
god
▁god
God
▁God
government
▁government
Government
▁Government
Group
▁Group
looking
▁looking
Looking
▁Looking
Public
▁Public
top
▁top
Top
▁Top
business
▁business
Business
▁Business
care
▁care
Care
▁Care
Start
▁Start
system
▁system
Times
▁Times
week
▁week
Week
▁Week
already
▁already
Already
▁Already
Case
▁Case
nothing
▁nothing
Nothing
▁Nothing
person
▁person
Person
▁Person
today
▁today
Today
▁Today
change
▁change
Change
▁Change
enough
▁enough
Enough
▁Enough
full
▁full
Full
▁Full
live
▁live
Live
▁Live
making
▁making
Making
▁Making
Point
▁Point
Read
▁Read
Yet
▁Yet
Bad
▁Bad
four
▁four
Four
▁Four
hard
▁hard
Hard
▁Hard
mean
▁mean
Mean
▁Mean
once
▁once
Once
▁Once
support
▁support
Support
▁Support
tell
▁tell
Tell
▁Tell
music
▁music
Music
▁Music
power
▁power
Power
▁Power
Stop
▁Stop
water
▁water
Water
▁Water
based
▁based
Based
▁Based
believe
▁believe
Believe
▁Believe
Call
▁Call
head
▁head
Head
▁Head
men
▁men
Men
▁Men
national
▁national
National
▁National
Small
▁Small
white
▁white
White
▁White
far
▁far
Far
▁Far
job
▁job
Job
▁Job
side
▁side
Side
▁Side
Though
▁Though
Try
▁Try
yes
▁yes
Yes
▁Yes
actually
▁actually
Actually
▁Actually
american
▁american
American
▁American
later
▁later
Later
▁Later
Less
▁Less
Line
▁Line
order
▁order
Order
▁Order
party
▁party
Party
▁Party
run
▁run
Run
▁Run
Service
▁Service
country
▁country
Country
▁Country
Open
▁Open
season
▁season
Season
▁Season
shit
▁shit
Shit
▁Shit
thank
▁thank
Thank
▁Thank
general
▁general
General
▁General
trying
▁trying
Trying
▁Trying
united
▁united
United
▁United
Using
▁Using
area
▁area
Area
▁Area
black
▁black
Black
▁Black
following
▁following
Following
▁Following
law
▁law
Law
▁Law
together
▁together
Together
▁Together
war
▁war
War
▁War
whole
▁whole
Whole
▁Whole
car
▁car
Car
▁Car
face
▁face
Face
▁Face
five
▁five
Five
▁Five
Kind
▁Kind
Maybe
▁Maybe
president
▁president
President
▁President
story
▁story
Story
▁Story
working
▁working
Working
▁Working
course
▁course
Course
▁Course
health
▁health
Health
▁Health
hope
▁hope
Hope
▁Hope
Important
▁Important
least
▁least
Least
▁Least
means
▁means
Means
▁Means
news
▁news
News
▁News
Within
▁Within
Able
▁Able
book
▁book
Book
▁Book
early
▁early
Early
▁Early
information
▁information
Information
▁Information
Local
▁Local
Post
▁Post
thanks
▁thanks
Thanks
▁Thanks
video
▁video
Video
▁Video
young
▁young
Young
▁Young
ago
▁ago
Ago
▁Ago
social
▁social
Social
▁Social
talk
▁talk
Talk
▁Talk
court
▁court
Court
▁Court
fact
▁fact
Fact
▁Fact
Given
▁Given
half
▁half
Half
▁Half
hand
▁hand
Hand
▁Hand
Level
▁Level
mind
▁mind
Mind
▁Mind
often
▁often
Often
▁Often
single
▁single
Single
▁Single
become
▁become
Become
▁Become
Body
▁Body
coming
▁coming
Coming
▁Coming
control
▁control
Control
▁Control
death
▁death
Death
▁Death
food
▁food
Food
▁Food
guy
▁guy
Guy
▁Guy
Hours
▁Hours
office
▁office
Office
▁Office
pay
▁pay
Pay
▁Pay
problem
▁problem
Problem
▁Problem
south
▁south
South
▁South
almost
▁almost
Almost
▁Almost
fuck
▁fuck
Fuck
▁Fuck
History
▁History
known
▁known
Known
▁Known
Large
▁Large
lost
▁lost
Lost
▁Lost
research
▁research
Research
▁Research
room
▁room
Room
▁Room
several
▁several
Several
▁Several
taking
▁taking
Taking
▁Taking
university
▁university
University
▁University
win
▁win
Win
▁Win
wrong
▁wrong
Wrong
▁Wrong
along
▁along
Along
▁Along
girl
▁girl
Girl
▁Girl
john
▁john
John
▁John
matter
▁matter
Matter
▁Matter
pretty
▁pretty
Pretty
▁Pretty
remember
▁remember
Remember
▁Remember
air
▁air
Air
▁Air
Bit
▁Bit
Friend
▁Friend
hit
▁hit
Hit
▁Hit
needs
▁needs
Needs
▁Needs
nice
▁nice
Nice
▁Nice
playing
▁playing
Playing
▁Playing
probably
▁probably
Probably
▁Probably
saying
▁saying
Saying
▁Saying
understand
▁understand
Understand
▁Understand
yeah
▁yeah
Yeah
▁Yeah
york
▁york
York
▁York
Close
▁Close
idea
▁idea
Idea
▁Idea
international
▁international
International
▁International
past
▁past
Past
▁Past
possible
▁possible
Possible
▁Possible
wanted
▁wanted
Wanted
▁Wanted
cause
▁cause
Cause
▁Cause
due
▁due
Due
▁Due
happy
▁happy
Happy
▁Happy
human
▁human
Human
▁Human
Move
▁Move
question
▁question
Question
▁Question
series
▁series
Series
▁Series
Wait
▁Wait
woman
▁woman
Woman
▁Woman
ask
▁ask
Ask
▁Ask
community
▁community
Community
▁Community
Data
▁Data
late
▁late
Late
▁Late
Leave
▁Leave
north
▁north
North
▁North
saw
▁saw
Saw
▁Saw
Special
▁Special
watch
▁watch
Watch
▁Watch
Either
▁Either
fucking
▁fucking
Fucking
▁Fucking
future
▁future
Future
▁Future
light
▁light
Light
▁Light
low
▁low
Low
▁Low
million
▁million
Million
▁Million
morning
▁morning
Morning
▁Morning
police
▁police
Police
▁Police
stay
▁stay
Stay
▁Stay
taken
▁taken
Taken
▁Taken
age
▁age
Age
▁Age
buy
▁buy
Buy
▁Buy
deal
▁deal
Deal
▁Deal
rather
▁rather
Rather
▁Rather
reason
▁reason
Reason
▁Reason
red
▁red
Red
▁Red
report
▁report
Report
▁Report
soon
▁soon
Soon
▁Soon
third
▁third
Third
▁Third
turn
▁turn
Turn
▁Turn
check
▁check
Check
▁Check
development
▁development
Development
▁Development
form
▁form
Form
▁Form
further
▁further
Further
▁Further
heart
▁heart
Heart
▁Heart
Minutes
▁Minutes
services
▁services
Services
▁Services
act
▁act
Act
▁Act
child
▁child
Child
▁Child
fire
▁fire
Fire
▁Fire
Fun
▁Fun
living
▁living
Living
▁Living
major
▁major
Major
▁Major
phone
▁phone
Phone
▁Phone
art
▁art
Art
▁Art
behind
▁behind
Behind
▁Behind
building
▁building
Building
▁Building
easy
▁easy
Easy
▁Easy
market
▁market
Market
▁Market
near
▁near
Near
▁Near
Non
▁Non
plan
▁plan
Plan
▁Plan
political
▁political
Political
▁Political
quite
▁quite
Quite
▁Quite
six
▁six
Six
▁Six
talking
▁talking
Talking
▁Talking
west
▁west
West
▁West
works
▁works
Works
▁Works
according
▁according
According
▁According
Available
▁Available
education
▁education
Education
▁Education
Final
▁Final
former
▁former
Former
▁Former
front
▁front
Front
▁Front
List
▁List
ready
▁ready
Ready
▁Ready
sometimes
▁sometimes
Sometimes
▁Sometimes
son
▁son
Son
▁Son
street
▁street
Street
▁Street
bring
▁bring
Bring
▁Bring
college
▁college
College
▁College
current
▁current
Current
▁Current
example
▁example
Example
▁Example
experience
▁experience
Experience
▁Experience
heard
▁heard
Heard
▁Heard
london
▁london
London
▁London
meet
▁meet
Meet
▁Meet
Program
▁Program
baby
▁baby
Baby
▁Baby
chance
▁chance
Chance
▁Chance
father
▁father
Father
▁Father
march
▁march
March
▁March
Process
▁Process
song
▁song
Song
▁Song
study
▁study
Study
▁Study
Word
▁Word
Across
▁Across
action
▁action
Action
▁Action
clear
▁clear
Clear
▁Clear
month
▁month
Month
▁Month
outside
▁outside
Outside
▁Outside
words
▁words
Words
▁Words
board
▁board
Board
▁Board
cost
▁cost
Cost
▁Cost
cut
▁cut
Cut
▁Cut
Field
▁Field
held
▁held
Held
▁Held
instead
▁instead
Instead
▁Instead
main
▁main
Main
▁Main
moment
▁moment
Moment
▁Moment
mother
▁mother
Mother
▁Mother
road
▁road
Road
▁Road
thinking
▁thinking
Thinking
▁Thinking
town
▁town
Town
▁Town
department
▁department
Department
▁Department
energy
▁energy
Energy
▁Energy
fight
▁fight
Fight
▁Fight
fine
▁fine
Fine
▁Fine
Force
▁Force
hear
▁hear
Hear
▁Hear
issue
▁issue
Issue
▁Issue
played
▁played
Played
▁Played
price
▁price
Price
▁Price
rest
▁rest
Rest
▁Rest
running
▁running
Running
▁Running
Space
▁Space
summer
▁summer
Summer
▁Summer
Term
▁Term
wife
▁wife
Wife
▁Wife
america
▁america
America
▁America
beautiful
▁beautiful
Beautiful
▁Beautiful
date
▁date
Date
▁Date
Land
▁Land
miss
▁miss
Miss
▁Miss
project
▁project
Project
▁Project
sex
▁sex
Sex
▁Sex
shot
▁shot
Shot
▁Shot
site
▁site
Site
▁Site
Strong
▁Strong
account
▁account
Account
▁Account
especially
▁especially
Especially
▁Especially
eyes
▁eyes
Eyes
▁Eyes
Include
▁Include
june
▁june
June
▁June
period
▁period
Period
▁Period
position
▁position
Position
▁Position
Record
▁Record
similar
▁similar
Similar
▁Similar
total
▁total
Total
▁Total
Above
▁Above
club
▁club
Club
▁Club
common
▁common
Common
▁Common
film
▁film
Film
▁Film
lead
▁lead
Lead
▁Lead
likely
▁likely
Likely
▁Likely
military
▁military
Military
▁Military
perfect
▁perfect
Perfect
▁Perfect
personal
▁personal
Personal
▁Personal
security
▁security
Security
▁Security
share
▁share
Share
▁Share
won
▁won
Won
▁Won
april
▁april
April
▁April
center
▁center
Center
▁Center
county
▁county
County
▁County
couple
▁couple
Couple
▁Couple
dead
▁dead
Dead
▁Dead
english
▁english
English
▁English
happen
▁happen
Happen
▁Happen
hold
▁hold
Hold
▁Hold
industry
▁industry
Industry
▁Industry
Inside
▁Inside
online
▁online
Online
▁Online
player
▁player
Player
▁Player
Private
▁Private
Return
▁Return
sense
▁sense
Sense
▁Sense
Star
▁Star
Test
▁Test
View
▁View
Break
▁Break
british
▁british
British
▁British
Event
▁Event
higher
▁higher
Higher
▁Higher
hour
▁hour
Hour
▁Hour
Member
▁Member
middle
▁middle
Middle
▁Middle
needed
▁needed
Needed
▁Needed
present
▁present
Present
▁Present
result
▁result
sorry
▁sorry
Sorry
▁Sorry
training
▁training
Training
▁Training
wish
▁wish
Wish
▁Wish
answer
▁answer
Answer
▁Answer
boy
▁boy
Boy
▁Boy
Design
▁Design
Finally
▁Finally
gold
▁gold
Gold
▁Gold
gone
▁gone
Gone
▁Gone
guess
▁guess
Guess
▁Guess
interest
▁interest
Interest
▁Interest
july
▁july
July
▁July
king
▁king
King
▁King
learn
▁learn
Learn
▁Learn
policy
▁policy
Policy
▁Policy
society
▁society
Society
▁Society
alone
▁alone
Alone
▁Alone
average
▁average
Average
▁Average
bank
▁bank
Bank
▁Bank
certain
▁certain
Certain
▁Certain
church
▁church
Church
▁Church
east
▁east
East
▁East
hands
▁hands
Hands
▁Hands
hot
▁hot
Hot
▁Hot
longer
▁longer
Longer
▁Longer
medical
▁medical
Medical
▁Medical
movie
▁movie
Movie
▁Movie
original
▁original
Original
▁Original
park
▁park
Park
▁Park
performance
▁performance
Performance
▁Performance
press
▁press
Press
▁Press
received
▁received
Received
▁Received
Role
▁Role
sent
▁sent
Sent
▁Sent
tried
▁tried
Tried
▁Tried
worth
▁worth
Worth
▁Worth
bill
▁bill
Bill
▁Bill
cool
▁cool
Cool
▁Cool
director
▁director
Director
▁Director
exactly
▁exactly
Exactly
▁Exactly
giving
▁giving
Giving
▁Giving
ground
▁ground
Ground
▁Ground
meeting
▁meeting
Meeting
▁Meeting
provide
▁provide
Provide
▁Provide
relationship
▁relationship
Relationship
▁Relationship
september
▁september
September
▁September
sound
▁sound
Sound
▁Sound
Source
▁Source
usually
▁usually
Usually
▁Usually
Value
▁Value
evidence
▁evidence
Evidence
▁Evidence
follow
▁follow
Follow
▁Follow
official
▁official
Official
▁Official
production
▁production
Production
▁Production
rate
▁rate
Rate
▁Rate
reading
▁reading
Reading
▁Reading
round
▁round
Round
▁Round
save
▁save
Save
▁Save
stand
▁stand
Stand
▁Stand
stuff
▁stuff
Stuff
▁Stuff
tax
▁tax
Tax
▁Tax
whatever
▁whatever
Whatever
▁Whatever
amount
▁amount
Amount
▁Amount
blue
▁blue
Blue
▁Blue
david
▁david
David
▁David
drive
▁drive
Drive
▁Drive
eat
▁eat
Eat
▁Eat
fall
▁fall
Fall
▁Fall
fast
▁fast
Fast
▁Fast
federal
▁federal
Federal
▁Federal
feeling
▁feeling
Feeling
▁Feeling
felt
▁felt
Felt
▁Felt
green
▁green
Green
▁Green
league
▁league
League
▁League
management
▁management
Management
▁Management
Match
▁Match
model
▁model
Model
▁Model
picture
▁picture
Picture
▁Picture
Size
▁Size
step
▁step
Step
▁Step
trust
▁trust
Trust
▁Trust
central
▁central
Central
▁Central
england
▁england
England
▁England
forward
▁forward
Forward
▁Forward
Key
▁Key
mom
▁mom
Mom
▁Mom
Page
▁Page
paid
▁paid
Paid
▁Paid
Range
▁Range
review
▁review
Review
▁Review
science
▁science
Science
▁Science
trade
▁trade
Trade
▁Trade
various
▁various
Various
▁Various
attention
▁attention
Attention
▁Attention
brother
▁brother
Brother
▁Brother
chief
▁chief
Chief
▁Chief
Cup
▁Cup
football
▁football
Football
▁Football
hate
▁hate
Hate
▁Hate
james
▁james
James
▁James
led
▁led
Led
▁Led
lower
▁lower
Lower
▁Lower
natural
▁natural
Natural
▁Natural
october
▁october
October
▁October
Property
▁Property
quality
▁quality
Quality
▁Quality
send
▁send
Send
▁Send
style
▁style
Style
▁Style
vote
▁vote
Vote
▁Vote
amazing
▁amazing
Amazing
▁Amazing
august
▁august
August
▁August
blood
▁blood
Blood
▁Blood
china
▁china
China
▁China
complete
▁complete
Complete
▁Complete
dog
▁dog
Dog
▁Dog
economic
▁economic
Economic
▁Economic
hell
▁hell
Hell
▁Hell
involved
▁involved
Involved
▁Involved
Language
▁Language
lord
▁lord
Lord
▁Lord
november
▁november
November
▁November
oil
▁oil
Oil
▁Oil
related
▁related
Related
▁Related
serious
▁serious
Serious
▁Serious
stage
▁stage
Stage
▁Stage
terms
▁terms
Terms
▁Terms
title
▁title
Title
▁Title
Add
▁Add
article
▁article
Article
▁Article
attack
▁attack
Attack
▁Attack
born
▁born
Born
▁Born
damn
▁damn
Damn
▁Damn
decided
▁decided
Decided
▁Decided
decision
▁decision
Decision
▁Decision
enjoy
▁enjoy
Enjoy
▁Enjoy
entire
▁entire
Entire
▁Entire
french
▁french
French
▁French
january
▁january
January
▁January
kill
▁kill
Kill
▁Kill
perhaps
▁perhaps
Perhaps
▁Perhaps
poor
▁poor
Poor
▁Poor
Release
▁Release
situation
▁situation
Situation
▁Situation
technology
▁technology
Technology
▁Technology
turned
▁turned
Turned
▁Turned
website
▁website
Website
▁Website
written
▁written
Written
▁Written
choice
▁choice
Choice
▁Choice
Code
▁Code
considered
▁considered
Considered
▁Considered
Continue
▁Continue
council
▁council
Council
▁Council
Cover
▁Cover
currently
▁currently
Currently
▁Currently
door
▁door
Door
▁Door
election
▁election
Election
▁Election
european
▁european
European
▁European
financial
▁financial
Financial
▁Financial
Foreign
▁Foreign
hair
▁hair
Hair
▁Hair
increase
▁increase
Increase
▁Increase
legal
▁legal
Legal
▁Legal
lose
▁lose
Lose
▁Lose
michael
▁michael
Michael
▁Michael
pick
▁pick
Pick
▁Pick
race
▁race
Race
▁Race
seem
▁seem
Seem
▁Seem
seven
▁seven
Seven
▁Seven
Sign
▁Sign
simple
▁simple
Simple
▁Simple
simply
▁simply
Simply
▁Simply
staff
▁staff
Staff
▁Staff
Super
▁Super
Union
▁Union
walk
▁walk
Walk
▁Walk
washington
▁washington
Washington
▁Washington
bed
▁bed
Bed
▁Bed
built
▁built
Built
▁Built
career
▁career
Career
▁Career
changed
▁changed
Changed
▁Changed
crazy
▁crazy
Crazy
▁Crazy
daily
▁daily
Daily
▁Daily
daughter
▁daughter
Daughter
▁Daughter
december
▁december
December
▁December
die
▁die
Die
▁Die
difficult
▁difficult
Difficult
▁Difficult
figure
▁figure
Figure
▁Figure
hospital
▁hospital
Hospital
▁Hospital
loss
▁loss
Loss
▁Loss
modern
▁modern
Modern
▁Modern
paper
▁paper
Paper
▁Paper
parts
▁parts
Parts
▁Parts
popular
▁popular
Popular
▁Popular
published
▁published
Published
▁Published
Safe
▁Safe
starting
▁starting
Starting
▁Starting
Version
▁Version
voice
▁voice
Voice
▁Voice
writing
▁writing
Writing
▁Writing
army
▁army
Army
▁Army
australia
▁australia
Australia
▁Australia
earth
▁earth
Earth
▁Earth
forget
▁forget
Forget
▁Forget
goal
▁goal
Goal
▁Goal
huge
▁huge
Huge
▁Huge
internet
▁internet
Internet
▁Internet
listen
▁listen
Listen
▁Listen
okay
▁okay
Okay
▁Okay
practice
▁practice
Practice
▁Practice
sea
▁sea
Sea
▁Sea
sir
▁sir
Sir
▁Sir
success
▁success
Success
▁Success
waiting
▁waiting
Waiting
▁Waiting
ways
▁ways
Ways
▁Ways
access
▁access
Access
▁Access
Base
▁Base
Below
▁Below
deep
▁deep
Deep
▁Deep
Mark
▁Mark
missing
▁missing
Missing
▁Missing
offer
▁offer
Offer
▁Offer
Pass
▁Pass
professional
▁professional
Professional
▁Professional
risk
▁risk
Risk
▁Risk
sleep
▁sleep
Sleep
▁Sleep
Table
▁Table
ten
▁ten
Ten
▁Ten
truth
▁truth
Truth
▁Truth
ball
▁ball
Ball
▁Ball
build
▁build
Build
▁Build
card
▁card
Card
▁Card
dark
▁dark
Dark
▁Dark
district
▁district
District
▁District
europe
▁europe
Europe
▁Europe
george
▁george
George
▁George
india
▁india
India
▁India
Mine
▁Mine
minister
▁minister
Minister
▁Minister
note
▁note
Note
▁Note
percent
▁percent
Percent
▁Percent
piece
▁piece
Piece
▁Piece
recent
▁recent
Recent
▁Recent
seeing
▁seeing
Seeing
▁Seeing
straight
▁straight
Straight
▁Straight
visit
▁visit
Visit
▁Visit
wall
▁wall
Wall
▁Wall
culture
▁culture
Culture
▁Culture
february
▁february
February
▁February
growth
▁growth
Growth
▁Growth
included
▁included
Included
▁Included
married
▁married
Married
▁Married
officer
▁officer
Officer
▁Officer
pain
▁pain
Pain
▁Pain
paul
▁paul
Paul
▁Paul
respect
▁respect
Respect
▁Respect
response
▁response
Response
▁Response
river
▁river
River
▁River
rock
▁rock
Rock
▁Rock
speak
▁speak
Speak
▁Speak
specific
▁specific
Specific
▁Specific
standard
▁standard
Standard
▁Standard
tonight
▁tonight
Tonight
▁Tonight
Write
▁Write
album
▁album
Album
▁Album
century
▁century
Century
▁Century
charge
▁charge
Charge
▁Charge
cold
▁cold
Cold
▁Cold
Create
▁Create
Effect
▁Effect
eight
▁eight
Eight
▁Eight
Except
▁Except
eye
▁eye
Eye
▁Eye
funny
▁funny
Funny
▁Funny
Limited
▁Limited
moving
▁moving
Moving
▁Moving
network
▁network
Network
▁Network
peace
▁peace
Peace
▁Peace
recently
▁recently
Recently
▁Recently
Required
▁Required
sales
▁sales
Sales
▁Sales
spent
▁spent
Spent
▁Spent
store
▁store
Store
▁Store
student
▁student
Student
▁Student
tomorrow
▁tomorrow
Tomorrow
▁Tomorrow
track
▁track
Track
▁Track
watching
▁watching
Watching
▁Watching
weight
▁weight
Weight
▁Weight
addition
▁addition
Addition
▁Addition
ahead
▁ahead
Ahead
▁Ahead
allow
▁allow
Allow
▁Allow
Anti
▁Anti
Association
▁Association
beat
▁beat
Beat
▁Beat
brown
▁brown
Brown
▁Brown
capital
▁capital
Capital
▁Capital
Chinese
▁Chinese
committee
▁committee
Committee
▁Committee
conference
▁conference
Conference
▁Conference
difference
▁difference
Difference
▁Difference
Expect
▁Expect
Gas
▁Gas
island
▁island
Island
▁Island
moved
▁moved
Moved
▁Moved
normal
▁normal
Normal
▁Normal
population
▁population
Population
▁Population
potential
▁potential
Potential
▁Potential
pressure
▁pressure
Pressure
▁Pressure
radio
▁radio
Radio
▁Radio
russian
▁russian
Russian
▁Russian
station
▁station
Station
▁Station
Text
▁Text
treatment
▁treatment
Treatment
▁Treatment
western
▁western
Western
▁Western
ass
▁ass
Ass
▁Ass
beginning
▁beginning
Beginning
▁Beginning
california
▁california
California
▁California
campaign
▁campaign
Campaign
▁Campaign
certainly
▁certainly
Certainly
▁Certainly
completely
▁completely
Completely
▁Completely
Content
▁Content
credit
▁credit
Credit
▁Credit
Cross
▁Cross
described
▁described
Described
▁Described
despite
▁despite
Despite
▁Despite
female
▁female
Female
▁Female
focus
▁focus
Focus
▁Focus
husband
▁husband
Husband
▁Husband
ice
▁ice
Ice
▁Ice
individual
▁individual
Individual
▁Individual
interesting
▁interesting
Interesting
▁Interesting
Join
▁Join
kept
▁kept
Kept
▁Kept
leading
▁leading
Leading
▁Leading
loved
▁loved
Loved
▁Loved
Message
▁Message
nearly
▁nearly
Nearly
▁Nearly
particular
▁particular
Particular
▁Particular
previous
▁previous
Previous
▁Previous
quickly
▁quickly
Quickly
▁Quickly
Region
▁Region
reported
▁reported
Reported
▁Reported
Section
▁Section
Sort
▁Sort
speed
▁speed
Speed
▁Speed
travel
▁travel
Travel
▁Travel
consider
▁consider
Consider
▁Consider
contact
▁contact
Contact
▁Contact
Drop
▁Drop
Fair
▁Fair
jesus
▁jesus
Jesus
▁Jesus
kid
▁kid
Kid
▁Kid
Link
▁Link
positive
▁positive
Positive
▁Positive
sale
▁sale
Sale
▁Sale
Throughout
▁Throughout
tour
▁tour
Tour
▁Tour
welcome
▁welcome
Welcome
▁Welcome
absolutely
▁absolutely
Absolutely
▁Absolutely
additional
▁additional
Additional
▁Additional
beyond
▁beyond
Beyond
▁Beyond
conditions
▁conditions
Conditions
▁Conditions
earlier
▁earlier
Earlier
▁Earlier
Extra
▁Extra
immediately
▁immediately
Immediately
▁Immediately
leaving
▁leaving
Leaving
▁Leaving
minute
▁minute
Minute
▁Minute
nature
▁nature
Nature
▁Nature
numbers
▁numbers
Numbers
▁Numbers
quick
▁quick
Quick
▁Quick
sell
▁sell
Sell
▁Sell
significant
▁significant
Significant
▁Significant
winning
▁winning
Winning
▁Winning
agree
▁agree
Agree
▁Agree
canada
▁canada
Canada
▁Canada
clean
▁clean
Clean
▁Clean
computer
▁computer
Computer
▁Computer
construction
▁construction
Construction
▁Construction
episode
▁episode
Episode
▁Episode
favorite
▁favorite
Favorite
▁Favorite
income
▁income
Income
▁Income
justice
▁justice
Justice
▁Justice
manager
▁manager
Manager
▁Manager
movement
▁movement
Movement
▁Movement
Photo
▁Photo
posted
▁posted
Posted
▁Posted
Safety
▁Safety
scene
▁scene
Scene
▁Scene
sold
▁sold
Sold
▁Sold
spend
▁spend
Spend
▁Spend
Statement
▁Statement
sun
▁sun
Sun
▁Sun
ability
▁ability
Ability
▁Ability
announced
▁announced
Announced
▁Announced
asking
▁asking
Asking
▁Asking
calling
▁calling
Calling
▁Calling
coach
▁coach
Coach
▁Coach
collection
▁collection
Collection
▁Collection
continued
▁continued
Continued
▁Continued
costs
▁costs
Costs
▁Costs
definitely
▁definitely
Definitely
▁Definitely
designed
▁designed
Designed
▁Designed
expected
▁expected
Expected
▁Expected
friday
▁friday
Friday
▁Friday
gun
▁gun
Gun
▁Gun
heavy
▁heavy
Heavy
▁Heavy
knowledge
▁knowledge
Knowledge
▁Knowledge
particularly
▁particularly
Particularly
▁Particularly
search
▁search
Search
▁Search
subject
▁subject
Subject
▁Subject
train
▁train
Train
▁Train
wide
▁wide
Wide
▁Wide
wow
▁wow
Wow
▁Wow
Author
▁Author
centre
▁centre
Centre
▁Centre
claim
▁claim
Claim
▁Claim
dad
▁dad
Dad
▁Dad
developed
▁developed
Developed
▁Developed
fear
▁fear
Fear
▁Fear
fit
▁fit
Fit
▁Fit
generally
▁generally
Generally
▁Generally
german
▁german
German
▁German
Global
▁Global
hotel
▁hotel
Hotel
▁Hotel
interested
▁interested
Interested
▁Interested
judge
▁judge
Judge
▁Judge
lady
▁lady
Lady
▁Lady
leader
▁leader
Leader
▁Leader
Letter
▁Letter
material
▁material
Material
▁Material
nobody
▁nobody
Nobody
▁Nobody
opportunity
▁opportunity
Opportunity
▁Opportunity
Plus
▁Plus
product
▁product
Product
▁Product
regular
▁regular
Regular
▁Regular
secretary
▁secretary
Secretary
▁Secretary
sister
▁sister
Sister
▁Sister
Unit
▁Unit
annual
▁annual
Annual
▁Annual
anymore
▁anymore
Anymore
▁Anymore
bar
▁bar
Bar
▁Bar
battle
▁battle
Battle
▁Battle
brain
▁brain
Brain
▁Brain
Contract
▁Contract
degree
▁degree
Degree
▁Degree
finished
▁finished
Finished
▁Finished
floor
▁floor
Floor
▁Floor
france
▁france
France
▁France
growing
▁growing
Growing
▁Growing
hurt
▁hurt
Hurt
▁Hurt
image
▁image
Image
▁Image
insurance
▁insurance
Insurance
▁Insurance
majority
▁majority
Majority
▁Majority
opening
▁opening
Opening
▁Opening
opinion
▁opinion
Opinion
▁Opinion
physical
▁physical
Physical
▁Physical
pro
▁pro
Pro
▁Pro
reach
▁reach
Reach
▁Reach
Rule
▁Rule
seriously
▁seriously
Seriously
▁Seriously
stupid
▁stupid
Stupid
▁Stupid
successful
▁successful
Successful
▁Successful
active
▁active
Active
▁Active
administration
▁administration
Administration
▁Administration
approach
▁approach
Approach
▁Approach
australian
▁australian
Australian
▁Australian
cancer
▁cancer
Cancer
▁Cancer
civil
▁civil
Civil
▁Civil
dance
▁dance
Dance
▁Dance
defense
▁defense
Defense
▁Defense
Direction
▁Direction
independent
▁independent
Independent
▁Independent
master
▁master
Master
▁Master
russia
▁russia
Russia
▁Russia
ship
▁ship
Ship
▁Ship
Stock
▁Stock
trump
▁trump
Trump
▁Trump
weekend
▁weekend
Weekend
▁Weekend
wonder
▁wonder
Wonder
▁Wonder
worst
▁worst
Worst
▁Worst
africa
▁africa
Africa
▁Africa
awesome
▁awesome
Awesome
▁Awesome
band
▁band
Band
▁Band
beach
▁beach
Beach
▁Beach
cash
▁cash
Cash
▁Cash
clearly
▁clearly
Clearly
▁Clearly
commercial
▁commercial
Commercial
▁Commercial
effort
▁effort
Effort
▁Effort
ended
▁ended
Ended
▁Ended
fan
▁fan
Fan
▁Fan
fighting
▁fighting
Fighting
▁Fighting
imagine
▁imagine
Imagine
▁Imagine
impact
▁impact
Impact
▁Impact
lack
▁lack
Lack
▁Lack
latest
▁latest
Latest
▁Latest
learning
▁learning
Learning
▁Learning
multiple
▁multiple
Multiple
▁Multiple
older
▁older
Older
▁Older
Operation
▁Operation
organization
▁organization
Organization
▁Organization
protect
▁protect
Protect
▁Protect
secret
▁secret
Secret
▁Secret
senior
▁senior
Senior
▁Senior
spring
▁spring
Spring
▁Spring
sunday
▁sunday
Sunday
▁Sunday
telling
▁telling
Telling
▁Telling
wear
▁wear
Wear
▁Wear
Address
▁Address
analysis
▁analysis
Analysis
▁Analysis
anyway
▁anyway
Anyway
▁Anyway
Choose
▁Choose
christmas
▁christmas
Christmas
▁Christmas
Color
▁Color
commission
▁commission
Commission
▁Commission
competition
▁competition
Competition
▁Competition
details
▁details
Details
▁Details
direct
▁direct
Direct
▁Direct
dream
▁dream
Dream
▁Dream
easily
▁easily
Easily
▁Easily
finish
▁finish
Finish
▁Finish
grand
▁grand
Grand
▁Grand
increased
▁increased
Increased
▁Increased
indian
▁indian
Indian
▁Indian
literally
▁literally
Literally
▁Literally
luck
▁luck
Luck
▁Luck
marriage
▁marriage
Marriage
▁Marriage
names
▁names
Names
▁Names
necessary
▁necessary
Necessary
▁Necessary
rich
▁rich
Rich
▁Rich
skin
▁skin
Skin
▁Skin
speaking
▁speaking
Speaking
▁Speaking
supposed
▁supposed
Supposed
▁Supposed
sweet
▁sweet
Sweet
▁Sweet
thus
▁thus
Thus
▁Thus
touch
▁touch
Touch
▁Touch
yesterday
▁yesterday
Yesterday
▁Yesterday
closed
▁closed
Closed
▁Closed
congress
▁congress
Congress
▁Congress
damage
▁damage
Damage
▁Damage
directly
▁directly
Directly
▁Directly
disease
▁disease
Disease
▁Disease
doctor
▁doctor
Doctor
▁Doctor
doubt
▁doubt
Doubt
▁Doubt
drink
▁drink
Drink
▁Drink
driving
▁driving
Driving
▁Driving
established
▁established
Established
▁Established
fish
▁fish
Fish
▁Fish
gay
▁gay
Gay
▁Gay
germany
▁germany
Germany
▁Germany
glad
▁glad
Glad
▁Glad
greater
▁greater
Greater
▁Greater
grow
▁grow
Grow
▁Grow
machine
▁machine
Machine
▁Machine
notice
▁notice
Notice
▁Notice
overall
▁overall
Overall
▁Overall
planning
▁planning
Planning
▁Planning
professor
▁professor
Professor
▁Professor
sit
▁sit
Sit
▁Sit
trip
▁trip
Trip
▁Trip
basic
▁basic
Basic
▁Basic
captain
▁captain
Captain
▁Captain
carry
▁carry
Carry
▁Carry
crime
▁crime
Crime
▁Crime
effective
▁effective
Effective
▁Effective
effects
▁effects
Effects
▁Effects
explain
▁explain
Explain
▁Explain
fully
▁fully
Fully
▁Fully
highly
▁highly
Highly
▁Highly
holding
▁holding
Holding
▁Holding
Japan
▁Japan
laws
▁laws
Laws
▁Laws
male
▁male
Male
▁Male
mrs
▁mrs
Mrs
▁Mrs
plant
▁plant
Plant
▁Plant
reality
▁reality
Reality
▁Reality
smith
▁smith
Smith
▁Smith
spot
▁spot
Spot
▁Spot
texas
▁texas
Texas
▁Texas
winter
▁winter
Winter
▁Winter
worse
▁worse
Worse
▁Worse
advice
▁advice
Advice
▁Advice
agreement
▁agreement
Agreement
▁Agreement
award
▁award
Award
▁Award
Block
▁Block
broken
▁broken
Broken
▁Broken
challenge
▁challenge
Challenge
▁Challenge
christian
▁christian
Christian
▁Christian
equipment
▁equipment
Equipment
▁Equipment
Eventually
▁Eventually
holy
▁holy
Holy
▁Holy
killing
▁killing
Killing
▁Killing
lots
▁lots
Lots
▁Lots
nation
▁nation
Nation
▁Nation
otherwise
▁otherwise
Otherwise
▁Otherwise
peter
▁peter
Peter
▁Peter
Primary
▁Primary
purpose
▁purpose
Purpose
▁Purpose
rates
▁rates
Rates
▁Rates
responsible
▁responsible
Responsible
▁Responsible
shop
▁shop
Shop
▁Shop
showing
▁showing
Showing
▁Showing
sick
▁sick
Sick
▁Sick
teacher
▁teacher
Teacher
▁Teacher
theory
▁theory
Theory
▁Theory
agency
▁agency
Agency
▁Agency
avoid
▁avoid
Avoid
▁Avoid
camera
▁camera
Camera
▁Camera
Catch
▁Catch
Cell
▁Cell
coast
▁coast
Coast
▁Coast
drug
▁drug
Drug
▁Drug
economy
▁economy
Economy
▁Economy
Environment
▁Environment
executive
▁executive
Executive
▁Executive
foot
▁foot
Foot
▁Foot
hall
▁hall
Hall
▁Hall
mass
▁mass
Mass
▁Mass
meaning
▁meaning
Meaning
▁Meaning
mission
▁mission
Mission
▁Mission
nine
▁nine
Nine
▁Nine
operations
▁operations
Operations
▁Operations
politics
▁politics
Politics
▁Politics
Pop
▁Pop
saturday
▁saturday
Saturday
▁Saturday
status
▁status
Status
▁Status
therefore
▁therefore
Therefore
▁Therefore
trial
▁trial
Trial
▁Trial
truly
▁truly
Truly
▁Truly
weather
▁weather
Weather
▁Weather
activity
▁activity
Activity
▁Activity
application
▁application
Application
▁Application
coffee
▁coffee
Coffee
▁Coffee
Complex
▁Complex
Condition
▁Condition
division
▁division
Division
▁Division
evening
▁evening
Evening
▁Evening
flight
▁flight
Flight
▁Flight
freedom
▁freedom
Freedom
▁Freedom
google
▁google
Google
▁Google
heat
▁heat
Heat
▁Heat
interview
▁interview
Interview
▁Interview
Library
▁Library
located
▁located
Located
▁Located
location
▁location
Location
▁Location
murder
▁murder
Murder
▁Murder
putting
▁putting
Putting
▁Putting
queen
▁queen
Queen
▁Queen
sitting
▁sitting
Sitting
▁Sitting
standing
▁standing
Standing
▁Standing
walking
▁walking
Walking
▁Walking
accept
▁accept
Accept
▁Accept
Actual
▁Actual
appear
▁appear
Appear
▁Appear
attempt
▁attempt
Attempt
▁Attempt
broke
▁broke
Broke
▁Broke
channel
▁channel
Channel
▁Channel
distance
▁distance
Distance
▁Distance
eating
▁eating
Eating
▁Eating
exchange
▁exchange
Exchange
▁Exchange
fat
▁fat
Fat
▁Fat
fell
▁fell
Fell
▁Fell
finding
▁finding
Finding
▁Finding
glass
▁glass
Glass
▁Glass
learned
▁learned
Learned
▁Learned
mobile
▁mobile
Mobile
▁Mobile
northern
▁northern
Northern
▁Northern
opened
▁opened
Opened
▁Opened
placed
▁placed
Placed
▁Placed
powerful
▁powerful
Powerful
▁Powerful
prior
▁prior
Prior
▁Prior
protection
▁protection
Protection
▁Protection
Receive
▁Receive
religious
▁religious
Religious
▁Religious
ride
▁ride
Ride
▁Ride
robert
▁robert
Robert
▁Robert
royal
▁royal
Royal
▁Royal
screen
▁screen
Screen
▁Screen
serve
▁serve
Serve
▁Serve
Signed
▁Signed
slow
▁slow
Slow
▁Slow
species
▁species
Species
▁Species
speech
▁speech
Speech
▁Speech
traffic
▁traffic
Traffic
▁Traffic
tree
▁tree
Tree
▁Tree
wearing
▁wearing
Wearing
▁Wearing
wonderful
▁wonderful
Wonderful
▁Wonderful
agreed
▁agreed
Agreed
▁Agreed
airport
▁airport
Airport
▁Airport
Begin
▁Begin
bottom
▁bottom
Bottom
▁Bottom
demand
▁demand
Demand
▁Demand
engine
▁engine
Engine
▁Engine
famous
▁famous
Famous
▁Famous
investment
▁investment
Investment
▁Investment
keeping
▁keeping
Keeping
▁Keeping
lie
▁lie
Lie
▁Lie
partner
▁partner
Partner
▁Partner
raised
▁raised
Raised
▁Raised
sad
▁sad
Sad
▁Sad
solution
▁solution
Solution
▁Solution
southern
▁southern
Southern
▁Southern
square
▁square
Square
▁Square
stopped
▁stopped
Stopped
▁Stopped
Structure
▁Structure
thomas
▁thomas
Thomas
▁Thomas
traditional
▁traditional
Traditional
▁Traditional
twice
▁twice
Twice
▁Twice
wind
▁wind
Wind
▁Wind
worry
▁worry
Worry
▁Worry
brand
▁brand
Brand
▁Brand
bus
▁bus
Bus
▁Bus
cent
▁cent
Cent
▁Cent
chicago
▁chicago
Chicago
▁Chicago
count
▁count
Count
▁Count
covered
▁covered
Covered
▁Covered
critical
▁critical
Critical
▁Critical
digital
▁digital
Digital
▁Digital
forced
▁forced
Forced
▁Forced
fourth
▁fourth
Fourth
▁Fourth
fresh
▁fresh
Fresh
▁Fresh
lake
▁lake
Lake
▁Lake
mental
▁mental
Mental
▁Mental
missed
▁missed
Missed
▁Missed
mostly
▁mostly
Mostly
▁Mostly
mouth
▁mouth
Mouth
▁Mouth
owner
▁owner
Owner
▁Owner
previously
▁previously
Previously
▁Previously
realize
▁realize
Realize
▁Realize
remain
▁remain
Remain
▁Remain
scale
▁scale
Scale
▁Scale
score
▁score
Score
▁Score
separate
▁separate
Separate
▁Separate
smart
▁smart
Smart
▁Smart
surface
▁surface
Surface
▁Surface
Throw
▁Throw
tom
▁tom
Tom
▁Tom
totally
▁totally
Totally
▁Totally
twitter
▁twitter
Twitter
▁Twitter
wedding
▁wedding
Wedding
▁Wedding
acting
▁acting
Acting
▁Acting
african
▁african
African
▁African
arms
▁arms
Arms
▁Arms
benefit
▁benefit
Benefit
▁Benefit
budget
▁budget
Budget
▁Budget
click
▁click
Click
▁Click
estate
▁estate
Estate
▁Estate
faith
▁faith
Faith
▁Faith
fashion
▁fashion
Fashion
▁Fashion
Feature
▁Feature
fund
▁fund
Fund
▁Fund
generation
▁generation
Generation
▁Generation
hearing
▁hearing
Hearing
▁Hearing
hill
▁hill
Hill
▁Hill
jack
▁jack
Jack
▁Jack
larger
▁larger
Larger
▁Larger
louis
▁louis
Louis
▁Louis
metal
▁metal
Metal
▁Metal
Mid
▁Mid
paris
▁paris
Paris
▁Paris
profile
▁profile
Profile
▁Profile
pull
▁pull
Pull
▁Pull
push
▁push
Push
▁Push
rose
▁rose
Rose
▁Rose
seat
▁seat
Seat
▁Seat
sexual
▁sexual
Sexual
▁Sexual
Target
▁Target
understanding
▁understanding
Understanding
▁Understanding
village
▁village
Village
▁Village
agent
▁agent
Agent
▁Agent
animal
▁animal
Animal
▁Animal
Apply
▁Apply
authority
▁authority
Authority
▁Authority
basis
▁basis
Basis
▁Basis
becoming
▁becoming
Becoming
▁Becoming
draw
▁draw
Draw
▁Draw
dude
▁dude
Dude
▁Dude
enter
▁enter
Enter
▁Enter
foundation
▁foundation
Foundation
▁Foundation
gain
▁gain
Gain
▁Gain
http
▁http
Http
▁Http
japanese
▁japanese
Japanese
▁Japanese
leaders
▁leaders
Leaders
▁Leaders
Memory
▁Memory
Prime
▁Prime
ring
▁ring
Ring
▁Ring
rise
▁rise
Rise
▁Rise
selling
▁selling
Selling
▁Selling
silver
▁silver
Silver
▁Silver
soul
▁soul
Soul
▁Soul
Spread
▁Spread
supply
▁supply
Supply
▁Supply
waste
▁waste
Waste
▁Waste
weird
▁weird
Weird
▁Weird
adult
▁adult
Adult
▁Adult
apparently
▁apparently
Apparently
▁Apparently
artist
▁artist
Artist
▁Artist
chairman
▁chairman
Chairman
▁Chairman
edition
▁edition
Edition
▁Edition
engineering
▁engineering
Engineering
▁Engineering
grade
▁grade
Grade
▁Grade
happening
▁happening
Happening
▁Happening
healthy
▁healthy
Healthy
▁Healthy
institute
▁institute
Institute
▁Institute
Method
▁Method
mike
▁mike
Mike
▁Mike
monday
▁monday
Monday
▁Monday
obviously
▁obviously
Obviously
▁Obviously
prison
▁prison
Prison
▁Prison
remains
▁remains
Remains
▁Remains
senate
▁senate
Senate
▁Senate
smaller
▁smaller
Smaller
▁Smaller
somebody
▁somebody
Somebody
▁Somebody
stone
▁stone
Stone
▁Stone
strength
▁strength
Strength
▁Strength
wild
▁wild
Wild
▁Wild
window
▁window
Window
▁Window
winner
▁winner
Winner
▁Winner
bag
▁bag
Bag
▁Bag
bet
▁bet
Bet
▁Bet
camp
▁camp
Camp
▁Camp
Cast
▁Cast
christ
▁christ
Christ
▁Christ
correct
▁correct
Correct
▁Correct
dangerous
▁dangerous
Dangerous
▁Dangerous
extremely
▁extremely
Extremely
▁Extremely
firm
▁firm
Firm
▁Firm
greatest
▁greatest
Greatest
▁Greatest
handle
▁handle
Handle
▁Handle
improve
▁improve
Improve
▁Improve
indeed
▁indeed
Indeed
▁Indeed
Negative
▁Negative
prevent
▁prevent
Prevent
▁Prevent
removed
▁removed
Removed
▁Removed
spirit
▁spirit
Spirit
▁Spirit
television
▁television
Television
▁Television
till
▁till
Till
▁Till
trouble
▁trouble
Trouble
▁Trouble
usa
▁usa
Usa
▁Usa
advantage
▁advantage
Advantage
▁Advantage
apart
▁apart
Apart
▁Apart
aware
▁aware
Aware
▁Aware
cat
▁cat
Cat
▁Cat
decide
▁decide
Decide
▁Decide
dinner
▁dinner
Dinner
▁Dinner
eastern
▁eastern
Eastern
▁Eastern
fifth
▁fifth
Fifth
▁Fifth
gift
▁gift
Gift
▁Gift
helping
▁helping
Helping
▁Helping
impossible
▁impossible
Impossible
▁Impossible
influence
▁influence
Influence
▁Influence
marketing
▁marketing
Marketing
▁Marketing
mary
▁mary
Mary
▁Mary
produce
▁produce
Produce
▁Produce
progress
▁progress
Progress
▁Progress
proud
▁proud
Proud
▁Proud
Require
▁Require
shooting
▁shooting
Shooting
▁Shooting
shut
▁shut
Shut
▁Shut
van
▁van
Van
▁Van
wood
▁wood
Wood
▁Wood
Background
▁Background
birth
▁birth
Birth
▁Birth
bridge
▁bridge
Bridge
▁Bridge
charles
▁charles
Charles
▁Charles
completed
▁completed
Completed
▁Completed
Concept
▁Concept
Copy
▁Copy
dear
▁dear
Dear
▁Dear
garden
▁garden
Garden
▁Garden
Host
▁Host
housing
▁housing
Housing
▁Housing
inc
▁inc
Inc
▁Inc
israel
▁israel
Israel
▁Israel
journal
▁journal
Journal
▁Journal
labor
▁labor
Labor
▁Labor
leadership
▁leadership
Leadership
▁Leadership
length
▁length
Length
▁Length
lucky
▁lucky
Lucky
▁Lucky
neither
▁neither
Neither
▁Neither
patient
▁patient
Patient
▁Patient
possibly
▁possibly
Possibly
▁Possibly
prove
▁prove
Prove
▁Prove
rare
▁rare
Rare
▁Rare
setting
▁setting
Setting
▁Setting
software
▁software
Software
▁Software
tough
▁tough
Tough
▁Tough
alive
▁alive
Alive
▁Alive
apple
▁apple
Apple
▁Apple
Balance
▁Balance
birthday
▁birthday
Birthday
▁Birthday
bitch
▁bitch
Bitch
▁Bitch
boss
▁boss
Boss
▁Boss
cards
▁cards
Cards
▁Cards
changing
▁changing
Changing
▁Changing
connection
▁connection
Connection
▁Connection
dress
▁dress
Dress
▁Dress
fellow
▁fellow
Fellow
▁Fellow
florida
▁florida
Florida
▁Florida
horse
[...]
