<pad>	0
<unk>	0
<s>	0
</s>	0
.	-2.80758
▁	-2.96886
▁and	-3.5544
,	-3.58438
▁the	-3.61988
▁a	-3.7804
▁to	-3.90152
1	-4.19777
▁was	-4.20967
0	-4.24172
2	-4.51252
s	-4.51595
3	-4.59794
▁"	-4.73201
5	-4.75207
7	-4.75467
8	-4.7651
4	-4.77421
6	-4.77637
9	-4.78924
▁it	-4.81627
▁=	-4.8351
▁They	-4.95086
'	-4.95261
▁her	-4.97201
#	-4.97559
▁She	-4.98694
▁He	-5.02092
▁The	-5.06626
▁+	-5.08812
▁said	-5.09621
▁in	-5.17456
ed	-5.2451
▁he	-5.25624
▁she	-5.31359
▁with	-5.31859
▁c	-5.34052
+	-5.35704
|	-5.42138
▁of	-5.42189
▁had	-5.43203
▁Lily	-5.47998
▁his	-5.48059
▁so	-5.49368
▁that	-5.50325
▁day	-5.51227
▁you	-5.51697
▁they	-5.54389
d	-5.59763
t	-5.65392
▁on	-5.68964
▁.	-5.70473
▁for	-5.72037
!	-5.77307
▁mom	-5.78545
▁is	-5.80738
▁very	-5.83992
▁be	-5.87385
▁time	-5.88419
=	-5.89159
▁were	-5.90499
▁there	-5.90804
▁It	-5.93094
▁little	-5.93974
▁w	-5.9577
!"	-5.97187
."	-5.97333
▁happy	-5.9751
▁I	-5.99734
▁saw	-6.00463
▁not	-6.02253
▁b	-6.02654
One	-6.0528
ing	-6.06223
▁big	-6.08203
▁but	-6.09219
_	-6.1093
▁Once	-6.14755
▁them	-6.14969
▁play	-6.19644
▁their	-6.20832
▁are	-6.2353
▁Ben	-6.23912
▁girl	-6.25151
▁wanted	-6.28327
▁have	-6.28802
▁upon	-6.28918
▁up	-6.321
▁him	-6.34291
▁go	-6.34351
▁all	-6.36182
?"	-6.39172
▁went	-6.3991
▁can	-6.40813
▁Tom	-6.4087
:	-6.42156
▁smiled	-6.42563
▁at	-6.46128
▁friends	-6.47259
▁But	-6.48832
▁asked	-6.4927
▁name	-6.51797
▁like	-6.5523
â	-6.56898
€	-6.56898
m	-6.57373
▁from	-6.5968
▁could	-6.61569
▁back	-6.64262
▁out	-6.64889
▁too	-6.67719
▁looked	-6.68038
▁felt	-6.68396
▁around	-6.6984
▁fun	-6.70365
▁see	-6.7066
;	-6.71867
(	-6.72802
▁loved	-6.72829
▁what	-6.73434
▁help	-6.73826
I	-6.75172
▁boy	-6.75261
▁something	-6.76343
,"	-6.77709
▁found	-6.77758
▁would	-6.77946
>	-6.7857
▁then	-6.78631
▁Timmy	-6.78687
▁some	-6.8047
▁more	-6.81398
▁ran	-6.84022
▁put	-6.84614
▁made	-6.85743
▁started	-6.85987
▁make	-6.86999
▁Sam	-6.87098
▁You	-6.87468
▁do	-6.8825
▁want	-6.88475
▁park	-6.88957
▁new	-6.89479
call	-6.89814
▁home	-6.90893
▁Tim	-6.924
▁did	-6.9286
)	-6.93582
▁together	-6.95599
▁other	-6.95674
▁an	-6.95875
▁away	-6.95979
▁one	-6.98115
▁we	-6.98512
▁excited	-6.98906
▁get	-6.99299
▁Anna	-6.99436
n	-6.99822
▁says	-7.00994
▁things	-7.01158
▁liked	-7.0452
▁when	-7.05548
▁Mom	-7.05859
▁again	-7.0602
▁playing	-7.06812
▁who	-7.08941
▁find	-7.10622
ok	-7.11951
▁sad	-7.1234
▁i	-7.12715
▁man	-7.12815
▁decide	-7.12881
e	-7.13211
▁got	-7.13645
▁came	-7.14132
▁o	-7.14545
▁bird	-7.15346
▁if	-7.15474
▁your	-7.155
▁will	-7.15985
▁friend	-7.16159
-	-7.16374
▁take	-7.18066
▁old	-7.18377
▁me	-7.20508
ever	-7.2086
▁thought	-7.21661
▁When	-7.21891
▁car	-7.2235
▁special	-7.22401
▁down	-7.23284
▁dad	-7.23568
▁pick	-7.24463
▁each	-7.24989
▁scared	-7.24993
▁ans	-7.25914
▁as	-7.25933
st	-7.27168
▁look	-7.27426
▁Max	-7.27701
ave	-7.29437
y	-7.29834
▁outside	-7.30584
",	-7.31448
▁g	-7.31595
▁Jack	-7.32178
▁So	-7.32409
▁knew	-7.3272
▁about	-7.33236
▁this	-7.33342
▁know	-7.34257
▁didn	-7.34414
▁n	-7.36062
▁always	-7.36179
▁good	-7.37144
▁thank	-7.37794
▁tree	-7.38015
▁my	-7.3876
▁how	-7.39102
▁mommy	-7.40428
▁Her	-7.405
▁over	-7.41841
▁toys	-7.43474
▁<	-7.43679
▁house	-7.43848
▁show	-7.44831
▁proud	-7.45182
▁come	-7.45227
▁Mia	-7.46322
▁much	-7.46628
▁no	-7.47014
▁sorry	-7.47339
▁A	-7.48338
▁heard	-7.48545
▁small	-7.48747
▁kind	-7.4914
▁water	-7.49144
▁room	-7.49675
▁even	-7.50663
▁inside	-7.5138
▁toy	-7.51607
into	-7.52208
▁told	-7.53304
▁couldn	-7.53842
▁His	-7.54008
▁bear	-7.54098
▁Sara	-7.54876
▁Suddenly	-7.5515
▁berries	-7.55979
▁nice	-7.56235
▁ju	-7.57299
il	-7.58728
▁has	-7.58755
▁dog	-7.5965
▁We	-7.59827
▁Sue	-7.59903
▁many	-7.60011
▁hugged	-7.62367
Yes	-7.64026
▁Then	-7.6524
▁</	-7.6579
▁And	-7.65856
▁box	-7.6837
▁learned	-7.69565
▁import	-7.70594
▁beautiful	-7.7105
r	-7.71428
▁don	-7.71635
▁sky	-7.7242
▁tried	-7.7242
cause	-7.7288
▁better	-7.7288
▁two	-7.7381
▁let	-7.74385
▁best	-7.74921
▁careful	-7.76135
▁people	-7.76167
▁played	-7.76297
▁laughed	-7.76319
▁ball	-7.76536
?	-7.76604
a	-7.76703
▁say	-7.78234
▁Fro	-7.78627
▁end	-7.79573
▁off	-7.79832
▁family	-7.81058
▁by	-7.81209
▁garden	-7.8156
▁unt	-7.81676
re	-7.82001
▁both	-7.82044
▁eat	-7.8232
▁machine	-7.82573
▁animals	-7.82794
▁left	-7.8525
▁explore	-7.862
No	-7.87364
▁love	-7.87908
▁long	-7.88301
▁flowers	-7.89461
▁opened	-7.8972
▁shiny	-7.90514
▁feel	-7.91947
▁Every	-7.92224
▁{	-7.92235
▁door	-7.92239
lots	-7.92316
▁walked	-7.92489
▁still	-7.92751
▁or	-7.92919
▁way	-7.93211
▁should	-7.94299
▁k	-7.94935
▁give	-7.95029
You	-7.95073
▁safe	-7.95143
▁Lucy	-7.956
▁cat	-7.96249
▁brave	-7.9681
▁sun	-7.97362
▁called	-7.97434
▁lot	-7.97978
▁soon	-7.98038
▁hard	-7.98507
▁nodded	-7.98553
ll	-7.98555
▁return	-7.99742
▁noise	-7.99863
▁try	-8.00115
ept	-8.00356
▁Amy	-8.00958
▁going	-8.00968
l	-8.011
er	-8.01268
What	-8.01329
Let	-8.01332
That	-8.01334
▁notice	-8.016
ly	-8.01746
▁before	-8.02205
▁us	-8.03029
▁share	-8.0306
▁lived	-8.03102
It	-8.03238
▁hurt	-8.03435
▁red	-8.03618
▁pretty	-8.04064
▁flew	-8.04064
▁idea	-8.04233
▁everyone	-8.04699
▁After	-8.04762
▁every	-8.05383
▁keep	-8.05582
/	-8.06545
▁smile	-8.0711
▁John	-8.08083
▁looking	-8.09197
Thank	-8.09397
es	-8.09656
▁angry	-8.0991
▁loud	-8.10513
▁Bob	-8.10608
▁great	-8.10709
▁apples	-8.10895
▁stopped	-8.11257
▁reach	-8.11257
▁ground	-8.11273
▁after	-8.11303
▁stay	-8.11415
▁walking	-8.11421
▁}	-8.12101
▁also	-8.12622
▁next	-8.12864
▁There	-8.13023
▁children	-8.13311
▁fish	-8.13311
▁-	-8.13996
▁place	-8.14472
Look	-8.14708
▁hug	-8.14941
▁feeling	-8.14998
▁run	-8.15046
▁hand	-8.15506
▁use	-8.16085
est	-8.1687
▁bad	-8.17519
▁counted	-8.17644
▁rabbit	-8.18277
▁Everyone	-8.1828
f	-8.18682
▁been	-8.19172
"	-8.19187
▁voice	-8.19742
▁replied	-8.20483
▁bit	-8.2086
▁remember	-8.21229
▁learn	-8.21453
o	-8.21748
▁Now	-8.21941
▁eyes	-8.22118
()	-8.22139
▁hands	-8.22384
▁Jane	-8.22739
▁head	-8.23085
al	-8.23199
[	-8.2348
▁Mommy	-8.2369
▁need	-8.24192
▁boat	-8.24271
▁truck	-8.24271
▁important	-8.24277
▁right	-8.24482
▁That	-8.25322
Can	-8.26209
▁while	-8.26808
▁forest	-8.2698
▁near	-8.27407
▁fast	-8.28145
▁goodbye	-8.28209
▁closer	-8.28238
▁listen	-8.28242
▁kids	-8.28261
▁Dad	-8.28389
▁rock	-8.28727
▁clean	-8.28776
▁three	-8.2902
▁curious	-8.29033
▁ever	-8.29443
▁bed	-8.30165
▁okay	-8.30648
u	-8.31228
▁blue	-8.31474
▁food	-8.31474
ting	-8.31991
▁turn	-8.32048
Maybe	-8.32308
i	-8.32384
▁work	-8.33117
▁now	-8.3319
p	-8.33294
As	-8.33484
▁br	-8.34009
▁worked	-8.34529
▁its	-8.34592
▁store	-8.34851
▁Joe	-8.36513
▁glad	-8.36582
▁grabb	-8.36586
▁our	-8.36624
▁done	-8.36753
▁warm	-8.37456
We	-8.37633
▁high	-8.3828
▁making	-8.38345
▁fly	-8.39022
▁lost	-8.39238
▁first	-8.39359
▁def	-8.39548
b	-8.39705
▁here	-8.39896
▁game	-8.39954
▁wish	-8.40105
")	-8.40335
▁green	-8.41047
▁story	-8.41965
▁quickly	-8.41969
▁cake	-8.41999
▁carefully	-8.42039
->	-8.42388
▁Spot	-8.4244
▁trees	-8.4319
▁Sarah	-8.43876
]	-8.44054
h	-8.44258
▁world	-8.44768
▁Sally	-8.44772
▁Let	-8.45106
▁open	-8.45203
▁only	-8.45291
▁cry	-8.45553
▁adventure	-8.45585
▁favorite	-8.4572
▁tell	-8.4572
▁walk	-8.45843
▁birds	-8.45874
TM	-8.46189
▁than	-8.46675
▁Tommy	-8.46683
▁face	-8.4673
or	-8.47509
▁grass	-8.47653
▁coming	-8.47995
▁watched	-8.48144
▁slide	-8.48604
▁pond	-8.48633
▁having	-8.48633
▁shouted	-8.48705
dir	-8.48907
▁jumped	-8.48965
▁books	-8.49584
▁sign	-8.49623
▁ready	-8.49665
c	-8.49949
œ	-8.50251
ought	-8.50368
▁flower	-8.50545
▁sound	-8.50561
▁sure	-8.5063
▁surprise	-8.51261
▁wait	-8.51493
▁At	-8.51597
▁yummy	-8.51633
▁think	-8.52342
▁brother	-8.52563
▁catch	-8.52642
▁realiz	-8.52654
▁doll	-8.52769
▁doing	-8.53869
▁began	-8.54726
came	-8.54851
▁happened	-8.54919
ar	-8.54947
▁watch	-8.5525
▁kitchen	-8.55779
▁pretend	-8.55779
▁boxes	-8.55854
▁where	-8.56072
▁am	-8.56371
▁hear	-8.56642
▁happily	-8.56843
▁lady	-8.56843
▁wonderful	-8.56844
▁hot	-8.56866
▁mean	-8.57597
▁through	-8.57918
▁why	-8.57918
("	-8.58339
▁years	-8.5846
g	-8.58845
▁strong	-8.58971
Hello	-8.58983
▁funny	-8.59005
▁night	-8.59011
▁number	-8.59147
▁sees	-8.59526
▁under	-8.59981
▁dark	-8.60104
▁waved	-8.60223
▁seen	-8.60708
self	-8.60883
▁bright	-8.61162
▁ate	-8.61185
▁mother	-8.61215
▁What	-8.61621
▁needed	-8.61982
sat	-8.62011
▁book	-8.62504
▁surprised	-8.63902
▁hole	-8.64296
▁Lila	-8.64625
▁fell	-8.64625
▁thing	-8.6483
▁Do	-8.65041
▁enjoyed	-8.65046
▁Can	-8.65234
▁move	-8.65411
▁full	-8.65788
▁delicious	-8.65788
▁Benny	-8.65789
▁lesson	-8.65789
Wow	-8.6579
▁"""	-8.65953
▁Grandma	-8.66264
▁touch	-8.66407
▁set	-8.66943
▁Jill	-8.66964
▁arrived	-8.66964
▁really	-8.66976
▁hat	-8.67132
▁does	-8.6715
▁buttons	-8.67257
▁fill	-8.68159
▁blocks	-8.68359
▁stayed	-8.69091
in	-8.6914
▁fair	-8.69291
▁sweet	-8.69346
▁floor	-8.69359
▁agreed	-8.69439
▁close	-8.69763
▁(	-8.70498
▁anymore	-8.70579
▁magical	-8.70589
▁frog	-8.70715
="	-8.7109
▁class	-8.71387
en	-8.71773
▁soft	-8.71785
▁amazing	-8.71813
▁won	-8.71935
):	-8.72168
ir	-8.72221
▁field	-8.73063
▁rain	-8.73063
▁broken	-8.73109
▁understand	-8.73199
▁picture	-8.73229
▁himself	-8.73263
▁shared	-8.73819
".	-8.73967
▁Daisy	-8.74329
▁running	-8.74329
▁anything	-8.74333
▁ice	-8.74344
▁finished	-8.74502
▁any	-8.74728
▁path	-8.75104
▁dress	-8.76875
▁buy	-8.76885
▁different	-8.7691
▁cool	-8.76926
▁parents	-8.76931
Why	-8.77041
▁friendly	-8.77075
▁str	-8.77354
▁hopped	-8.78226
▁Billy	-8.78255
▁tired	-8.78323
name	-8.78368
▁cold	-8.7838
▁wind	-8.78452
▁bag	-8.78461
▁tall	-8.7953
▁shop	-8.79541
▁else	-8.79559
▁yellow	-8.7956
▁train	-8.79566
▁grew	-8.79602
▁beach	-8.79666
▁cheered	-8.79684
▁coins	-8.80278
▁princess	-8.80881
able	-8.80889
▁own	-8.80894
▁elephant	-8.8091
▁fox	-8.8091
▁spoon	-8.8091
▁held	-8.80974
▁bike	-8.81152
▁care	-8.81775
▁wrong	-8.8228
▁sometimes	-8.82294
▁helped	-8.82384
▁mum	-8.82639
is	-8.83176
▁behind	-8.83669
Thi	-8.83938
▁Mama	-8.84013
▁cars	-8.8491
▁another	-8.85077
▁drink	-8.85077
▁gone	-8.85136
▁Thi	-8.85377
T	-8.85505
path	-8.8564
▁leaves	-8.85916
▁op	-8.86255
▁spot	-8.86506
▁tower	-8.86508
▁swing	-8.86635
▁followed	-8.8684
S	-8.8707
▁S	-8.87424
▁enjoy	-8.87425
▁worry	-8.87955
▁morning	-8.87955
▁explained	-8.88013
▁stop	-8.88293
▁sh	-8.88929
▁mouse	-8.89426
▁cried	-8.89484
▁top	-8.89945
▁liv	-8.90275
▁bunny	-8.90918
annot	-8.90918
▁Soon	-8.90956
▁pile	-8.91339
▁herself	-8.91865
▁grandma	-8.92434
▁someone	-8.92461
▁faster	-8.92497
▁talk	-8.93195
▁balloons	-8.93252
Mom	-8.93532
▁cream	-8.9356
▁please	-8.93586
▁crate	-8.93972
__	-8.9408
▁swim	-8.94109
▁promised	-8.94191
▁jump	-8.95233
O	-8.95437
▁deep	-8.95534
▁None	-8.95535
▁break	-8.95536
▁hill	-8.95539
▁farm	-8.95639
▁ride	-8.95881
▁stones	-8.95926
▁sat	-8.96472
▁build	-8.96886
▁star	-8.96957
▁far	-8.97003
▁backyard	-8.97122
▁bowl	-8.97147
▁moment	-8.97322
▁pulled	-8.97493
ur	-8.97533
▁cookies	-8.97576
▁lion	-8.97598
▁f	-8.97608
▁read	-8.97624
▁listened	-8.98182
▁hide	-8.9831
raw	-8.98382
▁amazed	-8.98735
▁bigger	-8.98735
▁fire	-8.98737
▁stepp	-8.9874
▁yes	-8.98743
▁Jimmy	-8.98784
used	-8.98814
▁Path	-8.98964
▁colors	-8.99085
▁shells	-8.99193
▁window	-8.99265
▁laugh	-9.00143
Don	-9.00233
▁strange	-9.00327
▁Finally	-9.00374
▁paper	-9.00374
▁welcome	-9.00374
▁puppy	-9.00375
▁Mary	-9.00377
▁finally	-9.00377
▁candy	-9.00377
▁pumpkins	-9.00547
eddy	-9.00798
▁dinner	-9.02041
▁Daddy	-9.02041
▁join	-9.0218
▁continued	-9.02227
▁B	-9.03354
div	-9.03651
▁joy	-9.03736
▁purple	-9.03736
But	-9.03747
Oh	-9.03759
▁dolls	-9.0384
▁stickers	-9.04015
wards	-9.04779
▁self	-9.0481
▁rest	-9.04918
▁fix	-9.04919
ch	-9.05313
▁butterfly	-9.0546
▁gift	-9.0546
▁juice	-9.0546
▁dangerous	-9.0546
▁town	-9.05462
▁Inside	-9.05462
▁baby	-9.055
▁table	-9.06099
▁side	-9.06561
w	-9.06611
``	-9.07101
rote	-9.07214
▁bucket	-9.07214
▁music	-9.07215
▁everything	-9.07225
▁T	-9.07834
▁monkey	-9.07888
▁gentle	-9.09
▁pink	-9.09001
▁party	-9.09054
▁plane	-9.09275
▁crying	-9.09443
▁visit	-9.10239
v	-9.10504
ree	-9.10546
▁pack	-9.10816
▁money	-9.10818
▁castle	-9.10818
▁dream	-9.11319
to	-9.11393
▁leave	-9.11576
▁wet	-9.11932
id	-9.12074
RawLayout	-9.12607
▁scary	-9.1267
▁today	-9.1267
▁hungry	-9.12671
▁``	-9.12888
▁flying	-9.13164
▁woods	-9.13239
▁cut	-9.13774
▁p	-9.14146
▁light	-9.14183
OK	-9.14299
▁forgot	-9.14553
Okay	-9.14557
▁along	-9.14557
▁drove	-9.14557
<	-9.15183
▁__	-9.15334
▁piece	-9.15383
▁start	-9.15526
N	-9.15912
▁race	-9.16097
▁air	-9.16141
▁mor	-9.16414
▁quiet	-9.16444
▁bottle	-9.1648
▁alone	-9.16482
▁ask	-9.16652
get	-9.16876
M	-9.16905
str	-9.1711
▁brown	-9.1717
se	-9.17269
▁waited	-9.17508
▁might	-9.18371
aught	-9.1844
▁nap	-9.18478
▁DatasetMeta	-9.18501
The	-9.19206
▁stick	-9.19225
▁bite	-9.19623
▁life	-9.2044
▁smart	-9.2044
▁storm	-9.2044
▁twins	-9.2044
▁child	-9.20441
▁silly	-9.20441
▁must	-9.20459
▁clothes	-9.20465
▁bow	-9.20539
Be	-9.20934
▁balloon	-9.21386
▁coin	-9.21393
▁asks	-9.21581
▁th	-9.21872
▁sweets	-9.22274
▁Molly	-9.22481
▁enough	-9.22481
▁land	-9.22482
base	-9.22488
▁sand	-9.22504
▁heavy	-9.22509
uch	-9.22529
▁though	-9.22639
▁marbles	-9.22675
k	-9.22863
▁closed	-9.23119
▁squirrel	-9.2343
▁runs	-9.23613
rew	-9.24523
▁across	-9.24565
▁job	-9.24565
▁Alice	-9.24565
▁wolf	-9.24573
▁believe	-9.24953
▁climbed	-9.25079
▁x	-9.25379
▁duck	-9.25593
▁blanket	-9.26692
▁cheese	-9.26692
▁suddenly	-9.26701
▁Bobo	-9.26775
▁win	-9.26777
▁throw	-9.26792
▁others	-9.26814
▁In	-9.2699
ion	-9.27362
▁helping	-9.2748
▁treasure	-9.27732
▁pieces	-9.27923
Do	-9.27967
▁climb	-9.28082
▁("	-9.28305
▁grateful	-9.28866
▁school	-9.28866
▁pet	-9.28866
▁//	-9.28872
▁everywhere	-9.28884
▁soup	-9.28998
▁thinks	-9.29012
▁sounds	-9.29056
▁chase	-9.29102
Hi	-9.2935
▁Red	-9.29534
▁wants	-9.29809
▁year	-9.30235
▁paint	-9.30357
▁smiles	-9.30358
▁swings	-9.30546
▁answer	-9.30551
▁hair	-9.31024
an	-9.3105
▁white	-9.31071
▁Mum	-9.31088
▁pub	-9.31088
▁sharing	-9.31089
▁without	-9.31328
}	-9.31691
▁trying	-9.31963
it	-9.32017
ook	-9.32075
▁part	-9.32095
Mommy	-9.328
▁pull	-9.3283
▁follow	-9.3283
▁bags	-9.32954
future	-9.33361
▁META	-9.33361
▁dragon	-9.33361
▁lake	-9.33361
▁With	-9.33362
▁taking	-9.33364
▁nearby	-9.33367
▁mess	-9.33387
▁singing	-9.33593
▁forget	-9.33753
▁treat	-9.34585
▁apple	-9.34596
ids	-9.34638
ted	-9.34783
{	-9.35006
A	-9.35104
▁sea	-9.35298
▁C	-9.35433
▁most	-9.3558
▁Blue	-9.35687
▁monster	-9.35687
▁tiny	-9.35687
▁daddy	-9.35689
▁tail	-9.35696
▁same	-9.35697
▁dry	-9.35705
▁bread	-9.35727
▁nose	-9.35783
▁adventures	-9.3602
▁bought	-9.36265
▁words	-9.36281
▁hoped	-9.36299
▁moved	-9.36449
▁sing	-9.36883
ent	-9.36909
▁dance	-9.37649
"""	-9.37732
B	-9.37881
ound	-9.37944
▁course	-9.38068
▁doctor	-9.38068
▁mouth	-9.38068
▁Johnny	-9.38068
▁key	-9.38091
▁huge	-9.38343
▁acorns	-9.38669
▁building	-9.39746
":	-9.39878
▁broke	-9.40416
▁Emily	-9.40507
▁lift	-9.40507
▁few	-9.40507
▁wild	-9.40513
▁slowly	-9.40524
▁wise	-9.40529
▁danced	-9.40895
▁wings	-9.40965
▁Th	-9.41575
▁Come	-9.41616
▁animal	-9.41916
▁al	-9.42242
▁noises	-9.42503
▁hold	-9.42772
▁polite	-9.43007
▁rainbow	-9.43007
▁robot	-9.43007
▁secret	-9.43007
▁trouble	-9.43007
▁giant	-9.43007
▁shirt	-9.43007
▁spider	-9.43007
Sure	-9.43013
▁odd	-9.43021
on	-9.43049
▁may	-9.43058
▁pushed	-9.43447
TMt	-9.43939
▁hello	-9.44051
▁R	-9.44401
data	-9.45325
▁teach	-9.45516
▁cloth	-9.4554
▁exciting	-9.45571
▁river	-9.45571
▁knock	-9.45571
▁rod	-9.45571
▁lunch	-9.45571
▁jar	-9.45576
twee	-9.45593
▁corner	-9.45614
▁longer	-9.45731
▁games	-9.46114
▁makes	-9.46892
▁hugs	-9.4701
▁piles	-9.4747
nt	-9.47579
ies	-9.47803
▁promise	-9.47828
▁creature	-9.48202
▁sister	-9.48202
▁spicy	-9.48202
▁shoes	-9.48203
▁upset	-9.48203
▁wear	-9.48203
▁mine	-9.48229
▁cover	-9.48253
▁spen	-9.48274
▁wondered	-9.48624
▁Li	-9.48959
lo	-9.49198
▁fro	-9.49199
▁P	-9.49376
▁relation	-9.4982
▁wall	-9.49958
▁cow	-9.50127
▁grow	-9.50163
el	-9.50301
op	-9.50646
▁zoo	-9.50761
▁Jim	-9.50905
▁Julia	-9.50905
▁milk	-9.50905
▁pocket	-9.50905
▁worried	-9.50905
▁fence	-9.50906
▁snowman	-9.50907
▁coal	-9.50918
ttle	-9.5092
▁trust	-9.50921
▁Mr	-9.50945
▁busy	-9.50968
▁young	-9.50986
▁higher	-9.51007
round	-9.51697
::	-9.51796
▁RawTriple	-9.52339
▁stars	-9.52804
▁miss	-9.53197
add	-9.53432
C	-9.53635
▁corn	-9.53637
▁Jenny	-9.53683
▁daughter	-9.53683
▁flea	-9.53683
▁modern	-9.53683
▁perfect	-9.53683
▁snow	-9.53683
▁stories	-9.53683
▁street	-9.53683
▁colorful	-9.53684
Where	-9.53687
▁r	-9.53687
▁healthy	-9.53694
▁counting	-9.53843
▁holding	-9.53946
▁owner	-9.53987
Lily	-9.5423
▁tea	-9.54247
▁forever	-9.54277
ations	-9.54348
▁heart	-9.54625
▁these	-9.54916
▁eating	-9.54998
▁puzzle	-9.55393
dded	-9.55548
▁cup	-9.55625
▁mod	-9.55699
▁happen	-9.55772
▁const	-9.55875
▁pictures	-9.56159
▁print	-9.56513
œI	-9.56514
▁dirt	-9.56525
▁rose	-9.5654
Downloader	-9.5654
▁hanger	-9.56551
▁dirty	-9.56608
ma	-9.56715
▁bench	-9.5694
E	-9.57131
▁cute	-9.57748
▁touched	-9.57877
▁con	-9.5831
▁E	-9.58651
▁smell	-9.58876
▁discover	-9.59407
▁black	-9.5948
knowledge	-9.59481
▁Fluffy	-9.59481
▁Rose	-9.59481
▁prize	-9.59481
▁road	-9.59481
Extractor	-9.59481
▁wide	-9.59484
▁teacher	-9.59556
▁sold	-9.59633
▁seemed	-9.5965
▁wearing	-9.59746
▁bus	-9.59802
▁well	-9.59956
W	-9.60204
class	-9.604
hole	-9.60454
▁treats	-9.60897
▁write	-9.61553
rows	-9.61876
▁round	-9.62152
▁sleep	-9.62198
▁Bill	-9.62454
▁tight	-9.62482
▁police	-9.62511
▁bridge	-9.62512
▁exploring	-9.62512
▁lonely	-9.62512
▁relieved	-9.62512
▁roll	-9.62512
▁yield	-9.62512
▁clapped	-9.62512
▁uncle	-9.62513
▁maybe	-9.62514
model	-9.62527
Well	-9.62632
▁push	-9.62716
▁screamed	-9.62752
▁rope	-9.62768
▁tie	-9.63465
▁On	-9.63918
▁ducks	-9.6411
▁fall	-9.64282
▁ear	-9.64464
▁hit	-9.6457
▁song	-9.64624
▁taste	-9.65258
ore	-9.6559
▁magic	-9.6561
▁basket	-9.65637
▁gently	-9.65637
▁harvest	-9.65637
▁horse	-9.65637
▁instead	-9.65637
▁last	-9.65637
▁orange	-9.65637
▁smiling	-9.65637
▁sugar	-9.65637
▁tasty	-9.65637
▁teeth	-9.65637
▁creative	-9.65637
▁swimming	-9.65637
▁coat	-9.6564
Hey	-9.65654
mul	-9.65707
▁team	-9.65796
▁value	-9.66202
▁)	-9.66358
▁bring	-9.66525
))	-9.66777
together	-9.66941
▁match	-9.66998
▁sit	-9.67132
▁live	-9.67494
▁hop	-9.68149
▁late	-9.68818
▁real	-9.68823
sub	-9.68861
multipl	-9.68862
▁Even	-9.68862
▁Jake	-9.68862
▁Later	-9.68862
▁brush	-9.68862
▁mountain	-9.68862
▁smooth	-9.68862
▁sunshine	-9.68862
▁naughty	-9.68862
▁shining	-9.68862
▁leaf	-9.68864
▁owl	-9.68877
▁sitting	-9.68888
▁pour	-9.68902
woke	-9.68909
▁pot	-9.68959
▁band	-9.69062
▁mad	-9.69172
▁tasted	-9.69255
▁laughing	-9.69332
▁fork	-9.69351
▁turns	-9.69885
▁waves	-9.69909
▁ma	-9.70512
L	-9.70623
▁sticks	-9.70681
▁cave	-9.70958
▁bug	-9.71194
▁line	-9.7123
▁M	-9.71413
▁Thank	-9.71428
led	-9.71619
▁wonder	-9.71661
▁continue	-9.7182
▁branch	-9.72164
▁respect	-9.72194
▁Susie	-9.72196
▁journey	-9.72196
▁mysterious	-9.72196
▁sunny	-9.72196
▁stuck	-9.72197
▁furry	-9.72197
▁visitor	-9.72234
▁Ju	-9.72274
▁lovely	-9.72407
▁shapes	-9.72517
ers	-9.72682
▁smelled	-9.72807
▁working	-9.73148
bout	-9.73349
▁int	-9.73456
▁plan	-9.73969
▁carrie	-9.74169
▁file	-9.74375
Are	-9.7464
▁Please	-9.75266
parent	-9.75588
▁Emma	-9.75644
▁Rosie	-9.75644
▁Together	-9.75644
▁afraid	-9.75644
▁caterpillar	-9.75644
▁clock	-9.75644
▁gather	-9.75644
▁meadow	-9.75644
▁roof	-9.75644
▁screw	-9.75644
▁selfish	-9.75644
▁yard	-9.75644
▁Off	-9.75645
▁shore	-9.75659
ceil	-9.7566
▁plant	-9.75671
▁driver	-9.75679
▁jumping	-9.76173
▁clouds	-9.76251
▁raw	-9.76365
▁met	-9.76592
▁bugs	-9.76802
▁rocks	-9.76899
ach	-9.77137
▁wave	-9.77263
at	-9.77458
Come	-9.77609
P	-9.77626
▁object	-9.78081
▁wood	-9.78119
▁village	-9.79215
▁asleep	-9.79215
▁computer	-9.79215
▁cozy	-9.79215
▁jungle	-9.79215
▁lucky	-9.79215
▁mistake	-9.79215
▁phone	-9.79215
▁tomorrow	-9.79215
Good	-9.79215
▁peek	-9.79215
json	-9.79216
▁protect	-9.79216
▁dropped	-9.79216
▁battery	-9.79229
▁cook	-9.79242
▁crown	-9.79251
▁Dave	-9.79265
▁whi	-9.79265
▁Maggie	-9.79327
▁accident	-9.79348
▁offer	-9.79462
["	-9.79561
▁cube	-9.79637
▁kissed	-9.79656
ate	-9.79671
▁talking	-9.79776
ap	-9.79783
ow	-9.7981
▁How	-9.80528
"]	-9.80913
extractor	-9.81374
x	-9.81423
▁NLTK	-9.81426
▁belong	-9.82359
▁swam	-9.82894
▁Class	-9.82919
▁anchor	-9.82919
▁mattress	-9.82919
▁nervous	-9.82919
▁oven	-9.82919
▁crab	-9.82919
▁delicate	-9.82919
▁picnic	-9.82919
▁shelf	-9.8292
▁lit	-9.82922
▁calm	-9.82922
▁bedroom	-9.82928
▁Bobby	-9.82931
▁sang	-9.82938
▁Peter	-9.82939
▁thankful	-9.82943
ally	-9.83104
▁fairy	-9.83132
▁yourself	-9.83189
till	-9.83219
ill	-9.83308
▁onto	-9.83643
▁hid	-9.83772
▁arms	-9.83869
hose	-9.85515
▁W	-9.85606
▁cookie	-9.85673
▁frame	-9.85779
pair	-9.8581
▁zip	-9.86152
▁finish	-9.86235
▁hope	-9.86611
▁bush	-9.86761
▁eventually	-9.86765
▁garage	-9.86765
▁ocean	-9.86765
▁present	-9.86765
▁forgive	-9.86767
▁mark	-9.86767
error	-9.8678
▁station	-9.86788
▁kick	-9.86794
▁sick	-9.86804
▁tent	-9.86808
ment	-9.86986
▁calling	-9.87003
▁nest	-9.87154
▁feathers	-9.87182
▁Mummy	-9.8731
▁lay	-9.885
ser	-9.88571
un	-9.88753
▁shell	-9.89004
▁[	-9.89185
where	-9.89417
▁letter	-9.89654
safe	-9.89668
ation	-9.89676
▁roar	-9.89959
G	-9.90093
▁...	-9.9039
▁lead	-9.90547
▁prince	-9.90753
▁Grace	-9.90763
▁skip	-9.90765
▁figure	-9.90765
▁honey	-9.90765
▁matter	-9.90765
▁forward	-9.90765
▁island	-9.90765
▁lemonade	-9.90765
▁iron	-9.90767
▁quit	-9.90769
True	-9.9077
▁birthday	-9.90771
▁poor	-9.90772
▁mind	-9.90773
▁feed	-9.9078
▁sack	-9.90785
▁free	-9.90797
▁nothing	-9.90814
Of	-9.90837
▁takes	-9.90989
▁Annie	-9.91108
all	-9.91182
oo	-9.91683
▁waiting	-9.9173
▁answered	-9.91749
old	-9.92671
▁Re	-9.93002
▁ant	-9.93091
▁places	-9.93115
▁`	-9.93618
frame	-9.93624
ile	-9.93682
▁ideas	-9.93798
▁fruit	-9.93813
type	-9.93887
▁Wh	-9.94481
▁fight	-9.94698
▁trip	-9.94848
String	-9.94932
▁David	-9.94932
▁Ellie	-9.94932
▁expensive	-9.94932
▁flag	-9.94932
▁hawk	-9.94932
▁interesting	-9.94932
▁panda	-9.94932
▁penguin	-9.94932
▁problem	-9.94932
▁rude	-9.94932
▁sharp	-9.94932
▁valuable	-9.94932
▁sparkle	-9.94932
▁Jen	-9.94932
Help	-9.9494
▁understood	-9.94947
▁card	-9.95275
▁searched	-9.95289
▁save	-9.95355
▁check	-9.95393
D	-9.95544
▁drop	-9.95768
aid	-9.96017
▁meant	-9.96393
▁count	-9.9698
▁add	-9.97324
▁H	-9.98131
▁worm	-9.98158
▁question	-9.98164
▁acorn	-9.9818
▁stone	-9.98186
▁arm	-9.98234
value	-9.98497
ould	-9.98522
▁button	-9.98559
Ben	-9.98643
▁pass	-9.98727
▁lock	-9.98738
▁kiss	-9.98745
▁frogs	-9.98817
▁spread	-9.99027
▁typ	-9.99051
▁grab	-9.99256
▁already	-9.9928
▁disappointed	-9.9928
▁embarrassed	-9.9928
▁excitement	-9.9928
▁famous	-9.9928
▁parrot	-9.9928
▁sparkly	-9.9928
▁whale	-9.9928
▁polish	-9.9928
▁stuff	-9.9928
▁barrel	-9.9928
▁powerful	-9.99281
▁cries	-9.99283
▁incredible	-9.99284
▁bake	-9.99315
▁sort	-9.99321
]]	-9.99362
▁shy	-9.99486
▁fn	-9.99561
▁Joey	-9.99629
▁word	-10.0017
▁Don	-10.0036
▁talked	-10.0084
ter	-10.0097
ity	-10.0139
ail	-10.0165
standing	-10.0172
▁dreams	-10.0197
licked	-10.0232
▁Some	-10.0251
out	-10.0281
▁mix	-10.0299
▁splash	-10.0304
year	-10.0327
▁change	-10.0347
▁point	-10.0368
F	-10.0372
lib	-10.0383
▁Ella	-10.0383
▁Leo	-10.0383
▁ashamed	-10.0383
▁competitive	-10.0383
▁crazy	-10.0383
▁float	-10.0383
▁helicopter	-10.0383
▁scissors	-10.0383
▁trunk	-10.0383
exist	-10.0383
▁impressed	-10.0383
▁End	-10.0383
▁peaceful	-10.0383
▁mole	-10.0383
▁distance	-10.0383
▁country	-10.0383
▁fit	-10.0385
▁numbers	-10.0386
▁later	-10.0389
▁dataset	-10.0394
NLTKRawLayout	-10.0397
▁sight	-10.0397
▁loves	-10.04
port	-10.0418
▁Rex	-10.0422
▁cage	-10.043
▁dolphins	-10.0432
▁pointed	-10.0437
▁spend	-10.0449
Me	-10.045
▁boys	-10.0458
▁stream	-10.0474
▁content	-10.0551
▁slow	-10.0626
▁string	-10.067
ec	-10.0681
age	-10.0743
▁list	-10.0841
▁pay	-10.0855
▁eager	-10.0855
▁pig	-10.0857
▁mill	-10.0859
q	-10.0859
▁Jamie	-10.0859
▁Lola	-10.0859
▁Mimi	-10.0859
▁borrow	-10.0859
▁breakfast	-10.0859
▁empty	-10.0859
▁escape	-10.0859
▁feet	-10.0859
▁humble	-10.0859
▁kitten	-10.0859
▁kitty	-10.0859
▁reliable	-10.0859
provenance	-10.0859
▁invite	-10.0859
▁support	-10.0859
▁mummy	-10.0859
▁ugly	-10.0859
▁bathroom	-10.0859
aving	-10.0859
▁bitter	-10.0862
▁chest	-10.0862
▁confused	-10.0863
▁seal	-10.0866
▁mail	-10.0867
▁appeared	-10.0868
▁farmer	-10.0869
▁gold	-10.0873
▁fighting	-10.0886
▁barked	-10.0886
▁hiding	-10.0889
▁crawled	-10.0889
▁yelled	-10.0892
▁happening	-10.0899
▁city	-10.0911
▁cone	-10.0923
▁faces	-10.0928
▁ears	-10.1032
user	-10.1046
▁subject	-10.1063
▁needs	-10.1068
▁nod	-10.1148
and	-10.124
▁finger	-10.1246
▁color	-10.1249
▁ignore	-10.1295
▁tire	-10.1321
body	-10.1338
▁carry	-10.134
Who	-10.1344
downloader	-10.1345
band	-10.1354
key	-10.1358
▁carpet	-10.1359
▁chocolate	-10.1359
▁costume	-10.1359
▁drum	-10.1359
▁father	-10.1359
▁miserable	-10.1359
▁motorcycle	-10.1359
▁sweater	-10.1359
▁tiger	-10.1359
▁noisy	-10.1359
linguistics	-10.1359
▁alert	-10.1359
▁pillow	-10.1359
▁successful	-10.1359
▁layout	-10.1359
▁wagg	-10.1359
▁chair	-10.136
▁rat	-10.136
▁zoom	-10.1361
▁net	-10.1361
thing	-10.1362
▁Teddy	-10.1363
role	-10.1363
▁hay	-10.1363
▁dis	-10.1364
▁helpful	-10.1365
▁hospital	-10.1375
▁giggled	-10.1377
tmp	-10.1383
ary	-10.1385
▁adventurous	-10.139
▁captain	-10.1402
▁group	-10.1402
▁accept	-10.1403
▁message	-10.1403
▁saved	-10.1405
▁data	-10.1407
▁proudly	-10.1408
▁ring	-10.1418
▁excitedly	-10.1437
▁un	-10.1459
▁meta	-10.146
pairs	-10.1506
▁closet	-10.151
▁fixed	-10.152
▁wash	-10.1569
▁layer	-10.1611
▁ch	-10.1632
▁seek	-10.1652
▁monkeys	-10.1682
int	-10.1686
▁sta	-10.1688
▁extra	-10.1723
ive	-10.174
▁D	-10.1809
▁draw	-10.1855
▁map	-10.1869
ometimes	-10.188
▁patient	-10.1881
stood	-10.1883
▁Pat	-10.1884
BaseExtractor	-10.1885
▁aeroplane	-10.1885
▁avocado	-10.1885
▁blouse	-10.1885
▁clap	-10.1885
▁dessert	-10.1885
▁destroy	-10.1885
▁festival	-10.1885
▁generous	-10.1885
▁helmet	-10.1885
▁jam	-10.1885
▁knife	-10.1885
▁lazy	-10.1885
▁march	-10.1885
▁movie	-10.1885
▁task	-10.1885
▁tidy	-10.1885
▁twist	-10.1885
▁uncomfortable	-10.1885
▁boots	-10.1885
▁person	-10.1885
▁tries	-10.1885
▁market	-10.1885
▁drank	-10.1885
▁neighbor	-10.1885
▁rocket	-10.1885
tuple	-10.1885
▁pool	-10.1886
Error	-10.1886
▁anyone	-10.1886
▁tools	-10.1886
▁tightly	-10.1891
▁comet	-10.1894
▁sleepy	-10.1897
▁test	-10.1899
▁fibonacci	-10.1902
list	-10.1903
most	-10.191
ness	-10.1911
▁sailed	-10.1913
K	-10.1915
count	-10.1916
Tom	-10.1916
Now	-10.1927
▁case	-10.1991
ten	-10.2013
▁language	-10.2021
▁questions	-10.2022
▁Give	-10.2051
wake	-10.2057
▁Mi	-10.2072
▁falls	-10.2078
▁tag	-10.2082
ne	-10.2107
▁Go	-10.2128
ick	-10.214
▁bell	-10.2167
▁stamp	-10.2329
▁cheer	-10.2387
▁agree	-10.2403
▁seat	-10.2415
▁dig	-10.2432
▁blew	-10.2441
▁copper	-10.2441
▁enormous	-10.2441
▁fancy	-10.2441
▁foolish	-10.2441
▁lamp	-10.2441
▁leaving	-10.2441
▁moving	-10.2441
▁newspaper	-10.2441
▁plate	-10.2441
▁rich	-10.2441
▁rules	-10.2441
▁stove	-10.2441
▁thirsty	-10.2441
▁ticket	-10.2441
▁twirl	-10.2441
▁built	-10.2441
▁dict	-10.2441
▁playground	-10.2441
▁week	-10.2441
▁become	-10.2441
▁speak	-10.2441
▁calendar	-10.2441
▁veil	-10.2441
▁Sammy	-10.2441
▁clever	-10.2441
▁whistle	-10.2441
▁cell	-10.2441
▁mule	-10.2441
▁wander	-10.2442
▁true	-10.2444
▁weak	-10.2446
▁kindness	-10.2447
hopping	-10.245
▁determined	-10.2455
▁restaurant	-10.2458
œLet	-10.246
classid	-10.2462
▁mud	-10.2464
▁sighed	-10.2464
▁butter	-10.2468
▁louder	-10.2469
▁harder	-10.2473
Please	-10.2502
from	-10.2504
▁painting	-10.2504
▁mixed	-10.2508
▁locked	-10.2511
▁co	-10.2524
▁snacks	-10.2541
items	-10.2544
▁split	-10.2553
▁raced	-10.2554
`	-10.2564
▁nods	-10.2575
▁goal	-10.2577
▁raise	-10.2579
ie	-10.2595
wo	-10.2602
▁type	-10.2613
▁cart	-10.2636
▁songs	-10.2645
th	-10.2654
▁size	-10.2659
▁extractor	-10.2682
▁measure	-10.2712
▁vi	-10.2734
lic	-10.2771
▁load	-10.279
way	-10.2907
▁minute	-10.2916
▁egg	-10.2916
▁eye	-10.292
ust	-10.295
▁To	-10.2977
▁office	-10.3024
}")	-10.3026
▁drive	-10.3027
▁Rob	-10.3029
subfolder	-10.3029
▁ancient	-10.3029
▁deliver	-10.3029
▁elevator	-10.3029
▁exclaimed	-10.3029
▁hammer	-10.3029
▁horn	-10.3029
▁jeep	-10.3029
▁middle	-10.3029
▁muffin	-10.3029
▁paw	-10.3029
▁peanut	-10.3029
▁since	-10.3029
▁smoke	-10.3029
▁snake	-10.3029
▁themselves	-10.3029
▁thief	-10.3029
▁twig	-10.3029
▁unusual	-10.3029
▁vase	-10.3029
Sorry	-10.3029
▁gasped	-10.3029
▁hidden	-10.3029
Countries	-10.3029
Stop	-10.3029
▁create	-10.3029
▁otter	-10.3029
▁cheerful	-10.3029
▁sock	-10.3029
▁dough	-10.3029
▁June	-10.3029
▁exc	-10.303
▁comfortable	-10.303
▁mint	-10.3031
▁thin	-10.3031
▁dishes	-10.3031
▁realis	-10.3032
▁fur	-10.3034
▁disappeared	-10.304
▁playful	-10.3042
▁stronger	-10.3048
▁factory	-10.3048
œWhat	-10.3049
œYes	-10.3059
▁often	-10.3079
▁legs	-10.3114
zip	-10.3124
▁Andy	-10.3127
special	-10.3129
They	-10.315
▁v	-10.3165
start	-10.3189
▁fruits	-10.319
▁balls	-10.3206
▁cleaning	-10.3215
users	-10.3274
▁breath	-10.3274
ve	-10.3359
▁windows	-10.3449
▁less	-10.3488
▁nltk	-10.3495
▁snack	-10.3542
▁cloud	-10.3543
▁block	-10.3544
▁search	-10.3576
▁L	-10.3578
ig	-10.359
▁pray	-10.3596
▁delight	-10.3599
▁son	-10.3616
▁imagine	-10.3617
item	-10.3637
io	-10.365
▁quick	-10.3651
▁thick	-10.3651
False	-10.3654
▁session	-10.3654
▁Danny	-10.3654
▁Harry	-10.3654
▁Lizzy	-10.3654
▁desk	-10.3654
▁fountain	-10.3654
▁ingredients	-10.3654
▁lizard	-10.3654
▁normal	-10.3654
▁pipe	-10.3654
▁popular	-10.3654
▁rush	-10.3654
▁scatter	-10.3654
▁stubborn	-10.3654
▁stumbled	-10.3654
▁trash	-10.3654
▁woman	-10.3654
▁guess	-10.3654
▁hours	-10.3654
▁kite	-10.3654
▁Mark	-10.3654
▁Matt	-10.3654
▁elde	-10.3654
▁spaceship	-10.3654
▁bubbles	-10.3654
▁boring	-10.3654
sum	-10.3655
▁wrapp	-10.3655
▁beak	-10.366
▁branches	-10.366
max	-10.366
▁reward	-10.3663
▁painter	-10.3664
▁gun	-10.3665
▁cooler	-10.3671
▁Who	-10.3677
▁downloader	-10.3679
▁sweetie	-10.3726
▁dreaming	-10.3738
▁lean	-10.375
▁triples	-10.3771
▁download	-10.3781
▁Brown	-10.3781
▁stamps	-10.3782
big	-10.3798
▁shake	-10.3802
▁rel	-10.3813
▁sour	-10.3819
▁tap	-10.3886
▁cups	-10.3907
rit	-10.3936
ry	-10.3971
choo	-10.3984
ant	-10.3996
ul	-10.4002
▁len	-10.402
▁lights	-10.4043
▁yours	-10.4052
abel	-10.409
▁edge	-10.4097
▁dogs	-10.412
▁cub	-10.4125
py	-10.4134
ction	-10.4188
ha	-10.4189
▁rub	-10.4205
▁sticker	-10.4222
▁slid	-10.4244
H	-10.4246
▁scream	-10.4247
▁bounce	-10.4281
rly	-10.4295
▁Tweet	-10.4313
▁pear	-10.4317
Y	-10.4317
▁reg	-10.4317
expect	-10.4318
WordNet	-10.4319
PACKAGES	-10.432
corpus	-10.432
▁Nemo	-10.432
▁above	-10.432
▁advice	-10.432
▁bathtub	-10.432
▁bottom	-10.432
▁cheek	-10.432
▁crash	-10.432
▁deaf	-10.432
▁dishwasher	-10.432
▁easy	-10.432
▁favo	-10.432
▁glow	-10.432
▁grumpy	-10.432
▁half	-10.432
▁honest	-10.432
▁knight	-10.432
▁large	-10.432
▁microscope	-10.432
▁oasis	-10.432
▁skin	-10.432
▁suggested	-10.432
▁zipper	-10.432
BaseDownloader	-10.432
▁crack	-10.432
▁demand	-10.432
▁gain	-10.432
▁skipped	-10.432
▁speed	-10.432
▁wipe	-10.4321
▁clear	-10.4321
▁nails	-10.4321
▁colourful	-10.4321
▁rough	-10.4321
▁axe	-10.4321
▁happier	-10.4321
▁shade	-10.4321
spec	-10.4322
▁leak	-10.4322
lang	-10.4322
▁folder	-10.4323
▁bath	-10.4324
▁shine	-10.4324
tagged	-10.4325
urit	-10.4327
ray	-10.4337
▁seeds	-10.4338
▁sneezed	-10.434
▁once	-10.4354
▁safely	-10.4361
ular	-10.4362
▁cooking	-10.4367
▁pie	-10.438
▁peppers	-10.4395
we	-10.4407
▁checked	-10.441
up	-10.4412
▁asking	-10.4415
▁Today	-10.4418
▁results	-10.4418
▁rag	-10.4424
node	-10.4429
())	-10.444
ic	-10.4442
less	-10.4485
nltk	-10.4493
▁worms	-10.4497
cream	-10.45
[]	-10.4502
line	-10.4522
▁strip	-10.4565
▁stand	-10.4565
▁soar	-10.46
▁walls	-10.4609
▁Ma	-10.461
▁replace	-10.4614
▁bees	-10.463
▁buildings	-10.4641
▁stem	-10.468
lower	-10.4692
framed	-10.4716
▁bar	-10.4741
▁extract	-10.4776
▁laughs	-10.4797
stat	-10.4802
▁operand	-10.4814
om	-10.4827
com	-10.4836
▁shout	-10.4844
king	-10.4891
▁wing	-10.4918
▁power	-10.4919
ca	-10.4919
▁colour	-10.4921
▁crayon	-10.4921
▁low	-10.4994
▁knee	-10.5014
▁past	-10.503
▁Alex	-10.503
▁step	-10.5032
member	-10.5033
▁law	-10.5035
profile	-10.5035
sync	-10.5035
Collocations	-10.5035
Wikidata	-10.5035
either	-10.5035
giving	-10.5035
length	-10.5035
▁George	-10.5035
▁Iterator	-10.5035
▁Snowball	-10.5035
▁basketball	-10.5035
▁dentist	-10.5035
▁emergency	-10.5035
▁fisherman	-10.5035
▁fluffy	-10.5035
▁foot	-10.5035
▁fragile	-10.5035
▁frightened	-10.5035
▁igloo	-10.5035
▁insect	-10.5035
▁jealous	-10.5035
▁ladder	-10.5035
▁marry	-10.5035
▁mechanic	-10.5035
▁mineral	-10.5035
▁nature	-10.5035
▁neck	-10.5035
▁palace	-10.5035
▁radio	-10.5035
▁shield	-10.5035
▁trick	-10.5035
▁unique	-10.5035
▁video	-10.5035
Standards	-10.5035
tokeniz	-10.5035
▁fireman	-10.5035
▁angel	-10.5035
▁biggest	-10.5035
▁trophy	-10.5035
▁lightning	-10.5035
See	-10.5035
▁prevent	-10.5035
▁swan	-10.5035
▁shaking	-10.5035
▁bored	-10.5036
▁freezer	-10.5036
tim	-10.5036
Shar	-10.5037
▁study	-10.5038
▁pale	-10.5039
▁counter	-10.5041
▁stack	-10.5047
▁whispered	-10.5049
▁drawer	-10.505
▁ribbons	-10.5056
▁blowing	-10.5057
▁obedient	-10.5058
▁yawned	-10.5061
▁#[	-10.507
▁tears	-10.5081
▁default	-10.5098
▁nicely	-10.5099
▁smaller	-10.5104
▁older	-10.5129
▁target	-10.514
ce	-10.5142
mp	-10.5152
▁houses	-10.5158
of	-10.5167
▁eggs	-10.5174
▁minutes	-10.5174
▁scratch	-10.5181
▁seats	-10.5183
▁fingers	-10.52
▁pleased	-10.5221
text	-10.5245
load	-10.5249
operand	-10.526
Here	-10.5261
object	-10.527
write	-10.5271
std	-10.5338
▁config	-10.5394
▁saying	-10.5406
file	-10.5411
code	-10.5413
▁decorate	-10.545
▁tape	-10.5518
▁itself	-10.561
▁Fred	-10.565
▁leg	-10.5692
▁yell	-10.5725
▁remind	-10.575
fe	-10.5761
▁blow	-10.578
▁pre	-10.5781
▁cha	-10.5783
R	-10.58
▁sudden	-10.5801
▁sandwich	-10.5801
manifest	-10.5804
▁discuss	-10.5804
▁Fanny	-10.5804
▁bracelet	-10.5804
▁breeze	-10.5804
▁clumsy	-10.5804
▁complain	-10.5804
▁cricket	-10.5804
▁dancing	-10.5804
▁difficult	-10.5804
▁encourage	-10.5804
▁four	-10.5804
▁happiness	-10.5804
▁hurry	-10.5804
▁impressive	-10.5804
▁original	-10.5804
▁pattern	-10.5804
▁recommend	-10.5804
▁seagull	-10.5804
▁second	-10.5804
▁serious	-10.5804
▁teaspoon	-10.5804
▁terrible	-10.5804
▁universe	-10.5804
Morphology	-10.5804
TreeSitter	-10.5804
alpha	-10.5804
▁candle	-10.5804
▁dear	-10.5804
▁guard	-10.5804
▁queen	-10.5804
▁rare	-10.5804
▁film	-10.5804
domain	-10.5804
▁Henry	-10.5804
▁compassionate	-10.5804
▁Lisa	-10.5804
▁behave	-10.5804
▁icy	-10.5804
▁scoop	-10.5805
▁fake	-10.5805
▁bandage	-10.5805
▁gas	-10.5805
▁shone	-10.5805
▁couch	-10.5806
admin	-10.5807
▁fat	-10.5807
▁melt	-10.5807
▁moon	-10.5807
▁friendship	-10.581
▁thoughtful	-10.581
▁pushes	-10.5812
earth	-10.5813
▁spoiled	-10.5828
▁hairy	-10.5829
▁searching	-10.5834
▁allowed	-10.5837
▁relaxed	-10.5846
ke	-10.5848
▁leading	-10.5852
▁remained	-10.5855
▁celebrated	-10.5857
▁scale	-10.5873
▁vegetables	-10.5882
▁meal	-10.5885
ripped	-10.5888
▁circles	-10.59
▁passed	-10.5903
▁chose	-10.5908
▁Next	-10.5918
▁walks	-10.5934
▁bin	-10.5965
url	-10.5971
▁ha	-10.5976
▁shut	-10.5985
one	-10.6023
▁result	-10.6031
side	-10.6051
▁FrameNet	-10.6055
▁plants	-10.6064
▁handle	-10.6073
▁space	-10.6101
NLTK	-10.6103
▁ow	-10.6107
wait	-10.611
lying	-10.6119
▁measur	-10.6239
▁bu	-10.6262
tract	-10.6275
▁url	-10.6344
▁text	-10.6383
▁jumps	-10.639
ug	-10.6468
▁picking	-10.6504
▁nut	-10.6524
▁crawl	-10.6559
▁order	-10.6566
▁lick	-10.6568
▁remain	-10.6583
▁hats	-10.6585
▁squeeze	-10.6598
])	-10.6598
▁pain	-10.6607
▁Pete	-10.6633
ance	-10.6635
▁comfort	-10.6636
▁pen	-10.6636
erbNet	-10.6636
▁fold	-10.6637
▁Bett	-10.6637
▁hung	-10.6637
▁success	-10.6637
▁danger	-10.6637
appen	-10.6637
▁fear	-10.6637
http	-10.6637
ueen	-10.6637
NaturalEarth	-10.6637
▁perform	-10.6637
▁six	-10.6637
BackedDownloader	-10.6637
Yay	-10.6637
fresh	-10.6637
▁Ducky	-10.6637
▁afternoon	-10.6637
▁anxious	-10.6637
▁barber	-10.6637
▁diamond	-10.6637
▁frustrated	-10.6637
▁gloomy	-10.6637
▁glove	-10.6637
▁holiday	-10.6637
▁hut	-10.6637
▁intelligent	-10.6637
▁jolly	-10.6637
▁license	-10.6637
▁lollipop	-10.6637
▁neighbour	-10.6637
▁nurse	-10.6637
▁ornament	-10.6637
▁pitch	-10.6637
▁project	-10.6637
▁punish	-10.6637
▁spear	-10.6637
▁supply	-10.6637
▁symbol	-10.6637
▁telephone	-10.6637
▁thermometer	-10.6637
▁thumb	-10.6637
bigram	-10.6637
module	-10.6637
▁Robot	-10.6637
▁fine	-10.6637
▁charming	-10.6637
▁deer	-10.6637
▁mask	-10.6637
▁petals	-10.6637
▁sandbox	-10.6637
▁structure	-10.6638
▁weird	-10.6638
Node	-10.6638
▁dish	-10.6638
▁pole	-10.6638
▁lid	-10.6638
▁tank	-10.6638
▁jogg	-10.6639
▁pup	-10.6639
hocke	-10.6639
▁nosy	-10.6639
▁careless	-10.6639
bby	-10.6639
▁rail	-10.6639
▁sandwiches	-10.6641
▁dinosaur	-10.6641
▁dare	-10.6641
▁hotel	-10.6644
Ow	-10.6644
iggy	-10.6644
▁gray	-10.6646
▁manage	-10.6652
▁dancer	-10.6654
▁bool	-10.6655
▁smelly	-10.6658
▁sent	-10.6658
▁poked	-10.666
▁recognize	-10.666
▁stranger	-10.6662
▁messy	-10.6664
▁brightly	-10.6664
ver	-10.6667
▁singer	-10.6667
▁grown	-10.6667
▁lose	-10.6672
▁body	-10.6673
▁carrying	-10.6679
▁forth	-10.6687
▁spi	-10.6695
▁delighted	-10.6712
▁museum	-10.6712
▁ordinary	-10.6712
▁brothers	-10.6715
▁growing	-10.6715
▁loaded	-10.6721
▁splashed	-10.6741
em	-10.675
▁collect	-10.676
"{	-10.6764
ory	-10.6769
▁description	-10.6811
ure	-10.6828
▁apart	-10.6829
iso	-10.6841
▁ahead	-10.6846
▁painted	-10.6854
▁counts	-10.6877
▁cards	-10.6883
oth	-10.6911
go	-10.6919
▁lab	-10.6936
ER	-10.695
▁unit	-10.6952
▁perc	-10.6957
▁lives	-10.6964
▁cows	-10.7005
relation	-10.7013
with	-10.7022
for	-10.7047
be	-10.7154
rie	-10.7203
▁act	-10.7203
▁hang	-10.721
▁per	-10.7252
▁j	-10.7255
▁pai	-10.7268
▁heal	-10.7273
the	-10.731
▁complete	-10.734
▁bikes	-10.7379
ple	-10.7421
▁pigeon	-10.7431
▁carrot	-10.7432
▁wheel	-10.7433
lemma	-10.7434
pressed	-10.7465
}`	-10.7484
▁mu	-10.7486
▁celebrate	-10.7511
▁circle	-10.7515
efore	-10.7523
▁bark	-10.7523
▁meet	-10.7523
J	-10.7523
tches	-10.7523
loom	-10.7524
▁crow	-10.7537
://	-10.7546
▁suit	-10.7546
atomic	-10.7546
response	-10.7546
Yum	-10.7546
▁Sandy	-10.7546
▁blinked	-10.7546
▁brilliant	-10.7546
▁cereal	-10.7546
▁chimney	-10.7546
▁disgusting	-10.7546
▁envious	-10.7546
▁genie	-10.7546
▁glass	-10.7546
▁glitter	-10.7546
▁grandpa	-10.7546
▁grocery	-10.7546
▁harsh	-10.7546
▁leopard	-10.7546
▁necklace	-10.7546
▁plastic	-10.7546
▁policeman	-10.7546
▁raft	-10.7546
▁refused	-10.7546
▁salad	-10.7546
▁shrugged	-10.7546
▁sneak	-10.7546
▁trade	-10.7546
▁umbrella	-10.7546
▁yucky	-10.7546
Point	-10.7546
▁witch	-10.7546
tokens	-10.7546
▁Burt	-10.7546
▁slept	-10.7546
▁yet	-10.7546
▁Aunt	-10.7546
rubbed	-10.7547
▁spray	-10.7547
▁salt	-10.7547
▁sofa	-10.7547
▁itchy	-10.7547
▁spun	-10.7547
▁urge	-10.7547
▁dependable	-10.7547
▁pastry	-10.7547
▁safety	-10.7547
▁turtle	-10.7547
▁hoop	-10.7547
▁tough	-10.7547
lves	-10.7548
▁Big	-10.7548
▁slippe	-10.7549
verb	-10.7549
▁anyway	-10.7549
▁treehouse	-10.7549
▁toast	-10.7549
▁spill	-10.7551
▁whip	-10.7553
▁hook	-10.7554
▁ruined	-10.7554
▁modest	-10.7556
▁shocked	-10.756
▁gate	-10.7564
▁somewhere	-10.7574
▁bone	-10.7576
▁chickens	-10.7585
Map	-10.7592
ier	-10.7595
▁goat	-10.7595
▁loudly	-10.7595
▁pages	-10.7607
▁bananas	-10.7618
▁imagined	-10.7618
▁prayed	-10.7628
▁merge	-10.7629
▁Frankie	-10.7629
▁beep	-10.7647
▁washed	-10.7659
▁wheels	-10.7662
▁nuts	-10.7673
▁slides	-10.7681
▁parity	-10.7683
▁crayons	-10.7695
▁colours	-10.7695
▁swinging	-10.7708
len	-10.7718
cked	-10.773
▁fetch	-10.7742
▁birdie	-10.7759
gu	-10.7782
head	-10.7785
▁category	-10.7792
datasets	-10.7804
▁forg	-10.7831
▁listening	-10.7838
▁board	-10.7889
ina	-10.7958
RawTriple	-10.8014
Spot	-10.8019
▁total	-10.8025
stem	-10.8035
▁treasures	-10.8053
ful	-10.8069
▁squirrels	-10.8076
by	-10.8092
encod	-10.815
pos	-10.8152
▁seem	-10.8356
▁jewel	-10.8431
▁pepper	-10.8434
▁dolphin	-10.8435
▁feather	-10.8436
▁pumpkin	-10.8437
▁sail	-10.8481
▁relax	-10.8492
▁giggle	-10.8508
ship	-10.8515
▁sell	-10.8519
aby	-10.8526
▁peace	-10.8546
▁surf	-10.8546
Welcome	-10.8546
neath	-10.8546
radius	-10.8546
▁Bunny	-10.8546
▁Charlie	-10.8546
▁Cindy	-10.8546
▁Eventually	-10.8546
▁James	-10.8546
▁Janie	-10.8546
▁Sunshine	-10.8546
▁adorable	-10.8546
▁amazement	-10.8546
▁bicycle	-10.8546
▁bookshelf	-10.8546
▁burned	-10.8546
▁cherries	-10.8546
▁courage	-10.8546
▁dead	-10.8546
▁entrance	-10.8546
▁fierce	-10.8546
▁fridge	-10.8546
▁frowned	-10.8546
▁furniture	-10.8546
▁improve	-10.8546
▁investigate	-10.8546
▁jacket	-10.8546
▁leash	-10.8546
▁marshmallow	-10.8546
▁memories	-10.8546
▁opinion	-10.8546
▁pizza	-10.8546
▁puddle	-10.8546
▁razor	-10.8546
▁sandcastle	-10.8546
▁shiver	-10.8546
▁shrimp	-10.8546
▁statue	-10.8546
▁succeed	-10.8546
▁suffer	-10.8546
▁sunflower	-10.8546
▁tqdm	-10.8546
▁track	-10.8546
▁triangle	-10.8546
▁tummy	-10.8546
▁underground	-10.8546
▁unpack	-10.8546
▁waffle	-10.8546
▁yarn	-10.8546
chunk	-10.8546
tokeniser	-10.8546
▁Linda	-10.8546
▁contain	-10.8546
▁alarm	-10.8546
wordnet	-10.8546
▁permission	-10.8546
▁shoot	-10.8546
▁choose	-10.8547
ISO	-10.8547
cle	-10.8547
▁pride	-10.8547
▁struct	-10.8547
▁panic	-10.8547
▁chance	-10.8547
▁respectful	-10.8547
▁enter	-10.8547
▁library	-10.8548
ative	-10.8548
▁slapp	-10.8548
▁examine	-10.8548
▁joke	-10.8548
unknown	-10.8548
▁bossy	-10.8548
▁hunter	-10.8548
▁missile	-10.8548
▁setup	-10.8549
▁tray	-10.8549
▁useful	-10.855
▁stir	-10.855
▁golden	-10.855
▁bloom	-10.855
Ok	-10.8553
▁vest	-10.8553
unch	-10.8553
ggy	-10.8554
▁eagerly	-10.8554
▁officer	-10.8555
▁spin	-10.8559
▁barn	-10.8561
AR	-10.8562
▁lie	-10.8563
▁blooming	-10.8571
▁princesses	-10.8572
▁meeting	-10.8574
▁softly	-10.8576
▁crawling	-10.8576
▁failures	-10.8577
▁curtains	-10.8577
œThat	-10.8583
▁mighty	-10.8584
▁wishes	-10.8584
œYou	-10.8585
▁hero	-10.8588
œNo	-10.8588
▁{}	-10.8597
▁splashing	-10.8602
▁players	-10.8615
headers	-10.8617
min	-10.8618
▁bat	-10.8618
▁God	-10.8623
▁sleeping	-10.8631
▁Papa	-10.8638
▁missing	-10.8638
▁press	-10.8639
▁beat	-10.8646
▁row	-10.8663
lemmas	-10.8673
▁carrots	-10.8674
uring	-10.869
▁inter	-10.869
▁roared	-10.8691
TMm	-10.8708
▁cooked	-10.8709
▁shouts	-10.8712
œIt	-10.8717
▁printed	-10.8749
▁source	-10.8759
▁admire	-10.8813
▁calls	-10.8857
▁Here	-10.8865
part	-10.8873
hanging	-10.8929
▁hits	-10.8934
ied	-10.8955
ome	-10.9075
total	-10.9107
config	-10.9113
layer	-10.9119
lay	-10.9132
word	-10.9136
▁weigh	-10.9146
ian	-10.9172
Di	-10.9179
▁starts	-10.9199
▁fr	-10.9229
▁tables	-10.9251
room	-10.9294
▁lions	-10.9315
uck	-10.9357
▁admir	-10.9367
▁stops	-10.9391
▁shape	-10.9543
▁vegetable	-10.9545
▁triple	-10.9545
▁marble	-10.9548
ack	-10.9633
▁wrap	-10.9655
▁exam	-10.9656
eople	-10.9656
Wait	-10.9658
uckily	-10.9658
▁Amber	-10.9658
▁Cody	-10.9658
▁Hopper	-10.9658
▁Jerry	-10.9658
▁Neil	-10.9658
▁Peep	-10.9658
▁Puppy	-10.9658
▁Ralph	-10.9658
▁Sunny	-10.9658
▁achieve	-10.9658
▁ashtray	-10.9658
▁balance	-10.9658
▁beetle	-10.9658
▁begged	-10.9658
▁cherry	-10.9658
▁cushion	-10.9658
▁distant	-10.9658
▁earthquake	-10.9658
▁enthusiastic	-10.9658
▁faucet	-10.9658
▁flame	-10.9658
▁flat	-10.9658
▁flavor	-10.9658
▁glue	-10.9658
▁graceful	-10.9658
▁increase	-10.9658
▁independent	-10.9658
▁invitation	-10.9658
▁lecture	-10.9658
▁medicine	-10.9658
▁notebook	-10.9658
▁photo	-10.9658
▁racing	-10.9658
▁rhythm	-10.9658
▁rubber	-10.9658
▁scarf	-10.9658
▁scold	-10.9658
▁sink	-10.9658
▁soccer	-10.9658
▁steal	-10.9658
▁style	-10.9658
▁sunglasses	-10.9658
▁surface	-10.9658
▁talent	-10.9658
▁thunder	-10.9658
▁travel	-10.9658
▁tunnel	-10.9658
▁valley	-10.9658
▁warning	-10.9658
collocations	-10.9658
morphology	-10.9658
▁tugged	-10.9658
corpora	-10.9658
identity	-10.9658
▁clapping	-10.9658
▁square	-10.9658
resume	-10.9658
▁version	-10.9658
framenet	-10.9658
▁jellyfish	-10.9658
▁shelter	-10.9658
▁rot	-10.9658
▁gear	-10.9658
DIR	-10.9658
▁camera	-10.9658
▁insist	-10.9658
▁stitch	-10.9658
▁pedal	-10.9658
▁vocab	-10.9658
▁judge	-10.9658
▁tube	-10.9658
yster	-10.9658
Yuck	-10.9658
▁Meg	-10.9658
▁stage	-10.9659
▁sweetheart	-10.9659
▁energy	-10.9659
▁beans	-10.9659
ED	-10.9659
OR	-10.9659
osm	-10.966
▁dust	-10.9661
▁baker	-10.9663
▁Alexa	-10.9665
NO	-10.9665
▁Kim	-10.9665
▁bushes	-10.9667
▁chirped	-10.9668
▁early	-10.9671
▁nowhere	-10.9675
Fe	-10.9679
(`	-10.968
▁stretched	-10.9681
▁attract	-10.9682
▁meow	-10.9682
▁sailing	-10.9685
▁closely	-10.9691
▁shadows	-10.9705
▁squeezed	-10.9711
▁badly	-10.9714
▁bounced	-10.9725
▁reminde	-10.9738
▁changed	-10.9758
▁requests	-10.976
shp	-10.9785
ang	-10.9792
▁slip	-10.98
▁soap	-10.9802
▁ignor	-10.9806
ease	-10.9879
▁Lin	-10.9913
▁introduce	-10.9936
▁thinking	-10.9944
▁shoulder	-10.997
▁letters	-10.9996
ake	-10.9997
▁ho	-11.0004
strict	-11.0014
hoe	-11.0015
▁visited	-11.0022
init	-11.0093
▁twinkle	-11.0103
▁puzzles	-11.0137
err	-11.0248
ried	-11.03
Ru	-11.0323
ld	-11.0346
result	-11.0361
replace	-11.0365
subject	-11.037
hello	-11.0376
Grandma	-11.038
And	-11.0382
saw	-11.0399
park	-11.04
keeper	-11.0401
light	-11.0506
string	-11.0513
He	-11.0538
oe	-11.0548
▁po	-11.0577
oom	-11.078
▁request	-11.0793
ous	-11.0804
ool	-11.0809
▁sigh	-11.0817
▁canonicalize	-11.084
▁attach	-11.0851
▁explain	-11.0854
▁sneeze	-11.0869
▁patch	-11.0869
ung	-11.0878
œM	-11.0881
▁peach	-11.0904
▁jog	-11.0906
flies	-11.0907
natural	-11.0907
verbnet	-11.0908
▁Abbie	-11.0908
▁Earth	-11.0908
▁Jojo	-11.0908
▁Kelly	-11.0908
▁Rachel	-11.0908
▁verif	-11.0908
BYTES	-11.0908
Evie	-11.0908
Follow	-11.0908
Natural	-11.0908
▁Claire	-11.0908
▁Cooper	-11.0908
▁Everyday	-11.0908
▁Jessie	-11.0908
▁Percy	-11.0908
▁attention	-11.0908
▁bouncing	-11.0908
▁cliff	-11.0908
▁clown	-11.0908
▁cocoa	-11.0908
▁daisy	-11.0908
▁desert	-11.0908
▁experience	-11.0908
▁fashion	-11.0908
▁firetruck	-11.0908
▁flexible	-11.0908
▁flute	-11.0908
▁flutter	-11.0908
▁fuel	-11.0908
▁giraffe	-11.0908
▁harmless	-11.0908
▁hurri	-11.0908
▁immediately	-11.0908
▁impatient	-11.0908
▁popcorn	-11.0908
▁quiz	-11.0908
▁rescue	-11.0908
▁score	-11.0908
▁shark	-11.0908
▁skill	-11.0908
▁skull	-11.0908
▁spell	-11.0908
▁stirring	-11.0908
▁stomach	-11.0908
▁stupid	-11.0908
▁summer	-11.0908
▁traffic	-11.0908
▁warned	-11.0908
▁weapon	-11.0908
▁wisdom	-11.0908
▁zero	-11.0908
void	-11.0908
▁Tara	-11.0908
▁juicy	-11.0908
▁spoke	-11.0908
▁tip	-11.0908
PBF	-11.0908
grammar	-11.0908
▁Lilly	-11.0908
▁outfit	-11.0908
countries	-11.0908
▁goose	-11.0908
Isla	-11.0908
▁jet	-11.0908
▁sprinkle	-11.0908
▁stirred	-11.0908
▁below	-11.0908
▁chess	-11.0908
▁assert	-11.0908
▁attic	-11.0908
▁beamed	-11.0908
Mmm	-11.0908
dbf	-11.0908
▁pilot	-11.0908
▁rise	-11.0908
Bye	-11.0908
▁Penny	-11.0908
syntax	-11.0908
▁Mike	-11.0908
▁Tweetie	-11.0908
▁pinch	-11.0908
▁Optional	-11.0908
▁thread	-11.0909
▁Ke	-11.0909
icate	-11.0909
region	-11.091
▁alive	-11.091
▁radishes	-11.091
▁five	-11.0911
metaspace	-11.0911
shapefile	-11.0912
ME	-11.0913
▁Noa	-11.0913
▁pine	-11.0914
▁pasta	-11.0916
▁allow	-11.0918
▁codes	-11.0918
ncle	-11.092
▁practiced	-11.0926
▁helpless	-11.0931
▁received	-11.0931
▁playroom	-11.0933
▁argued	-11.0937
ight	-11.0943
▁vet	-11.0952
▁highest	-11.0953
▁zooming	-11.0972
ame	-11.1037
▁dr	-11.1047
▁jewels	-11.1056
▁pigeons	-11.1072
▁lu	-11.108
▁Al	-11.1093
eg	-11.1094
▁belonged	-11.1108
▁powers	-11.1119
input	-11.1134
▁rubs	-11.1134
▁cubs	-11.1137
served	-11.115
none	-11.1174
TI	-11.1223
▁appreciate	-11.1257
▁tu	-11.1285
omeone	-11.1288
attr	-11.1465
▁sp	-11.152
ely	-11.1563
ng	-11.1638
tag	-11.1764
size	-11.1772
space	-11.1773
read	-11.178
match	-11.1796
content	-11.1799
How	-11.1803
board	-11.1805
brown	-11.1806
Go	-11.1807
next	-11.181
Max	-11.1811
Tim	-11.1811
extract	-11.1816
def	-11.1819
Sara	-11.1819
strip	-11.182
coming	-11.1865
aking	-11.1956
▁unite	-11.2067
There	-11.2123
▁prepare	-11.2152
▁ex	-11.2201
▁sw	-11.2205
▁hi	-11.2213
▁banana	-11.2222
▁rid	-11.2225
dding	-11.2242
restr	-11.2263
▁yawn	-11.2281
▁poke	-11.2298
▁range	-11.2331
▁radish	-11.2333
▁wag	-11.2334
opped	-11.2336
▁lemon	-11.2336
OsmGb	-11.2336
▁cabin	-11.2336
Open	-11.2336
▁proce	-11.2336
confidence	-11.2336
eofabrik	-11.2336
motion	-11.2336
tagset	-11.2336
transform	-11.2336
universal	-11.2336
▁Bella	-11.2336
▁Bibi	-11.2336
▁Bobbie	-11.2336
▁Bongo	-11.2336
▁Chicky	-11.2336
▁Eileen	-11.2336
▁Hannah	-11.2336
▁Holly	-11.2336
▁Instead	-11.2336
▁Jennie	-11.2336
▁Jones	-11.2336
▁Josh	-11.2336
▁Lou	-11.2336
▁Sunday	-11.2336
▁accomplish	-11.2336
▁alien	-11.2336
▁approach	-11.2336
▁audience	-11.2336
▁choice	-11.2336
▁crossed	-11.2336
▁difference	-11.2336
▁downstairs	-11.2336
▁drain	-11.2336
▁earlier	-11.2336
▁engine	-11.2336
▁flood	-11.2336
▁greedy	-11.2336
▁homework	-11.2336
▁increasing	-11.2336
▁leather	-11.2336
▁mice	-11.2336
▁mystery	-11.2336
▁network	-11.2336
▁octopus	-11.2336
▁operation	-11.2336
▁patience	-11.2336
▁pencil	-11.2336
▁persistent	-11.2336
▁pistol	-11.2336
▁poison	-11.2336
▁powder	-11.2336
▁puppet	-11.2336
▁resist	-11.2336
▁reveal	-11.2336
▁situation	-11.2336
▁squash	-11.2336
▁struggling	-11.2336
▁supplie	-11.2336
▁vanished	-11.2336
▁volcano	-11.2336
▁whistling	-11.2336
Great	-11.2336
double	-11.2336
suffix	-11.2336
▁Maya	-11.2336
▁Shake	-11.2336
▁beauty	-11.2336
▁cartoon	-11.2336
▁cheap	-11.2336
▁dull	-11.2336
▁easily	-11.2336
▁fog	-11.2336
▁jelly	-11.2336
▁luxury	-11.2336
▁organized	-11.2336
▁potato	-11.2336
▁price	-11.2336
▁require	-11.2336
▁silver	-11.2336
▁trapped	-11.2336
▁wardrobe	-11.2336
HashMap	-11.2336
Type	-11.2336
holonyms	-11.2336
meronyms	-11.2336
▁Tilly	-11.2336
▁skipping	-11.2336
▁solution	-11.2336
▁tide	-11.2336
▁single	-11.2336
false	-11.2336
▁issues	-11.2336
▁spinning	-11.2336
vectors	-11.2336
▁solve	-11.2336
▁sunset	-11.2336
▁flashlight	-11.2336
▁restored	-11.2336
▁neat	-11.2336
userId	-11.2336
related	-11.2336
▁imagination	-11.2336
▁towel	-11.2336
▁butterflies	-11.2337
null	-11.2337
▁needle	-11.2337
▁hive	-11.2337
▁bury	-11.2337
▁Bear	-11.2337
email	-11.2337
mentation	-11.2338
insert	-11.2339
▁settle	-11.2339
ific	-11.2339
LL	-11.2339
bytes	-11.2339
FA	-11.2339
▁forgotten	-11.2339
▁package	-11.234
▁laughter	-11.234
▁creation	-11.2341
▁wobbl	-11.2342
ical	-11.2342
▁warmth	-11.2342
▁expected	-11.2343
▁record	-11.2343
ES	-11.2344
▁sword	-11.2344
▁patiently	-11.2346
actual	-11.2346
▁swamp	-11.2346
▁bakery	-11.2347
▁mixer	-11.2348
▁post	-11.2349
log	-11.235
▁Tweety	-11.2352
ki	-11.2353
▁pal	-11.2354
▁lively	-11.2355
▁Mae	-11.2355
▁printer	-11.2355
▁Samina	-11.2356
▁gust	-11.2356
▁metal	-11.2359
▁makeup	-11.2361
▁Lia	-11.2362
▁apologized	-11.2363
▁baking	-11.2364
▁quietly	-11.2364
▁dove	-11.2365
/``	-11.2366
▁Not	-11.2366
num	-11.2369
Bug	-11.237
▁bang	-11.2371
▁selling	-11.2373
▁taller	-11.2376
▁kneel	-11.238
▁yelling	-11.2384
ial	-11.2387
nta	-11.2387
▁screaming	-11.2392
▁Frog	-11.2396
digits	-11.24
▁attached	-11.2402
▁Fr	-11.2405
▁drawing	-11.2408
▁pred	-11.2414
canonicalizer	-11.2414
▁synsets	-11.2418
▁roaring	-11.2431
mk	-11.2439
▁Helen	-11.2448
ordered	-11.2457
▁falling	-11.2459
AS	-11.2494
▁tru	-11.2497
▁trap	-11.2504
▁climbing	-11.2514
▁nicer	-11.2527
▁worker	-11.254
▁sadly	-11.2554
▁heat	-11.263
▁growl	-11.265
edges	-11.2852
▁soak	-11.2872
▁snuggle	-11.3137
▁breathe	-11.3302
RE	-11.3406
rk	-11.3411
FrameNet	-11.3457
Give	-11.3466
She	-11.3486
shakes	-11.36
util	-11.3604
ank	-11.3626
ole	-11.3763
▁page	-11.3894
▁tear	-11.3921
repo	-11.3937
▁spoil	-11.3948
▁exp	-11.3956
▁argue	-11.3963
leve	-11.3965
▁Star	-11.3985
Read	-11.3996
▁stud	-11.3996
▁health	-11.3997
▁batter	-11.3997
▁trai	-11.3999
▁hunt	-11.3999
▁final	-11.3999
▁slap	-11.4
alue	-11.4002
▁Soph	-11.4002
azine	-11.4003
▁buzz	-11.4003
AGENT	-11.4003
START	-11.4003
categories	-11.4003
cious	-11.4003
permissive	-11.4003
▁Bennett	-11.4003
▁Brian	-11.4003
▁Caroline	-11.4003
▁Dutch	-11.4003
▁First	-11.4003
▁Jasper	-11.4003
▁Julie	-11.4003
▁Jumpy	-11.4003
▁Katie	-11.4003
▁Kitty	-11.4003
▁Larry	-11.4003
▁Pepper	-11.4003
▁Squeak	-11.4003
▁Tammy	-11.4003
▁airplane	-11.4003
▁arguing	-11.4003
▁bumped	-11.4003
▁burning	-11.4003
▁campfire	-11.4003
▁challenge	-11.4003
▁chew	-11.4003
▁combine	-11.4003
▁crumbs	-11.4003
▁darling	-11.4003
▁decorations	-11.4003
▁delta	-11.4003
▁disturbed	-11.4003
▁flour	-11.4003
▁ghost	-11.4003
▁guitar	-11.4003
▁hedge	-11.4003
▁hippo	-11.4003
▁kayak	-11.4003
▁landscape	-11.4003
▁laundry	-11.4003
▁limes	-11.4003
▁mailman	-11.4003
▁merchant	-11.4003
▁mermaid	-11.4003
▁microphone	-11.4003
▁microwave	-11.4003
▁overjoyed	-11.4003
▁prune	-11.4003
▁scarecrow	-11.4003
▁separat	-11.4003
▁slimy	-11.4003
▁spaghetti	-11.4003
▁struggle	-11.4003
▁sunrise	-11.4003
▁surround	-11.4003
▁thermos	-11.4003
▁unhappy	-11.4003
▁weather	-11.4003
▁wiggl	-11.4003
▁zebra	-11.4003
curated	-11.4003
display	-11.4003
noun	-11.4003
substance	-11.4003
treesitter	-11.4003
▁Finn	-11.4003
▁Maxwell	-11.4003
▁Out	-11.4003
▁adult	-11.4003
▁applaud	-11.4003
▁desc	-11.4003
▁firefly	-11.4003
▁grant	-11.4003
▁olive	-11.4003
▁quack	-11.4003
ImportError	-11.4003
pbf	-11.4003
▁grill	-11.4003
▁worth	-11.4003
▁chores	-11.4003
▁sip	-11.4003
▁snap	-11.4003
fallback	-11.4003
▁crystal	-11.4003
▁junk	-11.4003
▁regret	-11.4003
▁guide	-11.4003
MIN	-11.4003
filter	-11.4003
▁Kate	-11.4003
sequence	-11.4003
▁Python	-11.4003
▁mention	-11.4003
▁neighborhood	-11.4003
▁history	-11.4003
▁truth	-11.4003
▁fearful	-11.4003
▁squeak	-11.4003
▁slippery	-11.4003
▁Bettie	-11.4004
▁bookcase	-11.4004
▁pause	-11.4004
▁rake	-11.4004
prop	-11.4004
▁plu	-11.4005
▁siren	-11.4005
▁passport	-11.4005
▁math	-11.4005
▁shopkeeper	-11.4005
▁vow	-11.4005
parse	-11.4005
entry	-11.4005
erbNetRawLayout	-11.4005
▁broccoli	-11.4005
▁Diana	-11.4006
WordNetRawLayout	-11.4006
section	-11.4006
▁restless	-11.4006
TR	-11.4006
▁dried	-11.4006
AL	-11.4008
▁tug	-11.4009
▁ceiling	-11.4009
▁chirping	-11.401
▁pin	-11.4011
fmt	-11.4012
▁startled	-11.4012
bbled	-11.4012
▁bravery	-11.4013
▁mag	-11.4013
include	-11.4016
▁focused	-11.4019
▁herbs	-11.4019
▁sewing	-11.4019
▁drew	-11.4021
CL	-11.4023
▁char	-11.4024
œDon	-11.4027
▁[])	-11.403
▁fought	-11.403
▁List	-11.4032
forced	-11.4038
gb	-11.404
▁meat	-11.4044
▁setting	-11.4045
▁died	-11.4047
']}	-11.4049
RA	-11.405
▁exact	-11.405
▁buyer	-11.4052
▁dest	-11.4055
right	-11.4058
▁brighter	-11.4061
▁eaten	-11.4066
▁shouting	-11.4066
▁sticky	-11.4069
▁fastest	-11.4073
▁sir	-11.4088
output	-11.41
▁wand	-11.4101
▁mixing	-11.4103
▁spreading	-11.4107
Sh	-11.4111
▁myself	-11.4113
SC	-11.4126
▁bother	-11.4131
▁die	-11.4165
▁shower	-11.4189
ade	-11.4317
bank	-11.4354
mode	-11.4516
ker	-11.4571
ID	-11.4729
ully	-11.4794
}"	-11.4932
iter	-11.4944
▁snuggl	-11.495
site	-11.5052
▁bare	-11.5139
ith	-11.5163
▁twinkl	-11.5214
▁Dr	-11.5322
▁dump	-11.5334
enny	-11.5343
dataset	-11.5377
category	-11.5453
push	-11.5463
language	-11.5465
though	-11.5474
Mama	-11.5475
mum	-11.5476
while	-11.5477
John	-11.5477
Jack	-11.5478
what	-11.5478
you	-11.5479
Anna	-11.5479
raise	-11.5484
house	-11.5488
check	-11.5488
place	-11.5493
let	-11.5536
rel	-11.5604
œThe	-11.5646
▁pat	-11.5663
udge	-11.5751
ntil	-11.5803
Ha	-11.5854
▁Ki	-11.5858
▁synset	-11.5886
Dad	-11.5919
▁celebrat	-11.594
▁kid	-11.5943
▁determin	-11.5949
urious	-11.5955
ough	-11.5962
▁receive	-11.5963
antly	-11.5964
prov	-11.5982
▁driv	-11.5989
▁moo	-11.5998
ication	-11.6001
qui	-11.6001
njoy	-11.6002
▁flash	-11.6003
▁suppo	-11.6003
▁reverse	-11.6003
▁pirate	-11.6003
Ladybug	-11.6003
RELATIONS	-11.6003
Session	-11.6003
element	-11.6003
hyponyms	-11.6003
onicalizeResult	-11.6003
possible	-11.6003
▁Aja	-11.6003
▁Exception	-11.6003
▁Jessica	-11.6003
▁Jonathan	-11.6003
▁Joni	-11.6003
▁LAY	-11.6003
▁Lacy	-11.6003
▁Marsha	-11.6003
▁Marty	-11.6003
▁Millie	-11.6003
▁Moral	-11.6003
▁Mouse	-11.6003
▁OSM	-11.6003
▁Paul	-11.6003
▁Rebecca	-11.6003
▁Sailboat	-11.6003
▁Shape	-11.6003
▁Snuggles	-11.6003
▁Spike	-11.6003
▁Whiskers	-11.6003
▁activities	-11.6003
▁apron	-11.6003
▁baseball	-11.6003
▁billboard	-11.6003
▁bleed	-11.6003
▁blood	-11.6003
▁bumpy	-11.6003
▁camping	-11.6003
▁cauliflower	-11.6003
▁cautious	-11.6003
▁cheating	-11.6003
▁confident	-11.6003
▁crosses	-11.6003
▁cuddle	-11.6003
▁delay	-11.6003
▁earthlings	-11.6003
▁fabric	-11.6003
▁families	-11.6003
▁further	-11.6003
▁grandmother	-11.6003
▁hesitated	-11.6003
▁inviting	-11.6003
▁laser	-11.6003
▁lips	-11.6003
▁method	-11.6003
▁mister	-11.6003
▁mixture	-11.6003
▁ostrich	-11.6003
▁pajamas	-11.6003
▁perfume	-11.6003
▁properly	-11.6003
▁quarrel	-11.6003
▁raccoon	-11.6003
▁repeating	-11.6003
▁sauce	-11.6003
▁strawberries	-11.6003
▁strength	-11.6003
▁strike	-11.6003
▁thrilled	-11.6003
▁vacation	-11.6003
Print	-11.6003
currency	-11.6003
prime	-11.6003
standards	-11.6003
▁control	-11.6003
▁design	-11.6003
▁obey	-11.6003
▁swoop	-11.6003
▁tuna	-11.6003
▁yacht	-11.6003
Behave	-11.6003
TreeNode	-11.6003
valid	-11.6003
▁JSON	-11.6003
▁brain	-11.6003
▁provide	-11.6003
▁purr	-11.6003
▁grinned	-11.6003
▁badge	-11.6003
ava	-11.6003
struction	-11.6003
▁deal	-11.6003
▁pants	-11.6003
▁Dolly	-11.6003
▁worse	-11.6003
quer	-11.6003
status	-11.6003
▁OsmGbRawLayout	-11.6003
▁sale	-11.6003
▁mailbox	-11.6003
▁center	-11.6003
▁peck	-11.6003
▁divide	-11.6003
wikidata	-11.6003
liza	-11.6003
▁Toby	-11.6004
▁vroom	-11.6004
▁Ka	-11.6004
static	-11.6004
▁blackboard	-11.6004
▁scurr	-11.6004
eered	-11.6004
src	-11.6004
▁jail	-11.6004
▁zookeeper	-11.6004
▁hopeful	-11.6004
▁repair	-11.6004
▁alright	-11.6004
▁flapp	-11.6004
▁copy	-11.6004
RL	-11.6005
cache	-11.6005
▁sneezing	-11.6005
▁club	-11.6005
ACT	-11.6005
▁prev	-11.6005
appy	-11.6005
▁van	-11.6007
▁toilet	-11.6007
msi	-11.6007
update	-11.6007
▁clu	-11.6008
Remember	-11.6009
▁mug	-11.6009
▁pill	-11.601
ovel	-11.601
NE	-11.6011
▁completely	-11.6012
Ready	-11.6012
▁anywhere	-11.6013
▁regions	-11.6013
▁pearl	-11.6014
states	-11.6014
▁prayer	-11.6015
api	-11.6018
payload	-11.6019
whitespace	-11.6021
▁prove	-11.6023
œHi	-11.6025
▁cou	-11.6026
CH	-11.6028
wb	-11.6033
context	-11.6038
▁vn	-11.6046
dam	-11.6047
œHello	-11.6048
▁discovery	-11.6058
▁dresses	-11.6061
▁catcher	-11.6081
▁art	-11.6087
filename	-11.6092
nna	-11.6124
neg	-11.6129
chan	-11.618
▁exte	-11.6257
▁prepar	-11.6274
aster	-11.6299
TOK	-11.6313
▁complet	-11.6491
▁penn	-11.6814
ition	-11.6995
over	-11.7464
▁slot	-11.7713
▁collection	-11.78
source	-11.7951
fetch	-11.7954
download	-11.7956
description	-11.7956
j	-11.7958
scratch	-11.796
seek	-11.796
Brown	-11.7962
stream	-11.7964
drop	-11.7964
split	-11.7964
meta	-11.7966
print	-11.7967
case	-11.797
const	-11.797
face	-11.7976
great	-11.7978
left	-11.7978
Timmy	-11.7979
but	-11.7987
ipping	-11.8195
immer	-11.8255
▁shadow	-11.8388
▁chicken	-11.8389
digit	-11.8434
▁whisper	-11.8448
▁disappear	-11.8449
▁appear	-11.8449
▁stretch	-11.8451
eak	-11.8454
▁practice	-11.8463
▁apologize	-11.8464
▁scare	-11.8466
▁sew	-11.8479
▁lexic	-11.8497
▁freeze	-11.8498
uct	-11.8499
Whe	-11.8499
▁Dian	-11.85
▁grand	-11.8502
hood	-11.8502
ealthy	-11.8503
pkg	-11.8503
▁tempfile	-11.8503
unwrap	-11.8503
adjective	-11.8503
aze	-11.8503
similar	-11.8503
ALLOWED	-11.8503
DATASETS	-11.8503
NAME	-11.8503
NTRIES	-11.8503
Piece	-11.8503
Return	-11.8503
antonyms	-11.8503
artwork	-11.8503
capital	-11.8503
cultural	-11.8503
lassName	-11.8503
pertainyms	-11.8503
provinces	-11.8503
trim	-11.8503
ugga	-11.8503
university	-11.8503
▁Animal	-11.8503
▁Circle	-11.8503
▁DatasetSpec	-11.8503
▁Harvey	-11.8503
▁Kira	-11.8503
▁LAYERS	-11.8503
▁Mandy	-11.8503
▁automobile	-11.8503
▁available	-11.8503
▁bamboo	-11.8503
▁bouncy	-11.8503
▁cacti	-11.8503
▁canonicalizable	-11.8503
▁cashier	-11.8503
▁chalk	-11.8503
▁character	-11.8503
▁cherish	-11.8503
▁claws	-11.8503
▁comfy	-11.8503
▁crocodile	-11.8503
▁crunchy	-11.8503
▁damaged	-11.8503
▁directions	-11.8503
▁easier	-11.8503
▁enthusiasm	-11.8503
▁fascinated	-11.8503
▁filthy	-11.8503
▁firefighter	-11.8503
▁groceries	-11.8503
▁guilty	-11.8503
▁hesitant	-11.8503
▁human	-11.8503
▁humm	-11.8503
▁husband	-11.8503
▁instruments	-11.8503
▁journal	-11.8503
▁kingdom	-11.8503
▁lettuce	-11.8503
▁lifeguard	-11.8503
▁luggage	-11.8503
▁occasion	-11.8503
▁outdoors	-11.8503
▁paintbrush	-11.8503
▁particular	-11.8503
▁piano	-11.8503
▁polar	-11.8503
▁principal	-11.8503
▁rebuild	-11.8503
▁refreshed	-11.8503
▁remove	-11.8503
▁repeated	-11.8503
▁ripe	-11.8503
▁rubbish	-11.8503
▁safari	-11.8503
▁shrink	-11.8503
▁simple	-11.8503
▁skirt	-11.8503
▁snowflake	-11.8503
▁steady	-11.8503
▁steep	-11.8503
▁sweep	-11.8503
▁television	-11.8503
▁temple	-11.8503
▁tomatoes	-11.8503
▁upstairs	-11.8503
▁velvet	-11.8503
▁victory	-11.8503
▁waist	-11.8503
Festival	-11.8503
Range	-11.8503
esterday	-11.8503
tinct	-11.8503
ttribute	-11.8503
▁Paw	-11.8503
▁Ryan	-11.8503
▁backpack	-11.8503
▁bundle	-11.8503
▁chef	-11.8503
▁decision	-11.8503
▁harmonic	-11.8503
▁material	-11.8503
▁mismatch	-11.8503
▁pastries	-11.8503
▁porch	-11.8503
▁sniff	-11.8503
World	-11.8503
freq	-11.8503
latest	-11.8503
numeric	-11.8503
▁birdcage	-11.8503
▁digging	-11.8503
▁dragonfly	-11.8503
▁goodnight	-11.8503
▁peel	-11.8503
▁secur	-11.8503
▁slice	-11.8503
▁sovereign	-11.8503
▁spring	-11.8503
▁unsure	-11.8503
▁useState	-11.8503
▁merry	-11.8503
ntell	-11.8503
▁Milly	-11.8503
▁Tony	-11.8503
▁memory	-11.8503
▁winner	-11.8503
}/{	-11.8503
▁belts	-11.8503
▁creek	-11.8503
▁forehead	-11.8503
▁directory	-11.8503
▁zipped	-11.8503
▁paddle	-11.8503
▁GEO	-11.8503
▁indeed	-11.8503
ragged	-11.8503
nteger	-11.8503
▁Judy	-11.8503
▁lazi	-11.8503
▁mash	-11.8503
▁suitcase	-11.8503
▁weep	-11.8503
▁winning	-11.8503
println	-11.8503
▁wallet	-11.8503
nfortunately	-11.8503
▁onSave	-11.8503
▁Any	-11.8503
failed	-11.8503
▁Sophie	-11.8503
▁chillies	-11.8504
▁babysitter	-11.8504
▁puff	-11.8504
▁Ruth	-11.8504
▁eight	-11.8504
istance	-11.8504
britain	-11.8504
▁tune	-11.8504
▁stole	-11.8504
▁sheep	-11.8504
subregion	-11.8504
▁Licen	-11.8504
▁wagon	-11.8504
▁Graceful	-11.8504
▁{}).	-11.8505
▁greet	-11.8505
uctor	-11.8505
centre	-11.8505
▁bcd	-11.8506
▁company	-11.8506
▁checkout	-11.8506
install	-11.8506
▁scooter	-11.8506
▁rug	-11.8506
▁Cha	-11.8507
▁Ali	-11.8508
GE	-11.8508
▁million	-11.8509
▁icing	-11.8509
ector	-11.851
▁chill	-11.851
▁peaches	-11.851
ence	-11.851
▁ranger	-11.8512
▁seller	-11.8513
uth	-11.8515
▁mid	-11.8515
LT	-11.8516
loss	-11.8517
format	-11.8519
▁thicker	-11.8519
▁chu	-11.852
DE	-11.8576
usage	-11.8605
▁mini	-11.8617
apping	-11.8618
▁dive	-11.8656
Only	-11.8663
verrid	-11.8712
boo	-11.8872
œTh	-11.888
▁cobweb	-11.905
unit	-11.9989
▁toward	-12.0199
put	-12.0474
ride	-12.1047
▁enti	-12.1055
▁serve	-12.1249
parity	-12.1289
collect	-12.1291
Next	-12.1293
target	-12.1295
Today	-12.1296
Mummy	-12.1304
bench	-12.1307
believe	-12.1309
Path	-12.131
number	-12.1311
first	-12.1312
looking	-12.1313
Mia	-12.1313
even	-12.1314
berries	-12.1315
eeped	-12.1432
derive	-12.1544
dventurous	-12.1601
▁curtain	-12.1722
▁failure	-12.1722
▁ribbon	-12.1724
▁imagin	-12.1773
▁shock	-12.1781
avy	-12.1784
▁deci	-12.1786
arefully	-12.1788
▁includ	-12.1808
▁boss	-12.1829
▁scoote	-12.1831
▁Option	-12.1833
stles	-12.1833
▁flap	-12.1834
uff	-12.1834
urtle	-12.1834
▁depend	-12.1835
sitter	-12.1835
▁squea	-12.1835
rectly	-12.1835
ocab	-12.1836
uzzl	-12.1836
rinkle	-12.1836
environ	-12.1836
lish	-12.1836
pacity	-12.1836
▁datetime	-12.1836
quar	-12.1836
▁serde	-12.1836
continent	-12.1836
▁limp	-12.1836
Bigram	-12.1836
Deserialize	-12.1836
ECT	-12.1836
Father	-12.1836
Index	-12.1836
ODbL	-12.1836
REGION	-12.1836
Ribbit	-12.1836
entailments	-12.1836
entangled	-12.1836
gnif	-12.1836
hypernyms	-12.1836
identical	-12.1836
ivate	-12.1836
jazz	-12.1836
ollocationFinder	-12.1836
prefix	-12.1836
rotocol	-12.1836
ynonyms	-12.1836
▁Counter	-12.1836
▁DBF	-12.1836
▁Excited	-12.1836
▁Flakes	-12.1836
▁Ghost	-12.1836
▁Joy	-12.1836
▁TokeniserCheck	-12.1836
▁afford	-12.1836
▁argument	-12.1836
▁balancing	-12.1836
▁bathrobes	-12.1836
▁behavio	-12.1836
▁boast	-12.1836
▁burger	-12.1836
▁celery	-12.1836
▁chuckled	-12.1836
▁congratulate	-12.1836
▁decrease	-12.1836
▁dictionary	-12.1836
▁disobey	-12.1836
▁dizzy	-12.1836
▁drift	-12.1836
▁effort	-12.1836
▁envelope	-12.1836
▁equa	-12.1836
▁everyday	-12.1836
▁exhausted	-12.1836
▁extinguishe	-12.1836
▁fascinating	-12.1836
▁firmly	-12.1836
▁flipped	-12.1836
▁glee	-12.1836
▁harbor	-12.1836
▁hedgehog	-12.1836
▁hopscotch	-12.1836
▁horizon	-12.1836
▁hundred	-12.1836
▁inherit	-12.1836
▁lambda	-12.1836
▁loving	-12.1836
▁lumberjack	-12.1836
▁massage	-12.1836
▁napkin	-12.1836
▁pixie	-12.1836
▁pleasure	-12.1836
▁precision	-12.1836
▁predators	-12.1836
▁reference	-12.1836
▁refreshing	-12.1836
⟨	-13.6835
z	-13.6836
